#version: 0.2
ന ്
ക ്
ത ്
ക് ക
ന് ന
ല ്
് ട
ത ി
ു ം</w>
പ ്
ങ ്
മ ാ
ര ്
യ ി
ി ക്ക
ു ന്ന
ങ് ങ
ച ്
സ ്
ത് ത
വ ി
ട ്ട
യ ാ
ച് ച
ള ്
ണ ്ട
പ് പ
ന ി
ത് തി
ണ ്</w>
ല് ‍</w>
ത ്</w>
് യ
പ് ര
റ ്
ര് ‍
റ് റ
ര ി
ു ക
ു ട
ര ാ
ല് ല</w>
ുന്ന ു</w>
െ യ
ക ാ
ി ച്ച
ത ാ
യ ി</w>
ല ാ
ന് ‍</w>
ദ ്
വ ാ
മ ു
ി യ
ട ു
ഞ ്
ന ാ
ക് ഷ
റ െ</w>
ത് ര
യി ര
എ ന്ന
ള് ‍</w>
ുട െ</w>
മ ്
ര ു
ണ ്
ങ്ങ ള
സ ി
് ര
സ ്</w>
അ വ
ണ്ട ്</w>
ക്ക ാ
ര ു</w>
ക്ക ്</w>
ക ു
സ ം
ച െയ
ി ക
ി ല്ല</w>
ഞ് ഞ
ര് ‍</w>
ര ിക്ക
ി ല
ു ള്
െ ന്ന
പ ോ
ാ ന
ന് ന</w>
റ ി
യ ും</w>
പ ി
ണ ം</w>
പ്പ െ
പ ാ
ല് ല
വ േ
സ ാ
ന് ‍
ോ ട
വ ര
സ് ഥ
യാ ണ്</w>
യിര ുന്നു</w>
ന് റെ</w>
ത് യ
ദ േ
ഒ രു</w>
ന് ത
പ റ
ന െ</w>
ങ് ക
േ ാ
പ ു
ങ്ങ ൾ</w>
ണ്ട ാ
മ ി
വ ും</w>
ന ്</w>
ചെയ ്
ന ട
എന്ന ാ
ക്ക ു
ുള് ള</w>
ന േ
ല് ‍
മാ ണ്</w>
ര് യ
മാ യി</w>
ല ി
ു ണ്ട്</w>
ഇ ന്
ല് ലാ
യ ്
ല ീ
ുന്ന ത്</w>
വ ീ
ള ി
ത ി</w>
ക ൂ
വ െ
മ് മ
ത ു</w>
ച ി
പ േ
ശ ്
സ് ‌
ിച്ച ു</w>
െ ടു
ാ ൻ</w>
യി ല്‍</w>
മാ യ</w>
ത ു
ല െ</w>
ന്ന ്</w>
ബ ി
ര െ</w>
ന ു
ന ം</w>
ാ ണ്</w>
ര ം</w>
ട ി
ങ്ങ ള്‍</w>
ക േ
ത ുട
അ തി
ി ട്ട
സ് റ്റ
രി ച്ച
ഭ ാ
ം ഗ
ക്ക ും</w>
ാ ന്‍</w>
ന് ധ
ക ോ
ക ൊ
ന്ന ു</w>
ട െ</w>
ോ ഗ
ത െ
മ ന്
ത്തി ല്‍</w>
ക ള
ന്‍ റെ</w>
ത് ‌</w>
പ്പ ോ
യ ുടെ</w>
യ ു
ത ന്ന
രാ ജ
ഷ ്ട
ചെയ ്യ
െന്ന ്</w>
ി ല്‍</w>
ഗ ്ര
ഇ ത്</w>
ഹ ാ
ള് ‍
ത്ത െ</w>
ഴ ി
ഇന് ത്യ
ോ ദ
പ രി
െയ ും</w>
ത ീ
ര ണ
പ്ര തി
ദ് ധ
യ ം</w>
ല ും</w>
പറ ഞ്ഞ
ദേ ശ
പ ൊ
സ ു
യി ൽ</w>
മ ൂ
ദ ി
ത്തി ൽ</w>
ള് ള
ന്ന ും</w>
അ ത്</w>
ബ ാ
ലീ സ്</w>
ആ ര
േ ഷ
വ ര്‍
ുക ള
ഇ തി
ക്ക ു</w>
ത്ത ്</w>
ച് ച</w>
ിക്ക ു
മ് പ
താ ണ്</w>
ങ്ങ നെ</w>
ി ൽ</w>
ത്ര ി</w>
ണ് ‌</w>
ഭ വ
് ‌
ഹ ം</w>
പ്പെ ട്ട
വ ്യ
പ ക്ഷ
ട ി</w>
പ ി</w>
ക്ക ി
ശ ്ര
ത് രി
ുള് ള
ന ിക്ക
ത്ത ി</w>
ശ ു
ച്ച ു</w>
ണ് ‍
മ െ
പ െ
വ ർ
അ ത
ജ ീ
ധ ാന
എ ന്
ന ും</w>
ി ര
സ മ
കാ ര്യ
മന് ത്രി</w>
ല ോ
പ്പെ ട
ിച്ച ്</w>
റ്റ ്</w>
ദ് ദേ
തന്ന െ</w>
മ േ
ന് ദ്
ില ും</w>
ത് ത</w>
എന്നാ ല്‍</w>
ക ര
ന െ
എന്നാ ൽ</w>
ഡ ്</w>
യി ട്ട
ല േ
ബ ന്ധ
വ ു
യി ല്ല</w>
ക് ര
ിക ള
എ ന്ത
വ ശ
ധ ്യ
അ ദ്ദേ
് യാ
ജ െ
ധ ാ
യിര ിക്ക
നി യ
പ്പ ്</w>
ദ ്യ
റ ു
പറഞ്ഞ ു</w>
ലാ ണ്</w>
പ ൂ
സ് വ
ൊ രു</w>
തി ര
വ ്</w>
പി ന്ന
ക ോട
ി പ്പ
സം ഭവ
ക് ത
ുന്ന ില്ല</w>
ുക യും</w>
ന ു</w>
ക ി
ുക ൊ
കു റ
ന ീ
ണ ി
സ്ഥ ാന
ക്ക ി</w>
ഉ ണ്ടാ
അ റി
ക ട
ജ ി
പ്പെ ടു
ചി ത്ര
വ ള
ി രിക്ക
ഞ് ച
ഹ ി
കു ട്ട
പ ര
ന് ദ
ത്ത ു
ത്ത ു</w>
റ ാ
ബി ജെ
അ നു
ന മ്മ
നി ര
എ ല്ലാ
വി ടെ</w>
ത്തി ന്റെ</w>
ിക്ക ാ
ട്ട ്</w>
യ െ</w>
ക്കു ക</w>
വശ ്യ
മ ില്ല</w>
നി ല
പ്ര ധാന
ുന്ന തി
എ നിക്ക
ട ്</w>
ത്ത ാ
ഡ ി
ൈ വ
ര ൂ
ുക ൾ</w>
യാ യിരുന്നു</w>
ങ്ങള ുടെ</w>
ഞ ാൻ</w>
വര െ</w>
കാ ണ
ശ േഷ
ന് റ
യ ഹ
ഉ പ
സ ര്‍
മാ ത്ര
പ്ര ാ
വ സ
പറ യ
ത്തി ന്</w>
കാ ര
ങ്ങള ും</w>
ല ഭ
ിയ ും</w>
യ ോഗ
ക ഴ
മ ീ
മ റ്റ
ുക യാണ്</w>
ദ ാ
ചെയ് തു</w>
ജ ന
ഞ്ഞ െടു
ഞ ാന്‍</w>
അ ന്
െ ങ്ക
് ‌</w>
രാജ ്യ
പു റ
ട്ട ി
ര േ
മു ഖ
ുക ള്‍</w>
അദ്ദേ ഹം</w>
ം ബ
ക ൾ</w>
ന്ന ാ
മ ോ
ആ വശ്യ
ത് യ</w>
വേ ഷ
എന്ന ി
േ ണ്ട
ഇ ത
ക ണ്ട
െന്ന ും</w>
ഭ ി
പക്ഷ േ</w>
ന ോ
െ യാണ്</w>
ക ഴി
ന ല്‍
ദ ൈവ
ച േ
ര ും</w>
ര ക്ഷ
അ റ
ഗ ാ
സ്ഥ ാ
ര ണ്ട
പോ ലീസ്</w>
മാ ന
ു വ
ത െ</w>
ബ ി</w>
ധ ി</w>
ഏ റ്റ
ള് ള</w>
യ േ
റ ി</w>
ഷ ്യ
ങ്ങ ൾ
ഗ ്
ശു പ
വി ട
രിച്ച ു</w>
ു ന്ന</w>
ച ോദ
ആ ശുപ
ത് സ
മ ല്ല</w>
മാ റ്റ
ഗ ു
ോട െ</w>
ീ ക
ട ്ര
അ ധ
ത ക
ച െ
വ ൈ
സ െ
യ ൂ
ക്ക ള
യി ലെ</w>
ിക്ക ുന്ന
വര ും</w>
രാ ഷ്ട
മ ോദ
ടു ത
ലി യ</w>
ന ൽ
ക ുട
സ ഹാ
കോ ണ്‍
യി ല
ഭാ ഗ
ങ്ങ ി
് ട</w>
ിയ ുടെ</w>
ോ ധ
യഹ ോ
ര ി</w>
പൊ ലീസ്</w>
കൂ ടുത
നി ര്‍
ത് ര</w>
സ ി</w>
നി ന്ന്</w>
ിക്ക ുന്നു</w>
ആശുപ ത്രി
കോണ്‍ ഗ്ര
ണ് ണ
ക ും</w>
ള ം</w>
സര്‍ ക്കാ
ബ ്
ന്ദ് ര</w>
ക്ക െ
ല്ല ാ</w>
ഇന് ത്യ</w>
ില െ</w>
അവ ർ</w>
ല ക്ഷ
അ ഭി
വ ി</w>
വി ജ
ച ാ
ിര ുന്നു</w>
ല ം</w>
തി രെ</w>
വ ലിയ</w>
ക്ര മ
മ ന
വി ശ്
അന് വേഷ
ുക യായിരുന്നു</w>
ന്ന ു
ത ോ
സി നി
ിക്ക ും</w>
ഴ ്
ത ം</w>
ന് മാ
പ്ര ശ്
എ ങ്ങനെ</w>
വി ദ്
ശ ി
േ റ്റ
രാ ണ്</w>
ൊ ന്നും</w>
യ ത്</w>
നാ യി</w>
ജ ്
നിയ മ
ള്‍ ക്ക്</w>
ിട്ട ുണ്ട്</w>
ുക ാ
്യ ം</w>
റ ോ
ല്ലാ ം</w>
ശ ാ
ബിജെ പി</w>
ഉ ത്ത
ിക്കു ക</w>
നി ർ
വേ ണ്ട
ഇ ട
സ ീ
ര ണ്ട്</w>
ന് ‌</w>
സ്റ്റ ്</w>
ജീ വി
സ ഹ
ക ള്‍</w>
ട ാ
ദ ു
ര ുടെ</w>
ക്കാ ൻ</w>
ത് ഥ
മ െന്ന്</w>
ന ി</w>
പ്രധാന മന്ത്രി</w>
അ ട
ജ ാ
മാ ണ
ഹ ു
0 0</w>
ജീ വ
സ ൂ
ത്തി ല
വിദ് യാ
മാ യിരുന്നു</w>
പ്പ ി
ര ീ
ക്ക ുന്നു</w>
ഒ രു
ന മു
എന് താണ്</w>
സ് ത്ര
രാഷ്ട ്ര
വള രെ</w>
ഞ്ഞ ു</w>
ഴ ു
സ ം</w>
വെ ള്ള
ചെയ് യാ
സ ർ
ദി വസ
ക െ
അറി യി
പ രിക്ക
ക ൃ
ൊ ക്ക
ു ക</w>
ക് രി
ണ് ട</w>
ഏറ്റ വും</w>
ലോ ക
മുഖ ്യ
തുട ര്‍
ശേഷ ം</w>
വാ ഹ
ക്ക ുന്ന
എനിക്ക ്</w>
അ ടു
യാ ണ
യ ോ
ങ്ങ ി</w>
വ ധി</w>
പ ഠ
സ ഭ
ബ ൈ
പു തി
സ േ
ല ി</w>
ഇ തു
ളി ല്‍</w>
ിട്ട ില്ല</w>
ന്ദ് ര
നാ ണ്</w>
വ രു
ഫ ോ
യ് ക്ക്</w>
നട പ
്യാ പ
ത് വ
ശ്ര മ
വി വര
പി ട
ങ്ങള െ</w>
പ്പെട്ട ു</w>
ത ല
റ്റ ി
ന ുള്ള</w>
അ തു</w>
പരി ശ
ഇ വിടെ</w>
രൂ പ
പ്പ ാ
ഷ േ
മു ണ്ട്</w>
ട്ട ി</w>
എ സ്</w>
ട ീ
ഗാ ന്ധ
ജ െ</w>
ക െ</w>
ുകൊ ണ്ട്</w>
ിക്കു ന്ന</w>
ു ണ്ടാ
വ്യ ക്ത
ിക്ക ്</w>
ളി ൽ</w>
ോട ്</w>
ിയ ത്</w>
സം ഘ
ത്ത െ
ബ ോ
ില േ
പ്പോ ഴ
തെ ര
ബ ു
നമ്മ ുടെ</w>
ക് ഷ</w>
അ പ
നേ താ
ക് ‌
ക ്</w>
പിന്ന ീ
ന ല്ല</w>
എ ല്ലാ</w>
ലേ ക്ക്</w>
ച്ച ്</w>
യ് ‌
ഫ ്</w>
പുതി യ</w>
കുട ു
ജ ോ
ം ഭ
നാ ം</w>
മന് ത്രി
ത ര
് യ</w>
ത്തി ലെ</w>
ത ും</w>
ക ര്‍
വ ര്‍</w>
മ െന്ന
പ്പ ം</w>
ഞ് ഞ</w>
എന്ന ്</w>
ത്തി ന്‍റെ</w>
ഹ ൃ
പ രാ
ല ു
മ ുന്ന
ിക ള്‍</w>
നി ങ്ങൾ</w>
ിക്ക ാൻ</w>
ദ ്</w>
ങ്ങള ില്‍</w>
ക്ക ം</w>
അ ങ്ങനെ</w>
മ ത്സ
ര ോഗ
യഹോ വ
മു ള്ള</w>
യ െ
ത്ത ും</w>
തീ രു
ക ൈ
ണ് ‍</w>
ച ില
ോ ഗ
ിച്ച ത്</w>
ഭ ൂ
പ്ര വര്‍
ക്കു ന്ന</w>
ഉ റ
പ്ര ദേശ
ന രേ
വി ട്ട
സ ൈ
എ ന്ന</w>
തിര ഞ്ഞെടു
ന്റ ്</w>
വി ഷ
ിക ൾ</w>
അവ ര്‍</w>
ഷേ ധ
ര് യ</w>
യാ യി</w>
ക രു
അവ ൻ</w>
വി ധ
താ യി</w>
ോ ഷ
പ ങ്ക
ക്കു റ
യിട്ട ുണ്ട്</w>
ആ ത്
സിനി മ
തി രിച്ച
മ ോ</w>
ത് യാ
ആ ദ്യ
ഉ ട
പ ല
മു ണ്ടാ
സം ഗ
വേ ശ
ിക്ക ുന്നത്</w>
പ്ര ത്യ
ആ ള
യാ ള
നിര വധി</w>
വ ഴ
യാ യ</w>
ണ ാ
ഇന്ത്യ ന്‍</w>
ർ ഥ
തെര ഞ്ഞെടു
ഞ ാന
ിയ െ</w>
രണ്ട ു</w>
ീ യ</w>
ക് തി
ഇ രു
സ്ഥ ല
ലീ സി
രാ ഹു
ര്‍ ക്ക്</w>
കാ രണ
വി ല
സ് വാ
സ ോ
മ നു
സ് ‌</w>
നി ന്ന
ആ ണ്</w>
കാ ല
നി ന്നും</w>
ത ൃ
ുള്ള ത്</w>
യിട്ട ില്ല</w>
ഉ യ
ൊക്ക െ</w>
സാ ധ
മോദ ി</w>
മാ നം</w>
ങ്ങള ിൽ</w>
എ ന്റെ</w>
ു ണ്ട
ട െ
ചി ല</w>
സ് സി
ുകള ും</w>
നല്‍ ക
ക്കാ ം</w>
ഡ ിയ
സം സ്ഥാന
ര്യ ം</w>
സ ൗ
കോണ്‍ഗ്ര സ്</w>
പ്പെട ്ട</w>
ഡ ി</w>
ച ിക
ന് തി
സ ത്യ
െങ്ക ിലും</w>
ഉപ യോഗ
പാ ട
സര്‍ക്കാ ര്‍</w>
ഗ ോ
പാ ര്‍
ഴ ്‌
യ ോ</w>
നി റ
ക് ട
മ് പോ
നട ത്തി
പറയ ുന്നു</w>
മാ ണ്‌</w>
കോട തി</w>
മ ിക
പ്പോ ൾ</w>
പിന്നീ ട്</w>
ുട െയും</w>
ദ ീ
റി പ്പോ
ത ട
ഒ ന്നും</w>
ംഗ ്</w>
പ്ര വർ
സാ ധ്യ
ഗ്ര ഹ
വീ ട്ട
വി ള
കള ും</w>
ധ ി
ഥ ാ
റ െ
ത ൊ
കാര ണം</w>
എന്ത ു</w>
െടു ത്തു</w>
പ്ര വേശ
കൂ ട്ട
വാ ദ
എന്ന ു</w>
പ്രത്യ േ
ച ു
പ്രശ് ‌
ക ം</w>
ുന്ന ത്‌</w>
മ ൊ
യി ച്ച
യാ ണ്‌</w>
എ ടു
വ യ
മൂ ന്ന്</w>
മ ര
ചിക ി
കൊ ണ്ട
നൽ ക
സാ ഹ
പ്പോ ള്‍</w>
അപ കട
അ ംഗ
ഭ ക്ഷ
ാ ം</w>
പക്ഷ െ</w>
വ രി
സർ ക്കാ
ക്കാ ന്‍</w>
മ റ
നി ന്നു</w>
ആര ോഗ
യി ലാണ്</w>
തുടര്‍ ന്ന്</w>
െ ത്തി
കുടു ംബ
റ് റ്
ഹ ി</w>
സ ന്ത
എ ം</w>
പൂ ർ
ങ്ങൾ ക്ക്</w>
യിര ുന്നില്ല</w>
ങ ്</w>
ക്ക ൊ
കു മാ
സ ും</w>
ര ോ
ഇ ല്ല</w>
മ ി</w>
മ് മി
ക രിക്ക
ർ ക്ക്</w>
പ്രതി ഷേധ
ക്ക ുന്നത്</w>
ക് ക</w>
ഷ ്
യിരിക്ക ും</w>
യി ലാ
പരിശ ോധ
എല്ലാ ം</w>
മാത്ര ം</w>
പ്രവര്‍ ത്ത
ദ് യ</w>
ട ്
സം ബന്ധ
തുട ർ
ിക ം</w>
സ മ്മ
െ ാ
ര ണ്ടാ
അന്വേഷ ണം</w>
അ ടി
വ ർ</w>
മനു ഷ്യ
ൃ ത
ബിജെ പ
അ ങ്ങ
ട ിയ
യ ക
നി ങ്ങളുടെ</w>
ചെയ് ‌
ക്ഷ േ
ആര ംഭ
വീ ണ്ട
വ ന്ന
ചെയ് തി
ന ഷ്ട
ംഗ ്
ുകൊ ണ്ട
സഹാ യി
ര്‍ ശ
എ ത്തി
ി ല്ല
ബൈ ബി
ന് യ
സം ഭ
ത േ
ിക്ക ാന്‍</w>
വ്യക്ത മാ
വി ശ
പ്ര ീ
പ്ര സി
ത്ത േ
ത്ത രം</w>
ല്ല ോ</w>
ര്‍ ത്ഥ
യ ുള്ള</w>
സ്ഥ ി
പ്പോഴ ും</w>
റ് റ</w>
കോ ൺ
കുട്ട ികള
ഭാ ഷ
ജ ി</w>
അ വിടെ</w>
അ ധ്യ
രാ യ</w>
മുഖ്യ മന്ത്രി</w>
പി താ
ഉ ണ്ട്</w>
വ ൃ
കോട തി
ണ ു</w>
കാ രം</w>
റ ും</w>
ള ു
മ രിച്ചു</w>
ന് യൂ
പ ോ
ഭ ീ
നാ ല
സം സാ
ഡ ോ
ക് യാ
സമ യം</w>
വിശ് വാ
ന്ന ി
കേ സ
ക ർ
പ്പെടു ത്തി
അദ്ദേ ഹ
മ ല
ആ ദ്യ</w>
റ്റ ി</w>
മ ാ</w>
പ ീ
ചേ ർ
ഇതു വരെ</w>
ോ ട്ട
ധാ ന</w>
ൂ ടെ</w>
റ ിയ
താ ര
ജീവി ത
കൂടുത ൽ</w>
ശ ക്ത
മ ഹ
ന െയ
കാര്യ ം</w>
മാ യും</w>
2 0
ൾ ക്ക്</w>
മ ഹാ
തുട ങ്ങ
ഇ ക്കാ
സ് വീ
നമു ക്ക്</w>
എ ം
ആ ര്‍
നരേ ന്ദ്ര</w>
ത്തി നു</w>
കോൺ ഗ്ര
ീ യ
പ ണ
വീണ്ട ും</w>
കഴ ിയ
ക് ക്
കാ ശ
എന്ന െ</w>
ഉത്ത ര
മ െന്നും</w>
ന ന്ദ
അറ സ്റ്റ്</w>
പ ൗ
പ ല</w>
ഒ രാ
ആ ശ
സ്‌ നേ
ട ു</w>
ങ്ങ ള്‍
സ്ഥാ ന</w>
ച രി
യ ്</w>
ഡ ്
എന് താ
പറ യാ
ങ്ക ്</w>
മ രണ
പേ ര്‍</w>
ചെയ് ത
കേ ര
ആ രാ
െ ല്ലാം</w>
യി ലും</w>
ചിത്ര ം</w>
ല് യ
ഫ ്
ദ ൃ
ണ് ഡ
ക്ക േ
സം വി
മ രിച്ച
പോ ലെ</w>
ത വ
ങ്ങള ാ
ങ്ക ിലും</w>
ഗ് രാ
യ് യാ
പ്ര ധാന</w>
നേ രി
അറിയി ച്ചു</w>
ട്ട െ</w>
വെള്ള ം</w>
വ ന
ു മായി</w>
കൂടുത ല്‍</w>
ത മി
ഞ ങ്ങൾ</w>
ജ ്</w>
അവ സ
ല ൈ
യിര ുന്ന
ങ്ങ ള്‍ക്ക്</w>
ഗു രു
ിരിക്ക ുന്നു</w>
ദേശ ം</w>
െന്ന ു</w>
ശ്ര ദ്ധ
വി ക
രു ത്</w>
മിക ച്ച</w>
നട ത്ത
ഗാന്ധ ി</w>
ആശുപത്രി യില്‍</w>
െങ്ക ിൽ</w>
മന സ്സി
മ േ</w>
പ്പെടു ത്ത
ക്കെ തിരെ</w>
വേണ്ട ി</w>
ത്തി ലാണ്</w>
കള െ</w>
ക ിട്ട
എന്നി വ
ഇ ങ്ങനെ</w>
ിക്ക ുകയും</w>
പ്ര തീ
ഉ ള്ള
സ മാ
എ ഴു
അ ഞ്ച
ിക്ക ാന
വി ല</w>
ചേ ര്‍
ക്രി സ്‌
സീ റ്റ
റി യ</w>
പൂ ര്‍
പരിക്ക േറ്റ
അവ രെ</w>
ഹ ൈ
വ ്യാ
ക്ക ുകയും</w>
ക ണ
ല്ല േ</w>
പ്രസി ഡ
പോ യി</w>
ഹൃ ദ
ശ രി
വി ധ</w>
ന ീ</w>
ത ാ</w>
ക ുന്നു</w>
സമ യ
ന് ത്ര
ചെയ്യ ും</w>
പ്ര ഖ
നാ ട്ട
ഭ രണ
െയ ്
വി ച്ച
വ രാ
മു ട്ട
ഒ ഴി
ീക രിക്ക
റ്റ ാ
ർ ത്ത
ഷ ്‌
വു മായി</w>
ത ന്‍റെ</w>
വി വാ
പ്രവേശ ിപ്പ
പി ന്ത
അ മി
കോട ി</w>
സംഭവ ം</w>
വ ല
തുട ര
— ⁠</w>
ിലേ ക്ക്</w>
യ ു</w>
പ ്</w>
കു റ്റ
യു വ
പ തി
ങ്ങി യ</w>
കഴി ഞ്ഞ
എ സ്
സി ല്‍</w>
ഷ ്</w>
മു ംബ
നാ യ</w>
ആര ും</w>
അധ്യ ക്ഷ
ഷ ി
തന്ന െയാണ്</w>
ഞ ങ്ങള്‍</w>
സ്റ്റ ി
ര ോ</w>
ര ംഗ
മ റു
ന ാ</w>
ഗ ണ
ആ ഗ്രഹ
ഫ ല
ന്നാ യി</w>
കൂ ടി</w>
ആ ക്രമ
വേ ണം</w>
വ ്
2 0</w>
ർ ശ
ൂ ട
ര്‍ ഥ
പാ കി
കൊ ല്ല
കണ്ട െ
ക ീ
അ യ
പ്രശ്‌ ന
ഡ ല്‍
അ മേ
ച് ഛ
ക്ക ണം</w>
സാ ക്ഷ
ത്തി ലും</w>
ക രണ
ഫ ീ
പ്രഖ ്യാപ
അവ രുടെ</w>
അ ന
ീ ല
സ്വ ന്ത
വ്യ ക്തി
ബു ദ്ധ
പോ ലും</w>
പ ഞ്ച
ഷ ാ
കാ ര്യ</w>
ഒ രിക്ക
സു രക്ഷ
സു പ്രീ
ുന്ന ുണ്ട്</w>
നേ ര
ത്ര ം</w>
5 0</w>
ിക്ക ുന്നതി
വാഹ ന
യാ ത്ര
ഇ ഷ്ട
യഹോ വ</w>
ത് ത്‌</w>
ണി ത്</w>
വി ല്‍</w>
വാ ര്‍
മു ത
അധ ി
വ ഹ
ട ക
ക്ക ിയ
കേ ന്ദ്ര
എന് തി
അതി ന്</w>
സ ന്ദ
ണ ി</w>
ർ ത്ഥ
ഹി ന്ദ
ര്‍ ട്ട്</w>
നട ന്ന
തു റ
കൂ ട
െന്ന ാണ്</w>
സന്ത ോഷ
പേ ര
ട്ട ം</w>
ങ്ങള ാണ്</w>
ി ച്ച</w>
വി വിധ</w>
ച ൂ
ോട ു</w>
ിക്ക ണം</w>
ക്കുറ ിച്ച്</w>
സഭ ാ</w>
കൊ ല
മാ താ
ബ െ
പിന്ന െ</w>
ണ ോ</w>
ക്ക ുന്നതി
ഇന്ത്യ യുടെ</w>
1 9
സം സ്ഥാന</w>
വ ദ
കേ ന്ദ്ര</w>
സ് സ
വേ ദ
തോ ന്ന
തി ക
ബൈബി ൾ</w>
ത യ്യാ
യഹോവ യുടെ</w>
ക ല
ഇ റ
ഇ തു</w>
അ ല്ല</w>
അ ത്‌</w>
ീ ക്ഷ
ശ് മീ
രാഹു ല്‍</w>
ഇന്ത്യ ൻ</w>
ഹ ്
സാഹ ച
വര ുടെ</w>
മ ത
നടപ ട
ക് രിക്ക
അ മ്മ
സ് താ
പ്രവർ ത്ത
കൊ ടു
അവ ൾ</w>
1 0</w>
സ്ത്ര ീ
രൂ പ</w>
പ്പ ോ
പോ ക
ത്ത ര
മറു പ
അറി യാ
യി ലേക്ക്</w>
മ തി
പ്പ ിച്ച
തി രു
ട്ട ു</w>
എല്ലാ വരും</w>
ഇതി ന്</w>
നെ തിരെ</w>
തുട ങ്ങി</w>
ട്ട ുണ്ട്</w>
കര ണം</w>
ശ ു</w>
റി യാ
ന്ന ാണ്</w>
എ ങ്ങ
ഇതി ല്‍</w>
ര്‍ ച്ച
മ് മ</w>
പേ ക്ഷ
ന ഗ
ക്കാ ര
വ സ്
ആരോഗ ്യ
മേ ഖ
ബാ ധ
പു ര
എ ണ്
ന ന്നായി</w>
ധ ികം</w>
കു ന്ന</w>
സാ മ്പ
പ്രാ യ
പ റ്റ
പ രു
ക്കാ യി</w>
കേ സ്</w>
സർക്കാ ർ</w>
വ ം</w>
മത്സ ര
പ്രതീ ക്ഷ
പ്പ ു
എ ന്‍റെ</w>
സഹ ോദ
ഉ ദ്യ
ലഭ ്യ
പാ ല
ച ൈ
ക്ക ണ
േ യും</w>
സാമ്പ ത്തി
കഴ ിയും</w>
ക ന
സ് യ
പേ രെ</w>
താ മ
ണ െന്ന്</w>
ഡ ്ര
അടു ത്ത</w>
ട ങ്ങ
ത്തി നും</w>
എന് ത്</w>
ുക ൂ
ിച്ച ു
സ് ത
വ ു</w>
രേ ഖ
മു മ്പ
മാ ധ്യ
ന്നാ ം</w>
ത്തി ലാ
ല്ലാ തെ</w>
രി ല്‍</w>
ര ണ</w>
ഭ ്യ
പാ ർ
പ ദ്ധ
തെ ളി
ചെയ്യ ുക</w>
കൊ ണ്ട്</w>
ഏ റെ</w>
സമ ീ
വ ിക്ക
പി ടി
ചികി ത്സ
ള ി</w>
ലക്ഷ ം</w>
േ യ
സംസാ രിക്ക
ള െ</w>
ന ല്ല
അധ ിക
പിന്ത ു
നല്‍ കി
ചോദ ്യ
കു ഞ്ഞ
എന്ന ീ</w>
അനു വദ
അ ല്ല
ർ ച്ച
പങ്ക െടു
നി ല്‍
നാ ഥ
ക യ
ഓ രോ</w>
അത ുകൊണ്ട്</w>
ിക്കാ ം</w>
ാ യിരുന്നു</w>
ശ ത
മു ള്ള
ഇ നി</w>
അനു ഭവ
മു ഴ
ദ ം</w>
വ ന്നു</w>
യി ട
മ തി</w>
ക ണ്ണ
പൊ ലീസി
വേ ഗ
യേ ശു</w>
പ്രത്യേ ക</w>
പ ട്ട
ദേശ ീയ</w>
ത്വ ം</w>
ങ്ങള ി
ഹ ോ
പ്പ ിച്ചു</w>
ധ ന
ദിവസ ം</w>
ിരിക്ക ുന്നത്</w>
ഷ ം</w>
വിജ യ
വാ യി
വ കു
ക ലാ
സംവി ധാന
മൂ ന്നു</w>
തുടർ ന്ന്</w>
ഡ ീ
ചെയ്യ ുന്നു</w>
ആര ോ
െയ ുള്ള</w>
ിക്ക േണ്ട
വി ൽ</w>
ലഭ ിച്ച
ഉ ദ്
റ ണ്‍
അ യാ
ിരിക്ക ുകയാണ്</w>
പ ങ്
ന യി
ികള ും</w>
സാ ധാ
വൃ ത്തി
മാ യ
ബ ്ര
പ്പ ില്‍</w>
എ തി
അവ ര
മു ന്‍</w>
ത്തി ന്‌</w>
തി രിക്ക
ഇ ംഗ്
സ്‌നേ ഹ
സമീ പ
ശ രീ
ക്ക ുള്ള</w>
ഏ ക
സംഭ വിച്ച
വ യ്
യിര ുന്ന</w>
കൂ ടാ
ഇ നി
മേഖ ല
പ്ര ദ
പെ ാ
കള ുടെ</w>
ഉ ൾ
്യ ൂ
ഹി ത
സ ങ്ക
മ്പോ ൾ</w>
പ്പെട ുന്നു</w>
പോ ലീസി
േ ാ</w>
നി ല</w>
ണ ു
സ്ഥാ പ
സി ൽ</w>
വാ ക്ക
മാധ്യ മ
ജീവി തം</w>
കേര ള
കഴി ഞ്ഞ</w>
എ ത്ര</w>
ന ങ്ങൾ</w>
ഗുരു തര
ഷ ണ
ത്തില ുള്ള</w>
ൊ പ്പം</w>
മാ ർ
മറ്റ ു</w>
പാ ക്കി
ത്ത ത്</w>
ആ ർ
പെ ണ്‍
ന് ത്</w>
ത്തി രിക്ക
ട ന
ി ട
മറ്റ ൊരു</w>
നി ങ്ങള്‍</w>
ജി ല്ല
വി ന്‍റെ</w>
ല െ
യേ ശു
യിരിക്ക ുന്നു</w>
ദൈവ ം</w>
ചെ ല
മനസ്സി ലാ
പെ ട്ട
ത മ്മി
ച്ച ത്</w>
ചോദ ്യം</w>
ഉ ള്‍
ാന ം</w>
മ ം</w>
പ്ര കട
നി ല്‍</w>
ക്ക് ‌</w>
ക്ക ൾ</w>
കോൺഗ്ര സ്</w>
അ തു
1 5</w>
ിക ്</w>
മ ഴ
ബ ്</w>
ച്ച ു
ക സ്റ്റ
എ ളു
ുക ളില്‍</w>
ല്ലാ ത്ത</w>
റി ല്‍</w>
രണ്ട ു
മ ുട
പിട ിക
ത് ‌
വ ഴി
പരാ തി</w>
ന്‍ റ
ത െന്ന്</w>
മ ക്കള
ഭ യ
നിയ ന്ത്ര
ന ൂ
തീരു മാന
ഇ ത്തരം</w>
രു ന്ന</w>
കോ ള
യാ യ
ക്കാ ണ്</w>
എന്നി വ</w>
ോട ്‌</w>
വ സ്‌
യാള െ</w>
മ ക
ദൃ ശ
ങ്ങള ിലും</w>
ഇരു വരും</w>
വ്യ ത്യ
വ ്‌</w>
രണ്ടാ ം</w>
മറ്റ ുള്ള
ദ് ര
ക്ക ള്‍</w>
കൂടാ തെ</w>
ക മ്പ
ഇത ോടെ</w>
ആ യിരുന്നു</w>
സര്‍ക്കാ രി
മെന്ന ാണ്</w>
താ ഴ
താ രം</w>
തക ര്‍
ഞ ങ്ങളുടെ</w>
ചി ന്തി
അമേ രിക്ക
അതി നാ
സാഹച ര്യ
വ ന്‍</w>
പാ ട്</w>
ത്ത ോ
േ ദ
ുള്ള ൂ</w>
സ്ഥ ാന്‍</w>
ലി ല്‍</w>
ല ിയ
നേതാ വ്</w>
ഒ ന്ന
ഉ ദാ
ആരാ ധ
ുകള ുടെ</w>
ുക ളിൽ</w>
സിനി മ</w>
സം ശ
യ ഥാ
പറയ ുന്നത്</w>
മൂ ഹ
മാ ര്‍
ഭാ ര്യ
ത്ത ോടെ</w>
ഡല്‍ ഹി</w>
ൽ പ്പ
സ്ഥാ നാ
സ ്ട
മാ റ
മ ൃത
പോ ലീ
പേ ർ</w>
പ ം</w>
ഘ ാ
അ വിട
സംഭവ ത്തില്‍</w>
വീ ഡിയ
വി ശേഷ
വ ച
റി യി
ബുദ്ധ ി
നേ ട
ക്കി യ</w>
ക്ക േണ്ട
ക്ക ൂ
കൂ ടി
അടി സ്ഥാന
സു ഹൃ
വഴ ി</w>
ഴ് ച
മ റ്റ്</w>
ഒ ര
ിച്ച ിട്ടുണ്ട്</w>
ഴ ്</w>
ര ണം</w>
പ്രസിഡ ന്റ്</w>
പ്പെടു ത്തി</w>
ത ന്റെ</w>
ട ്ട</w>
ഒരിക്ക ലും</w>
ഉട ന്‍</w>
െ യി
ിക്ക ൊ
സി ന്</w>
വിഷ യ
ര ജി
മു ള
നാല ്</w>
ചെയ്യാ ൻ</w>
ചെയ്യ ുന്നത്</w>
കര മായ</w>
സാമ്പത്തി ക</w>
വീ ട
വിശ് വസ
നി ൽ
ക ര്‍</w>
ലാ യി</w>
മു ൻ
ഒഴി വാ
ആദ്യ ം</w>
് ര</w>
സം രക്ഷ
വൈ റ
രി ക
പ്പെട്ട ്</w>
പ് ‌
പരാ തി
അറ ിയ
അതി ല്‍</w>
അ പ്പ
മാത്ര മാണ്</w>
ഭ ്യാ
ബന്ധ ം</w>
തെ ല്ലാം</w>
കി ട
ക ശ്മീ
ഇ വിട
അ വ</w>
സ ൃ
വാ ന്‍</w>
യി ലേ
ഇ ര
ോട ും</w>
ബാ ങ്ക്</w>
ുകള ാണ്</w>
മുഖ്യ മന്ത്രി
മറുപ ടി</w>
ജ യി
ച് ച്
ഇ യാ
വാ ർ
മൃത ദേ
പ്ര ണ
പ ണി
ക്ക ോട
േ ണ്ട</w>
ിര ുന്ന
ശു ദ്ധ
ല്ല െന്ന്</w>
മുഴ ുവ
നടപ ടി</w>
കസ്റ്റ ഡി
വി ഭാഗ
വ ാ</w>
റ ില
ഫ ി
പ്രവേശിപ്പ ിച്ചു</w>
താ ഗ
ത ൊരു</w>
ഓ ഫ്</w>
സ് പ
വി ല്ല</w>
ല്ലാ യിരുന്നു</w>
പ ണം</w>
ക്ക ുകയായിരുന്നു</w>
എന്ത ുകൊണ്ട്</w>
ൽ നിന്ന്</w>
വ സ്ഥ
രി പ്പ
മു ന്‍
മര ണം</w>
ധാ രാ
ഞ ാ
ഗു ണ
2 5</w>
ശക്ത മായ</w>
പുറ ത്തു
പ രാജ
ചെ റിയ</w>
ക്ഷ ി
എനിക്ക ു</w>
ുക ൊ
വ ോ
വ നി
തന്ന െ
ക് യ
എളു പ്പ
എ വിട
ഇനി യും</w>
അവ സാ
യു വാ
മാത്ര മല്ല</w>
മ ട
നല്‍ക ി</w>
ത യ
ഡോ ക്ട
ക്ക ോ
എ ങ്കിലും</w>
ഇ വരെ</w>
ിക്ക ുക
ി ക</w>
സൈ നി
സ ഖ
രീ തി
മ ണ
ദ ി</w>
ചെയ്ത ത്</w>
ഒ ട്ട
ഇക്കാ ര്യം</w>
അമി ത്</w>
0 00</w>
ാ ൽ</w>
ാ യി</w>
ഹ മ്മ
സൃ ഷ്ട
വെ ടി
വിക സ
യു ണ്ടാ
പിന്ന ാ
ച ീ
ക്രിക്ക റ്റ്</w>
ക ോ
ഇ വര്‍</w>
അറ സ്റ്റ
ികള െ</w>
ര ക്ത
മാതാ പിതാ
ഭക്ഷ ണ
പ്ര കാരം</w>
ചെ റു
ഉയ ര്‍
അതി നു</w>
സി ന്റെ</w>
സഹോദ ര
സ മ്
വിദ്യാ ഭ്യാ
വി നെ</w>
രി യ
രാഷ്ട്ര ീയ
മ നോ
പിന്തു ണ
പ ഴ
നി ങ്ങൾക്ക്</w>
ത ന്
അ ല
േ റ്റ്</w>
സ്‌ കൂ
ഴ് ച</w>
മു റ
പരി ഗണ
പ ക
ത്ത ീ
തുടങ്ങ ിയ
തയ്യാ റാ
ചെയ് തിര
ങ് ങ</w>
സ ുകാ
വി മ
രി ൽ</w>
പ്ര ിയ
നി ശ്
നരേ ന്ദ്ര
ത ള്ള
ത മായ</w>
ഏ താ
ഇ താണ്</w>
സ്ഥി തി</w>
സൂ ക്ഷ
വ േ</w>
പര മായ</w>
ന യ
അതി ൽ</w>
അ ര
സ്ഥി തി
സംഗ ീ
സ മ്പ
വാ യി</w>
ഴ ും</w>
റിപ്പോ ര്‍ട്ട്</w>
ഫ ലം</w>
ക്ക ുക
എ ത്ര
അ താ
ിച്ച ില്ല</w>
സ്വീ കരിക്ക
വ്യക്തമാ ക്കി</w>
മാറ്റ ി</w>
ഭാ ര
കാണ ാ
വിവര ം</w>
രാ മ
ഫ ്ര
പു ന
നൽ കി
ത്ത ം</w>
തവ ണ</w>
ച െന്ന
ആശുപത്രി യിൽ</w>
അവ ന്‍</w>
സെ ക്ര
രാഷ്ട ്ര</w>
മ ൃ
പ്ര േ
ന്ത ര</w>
ട്ട ോ
ഗ താഗ
കാര്യ ങ്ങൾ</w>
ക ളില്‍</w>
ാ ല്‍</w>
സ് പൂ
സെക്ര ട്ട
ശ് വാ
രാഷ്ട്ര ീയ</w>
മു ണ്ട
പ്പ ു</w>
അ ച്ഛ
ാന ും</w>
വ ൻ</w>
യ ാ</w>
മുംബ ൈ</w>
ബ ംഗ
ണ മെന്ന്</w>
ങ്ങള ില
ക് തി</w>
കുമാ ര്‍</w>
കുട്ട ി</w>
അ ക്രമ
അ ക
ീക രിച്ച
ാ യ</w>
സമാ ധാന
വേ ണ്ട</w>
വിശ്വാ സ
വിട്ട ു</w>
മ ിക്ക
മ ത്തെ</w>
നാഥ ്</w>
ജി ല്ലാ</w>
ച്ച ി
ക്ക ാ</w>
കന ത്ത</w>
സൂ ച
വെ ളി
വിദ്യാ ര്‍ത്ഥ
ളി വു
റിപ്പോ ർ
മെ ഡ
പോ കാ
പര മ്പ
തെരഞ്ഞെടു പ്പ്</w>
ജീവ ന
ചരി ത്ര
കുറ ിച്ച്</w>
ആ ര്‍</w>
അ താണ്</w>
സ്വ കാര്യ</w>
വിജ യം</w>
വി മാന
ര്‍ മാ
മ ണ്ഡ
ദ ൂ
ജോ ലി</w>
ക്കാ നാ
ഇതി ന
1 4</w>
വിശ ദ
വിവാ ഹം</w>
പൗ ര
നാട്ട ുകാ
ദ് ധ</w>
ദി ന
ഞ്ച ്</w>
ഇതി ൽ</w>
ഇ പ്പോള്‍</w>
ഹൈ ക്കോട
സ്ഥ ിര
മാ റി</w>
ഭക്ഷ ണം</w>
ന്ന െ</w>
ഞ് ചി
കെ ാ
കൃ ത്യ
ഉണ്ടാ യിരുന്നു</w>
ഇതി ന്റെ</w>
അധിക ൃത
1 2</w>
ു മുണ്ട്</w>
ിയ ്
വ ധ
മീ റ്റ
പു രു
പാ തക
നാ യക
ത്തി നായി</w>
ഡ ാ
ഞ്ഞ ്</w>
അന്വേഷ ണ
ിച്ച ിരുന്നു</w>
സു ഖ
നെ യാണ്</w>
ത്തു ക</w>
ആ ഭ്യ
അവ ള
െങ്ക ില്‍</w>
പേ ര്‍ക്ക്</w>
പരാജ യ
പ ട
ട്ട ില്ല</w>
ചോദ ിച്ചു</w>
ഉദ്യ ോഗ
ഉദാ ഹ
ആത് മഹ
അവ നെ</w>
േഷ ്</w>
ശ്ര ീ
ശരീ ര
മുമ്പ ്</w>
പ്രദേശ ്</w>
പ്ര സംഗ
നിന്ന ുള്ള</w>
നി ന്റെ</w>
ത്തു ന്ന</w>
ക രിച്ച
ആക്രമ ണ
ർ പ്പ
ിക്കാ നാ
വര്‍ ക്കും</w>
മ ഴ</w>
ഫ ൈ
നി ങ്ങളെ</w>
തീരു മാനം</w>
യു ദ്ധ
മാത്ര മേ</w>
മാ ക്കി</w>
പ്രവർ ത്തി
പാകി സ്താ
പ ച്ച
നേ ടി
നി ങ്ങള
ന െയും</w>
ത്തി റ
ത ങ്ങളുടെ</w>
ജ റാ
ങ്ങൾ ക്കു</w>
എന്നാ ണ്</w>
ഇ വ
അവ കാശ
ു മാണ്</w>
ിക്കുന്ന ത്‌</w>
റോ ഡ
ഗു ജറാ
ഓ ർ
ഉ ന്ന
1 1</w>
സുപ്രീ ം</w>
സി ംഗ്</w>
വൈ ദ്യ
പേ രും</w>
പരി ഹാ
ന്നു മില്ല</w>
നട ത്തി</w>
ദ ൈ
ക്ക ിയത്</w>
ഉത്ത രം</w>
ഇ ള
ഇ പ്പോഴും</w>
അത േ
ം സ
ഹൃദ യ
ല്ല ി
റ ്</w>
രിക്ക ും</w>
രാഹു ൽ</w>
തീരു മാ
ടു ള്ള</w>
ഉദ്യോഗ സ്ഥ
വെ റു
വെ ച്ച
വിജ യി
വി ന്റെ</w>
വി ദേശ
വാ ദി
ഭീ കര
പരു ക്ക
ത്ത ുട
കേസ െടു
അതി ന്റെ</w>
1 6</w>
റ ില്ല</w>
യിരിക്ക ുന്നത്</w>
ഫ ാ
പഞ്ച ാ
ന ോ</w>
ഘ ട്ട
അവ ന്‍റെ</w>
അഞ്ച ്</w>
1 0
ിച്ച ുള്ള</w>
സഹാ യ
രാജ ി
യോ ജ
ബ ോധ
ത് ​</w>
ത ുണ്ട്</w>
ണ്ടാ ണ്</w>
ണ് ​</w>
ട്ട ു
ചെയ്തിര ുന്നു</w>
ഘ ോഷ
ക ില
എന്ന ും</w>
ഇ സ്
വി വാഹ
മാറ്റ ം</w>
മ യ
പോ രാ
ന്‍ സ്</w>
തെ റ്റ
ഇക്കാ ര്യ
അ മ്മ</w>
1 8</w>
ൽ നിന്നു</w>
സ്ട ്ര
ഴി ലാ
രി ച്ച</w>
പ്ര തി</w>
പൊ തു
ന് യം</w>
ടീ ം</w>
ക് താ
എ ന്‍
അ ന്ത
പ്രത്യേ ക
പുറ ത്തിറ
നടത്തി യ</w>
നട ന്ന</w>
ത്തി യാ
ത്ത ാൻ</w>
തി രി
ക മ്മ
അവ ർ
്യാപ ക
ള ും</w>
യാ തൊരു</w>
യ ോഗ
ഭ േദ
പ് റ്റ
പദ്ധ തി
നമ്മ ൾ</w>
ട്ര ോ
റ്റ് ‌
മെ ന്റ്</w>
പ ദ
നേര ത്തെ</w>
ധാരാ ളം</w>
തീ വ
ക ടു
ർ ന്ന
ികള ുടെ</w>
സോ ഷ്യ
സേ വ
വെ ച്ചു</w>
റ ു</w>
യാ യും</w>
മാ സ
പീ ഡ
പ ര്യ
നാ യിരുന്നു</w>
ന ശ
ചു മ
അ ന്ന്</w>
സഹാ യം</w>
ല ൊ
ബുദ്ധി മുട്ട
പ്പെട്ട ത്</w>
പരിക്ക േ
നമ്മ െ</w>
ക്ക െ</w>
കെ ട്ടി
കുട്ട ിക
എന്ന ിട്ട
ഇ ന്‍
ഇ ങ്ങ
േഷ ൻ</w>
െ ത്തി</w>
ാ ലും</w>
സ് നേ
ഷ ൻ</w>
വരി ക
വര െയും</w>
മാ ണിത്</w>
തുട ങ്ങിയ</w>
ചെയ്‌ തു</w>
അങ്ങ നെയ
3 0</w>
1 9</w>
വര്‍ ക്ക്</w>
പര ീക്ഷ
നേ തൃ
താ ണ്‌</w>
ജ മ്മ
കാ ലം</w>
ക ളി
അധി കാര
ു മാ
ില ുള്ള</w>
സന്ദ ര്‍ശ
വാ ങ്ങ
ല ളി
ര്‍ ക്കും</w>
യഹ ോ
ഫ യ
പ്രധാന മന്ത്രി
പങ്ക െടുത്തു</w>
ന്മാ ർ</w>
താമ സ
ച ല
എണ് ണം</w>
ീ സ്</w>
ഹ െ
വു മില്ല</w>
വീഡിയ ോ</w>
യാ ത്ര</w>
ബോ ളിവു
ബ ഹു
നീ തി
ത രാ
ചികി ത്
കൊല പാതക
ിക്ക ുന്നില്ല</w>
സൗ ക
ഷ ാ</w>
ലി ൽ</w>
രജി സ്റ്റ
ര ുന്നു</w>
ബ് രാ
പ്ര ി
നേ ടി</w>
നാ ശ
ത ല്ല</w>
ജ് ജ
ക്ക ുകയാണ്</w>
കഴി യില്ല</w>
അത ും</w>
അ ത്തരം</w>
ു മില്ല</w>
ിര ുന്നില്ല</w>
സംവിധാന ം</w>
ള ിച്ച
ല്ല ി</w>
റി ന്റെ</w>
യ് ക്കും</w>
യുവ തി
യു മായി</w>
യ ്യ
നൽക ി</w>
ടീ മി
ആവശ്യ ം</w>
ഷ ന്‍</w>
വി രാ
മെ ന്ന</w>
ഭാ വ
നേരി ട
ത്തേ ക്ക്</w>
ഡ ൽ
ചിത്ര ത്തിന്റെ</w>
ഒ റ്റ
ആത് മീ
സ്ഥാന ം</w>
സ മൂഹ
ല ൂ
ല യ
മ ോ
ന്റ െയും</w>
ജ യ
എം എ
ഉത്തര വാദി
അല്ല െങ്കിൽ</w>
അ രു
ുണ്ട ോ</w>
ി യാണ്</w>
സ്ഥല ത്തെ
സ ഞ്ച
വര്‍ ധ
രാജ ാ
യിരിക്ക ണം</w>
മെഡ ിക്ക
മെ ന്
പേ രാണ്</w>
പെ ൺ
ന് യായ
ധി പ
തമി ഴ്</w>
ത ോടെ</w>
ട ോ
ച ടങ്ങ
ഗ ്</w>
ക ുന്ന
ഉ ണ്ട
ിക്ക ില്ല</w>
സ്വന്ത ം</w>
സ ന്ധ
വാ ണ്</w>
യിലാ യിരുന്നു</w>
യി ല്‍
ഭ ു
പരുക്ക േറ്റ
നി ന
നി ടെ</w>
ത്തി ലേ
ഇ യാളെ</w>
സത്യ ം</w>
വി റ്റ
ള ൂ
രാ യേ
ബി സി
പരി പാട
ന്ത ര
ജന റ
ങ്ക ിൽ</w>
ക്കള ും</w>
ൊ രു
േ ള
ിക്ക െ
രാജ്യ ത്തെ</w>
പ്രശ് ന
പു ല
പരി ഹ
പങ് കു
പ ത്ര
ന്ന ത്‌</w>
നേ രെ</w>
നി മി
ചെയ്തി ട്ടുണ്ട്</w>
ആ രാണ്</w>
അവ ത
ാ ണ്‌</w>
ഹമ്മ ദ്</w>
സ രിച്ച
സ ന്
ഷ്ട ാ
പാര്‍ ട്ട
പറഞ്ഞ ത്</w>
ഒ ഴ
ഇംഗ് ല
സ്‌ ട്ര
സി ങ്</w>
ശ േ
വിരാ ട്</w>
വി ലെ</w>
വി ധി</w>
റ ുണ്ട്</w>
യാ ദ
പരിശ ീല
നഗ ര
ചെയ് ത</w>
കരു ത
ഓ ഫീ
അവ ര്‍ക്ക്</w>
ോട ൊപ്പം</w>
ിച്ച ിട്ട
സങ്ക ീ
ശ ക്തി
വര ുന്നു</w>
ല ുള്ള</w>
മീ ഡിയ
മ ധ്യ
പഠ ിപ്പ
ത്തി ലേക്ക്</w>
ത്ത ാണ്</w>
ണ്ട ി
ചെയ്യ ുന്ന</w>
കാ രി
ഉ ണ
1 7</w>
ാന ുള്ള</w>
സെക്രട്ട റി</w>
സുപ്രീ ം
സമ്മ േള
വി ര
യാത്ര ക്കാ
മ് പി
മാ തൃ
പ്രവര്‍ ത്തി
നി ച്ച
ദൃശ ്യ
അതി നെ</w>
ൻ സ്</w>
സംബന്ധ ിച്ച്</w>
വ്യ ത്യാ
ലക്ഷ ണ
ദൈവ ത്തിന്‍റെ</w>
ണ ിയ
ഞ്ഞ ു
ഗ ്‌
കാ ര്‍
എ ൻ
ഇന് റ
അധ ികം</w>
അ ത്ര
1 3</w>
ില ി
സുഹൃ ത്തു
ശ ബ്
മെ ച്ച
പേര ്</w>
പാ ടി
നിക്ക ്</w>
നാല ു</w>
ദ് ദാ
ഡ്ര ൈവ
ട്ര ം
ചികിത് സ</w>
ക്കുന്ന ുണ്ട്</w>
കാ ത്തിരിക്ക
കര്‍ ണാ
4 0</w>
ല ം
രൂപ യാണ്</w>
പ്രാ ർഥ
ന് മ
തിരഞ്ഞെടു പ്പ്</w>
എ ത്ത
ഇ ൻ
ആ യിര
ുകൊ ണ്ട്</w>
ശത മാനം</w>
രാജ ്</w>
മാ ര
മണ്ഡ ല
പ്രവര്‍ത്ത ന
പ്പ ിൽ</w>
പാ ത്ര
നി ൽ</w>
ച ര്‍
അ ര്‍
് രാ
സ്വ യം</w>
ശ്ര ീ</w>
വി ഡ്</w>
ഴിലാ ള
മുംബ ൈ
ഭൂ രി
ബ ീ
പ് ല
ങ് ക</w>
ഒ ന്നാം</w>
എന്ത ാ</w>
ഉദാഹ രണ
ഇ ത്തര
1 00</w>
ർ ത്താ
ഹാ ജ
ഹ രി
സു ര
വിദ്യാ ര്‍ഥ
റ ാണ്</w>
യിര ുന്നത്</w>
പൊ ലീ
പു രോഗ
നാ യി
തെ ലു
കാ ലാ
കഴി ഞ്ഞു</w>
ക ൗ
ക ളിൽ</w>
ം ശ
ർ ന്ന</w>
സ്റ്റ ാ
വിശ് വസ്‌
വരു ന്ന</w>
വകു പ്പ്</w>
ര്‍ ട്ട
മോ ഹ
മോ ശ
മു തി
പ്ര ശ
പരിക്കേറ്റ ു</w>
നിര ീക്ഷ
ദ് ദ
തീവ ്ര
തി ല്‍</w>
ണ്ട ു
ട ക</w>
ചെയ്യ ുന്ന
കഴ ുക
ഒ ടു
ഏ തു</w>
അതി ന
ുണ്ടാ യിരുന്നു</w>
ിച്ച ിട്ടില്ല</w>
ിക്ക പ്പെട
സ് സ്</w>
സി ബി
വി രു
യ ല്ല</w>
പ്ര വൃത്തി
പേ ജ
പുരു ഷ
പിന്നാ ലെ</w>
നാ ള
ദ്ധ ്യ
താഴ െ</w>
ണ മെന്ന
ഠ ി
കൊണ്ട ു
കു ഴ
കാ ൻ</w>
കമ്മ ീ
ക രാ
ഉപ യോഗ
ആ കെ</w>
ിക്ക ുകയാണ്</w>
സഹായി ക്കും</w>
സ ഭ</w>
മ്പോ ള്‍</w>
തി നെ</w>
ഗ ൗ
കുട്ട ിയെ</w>
ക പ്പ്</w>
ഒരു പാട്</w>
അറി യില്ല</w>
അ ത്ര</w>
ുകള െ</w>
സ്ത്ര ീക
സ് വർ
വർ ഷ
വ്യത്യ സ്ത
ലോ ക്‌
രി ക്ക</w>
ബന്ധ പ്പെട്ട്</w>
പ ശ്
നി ട
ന ോ
ത്ത ന്നെ</w>
തുടര ുകയാണ്</w>
ച ര്‍ച്ച
കോള േ
ആര്‍ ക്കും</w>
ആ യി</w>
അവ ർക്ക്</w>
അത െ</w>
അ പേക്ഷ
ൾ ക്കും</w>
ിരിക്ക ുന്ന</w>
ിക്കാന ും</w>
ഹ ര്‍
വാദ ം</w>
വ ോട്ട
വ രാണ്</w>
റി ൽ</w>
റ ദ്ദാ
ര്‍ ക്ക
മൃതദേ ഹം</w>
പ്രതി കളെ</w>
ജാ ഗ്ര
ക്യാ പ്റ്റ
കുട്ട ിയുടെ</w>
ക ട്ടെ</w>
എ ണ്ണ
അത ൊരു</w>
അത േ</w>
ീ വ്</w>
സി ലാ
സാ ങ്ക
വർ ക്ക്</w>
വ ട
വ ച്ച
റാ യി</w>
മ ൊരു</w>
ഭീ ഷ
പരാ മ
ത്തോ ളം</w>
കള ാണ്</w>
ക ില്ല</w>
ക ഥ
ഏറ്റ ു
െ ന്ന</w>
വള ര
ര മായ</w>
പാട ില്ല</w>
നട പ്പാ
ത്യാ നി
തി ന്</w>
ജമ്മ ു</w>
ചെയ്യ േണ്ട
ചെയ് ത്</w>
കസ്റ്റഡി യില
എ വിടെ</w>
ഉട ൻ</w>
ഇത ൊരു</w>
ൻ ഡ്</w>
ഹ ്‌
സ് ഥ</w>
ഷ ന
ശ്രമ ം</w>
ശാ ല
വി ചാ
മ ൈ
പ്രതിഷേധ ം</w>
പാര്‍ ട്ടി</w>
പാ ക്</w>
നേ ട്ട
നമ്മ ള്‍</w>
തി നാ
ക് സ്</w>
കര്‍ ഷ
എ ല്‍</w>
അവ ള്‍</w>
സാങ്ക േ
സമ്മ തി
വസ് ഥ</w>
ലി സ്</w>
മ ്യ
മ െ</w>
ഭാ ര്യ</w>
പെ ട
നി ഷേധ
താ ന്‍</w>
തമ്മി ല്‍</w>
ഡ േ
ഞ് ജ
എ ഫ്</w>
ഇന്ത്യ യില്‍</w>
ഇ ന്ന
േ ക്കും</w>
ിക്ക ുകയായിരുന്നു</w>
സ്ഥല ത്ത്</w>
സാധാ രണ
വർ ക്കും</w>
ള്‍ ക്കും</w>
റി യില്ല</w>
രിക്ക ുന്നത്</w>
ര ാ</w>
യാണ െന്ന്</w>
മുത ൽ</w>
മു ൻ</w>
ഭരണ ഘ
പൂർ ണ
നിയമ ം</w>
നന്ദ ി</w>
ദു ര
തുട ക്ക
ക്ക ില്ല</w>
കു തി
ഇതി നെ</w>
ഇ വ</w>
ഇ ത്‌</w>
ആശ യ
ർ മാ
ർ ന്നു</w>
ുന്ന താണ്</w>
ഹാജ രാ
ശ് വ
വു ന്ന</w>
ലഭ്യ മാ
ണ്ട ു</w>
ജ നാ
ആരംഭ ിച്ചു</w>
ിയ ു
ികള ാണ്</w>
സൗക ര്യ
വേദ ന</w>
ല്ല ു
ലക്ഷ ്യ
ലം ഘ
പ്പ ും</w>
പു തു
പരിശോധ ന
ത്ത െയും</w>
തി രായ</w>
താ യിരുന്നു</w>
ചെയ്യാ ന്‍</w>
ഗ തി
അതേ സമയം</w>
േ ക്കാം</w>
െയ ോ</w>
ഹിന്ദ ി</w>
സാധാ രണ</w>
മു സ്
ബന്ധ ു
ബ േ
പക രം</w>
ചൈ ന
ച ുവ
കണ്ട െത്തി
എ യ
ആള ുകൾ</w>
അ തെ
ോട െയാണ്</w>
ഷ ി</w>
ലേ ഖ
ല ോ
മൂ ലം</w>
മുള ക്</w>
ഭ ർത്താ
ബിജെപ ിക്ക്</w>
നോ ക്കി</w>
നമു ക്കു</w>
ദ ക്ഷി
ത്തി നു
തന് ത്
ത മാ
ക്രിസ്‌ ത്യാനി
ക്കാ നും</w>
കെട്ടി ട
ക ർ</w>
ക ല്
ആ ദ
2 00</w>
ർ ക്കും</w>
േഷ ന്‍</w>
ിച്ച ും</w>
സഖ ്യ
സംസ്ഥാന ത്ത്</w>
ശി ക്ഷ
വിശ്വാ സം</w>
വി പണി
ള ാ
ള ള</w>
രൂ ക്ഷ
മ ുക
ഫ േ
പെ രു
പിടിക ൂ
പഞ്ച സാ
നാ ട്</w>
ധ ോ
തി ൽ</w>
ത മ്മ
ഗ്രാ ം</w>
ക മ്മി
ഇ ല
ആരോഗ ്യ</w>
അവസ ര
ൂ ര്‍</w>
സംഘ ടന
ര ഹ
മത്സ രം</w>
പ്രശ്‌ നം</w>
പുറ ത്താ
നി ക്ഷേ
ത്തി ന
ചേർ ക്കുക</w>
കടു ത്ത</w>
ഇന്ത്യ യിലെ</w>
െടു ത്തി
സ്‌ ത്ര
ശത മാന
രാജ്യ ത്ത്</w>
മുത ല്‍</w>
ബാ ദ്</w>
പിട ിച്ച
ധ ു
ദിവസ വും</w>
ദ ാന
ദ യ
ത് രാ
തിര േ</w>
ച ന്ദ്ര
ഗ ി
ശാ സ്ത്ര
വേഗ ം</w>
വിവര ങ്ങള്‍</w>
വസ് തു
രാജ്യ ം</w>
യഹ ോ</w>
ഫ െ
പ തി</w>
ത ൂ
ഡ യ
ജ ല
ക്ഷേ ത്ര
ഇ ദ്ദേ
ർ ച്ച</w>
ോ ട്ട്</w>
ിര ുന്നത്</w>
സ്വാ തന്ത്
സാധ്യ ത</w>
ശി വസ
ശിവസ േ
ശ ര്‍
വൈദ്യ ു
വീട്ട ിൽ</w>
ല്ലാ ത്ത
റിപ്പോർ ട്ട്</w>
പ്പെ ടെ</w>
പറ യു
നില വില്‍</w>
ദി നം</w>
ത മായി</w>
ഞാന ും</w>
ച ോ
അവ സ്ഥ
ിക്കാന ുള്ള</w>
സ് ​
സ മി
വീ ടി
വി ച്ചു</w>
റ്റ ില്‍</w>
രാ ത്രി</w>
യോഗ ്യ
മോ ഡ
മാ യാണ്</w>
മഹാ രാഷ്ട്ര
പ്ര ോ
ന്‍ ഡ്</w>
നീ യ
നട ി</w>
ത ീ</w>
ത കൾ</w>
ണ് ണം</w>
ജ് ഞാന
ജോ ല
ങ്ങള ുണ്ട്</w>
കേ സില്‍</w>
കുറ ച്ച്</w>
ഉ പ്പ്</w>
ഉ പേക്ഷ
അധ്യക്ഷ ന്‍</w>
ുട േ
സി ലെ</w>
സംവി ധാ
വര്‍ ഷ
ല്ല െന്നും</w>
റ്റ ു</w>
രോ ഹി
യില െത്തി
മുന്ന റിയി
പ് ലാ
ന്യൂ ഡല്‍ഹി</w>
ന് ത്യ
കു ക</w>
കാ ം</w>
ഒ ന്നാ
എണ് ണ</w>
സൂച ന</w>
വി ന
വരി ല്‍</w>
ലോ ച
മൂ ന്നാം</w>
ബംഗ ാ
പ് യ
നട ന്നു</w>
ത് വ</w>
തി യ
ത രം</w>
ട്ര ോ
ടെ സ്റ്റ്</w>
ഞ്ഞ ത്</w>
കൊ ള്ള
കുറ യ്
അ ത്തര
7 0</w>
സേ വന
വു മായ</w>
രാ യി</w>
മറ്റ ൊ
മരിച്ച ത്</w>
പ്രാ യം</w>
പാ ദ
പല രും</w>
പക്ഷ ം</w>
ധ ീ
താ ൻ</w>
ത യും</w>
ച്ച ി</w>
ക്കാ നുള്ള</w>
ക്ക ോ</w>
കേ ട്ട
കുറ ച്ചു</w>
കില ോ
ഒ ന്ന്</w>
ഇ വർ</w>
ആ ശ്ര
ൗ ണ്ട
സർക്കാ രി
വാ യ</w>
പ്പ ി</w>
നിര ോധ
ന വും</w>
ചെയ്യ ണം</w>
ഗുരുതര മായി</w>
ക്ഷ ണ
ക്കാ ല
കര ും</w>
എ ന്‍</w>
ആവശ്യ മാണ്</w>
ഹൈക്കോട തി</w>
ഷ ്യ</w>
ശരി യായ</w>
വാ ൻ</w>
റ്റ് ‌</w>
ര ോഗ
ഭാഗ ്യ
ബിജെ പി
പര സ്പ
ത് സാഹ
കാര്യ ങ്ങള്‍</w>
കണ്ട ു</w>
ആഭ്യ ന്തര</w>
അട ിയ
, 000</w>
സ്ഥ ാൻ</w>
സ് ബു
സുരക്ഷ ി
ല്ല ല്ലോ</w>
ലോ ക</w>
ര ്</w>
മു ഹമ്മദ്</w>
മാ സം</w>
പു സ്‌
നില യില്‍</w>
തീ യ
ടി പ്പ
ജ് ഞ
ജനാ ധിപ
ക്കി ന്</w>
ക്കള െ</w>
കൂ ടെ</w>
ആര െയും</w>
അഭി പ്രായ
ിച്ച േ
ഹിന്ദ ു
സ്‌നേ ഹം</w>
സംബന്ധ ിച്ച</w>
വു മാണ്</w>
റ ൂ
മ് പാ
മ റി
പ്രാ ധാ
പ്ര കൃ
പരിക്കേ റ്റ</w>
നിയമ സഭാ</w>
നടന്ന ത്</w>
ന യിച്ച
ത്ത ാന്‍</w>
തൊ ഴ
ഡ ോ</w>
ജ ു
ങ്ങള െ
കോടതി യില്‍</w>
കമ്പ നി
ക മാ
ഓ പ്
ആത് മ
േ ലിയ
ിക്കുന്ന ുണ്ട്</w>
ിക്ക ു</w>
സ്പൂ ൺ</w>
സ്നേ ഹ
സ മാന
വേണ്ട ത്</w>
മ് മാ
മോദ ിയുടെ</w>
മര ുന്ന
പ്രതി ര
പട്ട ിക
ട്ട ാ
ഞ െ
ചൂ ണ്ട
ചില ർ</w>
ങ്ങള ിലെ</w>
എല്ലാ വര്‍ക്കും</w>
അവ സ്ഥ</w>
1 2
സ് വര്‍
സി പ്പ
സാ ണ്</w>
വേ റെ</w>
ലഭ ിക്കും</w>
ല ോ</w>
മ ദ്യ
നിശ് ച
ജ സ്റ്റി
കൂട ിക്കാ
ഓ ര്‍
ഇതി നായി</w>
ഇ തെ
ം ബാ
ർ ത്തി
ുകള ിലും</w>
ിയ ുള്ള</w>
സംവിധാ യക
സം ഖ
വര്‍ ദ്ധ
വ ച്ചു</w>
ഴി ഞ്ഞു</w>
ലി ന്റെ</w>
റ േ
ര്‍ ത്താ
രാ ശ
യൂ ണി
യൂ ട്ട
ഫോ ണ
പ്പെടു ന്ന</w>
പു ത്ര
നി ച്ചു</w>
ന യും</w>
ട ും</w>
ഖ ്</w>
ക്ക ുന്നില്ല</w>
ഓ ളം</w>
എന്ത ുകൊണ്ട്</w>
ഉറ പ്പ
അ ഴി
‍ ാ
സ് പീ
സം സ്‌
ലോക ം</w>
റിയാ ം</w>
ര്‍ ത്തി
രു ത്ത
യോഗ ം</w>
യാ ഥാ
ഭ ര്‍ത്താ
ബ ംഗ്
പുര സ്‌
നീ ക്കം</w>
ത ോ
ചെയ്യ ു
ചരി ത്രം</w>
ഗ ം</w>
ക് ല
ക ഷ്ട
ക ഥാ
ഇന്ത്യ യെ</w>
ആവശ്യ മില്ല</w>
അവസ ാന
അ ത്
‍ ം</w>
സരിച്ച ്</w>
ഷ െ
വെ ച്ച്</w>
വി ടു
ല്‍ ക്ക
യില ുള്ള</w>
മാ യിരിക്കും</w>
മനോ ഹ
ഭൂ മി
പ്രശ് നം</w>
പ ൈ
പ റ്റി
ദാ വീ
ഡ െ
ജന ങ്ങള്‍</w>
കൊണ്ട ു</w>
ഓ സ്‌ട്ര
ഏ ഴ
ഉദ് ദേശ
ആശ ങ്ക
20 0
‍ാ ‍ം</w>
േ റെ</w>
സംശ യ
ശ രിക്കും</w>
വെ ളു
വിമ ര്‍ശ
വിദ്യാ ർത്ഥ
വിക്ക റ്റ്</w>
വാ സി
ലൈ ംഗ
രോഗ ം</w>
രിക്ക ുന്ന</w>
യാ ലും</w>
യ ോടെ</w>
യ ോ
മാ കും</w>
മല യാ
ബ ലാ
ഫൈ ന
പ്രതി ക
പ്ര സാ
പങ് കാ
ന്ത ം</w>
ജ നം</w>
ചി ന്ത
എന്ത െങ്കിലും</w>
സ് കൂ
ശു ശ്ര
ശ ൈ
വർ ധ
വരിക യാണ്</w>
ലാ യിരുന്നു</w>
റ ുക
രണ്ട ും</w>
രജിസ്റ്റ ര്‍</w>
രംഗ ത്തെ
യാണ ോ</w>
യാണ ു</w>
മി ക</w>
പ്പി ച്ച</w>
പുറ ത്ത്</w>
ന ത്തി
തി ള
താ യും</w>
ട്ര െയി
ട്ട ോ</w>
ടീ മ
ച്ച ും</w>
ങ്ക ി
കു രു
കു തി</w>
ഒ ളി
ഒ പ്പം</w>
ഇതി നു</w>
ഇ തെല്ലാം</w>
ആത് മാ
ആ ഘോഷ
അതിനാ ല്‍</w>
അതി നു
അ ള
വാ ക്യ
വളര െയ
റ്റ ും</w>
യേശു വിന്‍റെ</w>
മുണ്ടാ യിരുന്നു</w>
ബിസി ന
പ്ര ചാ
പര മാ
ദു രി
തീ ർച്ച
ട ന</w>
ങ് കാ
ഗ്രാ മ
കീ ഴ
ക ാ</w>
ഇ ല്ലാ
ആവശ്യ പ്പെട്ടു</w>
ആ സ്വ
അഭി നയി
അദ്ദേഹ ത്തെ</w>
അത ുകൊണ്ട
സ്ഥലത്തെ ത്തി</w>
സോഷ്യ ല്‍</w>
സ കല
ശി ക്ഷ</w>
ല്‍ പ്പ
മു റി
മാറ്റ ി
മല യാള
പൗ ലൊ
പ്രതി യെ</w>
പ്ര സ
പരിശോധ ന</w>
നേടി യ</w>
ന ത്തിൽ</w>
തോന്ന ി</w>
തീ യ</w>
ണ്ട ി</w>
ട് വിറ്റ
ജീവന ക്കാ
ക്ഷ മ
ക്കള ുടെ</w>
ക വി
ഔ ദ്യ
ഏതാ നും</w>
ഉ രു
ആത്മീ യ</w>
അറിയാ ം</w>
അറ സ്റ്റി
അ ർഥ
അ ക്ക
5 00</w>
ൾ ക്കു</w>
ുകൊ ടു
സി ല
ശ ോ
വെ റും</w>
യ് ക്കു</w>
മാണ െന്ന്</w>
മ രിക്ക
ബോളിവു ഡ്</w>
ബ ല
ഫോ ണ്‍</w>
പ്ര മേ
പി ൻ
പ ിച്ചു</w>
നേതൃ ത്വ
ന ത്തില്‍</w>
ട ിക്ക
ചെയ്തി ട്ടില്ല</w>
ച ോ
ങ്ങൾ ക്കും</w>
ക്ക ല്‍</w>
ക ുന്നത്</w>
ഇത േ
അവള ുടെ</w>
അയാ ൾ</w>
അ പ്പോൾ</w>
സി പി
സ ര്‍</w>
ശേ ഖ
വ്യ വ
വ് വ
ള് ളി
റി ന്</w>
യ്‌ ക്ക്</w>
യിരിക്ക ുകയാണ്</w>
യാ ല്‍</w>
മ ർ
മ ്യം</w>
ബ് രി
ഫ ോട
പ്ര ത്യാ
പ്പ റ
പേ ർക്ക്</w>
പു രം</w>
പാ ഠ
പരമ്പ ര
പര ീ
ദൈവ ത്തെ</w>
ചീ ഫ്</w>
ഗ വ
ക്ര മീ
ക്കി യിട്ടുണ്ട്</w>
ക്കി ട
കേ സിൽ</w>
കൃ ഷ്
കുട്ടികള െ</w>
കുടുംബ ം</w>
കിലോ മീറ്റ
ഒരു മ
എന്നി വര്‍</w>
ഇന്ത്യ ക്ക്</w>
ആരോ പണ
അയാ ള്‍</w>
അടു ത്ത
അട ങ്ങി
ുകൊ ണ്ടാണ്</w>
സ്‌ റ്റ
സുരക്ഷ ാ</w>
സ ര
വനി താ</w>
ലക്ഷ ്യം</w>
റ്റ ർ</w>
റ്റ ു
യാ ൽ</w>
മ ര്‍
പ്ര കാശ
പോ ലെ</w>
പൂര്‍ ണ
പരിഹ രിക്ക
ച്ച ില്‍</w>
കർ ഷ
കണ ക്ക
ഇ ല്ല
ാ നാ
സിബി ഐ</w>
ശുശ്ര ൂ
ലാ ം</w>
മാണ ോ</w>
ബിജെപ ിയുടെ</w>
പ്പോ ഴും</w>
ന്‍ ഡ
ന്ദ ്</w>
ന് ​</w>
തെ റ്റാ
തുടര ുന്നു</w>
ട നം</w>
ചൂണ്ട ിക്കാ
ച ർച്ച
ങ്ങ ും</w>
ഖ ാ
ക്കുന്ന ത്‌</w>
കൊല്ല പ്പെട്ടു</w>
കേ ള്‍
കുമാ ർ</w>
കാ ന്‍</w>
ഏ തെ
ഉദ് ഘാ
ഇയാ ള്‍</w>
ആ ർ</w>
അറിയി ച്ച
അറി ഞ്ഞ
അത് ഭു
ുന്നതി ന്</w>
സൂ പ്പ
സമ ര
സ ിയ
വെ ല്ലു
വിധ േയ
വിജ യ്</w>
ലോ ക്
രോഹി ത്</w>
പ്രതിര ോധ
പ്രതി സന്ധ
പ്പെട്ട ിരുന്നു</w>
പുസ്‌ തക
നടപ ടിയ
ന മ്പ
ദൈ വ</w>
ത്യ ം</w>
ത്താ നാ
തീർച്ച യായും</w>
തീ ര്‍
തി ക</w>
തമ്മ ിലുള്ള</w>
തമി ഴ്‌
ത മാണ്</w>
ണ്ട ോ</w>
ഡൽ ഹി</w>
ചെയ്‌ ത
കള ിലും</w>
ക ിര
എ ത്തി</w>
ഇംഗ് ലീ
അ ത്യാ
ം …</w>
് ​</w>
ുണ്ട ്‌</w>
ീക രിച്ചു</w>
ിരുന്ന ാലും</w>
സ് യം</w>
സഹായി ക്കുന്നു</w>
വ ്യാപ
രണ്ടാ മത്തെ</w>
മി ന
ബ് ല
പ്രണ യ
പ്പെട ുന്നത്</w>
പിടിക ൂട
നട ക്കുന്ന</w>
ത ോ</w>
ത ട്ട
ണ് ണ</w>
ട േ
ങ്ങള്‍ ക്കും</w>
ങ്ങളാ യി</w>
ക്കി യിരുന്നു</w>
ക്ക ൽ</w>
ക ഥ</w>
എന്ന ിരുന്നാലും</w>
എ ക്
ഉണ്ടാ കും</w>
ആസ്വ ദ
ആ യിരിക്ക
ആ ണ
അംഗ ീകരിക്ക
അ പ്പോള്‍</w>
ംഗ ി
2 2</w>
ർ ട്ട
സൗ ജ
സേ ന</w>
സംഗീ തം</w>
ഷ ൂ
വിവാ ഹിത
വ ലു
റാ ം</w>
മാന സി
പദ്ധ തി</w>
ന ൈ
ദി ല്ലി</w>
ത്തി യ</w>
തെലു ങ്ക്</w>
തുട ക്കം</w>
തമ്മി ൽ</w>
ഡീ സ
ചെയ്യാ ം</w>
ചിത്ര ത്തില്‍</w>
കാണ ാം</w>
ഏറ്റു മുട്ട
എന്ന ത്</w>
ആത്മഹ ത്യ
അവസാ ന</w>
അഭി നന്ദ
അ ക്കാ
ുട േയും</w>
ിക്കെ തിരെ</w>
സുര ക്ഷ</w>
സമ ര്‍
സന്ദ ർശ
സങ്കീ ർത്ത
വിദ്യാ ർഥ
വര്‍ ത്തി
ള യ
ലാ ദേശ
ലഭ ിച്ചു</w>
റോ ഡ്</w>
രേഖ പ്പെടുത്തി
ബി രു
ബന്ധ പ്പെട്ട</w>
പ്രതി കരിക്ക
പ്ര ോ
പ്പ ോ</w>
പ് പ</w>
പൊ ലീസ്</w>
പച്ച ക്ക
ന ൊ
ങ്ക ില്‍</w>
കുട്ട ികൾ</w>
എംഎ ല്‍
എ പ്പോഴും</w>
ഉ ള്ള</w>
അവത രിപ്പ
അന് താ
അതി നുള്ള</w>
അ രി
ംഗ ളൂ
6 0</w>
2 1</w>
വീട്ട ില്‍</w>
വ ക
മെന്ന ു</w>
മന സിലാ
ബ സ്</w>
പ്പെട ും</w>
ന് ന്‌</w>
ഡ ്‌
ചര്‍ ച്ച</w>
ക്കാ ർ</w>
ക റു
ഏ ത്</w>
എ ഞ്ചി
ഇസ് രായേ
ഇത ും</w>
ആശുപ ത്രി</w>
​ ​
ുന്ന തു</w>
ിക്ക ണ
ാ ണ
ഹ ീ
സ്ഥാപ ന
സ്ഥ ലം</w>
സ് സാ
സംഭവ ത്തിൽ</w>
സ വിശേഷ
രൂപ യുടെ</w>
മാ യുള്ള</w>
ബംഗ് ലാദേശ
പ്രതി നി
പ്ര സ്താ
പേ ക്ഷ</w>
പരിക്ക ്</w>
പഞ്ചസാ ര</w>
നാ മ
നടപട ികള്‍</w>
ത് മാ
ഡല്‍ ഹി
ട് രാ
ഗ്ര ഹം</w>
ഗതാഗ തം</w>
ഗ തി</w>
കൊ റോ
കുഞ്ഞ ി
കണ്ട ു
ക രെ</w>
ക ന്ന
ആ യു
ആ ന്ധ
ആ ദി
അ ന്ന
1 8
ർ ഡ്</w>
സ് തക
സംഘ ര്‍
വിരു ദ്ധ
വര ുന്നത്</w>
വര ുടെയും</w>
വച നം</w>
ര സ
യുവ തി</w>
യു മില്ല</w>
മാ ര്‍</w>
മാ നിക്ക
ഭാഗ ം</w>
ബാ റ്റി
പോ യ
നടപ ടി
തുടര്‍ ന്നാണ്</w>
തി ല്ല</w>
തള്ള ി</w>
ത ന്ത്ര
ഞ ങ്ങള
ജന ങ്ങൾ</w>
ഗ്ര ൂ
ക് ത</w>
കാര്യ മാണ്</w>
എഴു തി</w>
ഉറ പ്പാ
ഇന്ത്യ യും</w>
അങ്ങ നെ
1 4
െയ ്‌
ുകാ ര
ിക മായി</w>
വി ന്</w>
രാ ൻ</w>
ര വ
യി ൽ
മുഴുവ ന്‍</w>
മാ യി
മാ ന്‍</w>
മ റ</w>
ഭാ വി
പു സ്തക
ന്മാ ര
നാ ട
ന ത്തിന്</w>
ദ ാനം</w>
തീ ര
തിക ച്ചും</w>
തി രിച്ചു</w>
ഡയ റ
ജ ൂ
ക്ഷേ ത്രം</w>
കിട്ട ി
ക ഠി
ഉള്ള ത്</w>
ഉദ്യ ോഗ
ഉ ത്
അതിനാ ൽ</w>
ു റ
ിക്ക രുത്</w>
ി രുന്ന</w>
സ്വ പ്
സ്വ ദേശ
സി സ്റ്റ
സംഘ ം</w>
വീ ക്ഷ
വാ ഗ്
യിര ു
മൊ ബൈ
മന് ത്രാ
മ ത്
ഭാ ഷ</w>
ബ ജ
പ്ര യാ
പരി ച
പ ക്ഷ</w>
ദി ന</w>
ത്തി നുള്ള</w>
തൊ ഴിലാള
തു പോലെ</w>
ത യുടെ</w>
ഘ ടക
ക്രി സ്
കാ ഴ്ച
കര ുടെ</w>
ഇത േ</w>
ഇ രു</w>
അധികൃത ര്‍</w>
ുവ െന്ന്</w>
ുകള ില
ുക ളി
ിക്ക ി
സ്ഥാന ത്ത്</w>
സ ർ</w>
വർ ത്തി
വഹ ിച്ചു</w>
വര്‍ ഷം</w>
യ ുണ്ട്</w>
മ ല്‍
ഭ ോ
പ്രഖ്യാപ ിച്ചു</w>
പോ സ്റ്റ
പൂര്‍ ത്തിയാ
പരസ്പ രം</w>
നില യിൽ</w>
നി ല്ല</w>
നരേന്ദ്ര മോദി</w>
ന ോട്</w>
ധ ൈ
ത്തെ ക്കുറിച്ച്</w>
ത്താ യി</w>
ത ള
ത ണു
ണ് ണി
ട്രം പ്</w>
ടു ന്ന</w>
ടി വി</w>
ങ്ങ ്</w>
ക്‌ സി
ക്കാ ൾ</w>
കേ ൾ
ക ന്‍</w>
എന്നിട്ട ും</w>
എങ്ങ നെ
ഉയ ര
ഉണ്ടാ യിരുന്നില്ല</w>
ഇട പെട
അദ്ദേഹ ത്തിന്</w>
അഞ്ച ു</w>
അ ബ്
3 5</w>
ിച്ച ാണ്</w>
സ്റ്റ ോ
സുപ്രീം കോടതി</w>
ഷി ക</w>
ശ്ര ദ്ധ</w>
വേ ണ
വല ിയ
ഴ്‌ സ്</w>
ല െയാണ്</w>
മഹാ രാഷ്ട്ര</w>
ഭീഷ ണി
പ ോ</w>
ന്മാ രുടെ</w>
നി ങ്ങള്‍
ത്ത ുള്ള
ത്ത ാ</w>
ട ം</w>
ഞ ങ്ങളെ</w>
ജസ്റ്റി സ്</w>
കേസ െടുത്തു</w>
കഥാ പാത്ര
ഒര േ</w>
അനു മതി</w>
ുക യ
സ് ​</w>
സു ന്ദ
ശ ക്തി</w>
വിശ്വസ്‌ ത
ലഭ ിച്ചത്</w>
മൂ ന്നു
മുന്ന ോട്ട
മാ റി
മ െടു
ഫ ്‌
പ്രധാന പ്പെട്ട</w>
പി റ
പര മായി</w>
നി വാ
നി ലെ</w>
നല്‍കി യ</w>
നട ക്കുന്നത്</w>
തോ ന്നി
ട ൂ
ക്രി യ</w>
ക്ക ൂ</w>
ക് ലാ
കുറ ിച്ചു</w>
ക ൻ</w>
ക ത്തി
ഏക ദേശം</w>
ഇ ത്ര
ആക്രമ ണം</w>
അ ക്ഷ
2 4</w>
ില്ല െന്ന്</w>
ശ്ര ീല
റ്റ ം</w>
ര്‍ ന്ന</w>
യ്‌ ക്കു</w>
യുണ്ടാ യി</w>
യാദ വ്</w>
മ ു</w>
ഭാ വം</w>
നെ റ്റ്</w>
നി കുതി</w>
നായക ന്‍</w>
തെ ാ
തിരിച്ച റി
താ ണ
ക ണം</w>
ആ കുന്നു</w>
അപകട ം</w>
അ നേ
സ്ഥാനാ ര്‍ഥ
സര്‍ക്കാരി ന്റെ</w>
വ്യാ പാ
വി ദ
വാ യ്
ല് ‌
ലോക്‌ സഭാ</w>
റി നെ</w>
രീ തി</w>
രി ലെ</w>
മാ രും</w>
പ്രകട മാ
നശ ിപ്പ
ദേ ശ</w>
ചി ത
കർ ണാ
ക്‌ സ
ക്രിസ്‌ തു
ക്രിസ്‌ തീയ</w>
ക്ര ൂ
കാരണ ങ്ങൾ</w>
ഊ ര്‍
ഉദ്ഘാ ടനം</w>
ഇട യാ
ഇ രിക്ക
ആവശ്യ മായ</w>
അവസ രം</w>
അനു സ
അന ുകൂ
3 :
ഹി ക</w>
വിധ ം</w>
ലി ം</w>
യോഗ ത്തില്‍</w>
യഹോവ യെ</w>
മേ ധാ
മെഡിക്ക ല്‍</w>
മൂ ല്യ
പ്ര ച
പുറ ത്തു</w>
പാക്കി സ്ഥാന്‍</w>
നിറ ം</w>
നിയ മ</w>
ന മാണ്</w>
ദീ പ്</w>
ത്ത ൊ
താ ങ്ക
തര ണം</w>
ക്ര ീ
കാണ ുക</w>
ക ൈ</w>
ക ള്ള
ക ക്ഷ
ഒരാ ള
ഒ ന്നു</w>
എല്ലാ വർക്കും</w>
ഇ വരുടെ</w>
ഇ ന്നി
ആ ലോച
അന്താ രാഷ്ട്ര</w>
അനു ഗ്രഹ
അ ർ
1 ,
െ ന്ത
ു തന്നെ</w>
ശി വ
വൈറ സ്</w>
വൈ കാ
വിവര ങ്ങൾ</w>
വാ ർത്ത
വര ുന്ന
വ െ</w>
വ ുകൾ</w>
ല് യം</w>
രാഷ്ട്ര പതി</w>
രാ വിലെ</w>
യാ ൻ</w>
പിട ിച്ചു</w>
പി ന്‍
ന് ദി
നേട ിയത്</w>
നൂ റ്റാ
നാ ണ
ദ് ദേശ
ദ മ്പ
ണ്ടാ യിരുന്നു</w>
ടു ക</w>
ച്ച് ‌</w>
ങ്ങള ൊന്നും</w>
ക്യാപ്റ്റ ന്‍</w>
ക്കുറ ിച്ചു</w>
ക്കാ ര്‍</w>
കുട്ടികള ുടെ</w>
കിര ീ
എതി ര്‍
ഉദ്യോഗ സ്ഥ
ആ റ്</w>
ആ ഗോ
അവ ളെ</w>
അന് തി
അത ൊന്നും</w>
അ നാ
ുക യാണ
ീക രണ
ിലേ ക്കു</w>
ിട്ട ു</w>
സന്തോഷ ം</w>
വേണ്ട ി
വേ റ
വെല്ലു വിള
വീ ട്</w>
വിമ ർശ
വിട്ട ു
വി ൻ</w>
വി കാര
വന ന്ത
ള ള
ലോക ത്തെ</w>
രാ ന്‍</w>
യഥാ ർ
മ ൊന്നും</w>
ഭൂ മി</w>
ബാ ക്കിയ
ബ ാന
പ്പു റ
പ്പ െ</w>
പറയാ ന്‍</w>
പണ ി</w>
പ ുക
ന്റ േ
ന് ത</w>
നി ന്‍റെ</w>
നടത്തി യത്</w>
തിരു വനന്ത
താ പ
താ ത്‌
ത ത്
ജ ്യ
ജ േ
ജ യം</w>
ഗ് ഗ
ഗ മ
ക്ഷ ന്‍</w>
ക്ക് ​</w>
ക്ക രുത്</w>
കേ ണ്ട
കൂട്ട ിച്ചേ
കുറ ഞ്ഞ</w>
കാ ല</w>
ഒ ന്നി
ഏതെ ങ്കിലും</w>
എന്തി നാണ്</w>
എന്താ ണ്‌</w>
ഉത്ത ര്‍
ആർ ക്കും</w>
ആശുപത്രി യിലേക്ക്</w>
അധ ്യാപ
അ ഭ്യ
1 :
1 5
സമയ ത്ത്</w>
വേ ല
വാ യ
ഴ് സ്</w>
ഴ ിക്ക
മുഴുവ ൻ</w>
മുണ്ടാ യി</w>
മുഖ ം</w>
ബലാ ത്
ഫ റ
പൗര ത്വ</w>
പോ യി
പേ രു
പെ ട്രോ
പുറ മെ</w>
പിന്നീ ട
പിടി യിലാ
ന്മാ രും</w>
നിന്ന െ</w>
ജനറ ല്‍</w>
കൂ ട്ടി
കണ്ടെ ത്ത
ഓ രോ
ഉ ച്ച
ഇന്ത്യ യിൽ</w>
അവർ ക്കു</w>
അത ോ</w>
a m
ൂട െയാണ്</w>
ിച്ച ിരിക്കുകയാണ്</w>
സ്വാ മി</w>
സൈ ന്യ
ഷ ോ
വി വേ
വി വാദ
യില ൂടെ</w>
യിട ത്തും</w>
ബാ ബ
പ്രശ് നങ്ങൾ</w>
പ്പോ ൾ</w>
പോലീ സുകാ
ന്ന ത്</w>
നേരി ട്ട
നി പ്പ
ന േ</w>
ത്തുട ര്‍
തട സ്സ
ചൈ ന</w>
ങ്ങളി ലാണ്</w>
ക്യാ മറ
ക്കൊ ള്ള
ക്കൊ പ്പം</w>
ക്കൊ ണ്ട
ക്കാ ള്‍</w>
കൊറോ ണ</w>
കൂടി യാണ്</w>
കുഞ്ഞ ു
ഒ ന്നു
ഏറ്റ െടു
ആശുപത്രി യിലെത്തി
അപകട ത്തില്‍</w>
ർ ത്തു</w>
േണ്ട ത്</w>
ൂ ർ</w>
ിയ ോ</w>
ിക്ക േണ്ട</w>
സ് ത</w>
സിനിമ യുടെ</w>
സാങ്കേ തിക</w>
സമ രം</w>
സഞ്ച ാ
ശബ് ദ
വെ ട്ട
വെ ടിയ
വിദ്യാഭ്യാ സ</w>
റണ്‍ സ്</w>
റ ഷ്യ
രാ ത്രി
യ ൊ
മൃതദേ ഹ
മാ യിരുന്നില്ല</w>
മലയാ ളം</w>
പ്രവർത്ത ന
പോ വ
പാ ത
നി രാശ
നാ ലു
ത്തി ല്‍
തന്ന േ</w>
ത യാ
ട ക്കം</w>
ജീവിത ത്തിൽ</w>
ചെയ്യ ുന്നതി
ക്‌ സ്</w>
ക്യാ മറ</w>
ക്ക ര്‍</w>
കേര ള</w>
കര്‍ണാ ടക</w>
ഓപ് ഷന
ഒട്ട േറെ</w>
ഐ സി
എന്നിവ രാണ്</w>
ഉപ കരണ
ുക ള്‍ക്ക്</w>
സാധ ിക്കും</w>
സ മു
വ്യവ സാ
വ്യത്യാ സ
വളരെയ ധികം</w>
വന്ന ത്</w>
ല ാ</w>
റ ുകള്‍</w>
യ േ</w>
ഫ്ര ിക്ക
ഫോ ൺ</w>
പറയാ ൻ</w>
പ ിയും</w>
പ ട്ടി
ന് താണ്</w>
നോ ട്ട
നടത്തി യ
ദക്ഷി ണാ
തു ക</w>
ടേ ബി
ചടങ്ങ ില്‍</w>
ച ർച്ച</w>
ഗ ീ
കുട്ടികള ും</w>
കണ്ടെ ത്തി</w>
ക രിച്ചു</w>
ഉ ം</w>
ഇത ൊന്നും</w>
അറസ്റ്റി ലാ
അധ ്യാപക
2 3</w>
ിക ള്‍
സാ മൂ
സാമൂ ഹിക</w>
സ യ
സ ജ്ജ
ശ് യ</w>
റില ീസ്</w>
ര്‍മാ ര്‍</w>
രാജ സ്ഥാന്‍</w>
യു മാണ്</w>
യിച്ച ത്</w>
യാള ുടെ</w>
യാ വ
യാ ന്‍</w>
മ ടങ്ങ
ബ ്‌</w>
പ്ര യോഗ
പേ ര്‍
പേ രുടെ</w>
പെട്ട െന്ന്</w>
പറയ ുന്ന
പ ന
ന്ത രം</w>
ന് താ
ദ് ‌</w>
ദ് രാ
ട് വീ
ഗുജറാ ത്ത്</w>
കോണ്‍ഗ്ര സും</w>
കോ ഹ്‌
കാര്യ ത്തിൽ</w>
കാണ ാൻ</w>
കര്‍ ശ
ഒരാ ള്‍</w>
എന്നി വിട
ഇ പ്പോൾ</w>
ഇ ന്ന്</w>
ആത്മഹ ത്യ</w>
അര ങ്ങ
അതി ന്‍റെ</w>
ോ ടു</w>
െ ത്ത
ിക്കു മെന്ന്</w>
ിക ള്‍ക്ക്</w>
ഹൈ ദ
ഹ ർ
സ്വീ കരിച്ച
സ്ത്ര ീ</w>
സ് ര
സീ റ്റ്</w>
സന്ത ു
ശ ത്ര
വിഷ യം</w>
ഴി ൽ</w>
യുദ്ധ ം</w>
മൊ ഴ
മാ ണം</w>
മാ കുന്നു</w>
ബ ൂ
പ്രതി കരണ
പ്പോ ലെ</w>
പിന്തു ണ</w>
പരിഹാ ര
ന്‍റ െയും</w>
നിയ ോഗ
ദ്യ ം</w>
ത്തി യത്</w>
തീവ്ര വാദ
ത നിക്ക്</w>
ഡയറ ക്ട
ചേര്‍ ത്ത്</w>
ച ൊ
ച നം</w>
ഗ ാന
കോണ്‍ഗ്ര സിന്</w>
കൊല്ല പ്പെട്ട
കെ ട്ട
കുട്ട ികള്‍</w>
ഇംഗ്ല ണ്ട്</w>
അടി സ്ഥാന</w>
1 7
സാധ്യ തയ
സഹാ യി</w>
ശ്വാ സ
ശ ീല
വർ ഷം</w>
വ്യ വസ്ഥ
വീ ണു</w>
ല ധികം</w>
റി മാ
റ ങ്ങ
ര്‍ ഡ്</w>
രാ യിരുന്നു</w>
മൂ ല
മത്സ രിക്ക
മ ഞ്ഞ
ഫേ സ്ബു
പ്രസി ദ്ധ
പ്രകൃ തി
പ്പോ യി</w>
പ്പി ന്</w>
പൂർ വം</w>
പാ ണ്ഡ
പാ ടി</w>
പറ്റ ില്ല</w>
പ ടി
നാ ണ്‌</w>
ന ങ്ങള്‍</w>
ത്താ വള
തെരഞ്ഞെടു പ്പില്‍</w>
തുറ ന്നു</w>
ട ൈ
ക്കു മെന്ന്</w>
ക് സ
കേ ന്ദ്
കാ ര്‍</w>
കണ ക്കാ
ക ു</w>
ഒട്ട ും</w>
ഏ ര്‍
എഴു തി
ഇ താ
അഭി നയിച്ച
അത്യാ വശ്യ
അത്ഭു ത
അ ല്ലാതെ</w>
അ ഫ്
3 00</w>
സ്‌കൂ ള
സ്വാ ധീ
സൈ ന്യം</w>
സി നെ</w>
സി ദ്ധ
സഭ യില്‍</w>
ശേഷ മാണ്</w>
വെളു ത്തുള്ള
വെ ഴു
വീ ഴ്
വി മാനം</w>
വാക്യ ങ്ങൾ</w>
വയ സ്സ
വ ്യാപക
ഴ ുന്ന
ല ്</w>
റ്റ ഡ്</w>
രി വാ
മോ ട്ടോ
മുതി ര്‍ന്ന</w>
മാ വ
ബാ ക്കി</w>
ബ ്‌
ഫീ സ്</w>
പൗലൊ സ്‌</w>
പ്ര ക
പൊ ട്ട
പേ രി
പശ് ചാ
പരിഹാ രം</w>
പ യ
നീ തി</w>
നില വാ
നിര ക്ക്</w>
നിയന്ത്ര ണ
നി ന്നു
നാ യ
തിരു വെഴു
തകര്‍ ന്നു</w>
ട ിച്ച
ജോ ലി
ജാഗ്ര ത</w>
ജ ്‌
ചുമ തല
ഗ ർ
ഗ ര്‍
കേരള ത്തില്‍</w>
കൂ ട്ടി</w>
കുടു ംബാ
കുട ി
കഴിയ ുന്ന
ക ല്ല
ഓസ്‌ട്ര േലിയ
എവിട െ
എടു ത്തു</w>
ഇതി നെ
ഇങ്ങ നെയ
ആദ്യ ത്തെ</w>
അപ്പ ൊ
ം ഗ</w>
ർ ഘ
ൊ ന്നു
ിക്ക ൂ</w>
ിക ളില്‍</w>
ഹൈദ രാ
ഹൈക്കോട തി
സാഹച ര്യം</w>
സാ മൂഹ
സമ്മ ർ
സംഭ വ</w>
വൈദ്യു തി</w>
വാർ ത്ത</w>
വാഹ നം</w>
വ കലാ
ലക്ഷണ ങ്ങൾ</w>
റിപ്പോ ര്‍ട്ട
റ ൺ
രോ ധ</w>
രു വ
രാ ള
ര ച
യിര ിക്കുന്ന</w>
മെഡിക്ക ൽ</w>
മൃ ഗ
മാ യത്</w>
മന സ്
മ ധു
ബാ ല
പ്രതി രോധ</w>
പ്രതി പക്ഷ</w>
പ്ര യോ
പ്പെട ുകയും</w>
പി ഴ
പരമാ വധി</w>
നമ്മ ള
ത്തി ൽ
ത്ത ുള്ള</w>
തെളി യി
തൃ പ്
ട ിച്ചു</w>
ഞ ങ്ങൾക്ക്</w>
ചെന്ന ൈ</w>
ചില ര്‍</w>
ചികിത്സ യിലാണ്</w>
കോളേ ജ്</w>
കൊണ്ട ുവ
കൂടിക്കാ ഴ്ച</w>
ക ി</w>
ഇ ടി
ആ ഴ
അമേ രിക്ക</w>
അദ്ദേഹ ത്തിന്റെ</w>
1 .
ൊ ന്നുമില്ല</w>
ിച്ച ിരിക്കുന്നത്</w>
ഹരി യാ
ഹ ൂ
സുഹൃത്തു ക്കള
സാ ം
ശാ ന്ത
വ്യാ യാ
വി ലാ
വി ന്ദ്</w>
റ ീ
ഭ ീക
ന്മാ രെ</w>
നീ ക്ക
നടപട ികൾ</w>
ധാ രണ
തിരി കെ</w>
തിരഞ്ഞെടു ക്കുക</w>
തയ്യാ റ
ത യാണ്</w>
ടെ ലി
ട ാ</w>
ഞ്ഞ ാ
ജാ തി
ക്രി യ
കോ ഴിക്ക
കാര്യ മായ</w>
കാര്യ ത്തില്‍</w>
കാ ർ
ക രി
ഐ പി
എ ച്ച്
ആരോ പണം</w>
‌ ്</w>
ൊക്ക െയാണ്</w>
േറ്റ ു</w>
െയ ുണ്ട്</w>
ുക യില്ല</w>
ിപ്പ ിച്ചു</w>
സ്പൂ ണ്‍</w>
സോ ണി
സാ ഹി
സഭ യിൽ</w>
സ ഭാ
വു ക</w>
വീട്ട ില
ലേ ക്കു</w>
ല ുകൾ</w>
ല ുകള്‍</w>
രു ത്‌</w>
രക്ഷ ാ
ര ുന്ന
യി സ്
യഹോ വ
യ െന്ന്</w>
മ്പ ്</w>
മ് യാ
മെ ല്ലാം</w>
മാ യിരിക്ക
മത് സ്യ
ബ്രി ട്ട
പ്രോ ത്സാഹ
പ്രതി കരിച്ച
പ്പെട ുന്ന
പോ ലിസ്</w>
പെ ട്രോ
പുറത്തു വിട്ട
പഞ്ചാ ബ്</w>
ന്‍ സ
ദ് ദേശം</w>
ദാ ംശ
ദ ല്‍
തോ ല്‍
തി നു</w>
ചിത്ര ത്തിലെ</w>
ഗാന്ധ ിയുടെ</w>
കേന്ദ് രം</w>
കഴിഞ്ഞ ില്ല</w>
കമ്പ നി</w>
എത്ത ുന്നത്</w>
ഉപയോഗ ിച്ച്</w>
ആശ ംസ
അവ ന
am e</w>
2 8</w>
ുക ൾക്ക്</w>
സാധ്യ ത
സ ദൃശ
ശ ർ
ശ ീ
വർ ദ്ധ
വ്യക്ത മല്ല</w>
വിമാന ത്താവള
വി ല്ല
വായി ക്കുക</w>
വാ ച
ള ിയ
ലി ന്</w>
രു ച
രക്ഷ ി
യ ോട്</w>
യ െയും</w>
യ ത്‌</w>
മുന്ന ില്‍</w>
മുട ി</w>
മു സ്‌
മി ക്ക</w>
ഭേദ ഗതി</w>
ബാ ധി
പ്രതിനി ധ
പ്ര ൊ
പോ യ</w>
പി ണ
പാകിസ്താ ന്‍</w>
പല തും</w>
നില വിൽ</w>
നിര്‍ മ്മ
ദുര ന്ത
ത് ഥ</w>
ത െന്നും</w>
ത ര</w>
ഡി യ</w>
ചി പ്പ
ങ്ങി നെ</w>
ക്കുറ ിച്ചുള്ള</w>
കുരു മുളക്</w>
കരു തി
കയ റി</w>
ക യ്
ഉള്ള ി</w>
ഇദ്ദേ ഹം</w>
ഇ വര്‍ക്ക്</w>
ആ വേശ
ആ വര്‍ത്തി
അറസ്റ്റ ില്‍</w>
അ ല്
8 0</w>
േണ്ട ി
ൊ രു</w>
ില്ല േ</w>
ിച്ച ുകൊണ്ട
സ്വന്ത മാ
സ്ഥാനാ ര്‍ത്ഥ
സു മായി</w>
സി സി
സ ൊ
ശാ രീ
വെ ളിച്ച
വിശ ദാംശ
വാഹ ന</w>
വാ സ്
ലോക ത്തിലെ</w>
റ്റ ിൽ</w>
റെ ക്കോ
രാജ ്
രംഗ ത്ത്</w>
മോദ ിയെ</w>
മൂ ന്നാ
മാണ െന്നും</w>
മ ൗ
ബെ ംഗളൂ
ബലാത് സംഗ
പൂര്‍ണ മായും</w>
പി രി
പാ ച
പശ് ചി
പരാമ ർശ
നിർ ദേശ
നാട്ടുകാ ര്‍</w>
നാ ര
നല്‍ക ിയത്</w>
ധ ിക
ത്ത ോട
തുട ങ്ങി
തര ത്തിലുള്ള</w>
ണ്ണ ാ
ഡ്ര ൈ
ജാ മ്യം</w>
ചേർ ത്ത്</w>
ങ്ങള െല്ലാം</w>
ക്കെ തിരായ</w>
ക്കാ രെ</w>
കൃഷ് ണ
കുമാ ര
കശ്മീ ര്‍</w>
കര ണ</w>
ഓ ട്ടോ
ഒരാ ൾ</w>
എംഎല്‍ എ
ഇത ാ</w>
ഇ ഞ്ച
ആഭ്യ ന്തര
അവ ര്‍
അമേരിക്ക ന്‍</w>
അ പേക്ഷ</w>
ം സ്</w>
6 :
5 0
2 6</w>
െടു ക്കുക</w>
ില ൂടെ</w>
ിച്ച ത്‌</w>
സ്വാതന്ത് ര്യ
സേ ന
സമാധാന ം</w>
സങ്കീർത്ത നം</w>
സംഭവ ത്തെ</w>
ശിവസേ ന</w>
വീ തം</w>
വിദ്യാഭ്യാ സം</w>
വി ഭവ
വാക്ക ുകൾ</w>
വ ന്ന</w>
രൂപ ീകരിക്ക
യുവാ വ്</w>
യഹോ വ</w>
മെ ങ്കിൽ</w>
മാ യിട്ട
മ ൊക്കെ</w>
മ രിച്ച</w>
ഭരണഘ ടന
പ്രേ ക്ഷ
പ്രതി കള
പ്ര കാര
പ് ര</w>
പൊലീ സുകാ
പിടികൂ ടി</w>
പാ പ
പാ ട്ട
പ റ്റി</w>
നൽക ുന്നു</w>
നേ രം</w>
നിക്ഷേ പ
നി ങ്ങള്‍ക്ക്</w>
ദു ഃ
ത്ത വ
താ യ</w>
ത ങ്ങൾ</w>
ടെ സ്റ്റ
ട ്‌
ജീവ ൻ</w>
ചിത്ര ങ്ങള്‍</w>
ക്കെ തിര
കോടതി യിൽ</w>
കാ ത്തി
കഴിയ ു
കര്‍ണാ ടക
എത്തി ച്ച
എങ്ങ നെയ
ഇന്ത്യ യ്ക്ക്</w>
ആയിര ക്കണ
ആ ഗ്രഹം</w>
അ ഥ
അ തീ
o r
3 0
ർ ക്കു</w>
ോ ധ
ിക്ക ള
സ്വാ ഗ
സീ താ
സ ജീവ
വിന ോദ
വിദ ഗ്
വരു ത്ത
ര ുക
ര വീ
യിലേ ക്കു</w>
യി ത്തീ
യാ ണിത്</w>
മോ ഡി</w>
മി ല്ല
മാ നേ
പ് പ്
പരുക്കേറ്റ ു</w>
പരമ്പ ര</w>
ന് യാ
ന വ
ദു ഷ്ട
ദാ സ
ത്ത ല
ണ്ട ാ</w>
ജാ ല
ചല ച്ചി
ങ്ങള ുമായി</w>
ക്രമ ം</w>
ക്കേ ണ്ട</w>
കോ വിഡ്</w>
ക ൈവ
എന്ന താണ്</w>
എ ൽ</w>
ഉറ ങ്ങ
ഇത ൊക്കെ</w>
ആള ുകള്‍</w>
ആ ന
അവ ന്റെ</w>
അന ുക
ൻ ഡ
ീ യം</w>
ില ു
ിട്ട ്</w>
ിക്ക ൂ
ിക്ക പ്പെട്ട
ഹിന്ദ ു</w>
സ്‌ തല
സ്റ്റ േഷ
സര്‍ വീ
സമ് മാന
സദൃശ വാക്യങ്ങൾ</w>
ശക്ത മായി</w>
ശ ൂ
വില യിരു
വി ട്ട്</w>
വ ലി</w>
ല യം</w>
രഹ സ്യ
രക്ഷി താ
ര ംഭ
യ ുള്ള
യ ുടെയും</w>
മെ ന്റ
മു ഖ</w>
മ ല്ല
ഫ ിക്ക
പൗ ലോ
പ്രിയ ങ്ക</w>
പ്രശ്‌ന ങ്ങള്‍</w>
പ്രധാന മാണ്</w>
പ്രദ ര്‍ശ
പ്രത്യേക ിച്ച്</w>
പോ ലെ
പൂർ ത്തിയാ
പൂ ര്‍</w>
പുതി യ
പഠ നം</w>
ന് യ</w>
നേ ട്ടം</w>
നീ സ്</w>
നിര്‍ മ
നാ ഷണ
തു മില്ല</w>
ജനറ ൽ</w>
ചെല വ്</w>
ങ് ‌
ക്ഷ ീ
കേര ളം</w>
ഏക ദിന
ഏ ർ
ഇള ക്കുക</w>
ഇതി നെതിരെ</w>
ഇ നിയ
ആ വ
ആ രു
അധികൃത ർ</w>
അത ൊക്കെ</w>
2 :
ർ ട്ട്</w>
േണ്ട തുണ്ട്</w>
ുന്ന തും</w>
ിച്ച ിരിക്കുന്നു</w>
ഹൃദ യം</w>
സംഭ വിച്ചു</w>
ഷൂ ട്ടി
ഷ ീ
വ്യ ക്തി</w>
വെളുത്തുള്ള ി</w>
വി റ്റാ
വന്ന ിട്ടില്ല</w>
വ സ്ത്ര
ലി മി
ല ണ്ട
റി പ്പ
ര്‍ ണ
രാ ണ
യാ ം</w>
മേ ൽ
മാ രു
ഭൂ മ
പ്പി ന്റെ</w>
പറയാ ം</w>
നിന്ന ാണ്</w>
നി റു
നഷ്ട ം</w>
ധോ ണി</w>
ദേ വ
ദൂ ര
ദ ോഷ
ത്ത ോ
തിരുവനന്ത പുരം</w>
തിര ക്ക
തി ന്‍റെ</w>
തട യ
ഞ ങ്ങള്‍ക്ക്</w>
ചിത്ര ങ്ങൾ</w>
ക്കു ്</w>
കി ഴ
കാ ശ്മീ
ഏ ഷ്യ
എങ്ങ നെയാണ്</w>
ഇക്കാര്യ ത്തില്‍</w>
ആവശ്യ പ്പെട്ട
അപ്പൊ സ്‌തല
ർ ന്ന്</w>
േ ലിയ</w>
െന്ന ാ
ുണ്ടാ കും</w>
ുട െ
ിട്ട ുണ്ട
സ്റ്റ ർ</w>
സൈനി ക</w>
ഷ ിപ്പ
ശ്വാ സം</w>
ശ ്</w>
വികസ ന</w>
വി ന്‍</w>
വര്‍ ണ
വ ലി
രേ ാ</w>
രിക്ക ുന്നു</w>
രാജ്യ ത്തിന്റെ</w>
ര ജ
യുവതി യെ</w>
യു ന്ന</w>
യാ ഗ
യാ ക്കി</w>
മാ നു
മറ്റ ാ
മന് ത്ര
ഭീക രാ
ഭാര്യ യും</w>
ഫ ി</w>
പ്രാ ദേശ
പാ ല്‍</w>
പരു ക്കേ
പരി പാടി</w>
പച്ചക്ക റ
പ ിയുടെ</w>
നേതാ ക്കള
നില വില
നമ്പ ർ</w>
ത്തിലാ യിരുന്നു</w>
താ ഴ്‌
തക ള്‍</w>
ജ യ്
ചെയ്യാ നാ
ങ്ങള ുടെയും</w>
ഗൗ രവ
ക്രമ ണ
കോഴിക്ക ോട്</w>
കൈ കാര്യം</w>
കാണ ാന്‍</w>
ക ൊ</w>
ക പ്പ
ഔദ്യ ോഗ
ഓ വ
ഒഴ ുക
ഒടു വില്‍</w>
എടു ത്തി
ഉണ്ടാ യിരുന്ന
ഇ വര
ഇ റാ
ആദ്യ മായി</w>
ആ വർത്തി
ആ യിരിക്കും</w>
ആ നന്ദ
അധ്യക്ഷ ൻ</w>
അതി ല
അ സുഖ
3 2</w>
് വാ
െത്തി യ</w>
െ ല്ലാ
ീ കരണം</w>
സ്വർ ഗ
സ്വ സ്ഥ
സ്ത്രീ കളും</w>
സി ന്ധ
സാക്ഷ ികൾ</w>
സമ്മേള നം</w>
സമ്മ ര്‍
സന് ദേശം</w>
ശുശ്രൂ ഷ
വി തരണം</w>
വി ത
വാര്‍ ത്ത
വ െയ്
ലോക ത്ത്</w>
റെ യില്‍
റ ുടെ</w>
ര്‍ ത്ത
രക്ഷ പ്പെട്ടു</w>
യിസ് രായേ
മി ല്ലാത്ത</w>
മാർ ഗ
ഭാ രം</w>
ബി ല്‍</w>
ബന്ധ പ്പെട്ട
ബ സ
ഫ് രാ
ഫ ുട
പ്ര വ
പോക ുന്നത്</w>
പുരോഗ മ
പാ ൽ</w>
നൂറ്റാ ണ്ട
തെ റ്റി
തിരിച്ച ു
തി യും</w>
തവ ണ
ഡോ ള
ടീ സ്പൂൺ</w>
ജ ോ
ചെയ്തി രിക്കുന്നത്</w>
ങ്ങ ിയ
ക്ക േ</w>
കോടതി യെ</w>
കാരി ക</w>
കര്‍ ക്ക്</w>
കര മായി</w>
കട ന്നു</w>
ക ുന്നില്ല</w>
ക ണ്
ഒന്നാ മ
എന്നിവ യാണ്</w>
എന്നി ങ്ങനെ</w>
എ ൻ</w>
ഉയ ർന്ന</w>
ആ ദാ
അവിട െ
അതീ വ</w>
അ ശ്
5 :
േ ണം</w>
ാന ി</w>
സ്‌ നാ
സു ഷ
വർ ഗ
വിധ ത്തിൽ</w>
വിക്ക റ്റ
വി ശുദ്ധ
വി ഭ
വി ദ്യ
വാഗ് ദാനം</w>
വാ ഗ്‌
വ ച്ച്</w>
റ ുകൾ</w>
റ ിച്ച്</w>
രോഗ ം</w>
യ് ക്ക
യോഗ ി</w>
യൂ റോ
യ ുള്ളൂ</w>
മാതൃ ക
മക്കള ും</w>
മ ്യൂ
ബ ദ്ധ
പ്രാ ഥ
പ്രവേശ നം</w>
പ്രയോ ജന
പ്പി ലാ
പോലീ സും</w>
പോരാ ട്ട
പേജ ിലെ</w>
പിന്ത ുട
പി റ്റ
നൽകി യ</w>
നെ ക്കുറിച്ച്</w>
നു സരിച്ച്</w>
നിര്‍ ത്ത
നി ത്യ
നി ങ്ങൾ
നല്‍ കും</w>
നമ്മ ളെ</w>
ന ല്
ദുഃ ഖ
ത്തി നെതിരെ</w>
ത്ത ോട്</w>
തമി ഴ്
ഞെ ട്ട
ചാ മ്
ങ്ങ ാ
ഗ വേഷ
കൃ ഷി</w>
കുറ ിച്ചുള്ള</w>
കാ യി
കഴി യാ
ഏതാ ണ്ട്</w>
എന്ത ു
ഉപ യോ
ഉത്തര വ്</w>
ആ ഹ്
ആ റു</w>
അവ രിൽ</w>
അനുഭവ ം</w>
അനുകൂ ല
അധ്യ ക്ഷ</w>
അങ്ങ നെയാണ്</w>
അ ദ്ധ്യ
19 9
ർ ത്തി</w>
് രി
െടു ത്ത്</w>
ിരിക്ക ുന്ന
ിക്ക പ്പെട്ടു</w>
ിക ൾക്ക്</w>
സ്പീ ഡ്</w>
സൂപ്പ ര്‍</w>
സി റ്റി</w>
സര്‍ക്കാരി ന്</w>
സംഗീ ത
ശി ഷ്യ
ശ ി</w>
വി ദേശ</w>
വാസ് തവ
വരി ൽ</w>
വകു പ്പ
വ ുകള
ള ു</w>
ല് യ</w>
ലി നെ</w>
രാജ സ്ഥാ
യിരിക്ക ാം</w>
മേധാ വി</w>
മൂ പ്പ
മൂ ന്ന
മീഡിയ യില്‍</w>
മാണ ു</w>
മാ രുടെ</w>
ബിജെപ ിയും</w>
പ്രാധാ ന്യ
പൊ ലിസ്</w>
പൊ ടി</w>
പുര സ്
പാർ ട്ട
പല പ്പോഴും</w>
പരീ ക്ഷ</w>
പരിക്കേറ്റ വരെ</w>
പഞ്ചാ യ
പ ന്ന
പ ന്തി
പ കര്‍
നൽ കുന്ന</w>
നോ ക്കി
നിമി ഷ
നടത്ത ുന്നത്</w>
ന ുണ്ട്</w>
ത്ര േ</w>
തെറ്റാ യ</w>
തിരിച്ച റിയ
തിനാ ൽ</w>
താ യാണ്</w>
ഡൽ ഹി
ഡ ്‌</w>
ജീവ ന്‍</w>
ജനാധിപ ത്യ
ചൂ ടാ
ങ്ങള ു
ഗ ി</w>
ഖ ാന്‍</w>
ക്കാ തെ</w>
ഓപ്ഷന ുകൾ</w>
ഒടു വിൽ</w>
ഒ ന്നുമില്ല</w>
ഒ ന്നാണ്</w>
ഏ ഴ്</w>
എന്നാ ലും</w>
എന്ന ോട്</w>
എന്ന ു
എം പി</w>
ഉണ്ടാ യിട്ടില്ല</w>
ആള ുകളെ</w>
അഭി മുഖ
അപ്പ ീ
അത ോടെ</w>
അ ജി
ർമാ ർ</w>
ുന്നതി നു</w>
ഹ ന്ന
സ്‌ ഫോട
സ് പെ
സോണി യ</w>
സേവ നം</w>
സഖ ്യം</w>
സംഭവിച്ച ത്</w>
ശ രി</w>
വെടി വെ
വിശ്വാ സി
വിള ിച്ചു</w>
വാഹന ങ്ങള്‍</w>
വ ോ</w>
ള്‍ ഡ്</w>
ലേ റെ</w>
രു ക</w>
രി ക</w>
മു മ്പാ
മാ ന</w>
മാ ക്കി
മ കൾ</w>
ഭാര്യ യെ</w>
ബംഗ്ലാദേശ ്</w>
ബ ൗ
പ്രി യ</w>
പ്രവര്‍ത്ത കര്‍</w>
പ്ര ൊ
പോ കും</w>
പാർ ട്ടി</w>
പാ ര
പറയു ന്ന</w>
പരി ശുദ്ധ
പ ലി
ന്‍റ ്</w>
നേതാ ക്കള്‍</w>
നാ ടക
ദീ ർഘ
തി ന്റെ</w>
തി ന്നു</w>
ടോ സ്</w>
ടി യ</w>
ഞാ നി
ചേര്‍ ന്ന്</w>
ചെന്ന ൈ
ഗാന്ധ ിയും</w>
ഗ വര്‍ണ
കോളേ ജ
കൃത്യ മായി</w>
കൃത്യ മായ</w>
കുറ്റ ം</w>
കുടുംബാ ംഗ
കാര്യ മല്ല</w>
കള ി</w>
ക ൺ
ക ല</w>
ക ട്ട
ഒഴിവാ ക്കുക</w>
ഒരാ ളെ</w>
ഐ ക്യ
ഉ പാ
ഇതിന കം</w>
ഇക്കാര്യ ത്തിൽ</w>
അന്ത രിച്ചു</w>
അഥ വാ</w>
അ ത്യ
അ ഗ്
െയ ുള്ള
െ ക്കുറിച്ച്</w>
ുക യോ</w>
ുക യാ
ിച്ച ിരുന്നില്ല</w>
സൗജ ന്യ
സീറ്റ ുകള്‍</w>
സന്തു ഷ്ട
ശ്രദ്ധ േയ
ശ് വര
ശേഷ ി</w>
വോ ട്ട്</w>
വൈകാ തെ</w>
വേദ ന
വാ തി
വരു മാനം</w>
ലോക കപ്പ്</w>
ലഭ്യ മാണ്</w>
റ ോ
രിച്ച ത്</w>
രാഷ്ട്ര ീയം</w>
ര ന്‍</w>
യു എസ്</w>
മുന്നറിയി പ്പ്</w>
മാ ർ</w>
മദ്യ പ
ഫ ോ
പ്രസാ ദ്</w>
പ്രവൃത്തി കൾ</w>
പ്ര മാണ
പ് യൂട്ട
പോ ലുള്ള</w>
പുറ പ്പെടു
പാര്‍ ട്ടി
പാക്കി സ്ഥാ
നില നില്‍
നിറ ഞ്ഞ</w>
നിര്‍ ബന്ധ
ദേശ ീയ
ദീ പ
ദി പ്പ
ദല്‍ ഹി</w>
ത്തുടര്‍ ന്ന്</w>
ത്ത േ</w>
തുടർ ന്നു</w>
താമ സം</w>
തന്നെ യായിരുന്നു</w>
ത ുക
ഡി സ്
ചു രു
ങ്ങള െയും</w>
ഘാ ത
ഗ െയി
കർ ത്താ
ക്കേണ്ട ത്</w>
ക്കെ തിരേ</w>
ക്ക ില്‍</w>
കോണ്‍ഗ്ര സി
കാല ത്ത്</w>
കാ ർ</w>
കസ്റ്റഡിയില െടുത്തു</w>
കര മാണ്</w>
കണ്ടെ ത്താൻ</w>
ഒരു ക്ക
ഏഴ ു</w>
ഏക ദിന</w>
ഉൾ പ്പെടുന്നു</w>
ഉത്തരവാദി ത്വ
ഇദ്ദേ ഹ
ആക്രമണ ത്തില്‍</w>
അഫ് ഗാ
അടു ത്തി
അംഗ ീ
4 00</w>
ൻ റെ</w>
േണ്ട ി</w>
ുണ്ടാ യ</w>
ുക െ
ുക യാണ്‌</w>
ിയ ുമായി</w>
ിക്കേണ്ട ത്</w>
ാ തെ</w>
ഹ ോ
സ് മാ
സി റ്റി
സന് ദേശ
സംസാ രിച്ചു</w>
സംഖ ്യ</w>
ശത്ര ു
ശ ര
ശ ങ്ക
വ്യാ ജ
വെളി പ്പെടുത്തി
വെറു തെ</w>
വീ ഴ
വീ ണ
വിഷ മ
വിശ ദീ
വിശദീ കരണം</w>
വി റ
ല്‍ നിന്ന്</w>
ലോ ഡ്</w>
ലൈംഗ ിക</w>
മേ ൽ</w>
മി ട
മത്സര ത്തില്‍</w>
മ ത്തായി</w>
മ ത</w>
മ കള
ഭി ന്ന
ഭാ വിക
ബ ഹ
പ്രാധാ ന്യം</w>
പ്രസ്താ വന
പ്രവര്‍ത്ത നം</w>
പ്രയാ സ
പ്രകട നം</w>
പ്ര മുഖ</w>
പോക ുന്ന
പോ സ്റ്റ്</w>
പൊലീസി നെ</w>
പെണ്‍ കുട്ടിയെ</w>
പിന്ന ില്‍</w>
പരിക്കേറ്റ ിട്ടുണ്ട്</w>
പദ വി</w>
പങ്കാ ളി
ന് റി
നിന ക്കു</w>
നി ങ്ങൾക്കു</w>
ദ് ദം</w>
ദമ്പ തി
ദ ൗ
ത്തി ന്റെയും</w>
ത്താ ം</w>
തീയ തി</w>
തിരുവെഴു ത്ത
തിരഞ്ഞെടു പ്പില്‍</w>
തിര ച്ചില്‍</w>
താ നും</w>
ത നിക്ക
ണ്‍ ലൈ
ഡി ഗ്ര
ട്വീ റ്റ്</w>
ട്ടി ഫിക്ക
ജി ബി</w>
ച്ച ാ
ചെറു പ്പ
ചാമ് പ്യ
ഗാന്ധ ി
ഗവ ണ്‍
ക് ‌</w>
കു ള
കു ത്ത
ഓ ടി
ഒ ക്ക
എന്നാ യിരുന്നു</w>
ഉപ ദേശ
ഉട നെ</w>
ഇന്റ ര്‍
ഇംഗ്ലീ ഷ
ആദി ത്യ
ആഗോ ള</w>
ആ ഹാ
ആ ക
അവ ഗണ
അറസ്റ്റ ു</w>
അരങ്ങ േ
അന്തി മ</w>
അ യാളെ</w>
അ ഭ
e n
ൽ ക്ക
ർ ക്ക
ുള് ളിൽ</w>
ിയ േ
ിക്കുന്നതി ന്</w>
ി ന്റെ</w>
സ്വന്ത മാക്കി</w>
സാ ര
സമ ർപ്പ
സംഘര്‍ ഷ
സ മൂ
ഷ ്ട</w>
ശരീ രം</w>
വൈറ ലാ
വിദേശ കാര്യ</w>
വാ ള
വ ുന്ന
ള്‍ ക്കു</w>
ലിമി റ്റഡ്</w>
രാ ം
ര വും</w>
യെ ല്ലാം</w>
യൂണി വേ
യിട്ട ്</w>
യാ കും</w>
മോദ ിയും</w>
മെ ങ്കിലും</w>
മ ക്ക
മ കള്‍</w>
ഭ ൗ
ഫല ങ്ങൾ</w>
പ്രതി കരണം</w>
പ്ര ക്ഷ
പ്ര ക്രിയ</w>
പ്പ റ്റി</w>
പോലീസി ല്‍</w>
പിതാ വ്</w>
പി ശ
പാര്‍ ല
പാക്കി സ്ഥാന
പരാമ ര്‍ശ
പ കട
ന്ത ാ</w>
നി ക</w>
ദൂ ത
തേ ടി</w>
തുറ ന്ന
തിനാ ല്‍</w>
ത െന്ന
ത ല</w>
ഡ ൗ
ട ിയും</w>
ഞാന ൊരു</w>
ച ര
ഗ്ര ീ
കേ സിലെ</w>
കട ന്നു
ക ൽപ്പ
ഓ സ്ട്ര
ഓ പ്പ
എന്തി ന്</w>
എന്താ ണ
എനിക്ക ും</w>
ഉന്ന യി
ഉണ്ടാ യത്</w>
ഇ ന്നും</w>
ആരോഗ ്യം</w>
അമ്മ യും</w>
N ame</w>
1 50</w>
ോ ള
ൊ സ്‌</w>
ുക ൂടെ</w>
ില്ല െന്നും</w>
ിക്കൊ ണ്ട
സ്‌ പെ
സ്റ്റ േ
സ്ത്രീ കള
സിസി ടിവി</w>
സിനിമ യില്‍</w>
സാമ്പത്തി ക
സാധ ിച്ചില്ല</w>
സാങ്കേ തിക
സഹ ോ</w>
സമ ൃ
സംബന്ധ ിച്ച
സംഘ ർ
ശ ലേ
വിദ്യാഭ്യാ സ
വിട്ട യ
വികസ നം</w>
വി യ
വലിയ ൊരു</w>
വ ല്‍</w>
റ ൈ
ര്‍ ന്നു</w>
രാജ ി</w>
യ് ക്കായി</w>
മ്പ ോ
മുന്ന ോട്ട്</w>
മന സ്സ
മധ്യ പ്രദേശ്</w>
മ ക്കൾ</w>
ഭൂരി പക്ഷ
പ്രത്യാ ശ
പ്രത്യ ക്ഷ
പ്പെടുത്തി യ</w>
പൊ ള്ള
പൂർ ണ്ണ
പുറ മേ</w>
പു രാ
പ രം</w>
ന്യൂ ഡൽഹി</w>
ന്മാ ര്‍</w>
നേ ടിയ
നിമി ത്തം</w>
ന മായി</w>
ന മായ</w>
ദിവസ ത്തെ</w>
ദ ാ</w>
ത്തി ലി
ത്ത ോടു</w>
തോന്ന ുന്നു</w>
തീ ർ
ജീ വി</w>
ചേ രുവ
ചെല വഴ
ങ്ങള ോ</w>
ഗുരു തര</w>
കോടതി യുടെ</w>
കിലോമീറ്റ ര്‍</w>
കാലാ വസ്ഥ
ക ൂ</w>
ഒ പ്പ
എഴു ത്ത
എ നി
ഉറ ക്കം</w>
ഇന്റ ർ
ഇതി ല
ഇ പ്രകാരം</w>
ആയു ധ
െടു ത്തത്</w>
ുന്നതി ല്‍</w>
ുക ു
ിരിക്ക ുന്നത്‌</w>
ിയ ല്ല</w>
ഹൃദ യാ
സൗ ഹൃദ
സോഷ്യ ൽ</w>
സിനിമ ാ</w>
സംസാരിക്ക ുകയായിരുന്നു</w>
സംശ യി
സംവിധായക ന്‍</w>
ഷ ണം</w>
ശബ് ദം</w>
ശ മ്പ
ശ ബ
വ്യക്തി പരമായ</w>
വൈ സ്</w>
വാര്‍ ത്ത</w>
വ ന്‍
ല ു</w>
റ ങ്ങി</w>
രണ്ടു പേരും</w>
ര ഹിത
യ് ക്കുക</w>
യിര ിക്കു
യി ല്ല
മെ ഗാ
മി ശ്
മനോഹ രമായ</w>
ഭോ ക്താ
ഭാ വി</w>
ഭരണ കൂട
ഭ ം</w>
ബ്ര ഹ്
ബംഗ ളൂ
പ്രാദേശ ിക</w>
പ്രാഥ മിക</w>
പ്രദേശ ിലെ</w>
പോരാ ട്ടം</w>
പോ ല
പറയ ുന്നില്ല</w>
പ ത്രം</w>
ന് ന്​</w>
നിർ ബന്ധ
നില പാട്</w>
നില പാട
നിരീക്ഷ ണ
നട പ്പിലാ
നട ത്തും</w>
നട ക്കും</w>
ന ത്തെ</w>
ദ ശ
ത്താ ൽ</w>
തീരുമാ നിച്ച
തീരുമാ നിക്ക
താ ല്‍
താ ത്
ത െന്നാണ്</w>
ണ് ഡി
ഡ് മി
ട ിച്ച്</w>
ജില്ല യിലെ</w>
ഗുരുതര മായ</w>
ഗതാഗ ത</w>
ഗതാഗ ത
ഗ ൂ
ക്കു വേണ്ടി</w>
ക് യൂ
കൂ ടിയ
കു റെ</w>
കു മെന്ന്</w>
കഴിയ ുന്ന</w>
ക ള്‍ക്ക്</w>
ക ണ്ട്</w>
ഏറ്റ വു
എത്തി യ
ഉണ്ടാ യി</w>
ഇല്ലാ താ
ഇംഗ്ല ണ്ടി
ഇ പ്പോഴ
ആത്മീ യ
ആഗ്രഹ ിക്കുന്നു</w>
ആ ണ്‌</w>
അല് പം</w>
അന്വേഷ ണ</w>
അതിനു ശേഷം</w>
അതി നായി</w>
അ വാര്‍
അ ല്‍
അ ദ്ധ
2 7</w>
2 .
ർ ണ
െടുത്തി ട്ടുണ്ട്</w>
െടു ത്ത</w>
ുള്ള താണ്</w>
ിക്കുന്ന തും</w>
ാ ത്മാ
ഹ രി</w>
സ്സി ൽ</w>
സ്വാ ഭാവിക
സ്ഥല ത്തു
സിസ്റ്റ ം</w>
സി ന്‍റെ</w>
സമ്പ ന്ന
സമി തി</w>
സംഭവ വുമായി</w>
സ ച്ചി
ശര്‍ മ</w>
വി നി
വസ്‌ തു
വന്ന ില്ല</w>
ള്ള ി</w>
ലോക ക
ലാ ണ്‌</w>
ല ങ്കാ
റെ ഡ്
രാജ്യ മാണ്</w>
രാ യ
മെഗാ പി
മ ലി
മ യും</w>
ഭാഗ മായി</w>
ഭ ്</w>
ബാ ധ</w>
പ്രാർഥ ന
പ്രദേശ ത്ത്</w>
പ്രതി പക്ഷ
പ്ര ചോദ
പ്ര ചരി
പ്പ ിക്കുക</w>
പോ ലു
പോ കുന്നു</w>
പൊ ട്ടി
പരിശീല നം</w>
പഠ ിച്ചു</w>
പട്ടി ക</w>
പ ര്യം</w>
ന്‍ സി
ന്ന ില്ല</w>
നേതൃ ത്വം</w>
നേ ടാ
നിറ ഞ്ഞ
ധ ്യാ
ദ ഹ
ത്ത ോ</w>
തുടര്‍ ന്നു</w>
താര ത
തക രാ
ത ര്‍ക്ക
ഡോക്ട ര്‍മാര്‍</w>
ഡിഗ്ര ി</w>
ഡി എ
ട്ര െ
ട്ട ്‌
ട് രി
ചാ ര
ങ്ങള ിലേക്ക്</w>
ഗു ണം</w>
ഗ െ
കർണാ ടക
ക്കുന്നതി ന്</w>
കുറ വാണ്</w>
കശ്മീ രി
കമ്മി റ്റി</w>
കണ്ടെത്തി യത്</w>
ക ൾക്ക്</w>
ഓ ണ്‍ലൈ
എ ഴുന്ന
ഉപയോ ക്താ
ഇഞ്ച ി</w>
ഇ വരില്‍</w>
ആശ്ര യി
ആ ൻഡ്</w>
ആ കർഷ
അഴി മതി
r a
4 5</w>
3 1</w>
ർ മ്മ
ൗ ണ്ട്</w>
െടു ത്ത
െ യാ
ുള് ളില്‍</w>
ുകള ിലെ</w>
ിപ്പ ിക്കുന്നു</w>
ഹൈദരാ ബാദ്</w>
സ്ഥിര ീകരിച്ച
സൂ ചിപ്പ
സാധ്യ മല്ല</w>
സമി തി
സംശ യം</w>
സം സ്
സ ഞ്ജ
ശ്രമ ിച്ചു</w>
വ്യത്യാ സം</w>
വീഡിയ ോ
വീ ണ്</w>
വിഷയ ത്തില്‍</w>
വയ് ക്കുക</w>
വകലാ ശാല
വ യാണ്</w>
വ ഞ്ച
ലി റ്റർ</w>
ലഭ ിക്കുന്ന</w>
റോ മ
റുക ണ
രേഖ പ്പെടുത്തി</w>
രാ ഗ
രണ്ടാ മ
രക്ത ം</w>
യു മായ</w>
യഥാ ര്‍
യ ർ</w>
മുസ് ലീ
മുണ്ട ോ</w>
മാതൃ ക</w>
ഭര്‍ത്താ വ്</w>
ഭ ക്ത
ബാ ങ്ക
ഫൈന ലില്‍</w>
പ്ല ിക്ക
പ്രസിഡ ന്
പ്രണ യം</w>
പൊ തു</w>
പേ രിൽ</w>
പാർ ല
പാകി സ്ഥാന
ന്ന ിരുന്നു</w>
നോ ക്കാം</w>
നി ഷ്‌
നല്‍ കുന്ന</w>
നല്‍ കാ
ന ടു
ദുരി ത
ത്തില ൂടെ</w>
ത്തി ൽനിന്ന്</w>
തിരിക്ക ുക</w>
താപ നില</w>
തമി ഴ
ണ മെന്നും</w>
ഡല്‍ഹി യില്‍</w>
ജ ന്മ
ചെയ്യ രുത്</w>
ച തു
ക്ഷ ൻ</w>
ക് യം</w>
കോ ട്ട
കേസെടു ത്തി
കുഴ പ്പ
കുറ ഞ്ഞ
കു മെന്നും</w>
കു ത്തി
എല്ലാ വര
എന്നിട്ട ്</w>
എന്നി വർ</w>
എത്തി യത്</w>
എ ല്‍
ഉ ത്സ
ഇത്ര യും</w>
അവത രി
അവ യെ</w>
അയ ്യ
അഭി ഭാഷ
അഭി പ്രായം</w>
അഫ്ഗാ നി
അന്ത രീ
അത്യാവശ്യ മാണ്</w>
അഞ്ച ു
അ ല്ലാ
7 5</w>
4 :
​ െ
ൻ ്
ോഗ ്രാ
ുണ്ടാ യിരുന്ന</w>
ുകൊ ണ്ടാ
ികള ാ
ഹാജരാ ക്കി</w>
സമൃ ദ്ധ
സംസാ രിച്ച
സംരക്ഷ ണം</w>
സംഘ ടി
ശ്രീല ങ്ക
ശ സ്ത്ര
വ്യ ോ
വൃ ദ്ധ
വീട്ട ുകാ
വാഹന ങ്ങളും</w>
വാ സ
വര െയുള്ള</w>
വ ുന്നതാണ്</w>
ലളി തമാണ്</w>
റു മായി</w>
ര്‍ ത്തി</w>
രാജ ീവ്</w>
ര െയും</w>
യഹോവ യ
യഹ ൂ
യഥാർ ഥ</w>
മുസ് ലിം</w>
മാ രെ</w>
മാ ക്കുക</w>
ഭീഷ ണി</w>
ബോളിവു ഡ
ബൈബി ൾ
ബി ഹാ
ബ ോ
ഫോ ട്ടോ</w>
ഫല മായി</w>
പൗലോ സ്‌</w>
പ്രീ ത്</w>
പ്രദ മായ</w>
പ്രതീ ക്ഷ</w>
പ്ര വച
പ്ര ഭാ
പ്പെടുത്ത ുന്നു</w>
പെണ്‍ കുട്ടി</w>
പിന്നീട ്‌</w>
പാക്കി സ്ഥാൻ</w>
പരിശുദ്ധ ാത്മാ
പരിച യ
പദ വി
നൽ കാൻ</w>
നിര്‍ ദേശ
നിര്‍ ത്തി
നാട്ട ില്‍</w>
നല്ല ൊരു</w>
നട ക്കുന്ന
ന വുമായി</w>
ന മേ
ദ് ‌
ദ് വീ
ത്തി നിടെ</w>
ത്താ യ</w>
തീരുമാ നിച്ചു</w>
തി ന്‌</w>
തത് ത്വ
ഡ ോ
ടെലി വിഷ
ജ് ഞ</w>
ജാ മ്യ
ചെയ്യേണ്ട ത്</w>
ചില ത്</w>
ചിത്ര ത്തിന്</w>
ചി തമായ</w>
ക്കി ഴ
ക് ട്</w>
കൂട്ടി യിട
കാ മുക
കന്ന ഡ</w>
ഓരോ രുത്ത
ഓ ട
ആ ൺ
അല്ല െങ്കില്‍</w>
അറിയി ച്ചത്</w>
അബ് ദു
അടിസ്ഥാന ത്തില്‍</w>
അംഗ ീകരിച്ച
അ മ്പ
അ പ്പോഴ
ം തന്നെ</w>
2 50</w>
ൊ ക്കെ
േറ്റ ം</w>
ിക്ക ണമെന്ന്</w>
ി യായി</w>
ഹര്‍ ജി</w>
സ്റ്റി റ്റ
സമാന മായ</w>
സഭ യുടെ</w>
സംസ്ഥാന ങ്ങളില്‍</w>
സംഭവ ിക്കുന്നത്</w>
സ ിച്ചു</w>
വേണ്ട ിയുള്ള</w>
വ ക്താ
ഴ്‌ ച</w>
രീതി യില്‍</w>
ര മേ
യോഗ്യ ത</w>
യെ ശ
യാ യിരിക്കും</w>
മുട ്ട</w>
മി ല്ലായിരുന്നു</w>
മി ല്ലാതെ</w>
മാ രായ</w>
മഹാരാഷ്ട്ര യില്‍</w>
മറ്റ ു
മനു ഷ്യ</w>
മക ന്‍</w>
മ റിയി
മ ധികം</w>
ബാ റ്റ
പ്രാ പ
പ്രക്ഷ ോ
പ്ര യോജ
പ്പുറ ം</w>
പോ ഷ
പോ യത്</w>
പിടി യില്‍</w>
പശ്ചാ ത്തല
പരി പാടി
നൂ റുകണ
നിർ മ
നില നിൽ
നാ ൽ</w>
ദൃ ഷ്ടാ
ദു ർ
ദക്ഷിണാ ഫ്രിക്ക
ത്തേ ക്കു</w>
ത്തി നെ
തെരഞ്ഞെടു പ്പിൽ</w>
തു ല്യ
തി നെ
താ ക്ക
ത ക്കാ
ടാ റ്റ</w>
ജ്ഞാന ം</w>
ജ് യ</w>
ജ ഡ്
ചൈ നീസ്</w>
ചിത്ര ത്തിൽ</w>
ച ൗ
ങ്ങളാ യ</w>
ങ് ‌</w>
ഗ ന്ധ
ക്കു മെന്നും</w>
ക്കി ടെ</w>
ക് വ
കോണ്‍ഗ്ര സിന്റെ</w>
കൈ മാറി</w>
കേന്ദ്ര മന്ത്രി</w>
കാ ര</w>
ക മായ</w>
ഓ ടി</w>
ഒക്ക െയും</w>
ഏ ജ
എന്നി വര
ഊ ർ
ഉള്‍ പ്പെടെ</w>
ഉ ൽപ്പ
ഇല ക്
ഇ യ്യ
ആ യ
ആ പ്പി
ആ കാ
അധ്യക്ഷ ത</w>
അതു പോലെ</w>
അട ക്കം</w>
അക്ക ൗണ്ട
അ ൽ
അ ലി</w>
N W</w>
3 70</w>
1 6
െന്ന ായിരുന്നു</w>
ുക ിട
സ്‌ത്ര ീ
സ്‌ നേ</w>
സ്റ്റ േറ്റ്</w>
സൂ ത്ര
സീതാ രാമ
സാധ്യ മാ
സാധ ിക്കില്ല</w>
സഹ കരണ
സംസ്ഥാന ത്തെ</w>
ശ്രദ്ധ ിക്കുക</w>
വ്യത്യ സ്ത</w>
വ്യക്ത മായ</w>
വേ ന്ദ്ര</w>
വെ ള്ള</w>
വിള ിച്ച
ഴി ഞ്ഞ
ലഭിച്ച ിട്ടില്ല</w>
ല ിയുടെ</w>
റ ുകളും</w>
റ ിലെ</w>
രൂ ശലേ
രി യ</w>
രാജ ്‌
രാ ഷ്‌
രാ ം</w>
യേശു വി
യേ ാ</w>
യെ രൂശലേ
യൂ ണിയ
മ് പു
മുഖ ്യ</w>
മാ യിരുന്ന
മ ല്ലേ</w>
ബിജെപ ിയെ</w>
പ്രവര്‍ത്ത ക
പ്രയോജ നം</w>
പ്പോ ള്‍</w>
പൊലീസി ല്‍</w>
പുസ്‌തക ം</w>
പുരസ്‌ കാരം</w>
പുന ഃ
പു ഴ
ന്ന ി</w>
നേതാ ക്കളും</w>
നീ ള
നീ ക്കി</w>
നി ച്ചത്</w>
നല്ല താണ്</w>
ത്തിലേ ക്കു</w>
തൊഴ ില
തെരഞ്ഞെടു പ്പ
തമിഴ്‌ നാട്</w>
ഡ ും</w>
ട്ട ്
ജന ങ്ങളുടെ</w>
ജ ിയ
ങ്ക ി</w>
ഗ്രൂ പ്പ്</w>
ക്കൂ ട്ട
ക്കി ംഗ്</w>
കൂടി യ</w>
കള ില
കര്‍ശ ന</w>
ഏ റ
എ ല്ല
ഉരു ള
ഇന്ത്യ ക്കാ
ആ ല
ആ യ</w>
ആ ധു
ആ ധാ
ആ കാശ
അമേരിക്ക ൻ</w>
അത്തര മൊരു</w>
അ നിവാ
“ ഞാൻ</w>
ൊ ന്ന്</w>
ൊ ണാ
െ ണ്ണം</w>
ുള്ള ത്‌</w>
ുക ൂട
ി യാ
സ്വാതന്ത് ര്യം</w>
സ്വാഗ തം</w>
സ്ഥാനാ ർത്ഥ
സ് വര
സിപി എം</w>
സി ം
സഭ യിലെ</w>
സംഭവ ങ്ങള്‍</w>
സംഖ ്യ
സ ാ</w>
സ ജ്
സ കല</w>
ഷ് ഠ
ശാ സ്
ശാ ല</w>
ശാ ന്ത്</w>
ശരി യാണ്</w>
വർ ണ
വെള്ള വും</w>
വൃത്തി യാ
വീട്ട ു
വി ളി
വാ സ്‌
വ ുകള്‍</w>
ഴ്‌ ച
ലോക് സഭാ</w>
ലി ം
റ ോ</w>
രു മായി</w>
രു തു</w>
രജിസ്റ്റ ർ</w>
യ ോട
മ്പോ ഴ
മേ ല്‍</w>
മെ മ്മ
മീ ഡിയ</w>
മി ന്‍</w>
മി ച്ച</w>
മാതാപിതാ ക്കൾ</w>
മാണ ത്</w>
മന്ത്രാ ലയം</w>
ഭ ്രാ
ഭ രണം</w>
പ്പെടുത്ത ാൻ</w>
പ്പ ൊ
പോ യി</w>
പൂ ർ</w>
പുന രു
പിന്നാ ലെയാണ്</w>
പിണ റായി</w>
പഴ യ</w>
പറഞ്ഞ ിരുന്നു</w>
പയ നിയ
പഠ ിക്കാൻ</w>
പട്ട േ
പടി ഞ്ഞാ
പ നി</w>
നു മായ</w>
നിയന്ത്ര ണം</w>
നാ വി
ന ങ്ങളും</w>
ധന മന്ത്രി</w>
ധ രിക്ക
ദാവീ ദി
ദ ര
ത്തി ൽനിന്നു</w>
തേ ട
തുട രും</w>
തു മാണ്</w>
താ ഴ്
തയാ റാ
തയ ോടെ</w>
തന് ത്ര</w>
ണ വും</w>
ഡ്രൈവ ര്‍</w>
ഡ ്യൂ
ടൂ റി
ച്ച ിരുന്നു</w>
ങ്ങള ിലേ
ഗോ ള
ക്രി മിന
ക്കു ണ്ട്</w>
ക്കി നു</w>
ക് സി
ക് യ</w>
കൊ ള
കേ വ
കൃ ഷ
കുറ ച്ച
കു റി
കാര്യ ങ്ങളും</w>
കാരണ ങ്ങള്‍</w>
കാ ലി
ക ൾ
ഒരുമ ിച്ച്</w>
ഒരു പക്ഷേ</w>
ഏ റെ
എവിട െയാണ്</w>
എന്ത ോ</w>
എന്ത ുകൊണ്ടാണ്</w>
ഉറ ക്ക
ഇന്ന ത്തെ</w>
ഇ വര്‍
ആര ്</w>
അവസ ാനം</w>
അന്വേഷണ ത്തിന്</w>
അതി ന്‌</w>
അ ബ്രാ
അ പ്പോൾ</w>
3 3</w>
ോ ളം</w>
ോ ടുള്ള</w>
ൊ പ്പ
െത്തി യത്</w>
െ റ</w>
ുകൂ ട്ട
ിട്ട ുള്ളത്</w>
ിച്ച ിരുന്നത്</w>
ിക്ക ൽ</w>
ഹ ോട്ട
സ്വപ് നം</w>
സ്ത ംഭ
സ് ഗ
സെ ത്തി</w>
സി യാ
സാ ന്നി
സഹോദ രി
സത്യ മാണ്</w>
സ ഹി
ഷാ യും</w>
വിവാ ഹ</w>
വിവര മറിയി
വിജ യിച്ച
വി വ
വഴ ിയ
വള ര്‍
വ യെ</w>
ല്‍ ക്കുകയും</w>
ലഭ ിച്ച</w>
റദ്ദാ ക്കി</w>
ര െ
ര ം
യോ ഹന്ന
യോ ഗ</w>
മേഖല യില്‍</w>
മു തല
മാധ്യമ ങ്ങളില്‍</w>
മാ ൻ</w>
മരിച്ച വരുടെ</w>
മ സ്</w>
ഭൂ ചല
പ്‌ തി
പ്രവേശിപ്പ ിച്ചിരിക്കുകയാണ്</w>
പ്രവര്‍ത്തന ങ്ങള്‍</w>
പ്രധാനമന്ത്രി യുടെ</w>
പ്രധാന ം</w>
പ്രത്യേ കം</w>
പ്ര സ്‌
പ്പാ ട
പോ കുന്ന</w>
പൊലീസി ന്</w>
പേ രില്‍</w>
പെണ്‍ കുട്ടിയുടെ</w>
പിന്ന െയും</w>
പറഞ്ഞ ്</w>
നൽകി യിട്ടുണ്ട്</w>
ന് ദ</w>
നേര ത്തേ</w>
നിലവാ ര
നിന ക്ക്</w>
നഷ്ട മായി</w>
ന ൊപ്പം</w>
ന ദ
ധ ന</w>
ദൃശ്യ ങ്ങള്‍</w>
ത്തി ന്നു</w>
തെ ലങ്കാ
തെ റ്റ്</w>
തുടങ്ങിയ വര്‍</w>
തീ ഷ്</w>
തിരിച്ച റിയാ
തിരഞ്ഞെടു പ്പ
ത ന</w>
ജ് ഞാ
ജ ഡേ
ചോദ്യ ങ്ങൾ</w>
ചോദ ിക്കുന്നു</w>
ചെയ്യ ുകയും</w>
ങ്ങള ുണ്ടാ
ങ്ങ ുന്ന</w>
ഖ ണ്ഡ
ക്രിസ്‌ത്യാനി കൾ</w>
ക്രമീ കരണ
ക്കണ മെന്ന്</w>
ക്ക ിൽ</w>
കോ ര്‍
കൊലപാതക ം</w>
കൊ രി
കൊ ന്നു</w>
കുറ ഞ്ഞു</w>
കു മ്പോൾ</w>
കിരീ ടം</w>
കാരണ ങ്ങളാ
കണ്ടെ ത്താനാ
എൻ ജി
എന്താ ണു</w>
എതി ർ
എക് സ്
എ സ്‌
ഉരുള ക്കിഴ
ഉ ല്‍
ഇയാ ൾ</w>
ആ ന്‍
അവസാ നിപ്പ
അഴി മതി</w>
അര വിന്ദ്</w>
അനു ഭ
അ ഖ
ംഭ ീ
20 20</w>
ർ മ
െന്ന െ</w>
െ ത്തും</w>
ുവ ോ</w>
ുവ െന്നും</w>
ു മോ</w>
ു മെന്ന്</w>
ില്ല ല്ലോ</w>
ിക്ക ല്‍</w>
സ് ക്രീ
സുരക്ഷി ത
സജ് ജീ
സ ോ
സ ുകള്‍</w>
സ ണ്‍</w>
ഷ്യ ൽ</w>
ഷ ്യാ
ഷ ിക
വർ ത്ത
വ്യായാ മം</w>
വേ ല</w>
വീട്ട ിലേക്ക്</w>
വീ ട്ടി
വിരു ദ്ധ</w>
വി യുടെ</w>
വി ച്ച</w>
വാ ണി
ലി ലാണ്</w>
ര്‍ ഘ
രൂപ ം</w>
യ് ക്കാ
യെശ യ്യാ
യെ ഹൂ
യാണ െന്നും</w>
മൊബൈ ല്‍</w>
മൊ ത്തം</w>
മുതി ർന്ന</w>
മാ ം
മറ്റ ൊരു</w>
മര ണ</w>
മ സ്
മ തം</w>
ഭാഗ ത്ത്</w>
ഭ ംഗ
ബെംഗളൂ രു</w>
ബിസിന സ്</w>
ബിസി സി
ബലാത്സംഗ ം</w>
ബ ർ</w>
ഫ ില
പ്രവർത്ത നം</w>
പ്രചാ രണ
പ്പെട ാ
പോ സ്
പുരസ്‌ കാര
പീഡ ിപ്പ
പറ യും</w>
പര സ്യ
പട്ട ണ
പഞ്ചായ ത്ത്</w>
പ ിക്ക്</w>
നൽ കാ
ന്യൂ സില
ന്ത ു</w>
നു മായി</w>
നി ര</w>
നാ ലാം</w>
ന ുകള്‍</w>
ന ിക്കു
ന ത്തിന്റെ</w>
ധൈ ര്യ
ത്തി യിരുന്നു</w>
തു മായ</w>
തീ ര്‍ച്ച
തിരിക്ക ാൻ</w>
ത േ</w>
ഡി ന്റെ</w>
ട്രം പി
ചേർ ച്ച
ചെയ്യ ുന്നത്‌</w>
ച ിക്ക
ഗ് ര</w>
ഗ ംഭീ
കർ ശ
ക്രൂ ര
ക്കെ ട്ട
ക്ക പ്പെട്ടു</w>
ക്ക ന്‍</w>
കൊടു ത്തു</w>
കുട്ടിക ൾക്ക്</w>
കാ ട്ട
കഴ ു
ക റ
ഓ രോ</w>
ഓ ട്ടോ</w>
ഏറ്റവു മധികം</w>
എയ ര്‍
എന്ത ൊരു</w>
എനിക്ക ി
ഇന് ദി
ഇ ത്ര</w>
ആ സ്പ
ആ പ്പ്</w>
അഭിനയിച്ച ിട്ടുണ്ട്</w>
അപകട ത്തിൽ</w>
അതുകൊണ്ട ുതന്നെ</w>
4 .
2 5
​ ഗ
േ ക്ക്</w>
െയ െല്ലാം</w>
െ …</w>
െ തിരെ</w>
െ ണ്ണ
ുവ രിക
ുന്നതി ൽ</w>
ുന്നതി നുള്ള</w>
ുണ്ട െന്ന്</w>
ുക ൾ
ുക ള്‍
ുക യുണ്ടായി</w>
ു ളള</w>
ികള ായ</w>
ിക ളിൽ</w>
സർക്കാരി ന്റെ</w>
സൈനി ക
സെ ഞ്ച
സാധ്യതയ ുണ്ട്</w>
സാക്ഷ ി</w>
ശ് വര്‍</w>
ശി ശു
വർ ക്കു</w>
വ്യാ ജ</w>
വൃ ത്തി</w>
വിശദ മായി</w>
വിദേശ കാര്യ
വാ ങ്ങി</w>
വര ി</w>
വ ണ്ണം</w>
ള വാ
ലി റ്റ
റിപ്പോർ ട്ട
ര് യാ
രി യാണ്</w>
ര വി</w>
യോഹന്ന ാൻ</w>
യേ റ്റ
യെ ന്ന</w>
യെ ക്കുറിച്ച്</w>
യുവാ വിനെ</w>
യിട്ട ുള്ളത്</w>
മുണ്ടാ യിരുന്നില്ല</w>
മാണ ുള്ളത്</w>
മ ംഗ
ഭർത്താ വ്</w>
ബാധി ത
ബാ ദി
ഫ ്‌</w>
ഫ ു
പ്രവർത്ത നങ്ങൾ</w>
പ്രകാശ ്</w>
പ്ര വാച
പോകാ ൻ</w>
പെൺ കുട്ടി</w>
പൂര്‍ ണ്ണ
പുറത്തുവിട്ട ിട്ടില്ല</w>
പിശ ക്</w>
പി ച്ച</w>
പാര മ്പ
പാ ടു
പലി ശ</w>
പങ്കെടു ക്കും</w>
പ ാന
പ ന</w>
ന്യ ൂ</w>
ന് വേഷ
നെ തിരായ</w>
നു റു
നീ ളം</w>
നിർ ദേശം</w>
നിയ െ</w>
നന്ദ ിയ
നട ി
ന ുകൾ</w>
ധൈ ര്യം</w>
ധാ ർ
ദൈവ മായ</w>
ദൃ ഢ
തട ഞ്ഞു</w>
ത ൈ
ണ്ടാ യ</w>
ണ മേ</w>
ചെയ്യ ുന്നുണ്ട്</w>
ചൂണ്ടിക്കാ ട്ടി</w>
ചില പ്പോൾ</w>
ചിത്ര മാണ്</w>
ങ്ങളി ലായി</w>
ഘ ട്ടം</w>
ക്കുറ ിച്ചും</w>
ക്കാ നാണ്</w>
കോ ലി</w>
കൈ മാറ
കേരള ത്തിൽ</w>
കൃ ഷി
കുഞ്ഞ ്</w>
കു ല
കാണ ുന്ന
കാ ശ</w>
കള ാ
കയ ്യ
ക ക്ഷി
ഔദ്യ ോഗ
എന്നിവ യുടെ</w>
എന്നി വരും</w>
എ തിരെ</w>
എ ട്ട്</w>
ഉദ്യോഗസ്ഥ ര്‍</w>
ഉത്ത ർ
ഉണ്ടാ യില്ല</w>
ഇഷ്ട മാണ്</w>
ഇതിന ോട
ആരോ പ
ആരംഭ ിച്ചിട്ടുണ്ട്</w>
ആഭ്യന്തര മന്ത്രി</w>
ആഗ്രഹ ിക്കുന്ന
അര്‍ ഹ
അ ഹ
അ തെല്ലാം</w>
9 0</w>
3 7</w>
‘ ‘
ൊക്ക െയും</w>
ുകൂ ടി</w>
ിപ്പ ിക്കുക</w>
ിച്ച ുകൊണ്ട്</w>
സ്റ്റിറ്റ ്യൂ
സ്നേ ഹം</w>
സ്ഥിതി ഗതി
സ് ഫോട
സവിശേഷ തകൾ</w>
സമ ർ
സന്ത ോ
ഷ്യ ം</w>
വെടി വയ്
വെ ട്ടി
വായ് പ
വര ണം</w>
വ ൽ</w>
വ ധി
ല്‍ വാ
ല്ല െ</w>
ല ിയും</w>
റെയില്‍ വേ</w>
ര്‍ ത്തു</w>
ര്‍ ജ
രിക്ക ാൻ</w>
രിക്ക ലും</w>
രണ്ടു പേര്‍</w>
യുവതി യുടെ</w>
യു ക്ത</w>
യില ്</w>
യി ൽനിന്ന്</w>
യാള ാണ്</w>
യാ ക്കോ
യഹോവ യുടെ</w>
മോദ ിക്ക്</w>
മെ ാ
മുന്ന ിൽ</w>
മാ റാ
മാ ക്കിയ
മറി ഞ്ഞ്</w>
മറ ിച്ച്</w>
മരുന്ന ്</w>
മട ങ്ങി
മ േഷ്</w>
മ ര്‍</w>
മ യം</w>
മ ക്കള്‍</w>
ഭീ തി
ബോ ംബ
ബജ റ്റ്</w>
ബ ര്‍</w>
പ്രാ യ</w>
പ്രശ സ്ത
പ്പെട്ട ിരിക്കുന്നു</w>
പോലീസി ന്</w>
പോകാ ന്‍</w>
പോ ര്‍ട്ട്</w>
പേ ർ
പൊ ലീ
പെട്രോ ൾ</w>
പശ്ചി മ</w>
പറ ഞ്ഞ</w>
പരാജയ പ്പെട്ടു</w>
പഠ ന
പ ത്രി
പ ത
പ കർ
പ കുതി
ന്ത്യ ർ</w>
ന്ത ോ
ന്ത ി</w>
ന് റ്
നേതാ ക്ക
നി ന്നാ
നല്ല ത്</w>
നട ത്തുന്ന</w>
ധാരാ ള
ദ് ദീ
ദു ബാ
തു വരെ</w>
തിരിച്ച ട
താ ണെന്ന്</w>
ഡോ ക്ട
ഡീ സ്</w>
ഞ് ച്
ഞ ങ്ങള്‍
ജന ങ്ങള്‍ക്ക്</w>
ചെയ്‌ ത</w>
ചെയ്തി ല്ല</w>
ചൂ ടു
ചില പ്പോള്‍</w>
ങ്ങള ില്ല</w>
ഗോ വ
ക്ഷ ി</w>
ക്ഷ ണം</w>
കോ ട
കു ല്‍
കറു ത്ത</w>
കരു ത്</w>
ക ച്ച
ക ം
ഒരിക്ക ൽ</w>
ഒ ക്കെ</w>
എന്ത ൊക്കെ</w>
എന്ത െല്ലാം</w>
എനിക്ക റിയില്ല</w>
എംഎ ൽ
എ ച്ച്</w>
ഉറ പ്പു</w>
ഉപ ദ്ര
ഉന്ന ത</w>
ഉദാഹരണ ത്തിന്‌</w>
ഉ ത്‌
ഇംഗ്ലീ ഷ്</w>
ആശ്ര യിച്ച
ആദിത്യ നാഥ്</w>
അനേ കം</w>
അനിവാ ര്യ
അടു പ്പ
അ സ്വസ്ഥ
അ ഴ
അ ണ
അ ച്ച
9 9</w>
െന്ന ോ</w>
െടു ക്കാൻ</w>
ൂ ര
ുന്നതി നായി</w>
ുക ഴിഞ്ഞു</w>
ു മുള്ള</w>
ിക്കുന്ന താണ്</w>
ിക്കു മെന്നും</w>
ഹ േ
സൗ ദി</w>
സ്വീ കരിച്ചു</w>
സ്വ തന്ത്ര
സ് മി
സോ സിയ
സൂച ന
സി ംഗ
സമ്മേള നത്തില്‍</w>
സമയ ത്ത്‌</w>
സംഗ തി</w>
സ ന്ന
ശബ രി
വൈ കുന്ന
വൈ ക
വെള്ള ത്തിൽ</w>
വിഷ ാ
വിലയിരു ത്ത
വിജയി ച്ചു</w>
വര്‍ ഗ
വ കാശ
ള ുടെ</w>
ല്ലാ യ്
ലി പ്പ
ലി ന്‍റെ</w>
രാജ ്യാ
ര ോ
യിട്ട ാണ്</w>
മോദ ിയ
മുണ്ടാ യില്ല</w>
മാറ്റ ങ്ങൾ</w>
മാ റു
മന്ത്രാ ലയ
മണ ിക്കൂ
ഭീകരാ ക്രമണ
ഭാര ത
ബിജെപി യില്‍</w>
ബി എസ്
ഫ് രിക്ക</w>
ഫേസ്ബു ക്ക്</w>
പ്രധാന മായും</w>
പ്രതി ഫല
പ്രക ടിപ്പ
പ്പാ ടു</w>
പോലീസി നെ</w>
പെ ണ്ണ
പുറ ത്ത
പിന്തുണ യ്
പാകി സ്ഥാന്‍</w>
പരി ഷ്
പരി പാല
പ കര
ന്യൂ ന
നീ ങ്ങ
നിക്ഷേ പം</w>
നട ക്കാ
ന യം</w>
ദീ ര്‍ഘ
ദാവീ ദ്‌</w>
ദ രി
ത്തി നാ
ത്ത ോട്‌</w>
തൊ ട്ട
തു ്</w>
തീ രെ</w>
തിരിച്ചറി ഞ്ഞ
താര മാണ്</w>
തല മുറ
തയ്യാറാ യില്ല</w>
തട സ
തക്കാ ളി</w>
ഡി ജി
ജു ഡീ
ജീവിത ത്തില്‍</w>
ജയ ലളി
ജ സ്
ജ വാ
ചോദ്യ ങ്ങള്‍</w>
ചെയ്തി ട്ട
ചി രിച്ചു</w>
ങ്ങളില ൂടെ</w>
ങ്ങള ്</w>
ങ്ങള ോട്</w>
ഗാന്ധ ിയെ</w>
ക്ഷ ാ
ക്കെ ല്ലാം</w>
ക്കു മ്പോള്‍</w>
ക്ക ൻ</w>
ക്ക മുള്ള</w>
ക്ക പ്പെട്ട</w>
ക് വാ
കൊല്ല പ്പെട്ടത്</w>
കു മോ</w>
കിട്ട ി</w>
കഴുക ുക</w>
കഴിയ ുന്നില്ല</w>
കള ിക്കാ
കയ റ
ക മ്
ഒരു ങ്ങ
ഐസി സി</w>
എഴു ത
എളുപ്പ മാണ്</w>
എന്താ യിരുന്നു</w>
എടു ക്കുക</w>
എം പി
ഉണ്ടാ യിരുന്നത്</w>
ഉണ്ടാ കാ
ഇതു വരെയും</w>
ഇതി ലേക്ക്</w>
ഇ ല്ലായിരുന്നു</w>
ഇ ത്തവ
ആര െങ്കിലും</w>
ആന ുകൂ
ആ ള്‍
അറസ്റ്റ ിൽ</w>
അരു ണ്‍</w>
അബ്രാ ഹാ
അക്രമ ം</w>
അംഗീ കാരം</w>
അ സോസിയ
അ വാർ
അ ദ്
അ ണു
ം ബ</w>
ൽ നിന്നും</w>
ൊ ന്നാണ്</w>
േ ന്ദ്ര</w>
െയ ല്ല</w>
ു ്</w>
ീ ന</w>
ില ോ</w>
ിയ് ക്ക്</w>
ിക്കുന്നതി ൽ</w>
ിക്കാ റില്ല</w>
ി നെ</w>
ഹ ്യ
സൗ ന്ദ
സി ംഗി
സമ്മതി ച്ചു</w>
സ ൽ
ശ്വാ സ</w>
ശ്രീ നഗ
ശ്രമ ിച്ച
വ്യാപക മായി</w>
വ്യത്യസ്ത മായ</w>
വ്യത്യസ്ത മാണ്</w>
വേ ർ
വെ ച്ചത്</w>
വീ ര
വി സ്
വി ശ്രമ
വാ യിരുന്നു</w>
വരാ ം</w>
വ ഷ
ല്ല ്</w>
ലഭ്യ മല്ല</w>
രിക്ക ുന്ന
രാജ്‌ നാഥ്</w>
യിട്ട ു</w>
യഥാ ർഥ
യ ീ
മൊബൈ ൽ</w>
മൊ ഥ
മൊഥ െയ
മൂ ല്യം</w>
മി സ്റ്റർ</w>
മാ പ്പ്</w>
മല്‍ സര
മറുപ ടി
മറ ിക
മക്കള െ</w>
മ ന്‍
ബോ ള്‍</w>
ബിരു ദ
ബാബ ു</w>
പ്രസ്‌ താ
പ്രദ ർശ
പ്രതി ഭാ
പ്രതി കള്‍</w>
പ്പെട്ട ിട്ടുണ്ട്</w>
പെട്ട െന്ന
പെ ട്ടു</w>
പി ക</w>
പല യിടത്തും</w>
പരി മി
പരി ധി
പര സ്‌
പങ്ക ്</w>
പ െയ്
ന്‍ ഡി
നാശ നഷ്ട
നാട്ടുകാ ർ</w>
നടത്തി യിരുന്നു</w>
ന ര
ദാ മ്പ
ദ ര്‍ശ
ദ ണ്ഡ
ത്തൊ ഴിലാള
ത്തി യ
തെ രു
തി മൊഥെയ
തി ഥ
തക ർ
ത കള
ഡ്രൈവ ർ</w>
ട്ട ിക്കി
ജയി ച്ചു</w>
ജ െയ്
ജ യിച്ച
ഛ ത്തീ
ചേര്‍ ക്കുക</w>
ചെയ്യ ുകയായിരുന്നു</w>
ക്ല ിക്ക്</w>
ക്കി യില്ല</w>
ക്കി യിട്ടില്ല</w>
കാല ത്തെ</w>
കാരണ മായി</w>
കായി ക</w>
കാണ ുന്നു</w>
കാണ ുന്നത്</w>
കഴുക ി</w>
ഒ രേ
ഒ രി
ഏര്‍ പ്പെടുത്തി
എന്നാ ണ്‌</w>
എ പ്പോഴ
എ ക്‌
ഉൽപ്പ ന്ന
ഉള്‍ പ്പെട
ഉ പര
ഇറ ക്കു
ഇരു വരുടെയും</w>
ഇ മ്
ആര ോടും</w>
ആര ോ
അവ രും</w>
അള വ്</w>
അയ ൽ
അമ്മ യുടെ</w>
അന്തരീ ക്ഷ
അതി ര്‍ത്തി
അടുത്തി ടെ</w>
അടി മ
അടങ്ങി യിട്ടുണ്ട്</w>
അട ച്ച
അച്ഛ ന്‍</w>
അ ഹമ്മ
അ യാള
അ നു</w>
അ നി
l a
3 4</w>
2 9</w>
19 5
ൻ് റെ</w>
െയ ര്‍</w>
ൃ ത</w>
ുമാ യുള്ള</w>
ുന്ന ്</w>
ുണ്ടാ യത്</w>
ുകൊണ്ട ു</w>
ുകള ിലേക്ക്</w>
ു ല
ീ ഷ്</w>
ിക്കാനാ യില്ല</w>
ിക്ക ട്ടെ</w>
ഹി ന്ദി
ഹാ സ
സ്വാ മ
സ്വ കാര്യ
സെ ക്ക
സഹ ോ
സഞ്ജ യ്</w>
സംഘ ടന</w>
സം രംഭ
സം ഭാഷ
സ ല്‍
ശു ഭ
വൈ വി
വീഴ് ത്തി</w>
വീടി ന്റെ</w>
വീ ഴ്ച
വിശദ ീകരിക്ക
വിപണി യിൽ</w>
വിദ്യാര്‍ത്ഥ ികള്‍</w>
വിദ് യ</w>
വര്‍ധ ിപ്പ
വരു ത്തി</w>
വ ന്നാ
ലാ ല്‍</w>
ലാ യ</w>
ല ിലെ</w>
റിപ്പോര്‍ട്ട ുകള്‍</w>
രവീ ന്ദ്ര</w>
രംഗത്തെ ത്തി</w>
യ് യ</w>
യി ൽനിന്നു</w>
മോ ര്‍
മോ ശ
മി പ്പ
മാ ണ</w>
മറ്റുള്ള വരെ</w>
മറിക ട
മനസ്സി ൽ</w>
മ രു
ഭാഗ വും</w>
ബാ ങ്കി
ഫോ ട്ടോ
ഫ ിലി
പ്പെട ാൻ</w>
പൊലീസി ൽ</w>
പൊലീസി ന്റെ</w>
പൊലീ സും</w>
പുറത്തിറ ങ്ങ
പാച കം</w>
പാ പം</w>
പറഞ്ഞ ില്ല</w>
പരിക്ക ുകള
പരി ധി</w>
പട്ടിക യില്‍</w>
പ ിക്ക
പ ന്ത്</w>
നേ യും</w>
നിർ വഹ
നില വിലെ</w>
നിര്‍ മ്
നിര്‍ ദേശം</w>
നിര്‍ ണാ
നിയമ സഭ</w>
നശ ിച്ചു</w>
നല്‍കി യിട്ടുണ്ട്</w>
നടപടിയ െടു
ന ന്നാ
ന ം
ധോ ണ
ദി വ
ദി ല്ലി
ദ ംബ
ത്തി യിട്ടുണ്ട്</w>
ത്തി ന്റ
തിരിച്ച ടി</w>
ത ോടെയാണ്</w>
ണമെന്ന ില്ല</w>
ണ ൽ</w>
ണ ുള്ളത്</w>
ടീ സ്പൂണ്‍</w>
ടി സി</w>
ജനാധിപ ത്യ</w>
ജ ഗ
ച്ച ിൽ</w>
ചിത്ര ീകരണം</w>
ങ്ങളാ ണ്‌</w>
ഗാ യക
ക്രിസ്‌തു വിന്‍റെ</w>
ക്രിക്ക റ്റില്‍</w>
ക്കേ സ്</w>
ക്കി യിരിക്കുന്നത്</w>
കേ ട്ടു</w>
കൂട്ട ാ
കുടു ംബ</w>
കുഞ്ഞി നെ</w>
കാല ത്ത്‌</w>
കാര്‍ ഷിക</w>
കാ ഴ്ച</w>
കസ്റ്റഡി യില്‍</w>
കള ായ</w>
കണ്ട ില്ല</w>
ക ത്ത്</w>
ഔദ്യോഗ ിക</w>
ഒ മ്പ
എയ ര്‍</w>
എത്ര യോ</w>
എതി രാള
എ ങ്കിൽ</w>
ഉത്തരവാദി ത്വം</w>
ഇസ്രായേ ല്യ
ഇത്തര മൊരു</w>
ഇ യാളുടെ</w>
ആകാ ം
ആ ശ്
അവ ധി</w>
അറിയാ ൻ</w>
അനുവദ ിച്ചു</w>
അധി കാരം</w>
അധി ക</w>
അ ശോ
അ ണി
t i
3 9</w>
3 6</w>
1 25</w>
ുള്ള വരാ
ിട്ട ും</w>
ിട ത്തോളം</w>
ിച്ച ിരുന്ന
ിച്ച ാല്‍</w>
ിക്കൊ ണ്ടു
ിക്കേണ്ട തുണ്ട്</w>
ിക്കാ ത്ത
ിക്ക ഴിഞ്ഞു</w>
ഹാ ര്‍
ഹരിയാ ന</w>
ഹ ാ</w>
സ്‌ ത</w>
സ്വ ഭാവ
സ്ര ഷ്ടാ
സെ മി
സീ സ്</w>
സി സി</w>
സാഹി ത്യ</w>
സഹായി ക്കാൻ</w>
സംഭവ ങ്ങൾ</w>
സ വാ
സ ന്നി
ശൂ ന്യ
ശാരീ രിക
ശക്ത മാ
വോട്ട െടു
വൈകുന്ന േ
വീ ത
വിശദ മായ</w>
വിഭാഗ ം</w>
വിപണി യില്‍</w>
വി ല്‍
വാ തില്‍</w>
വയ് യ</w>
വ ല്ല</w>
വ ല്ല
വ ംശ
ളി ന്റെ</w>
ള ിലെ</w>
ലോ റി</w>
റെ ഡ്</w>
റണ്‍ സിന്</w>
രിച്ച ു
യേ യും</w>
യു എ
മ്മാ ണം</w>
മോഹ ന്‍</w>
മേ ാ</w>
മുന്നോട്ട ു</w>
മാര്‍ ഗ
മാതാപിതാ ക്കള
മറ്റൊ രാ
ഭാഗ്യ വശ
ഭരണഘ ടന</w>
ഭയ ങ്ക
ബൈ ക്ക്</w>
ബിസിസി ഐ</w>
ബാധ ിച്ച്</w>
ബാ ംഗ്
ഫുട ്‌
പ്രശ്‌ന ങ്ങൾ</w>
പ്രധാനമന്ത്രി യാ
പ്രതിസന്ധ ി</w>
പ്രചരി പ്പ
പ്ര ളയ
പ്ര ഥ
പ്പ് ‌</w>
പറയു ക</w>
പരുക്കേ റ്റ</w>
പങ്കാ ള
ന്യൂ ദല്‍ഹി</w>
നോ ക്ക
നീ ണ്ട</w>
നിർ മ്മ
നിഷേധ ിച്ചു</w>
നില നിർ
നിര്‍ ദ്ദേശം</w>
നിയമ നം</w>
നിയമ ങ്ങൾ</w>
നിങ്ങള്‍ ക്കു</w>
നി ശ
നി രിക്കുന്ന</w>
നി യും</w>
നി ഗമ
നിഗമ നം</w>
നടപട ിയും</w>
ന ുള്ളത്</w>
ദ് ര</w>
ദേ വി</w>
ദു ര്‍
ത്തി ല്ല</w>
ത്തി നിട
തെ ങ്ങനെ</w>
തീര്‍ച്ച യായും</w>
തീരുമാന മെടു
തിരിച്ച ടി
ത ൊന്നും</w>
ത ള്ളി
ഡിയ ോ</w>
ഡ ു
ടീമി ന്റെ</w>
ടി വി
ജീവിത ത്തിലെ</w>
ജന ങ്ങളെ</w>
ചേര്‍ ന്നു</w>
ചെയ്യാ നുള്ള</w>
ചെ റിയ
ചു റ്റും</w>
ചിന്തി ക്കുക</w>
ചി ദംബ
ച ട്ട
ഗ് ലാ
ഗ ൊ
ഗ ിര
കൗ ണ്‍
ക്ര ൈ
ക്കുന്നതി നായി</w>
ക്കു വാന്‍</w>
ക്കിട യില്‍</w>
ക്ക ോ
കൊ ണ്ടാണ്</w>
കേസെടു ത്ത്</w>
കെ എസ്
കാലാ വസ്ഥ</w>
കാര്യ ത്തിലും</w>
കാ ത്ത</w>
കലാ ശ
കമ്മീ ഷന്‍</w>
കമ്മീ ഷ
കണ്ട ിട്ടില്ല</w>
ക ണ്ട</w>
ഓ റ
എന്ന െ
എനിക്ക റിയാം</w>
എത്ര യും</w>
എ പ്പോഴും</w>
എ ങ്കില്‍</w>
ഉൾ പ്പെടെ</w>
ഉറ പ്പ്</w>
ഉദാഹ രണം</w>
ഉത്തരവാദി ത്ത
ഇസ് ലാ
ഇല ക്ട
ഇറ ങ്ങ
ഇതു മായി</w>
ഇതിനോട കം</w>
ആധു നിക</w>
ആ ന്റ
അറിയാ മായിരുന്നു</w>
അരു ളിച്ച
അയ ച്ച
അനു സരിച്ച്</w>
അ ർപ്പ
അ ലി
അ യോ
3 ,
ോ ഹ
െ ഴു
ുക യു
ു വെ
ിപ്പ ി
ിക്കാനാ കും</w>
ിക്കാ നാണ്</w>
ിക്ക ിട
ഹ ൗ
സ്‌കൂ ൾ</w>
സ്‌കൂ ള്‍</w>
സ്വ തന്ത്ര</w>
സ്റ്റിറ്റ്യൂ ട്ട്</w>
സ്റ്റ ിക്</w>
സ്ഥാനാര്‍ഥ ി</w>
സ്ത്രീക ള്‍</w>
സ് വി
സ് യ</w>
സോ ണിയ
സു ബ്രഹ്
സുബ്രഹ് മണ
സഹാ യിച്ച
സമാധാന വും</w>
സന്ദ ർ
സങ്ക ട
സംരക്ഷ ണ
സംബന്ധ ിച്ചു</w>
സംഘ ടിപ്പ
സംഗീ ത</w>
ശർ മ</w>
വൈവി ധ്യ
വീട ുകള്‍</w>
വിടു ത്തെ</w>
വികസ ന
വായി ച്ചു</w>
വള ർത്ത
വക്താ വ്</w>
വ ല്ലാതെ</w>
വ ണ്ട
ളി ലാണ്</w>
ല്‍ക്ക ത്ത</w>
ലഭിച്ച ില്ല</w>
റ്റ ുകൾ</w>
റാ ങ്കി
റ ൗണ്ട
ര്‍ ജ്</w>
ര്‍ ക്കെതിരെ</w>
രിച്ച ്</w>
രി യും</w>
രാഷ്‌ ട്ര
രാജ്യാ ന്തര</w>
രാ ണ്‌</w>
യ ൽ</w>
മോഹ ന്‍
മുണ്ടാ കും</w>
മുഖ്യമന്ത്രി യുടെ</w>
മുഖ ാ
മു മ്പി
മി ല്ലെന്ന്</w>
മ ുകളില്‍</w>
മ ണി</w>
ഭ ക്തി
ബോ ധ്യ
ബൈ ക്ക
ബിരു ദം</w>
ബ ഹി
പ്രിയ ങ്ക
പ്രവർത്ത ക
പ്രദേശ ത്തെ</w>
പ്രതിക ള്‍
പ്പ േ
പോലു മില്ല</w>
പാർ ട്ടി
പാ യ
പങ്കെടു ത്തത്</w>
പ ര്‍
നൽ കുക</w>
നൽ കും</w>
ന്‍ മാ
ന് മ</w>
നിര വധി
നിയന്ത്ര ണ</w>
നിങ്ങള ു</w>
നാ ലാ
നാ പകട
നമു ക്ക
നട ക്കുന്നുണ്ട്</w>
ന ന്മ
ധ ാ</w>
ദുരി താ
ത്യ ു</w>
തുടങ്ങിയ വ</w>
തുട രു
തല ത്തില്‍</w>
തയ്യാറ െടു
തന്ന െയ
ത ൊക്കെ</w>
ത റ
ത ര്‍
ത യെ</w>
ട്ടി യ</w>
ട്ട ാ</w>
ടീമി ല്‍</w>
ഞ ങ്ങൾ
ജ്‌ രിവാ
ചോ ദ്യം</w>
ചെറു തായി</w>
ചെയ് ​
ചികിത്സ യിലായിരുന്നു</w>
ചാ ർ
ചരി ത്ര</w>
ച െന്നു</w>
ഗ്രാ മീ
ഗ് യ</w>
ഗുരുതര മാണ്</w>
ഖ ്യാ
ഖ ാൻ</w>
ക്യാപ്റ്റ ൻ</w>
ക്ട ര്‍</w>
ക്കേണ്ട തുണ്ട്</w>
ക്കൂ ടി</w>
കോഹ്‌ ലി</w>
കൊ വിഡ്</w>
കുട്ടിക ള്‍ക്ക്</w>
കിട്ടി യില്ല</w>
കാണാ താ
കള ിലെ</w>
കല് യാ
കരു തല
കണ്ടു പിട
ക ഷണ
ക ണ്ടാ
ഓസ്ട്ര േലിയ
ഓവ റില്‍</w>
ഒ റ്റ</w>
എസ് എസ്</w>
എന്താ ണെന്ന്</w>
എ ൽ
ഉപയോഗ ിച്ച
ഉപ ദേശം</w>
ഉ മ്മ
ഇലക്ട ്രി
ഇറ ങ്ങി
ഇയ്യ ോ
ഇതു മൂലം</w>
ഇ വർക്ക്</w>
ആരാധ കര്‍</w>
ആര ുടെയും</w>
ആന്ധ ്രാ
ആ സൂത്ര
ആ ണ്‍
ആ ക്
അറിയി ക്കുകയായിരുന്നു</w>
അറസ്റ്റ ു
അഭി മാന
അനുവദ ിക്കില്ല</w>
അതുകൊണ്ട ു</w>
അതി ശ
അതി നെ
അത ുകൊണ്ടാണ്</w>
അട ങ്ങിയ</w>
അക്ക ൗണ്ട്</w>
അ പ്പോഴും</w>
അ ജ
അ കല
o m
4 8</w>
ർപ്പ റ
ൻ സി
ുകള ാ
ു …</w>
ിട്ട ി
ിച്ച ാ
ിക്കൊ ണ്ട്</w>
ിക്ക പ്പെട്ട</w>
ി ത്ത
ാണ ുള്ളത്</w>
സെ ൽ
സുര േഷ്</w>
സു പ്രധാന</w>
സാഹചര്യ ത്തില്‍</w>
സാ ത്താൻ</w>
സഹോദ രി</w>
സ ദ
ശ്രീല ങ്ക</w>
വ്യക്തമാ യിട്ടില്ല</w>
വിശ്വസ്‌ ത</w>
വിദേശകാര്യ മന്ത്രി</w>
വാഹ നാപകട
വായ ന
വാ ക്കു</w>
വാ ം</w>
വ നെ</w>
വ ന</w>
ള ജി</w>
ലക്ഷ ്
ലക്ഷ ക്കണ
ല ോഗ
ര്‍ ജി</w>
രൂപ യും</w>
രസ കരമായ</w>
ര വ്</w>
യോഗ ത്തിൽ</w>
യു ണ്ട
യ ൊന്നും</w>
യ ക</w>
മോശ ം</w>
മൈ ക്ര
മെ ങ്കില്‍</w>
മുംബൈ യിലെ</w>
മി ണ്ടാ
മാരു തി</w>
മാനസി ക</w>
മഹ ീ
മ സാ
മ ന്‍</w>
ഭ്രാ ന്ത
ഭേദ ഗതി
ഭാഗ മാണ്</w>
ഭ യം</w>
ബാംഗ് ലൂ
ബാ ധ്യ
ബഹു മാനിക്ക
ബംഗാ ള്‍</w>
ബ ട്ട
ഫോ ണി
പ്രാ ര്‍ത്ഥ
പ്ര മുഖ
പ്പോ ലും</w>
പ്പെട ുകയായിരുന്നു</w>
പ്പി ട
പ്പാ ട്</w>
പോലീസി ന്റെ</w>
പോലീ സ്‌</w>
പേ ര്
പേ ടി
പുരുഷ ന്മാ
പിന്ന ിൽ</w>
പിട ിച്ചു
പി ന്മാ
പറ്റ ിയ
പറയ ുന്നത്‌</w>
പരിപാട ികളും</w>
പഞ്ചസാ ര
പച്ച മുളക്</w>
പ ിയ
നൽക ിയത്</w>
ന്നു മല്ല</w>
ന്ന േ</w>
ന് ഥ
നേതാ വും</w>
നിശ്ച യ
നിര്‍ ത്തി</w>
നി യ</w>
നാഷണ ല്‍</w>
നടത്ത ാൻ</w>
ന ൃ
ദു ഷ്‌
ദ ളി
ത്തിലാ ണ്‌</w>
ത്തില ധികം</w>
തോ ൽ
തൊ ഴിൽ</w>
തി യില്‍</w>
താര ങ്ങള്‍</w>
താത്‌ പര്യ
താത് പര്യ
ണ് ഡ്</w>
ണ ും</w>
ണ മെന്നാണ്</w>
ഡ ൊണാ
ട്വിറ്റ റില
ട്രെ യില
ട കം</w>
ങ്ങളി ലാ
ഗ്ര ന്ഥ
കൺ വെ
ക്കുന്ന തും</w>
ക്കു റി
ക്കാര ൻ</w>
ക്കാ യുള്ള</w>
കോ ർപ്പറ
കൊരി ന്ത്യർ</w>
കേ ടു
കൂട്ടിച്ചേ ർത്തു</w>
കാ ല്‍
കാ ത്തു
കഴി വ
കഴ ിക്കുക</w>
കമ്മീ ഷൻ</w>
കട ന്ന
ക ുകയും</w>
ഓസ്‌ട്ര േലിയ</w>
ഓറ ഞ്ച്</w>
ഓ ൺ
എന്തി നാ</w>
എന്താ യാലും</w>
എത്തി ച്ചു</w>
എ നിക്കു
എ തിര
എ ഡി
ഉയര്‍ ന്ന</w>
ഉപ ഭോക്താ
ഉത്തര്‍ പ്രദേശ്</w>
ഉണ്ടാ വ
ഉണ്ട ോ</w>
ഇതി നു
ഇട യിൽ</w>
ഇ പ്പോഴും</w>
ആവ ശ്യ</w>
ആന്ധ ്ര
ആത്മ വിശ്വാസം</w>
ആ യിരുന്നില്ല</w>
അർഥ ം</w>
അഹമ്മ ദാ
അവ യിൽ</w>
അവ നു</w>
അന് ത്യ
അനു ഷ്‌
അനു ശോ
അടങ്ങി യിരിക്കുന്നു</w>
അങ്ങനെയ ല്ല</w>
അങ്ങ േയ
അ ല്ലേ</w>
അ റ്റ
അ യാളുടെ</w>
അ ടി</w>
അ ംബ
ം ’</w>
i n
4 0
4 ,
2 ,
1 20</w>
1 /
ൾ ഡ്</w>
േണ്ട തില്ല</w>
െ ന്ത്</w>
ൂട െയും</w>
ൂ പ
ുവ രു
ു മ്പോൾ</w>
ിരിക്ക ും</w>
ിയ് ക്കുക</w>
ിച്ച ി
ിക്കാ നായി</w>
സർ വീ
സ്വന്ത മായി</w>
സ്ഥാന ത്താണ്</w>
സ് മാര്‍
സെ ന്‍
സു വാർത്ത</w>
സിനി മാ
സാന്നി ധ്യ
സാം സ്‌
സര്‍ ട്ടിഫിക്ക
സംസ്‌ കാര
സംബന്ധ മായ</w>
ഷ് ​
ശ്രമ ിക്കുക</w>
ശു ചി
വ്യോ മ
വ്യ വസ്ഥ</w>
വേഗ ത്തില്‍</w>
വെ ണ്ണ</w>
വെ ങ്ക
വിദഗ് ധ
വിചാ ര
വി ൽപ്പ
വി ന്യ
വാഹന ങ്ങൾ</w>
വാ നും</w>
വാ ക്യം</w>
വാ ക്ക്</w>
വനി ത</w>
വ റു
ല്‍ നിന്നു</w>
ല േ</w>
റ്റ ിലെ</w>
റി പ്പോ
രുച ി</w>
രാജ ്യ</w>
രമേ ശ്</w>
യെശയ്യാ വു</w>
യി ലി
യാ യിരുന്ന
യഥാർ ത്ഥ</w>
മെമ്മ റി</w>
മിക്ക ുകയാണ്</w>
മിക ച്ച
മി ട്ട
മാണ െന്നു</w>
മാ റും</w>
മന സ്സ്</w>
മ ണ്ണി
മ ണ്ണ
ഭാഷ കളി
ഭക്ഷണ വും</w>
ബോ ർഡ്</w>
ബുദ്ധ ി</w>
ബി ല്ലി
ബാറ്റ റി</w>
ബ ച്ച
ഫ് റ്റ്</w>
ഫീ ച്ച
പ്ല േ</w>
പ്രദ ാനം</w>
പ്രകൃ തി</w>
പ്ര വചനം</w>
പ്പെടുത്ത ാന്‍</w>
പ്പെടു ത്തുന്ന</w>
പ്പെടു ത്തുക</w>
പ്പെടു ക</w>
പ്പ ാന്‍</w>
പൊട്ടി ത്തെ
പു ല്‍വാ
പി ഴ</w>
പാ ദിപ്പ
പാ ത</w>
പരിഗണ ന
ന് മാ</w>
നേരി ട്ട്</w>
നില യിലായിരുന്നു</w>
നിര്‍ വഹ
നി സ്സാ
നി ലേക്ക്</w>
നാട്ടുകാ രും</w>
നാ ല്‍</w>
നാ രായ
നാ മം</w>
നല്‍ക ുന്നത്</w>
നല്‍ കാന്‍</w>
നട ക്കുകയാണ്</w>
ദേ ഷ്ടാ
ദിവസ ങ്ങളില്‍</w>
ദാ യ
ദയ വായി</w>
ദ യ</w>
ത്താ ല്‍</w>
തെറ്റ ാണ്</w>
ത ട്ടി
ഡിജി റ്റ
ഡ ു</w>
ട്രെയി ന്‍</w>
ട ങ്ങി
ഞ്ച േ
ജോ ലി</w>
ഛത്തീ സ്ഗ
ച്ച ില്ല</w>
ചോദ ിച്ച
ചേര്‍ ന്ന
ചലച്ചി ത്ര
ഗ േ
ഗ ൃ
ക്ക ർ</w>
കോണ്‍ഗ്ര സില്‍</w>
കൊണ്ടു പോയി</w>
കൊണ്ട ും</w>
കെട്ടിട ം</w>
കൂട്ട ുകാ
കുമാര സ്വാമി</w>
കാര്‍ ഡ്</w>
കാര ോഗ
കണ ക്ക്</w>
ക മാണ്</w>
ക ത്ത
ഓർ മ
ഓൺ ലൈ
ഓഫീ സ്</w>
ഏ ക</w>
എവിട െയും</w>
എങ്ങനെ യാണ്‌</w>
എ ബ്രാ
ഉന്ന ത
ഇവിട െയ
ഇരു വരെയും</w>
ആരംഭ ിച്ച
ആയിരക്കണ ക്കിന്</w>
അവിട െയ
അഭി ഷി
അതി ലും</w>
അട ിച്ച
അജി ത്</w>
അക്കാ ര്യ
അക്കാ ദ
അ ഹമ്മദ്</w>
അ മ്മാ
ംഗ ്‌
ൻ റ</w>
െയ ്യ
ുവ നേ
ുടേ ത്</w>
ുകൊ ള്ള
ിക്കു മ്പോൾ</w>
ിക്കു മോ</w>
ി യില്‍</w>
ാന െ</w>
സ്‌റ്റ േഷ
സ്വ രാജ്</w>
സ് മൃ
സെ ൻ
സിനിമ കള്‍</w>
സി നും</w>
സാധ്യ മാണ്</w>
സാധ ു
സാക്ഷ ികളുടെ</w>
സഹായ വും</w>
സവാ ള</w>
സര്‍വീ സ്</w>
സമ്പ ൂ
സമ ില്ല</w>
സംബന്ധിച്ച ിടത്തോളം</w>
സംഗ തി
സം യുക്ത</w>
ഷ മി</w>
ശ ്യ
വ്യക്തി പരമായി</w>
വേണ്ട ിയാണ്</w>
വെല്ലുവിള ി</w>
വെ സ്റ്റ്</w>
വു ണ്ടാ
വിവര ണം</w>
വാസ്‌ തവ
വസ ര
വഴ റ്റ
വര ുന്നുണ്ട്</w>
ഴ ാ
ലോക മെ
ലൈംഗ ിക
ലഭ ിക്കുന്നത്</w>
ല ുകളും</w>
റ്റ ീവ്</w>
റില ീ
റി ന്‍റെ</w>
രേ യും</w>
രീതി യിൽ</w>
രി യ്
ര ുടെയും</w>
യു ക</w>
യിലേ ക്കുള്ള</w>
യാ ത്രി
യാ ണ്​</w>
മുന്ന ില
മുന്ന ി
മുംബൈ യില്‍</w>
മു റി</w>
മു ര
മു യ
മീറ്റ ര്‍</w>
മി ല്‍</w>
മഹ ത്തായ</w>
മലി നീ
മറ്റുള്ള വർ</w>
മറുപ ടിയ
മറ ിയ
മരണ മട
മനസ്സിലാ ക്കാൻ</w>
മ ുകളിൽ</w>
മ ിച്ച
മ ല</w>
ഭൂരി ഭാഗവും</w>
ഭൂരി പക്ഷം</w>
ഭാര ത്</w>
ഭ രണ</w>
ബ് ലാ
പ്രശ ംസ
പ്രദേശ ില്‍</w>
പ്രതീക്ഷ ി
പ്ര ൈ
പ്പെടുത്തി യത്</w>
പ്പിച്ച ിട്ടുണ്ട്</w>
പ്പ ര്‍</w>
പ് തി</w>
പോ ളി
പോ ലി
പു ത്ത
പു ണ
പാരമ്പ ര്യ
പാകി സ്ഥാ
പാ വ
പറ്റി യ</w>
പ ന്ത
ന്റേ ത്</w>
നെ തിരേ</w>
നിർ ദ്ദേശം</w>
നായി ക</w>
നാ ടി
നാ കും</w>
നല്‍ക ണം</w>
ത്തുട ർന്ന്</w>
ത്ത ുന്നത്</w>
താ ൽ
തട ങ്ക
ത യുള്ള</w>
ണ്ണ ി</w>
ഡീസ ൽ</w>
ട്ട ില്‍</w>
ടെ ക്
ജില്ല യില്‍</w>
ചേർച്ച യിൽ</w>
ചെയ്യ ുന്നില്ല</w>
ചു റ്റു
ചടങ്ങ ിൽ</w>
ഗ്രൂ പ്പ
ഗ ാനം</w>
ഖ ണ്ഡ്</w>
കർണാ ടക</w>
കൺവെ ൻ
ക്രിസ്‌ തു</w>
ക്രിസ് തു
ക്രമ ണം</w>
ക്കൊ പ്പ
ക്കൊ ണ്ട്</w>
ക്കുന്നതി ൽ</w>
ക്കു ഴ
ക്കി ങ്</w>
ക്കാ രുടെ</w>
ക്കാ രും</w>
കോള ജ
കോ ഹ്
കേസ ുകൾ</w>
കേസ ുകള്‍</w>
കുറ ഞ്ഞത്</w>
കി ണ
കാല ഘട്ട
കാണ ും</w>
കാ സര്‍
കാ രിക
കമ്മീ ഷണ
കമ് പ്യൂട്ട
കണ്ടെ ത്താന്‍</w>
ക ണ്‍
ഓഫീ സ
ഓണ്‍ലൈ ന്‍</w>
ഒന്നി നും</w>
ഒ തു
ഏ തൊരു</w>
എളുപ്പ മല്ല</w>
എന്ന ത്‌</w>
എന്ത ൊ
ഉയര്‍ ന്ന
ഉ ളവാ
ഉ ദ്ധ
ഇലക്ട്രി ക്</w>
ഇറ ാന്‍</w>
ഇറ ങ്ങി</w>
ഇപ്പോഴ ത്തെ</w>
ഇംഗ്ലീഷ ്‌</w>
ഇ സ്‌
ഇ വർ
ഇ ന്നു</w>
ആശുപത്രി കളില്‍</w>
ആരോ പിച്ചു</w>
ആരംഭ ിക്കും</w>
ആര ോഗ
ആ ശ്വാസം</w>
ആ യിരുന്ന
അവകാശ ം</w>
അവ ശേഷ
അനു യോജ
അന ധിക
അതി വേഗം</w>
അതാ യത്</w>
അച്ഛ ൻ</w>
അങ്ങേയ റ്റം</w>
അ വി
അ റു
അ പ്രതീക്ഷി
6 5</w>
6 ,
േയ ുള്ളൂ</w>
േണ്ട ത്‌</w>
െ യാണ്‌</w>
ുണ്ട െന്നും</w>
ുകാ ല
ിയു പ
ിക്കൊ ടു
ഹീ ന
ഹ ര
സൗജ ന്യ</w>
സ്വീകരിക്ക ും</w>
സ്വ പ്‌
സ്ത്രീ കൾ</w>
സ് മാർ
സേ നാ</w>
സെ ല്‍
സൂക്ഷ ്
സൂ ര്യ
സു നില്‍</w>
സീ രിയ
സി ലി
സാ യിരുന്നു</w>
സഹ ജ
സമ് പാദ
സമര്‍ പ്പ
സന്ന ദ്ധ
സംവിധായക ൻ</w>
സംഭവ ത്തെക്കുറിച്ച്</w>
സംഘർ ഷ
സം ഗ</w>
സ ൌ
ഷ് ണ
ശ ലോ
ശലോ മോ
വേഗ ത്തിൽ</w>
വു മുണ്ട്</w>
വിശ ്യ
വില മതി
വില ക്ക്</w>
വിഭ ജ
വിചാ രണ</w>
വി ശ്രമം</w>
വി ശേഷം</w>
വാസി കള്‍</w>
വള ര്‍ച്ച
വര്‍ ധന
വരു മായി</w>
വരു മാന
വരു ത്തി
വധ ിച്ചു</w>
വ ത്
ഴ ി</w>
ലക്ഷണ ങ്ങള്‍</w>
റ്റ ുകള്‍</w>
റ ുകള
റ ിയും</w>
രേഖപ്പെടുത്തി യ</w>
രാജ്യ ങ്ങളും</w>
രംഗ ം</w>
ര ൻ</w>
യു മായുള്ള</w>
യില െത്തി</w>
യി ഡ്</w>
യാഥാ ര്‍ത്ഥ
മേഖ ല</w>
മുള്ള ത്</w>
മു ല
മീഡിയ യിൽ</w>
മി ന്റെ</w>
മാനസി ക
മാധ്യമ പ്രവര്‍ത്ത
മാതാപിതാ ക്കള്‍</w>
മാ യാവ
മാ ന്
മഹ ത്
മനോ ഭാവ
മണ ിപ്പ
മ ിയ
മ റാ
ഭാവ ന</w>
ഭരണഘ ട
ഭ ുവനേ
ബോധ ം</w>
ബി ൽ</w>
ബന്ധ ിപ്പ
ബംഗളൂ രു</w>
പ്രസംഗ ം</w>
പ്രതി പക്ഷം</w>
പ്പെടുത്ത ുകയും</w>
പ്പ ാണ്</w>
പോ ലെയാണ്</w>
പൊള്ള ലേ
പൊ ളി
പൈ ല
പേജ ്‌</w>
പൂർണ മായും</w>
പുറ ത്തേക്ക്</w>
പാത്ര ത്തിൽ</w>
പാട ും</w>
പാ സാ
പല യിട
പരു ക്ക്</w>
പരി സ്ഥിതി</w>
പ യോഗ
പ താ
നൽക ുന്ന
ന്മാ ർക്ക്</w>
നോട്ട ീസ്</w>
നിർ ദ്ദേശ
നിന്ന ുള്ള
നായക ൻ</w>
നമു ക്കും</w>
നടപടി ക്രമ
നട ത്തു
ദി വ്യ
ത്യ ാ</w>
ത്തി ന്‍റെയും</w>
ത്തി നെ</w>
തോ ന്ന
തെര ച്ചില്‍</w>
തുറ ന്ന്</w>
തീ ക്ഷ
ത ന്നു</w>
ണ െന്നും</w>
ഡ ുകള്‍</w>
ട്ട ും</w>
ജീവി ച്ച
ജാ തി</w>
ചോ ദ
ചെയ് തു
ചര്‍ മ്മ
ങ്ങ ു</w>
ഗ ോ
ക്കി ന്റെ</w>
ക്കാനാ കും</w>
കൊ ഴു
കൊ ല്‍ക്കത്ത</w>
കൈ ക്കൊള്ള
കേവ ലം</w>
കൃഷ് ണ</w>
കൃ തി
കൂട്ടിയിട ിച്ച്</w>
കൂടുത ലും</w>
കുല്‍ ദീപ്</w>
കുറ േ</w>
കുട്ട ിയ
കീഴ ട
കിട്ട ും</w>
കാലാവസ്ഥ ാ</w>
കാര്യ മില്ല</w>
കാര്യ മായി</w>
കാരണ മാ
കാ ന
കശ്മീ രില്‍</w>
കക്ഷ ി</w>
ക മ
ഔദ്യോഗ ിക</w>
ഓ പ്പറ
ഒരു പോലെ</w>
എല്ലാ യിടത്തും</w>
എന്‍ സി
എന്ന തു</w>
എ മ്മി
ഉള്ള ൂ</w>
ഉപ ദേഷ്ടാ
ഉത്തര വിട്ട
ഉണ്ടാ യിരിക്ക
ഉണ്ടാ യ
ഉട മ
ഇഷ്ട ം</w>
ഇറക്കു മതി</w>
ഇന്റര്‍ നെറ്റ്</w>
ഇത്തര ത്തിലുള്ള</w>
ആഹ് വാ
ആഗ്രഹ ി</w>
ആ ശ്വ
ആ യിരിക്കണം</w>
ആ യി
ആ ംബ
അവ ന്‌</w>
അവ ന്നു</w>
അയോ ധ്യ
അയ ല്‍
അയ ച്ചു</w>
അമി താ
അഭിനയി ച്ചു</w>
അപ്പീ ൽ</w>
അട ച്ചു</w>
അ ണിയ
ം പ
t e
o n
8 .
4 2</w>
േഷ ്‌
േറ്റ ി
ുള്ള വ
ുള്ള തും</w>
ുള് ‍
ുന്നതി ന്‌</w>
ുണ്ടാ യിരുന്നില്ല</w>
ുണ്ടാ യിരുന്നത്</w>
ുകൊണ്ടാ ണ്‌</w>
ുകൊണ്ട ിരിക്കുന്നത്</w>
ിലേ ക്കും</w>
ിട്ട ുമുണ്ട്</w>
ിക്കേണ്ട ത്‌</w>
ിക്കുന്നതി നും</w>
ിക്കണ മെന്നും</w>
ി യായ</w>
ഹോ ണ്ട</w>
ഹി മാ
സ്‌ ഥ
സ്‌ കോ
സ്‌ ക
സ്വ യ
സ്മൃ തി</w>
സ്കൂ ള
സ് കോ
സേവ ന</w>
സുഷ മ</w>
സിബി ഐ
സാധാരണ മായ</w>
സാക്ഷ ികള
സമീപ ത്തെ</w>
സങ്കീർത്ത ന
സംസാരിക്ക ാൻ</w>
സംഘ ത്തെ</w>
ശ് ശ
വേ വ
വേ ള
വെള്ള ത്തില്‍</w>
വിക സിപ്പ
വി ൽ
വാര്‍ ട്ട
വാക്ക ുകള്‍</w>
വാ യിച്ച
വാ ട്‌
വശ്യ മായ</w>
വശ ം</w>
വര്‍ദ്ധ ിപ്പ
വരി ല്ല</w>
വയ സ്സിൽ</w>
വ ൂ</w>
ഴ ുക
ഴ ം</w>
ലേഖ നം</w>
റി സര്‍
ര്‍ മ്മ
രേ ഖ</w>
രൂക്ഷ മായി</w>
രിക്ക ുക</w>
രാജി വച്ചു</w>
യ് ക്കുള്ള</w>
യോ ടുള്ള</w>
യേ ക്കാം</w>
യാഥാ ര്‍ഥ
യാക്കോ ബ്‌</w>
യഥാര്‍ ത്ഥ</w>
മൊ ന്നുമില്ല</w>
മേ ല്‍
മെന് റിന്റെ</w>
മൃതദേഹ ങ്ങള്‍</w>
മൂന്നാ മത്തെ</w>
മുഖ്യമന്ത്രി യും</w>
മുഖ്യമന്ത്രി യാ
മു ക്ത
മീറ്റ ർ</w>
മാത്ര മായിരുന്നു</w>
മാ റിയ
മാ ണി
മര്‍ ദ്ദ
മരിച്ച ിരുന്നു</w>
മനുഷ്യ ൻ</w>
മണ്ഡ ലം</w>
മ ൊ</w>
മ മ്മ
മ ന</w>
മ ടു
മ കളും</w>
ഭൂ ഷ
ഭരണഘടന യുടെ</w>
ഭ ാ</w>
ബുദ്ധ ിയുപ
ബീ ഹാ
ബി എസ്</w>
ബാധ കമാ
ബ ോ</w>
ഫയ ര്‍
പ്‌ തി</w>
പ്രേ രി
പ്രാർഥ ന</w>
പ്രാ യോഗ
പ്രതിഷേധ വുമായി</w>
പ്ര വൃത്തി</w>
പ്ര ക്രിയ
പ്പി നെ</w>
പൊലീ സ്​</w>
പെരു മാറ
പുതിയ ൊരു</w>
പു രോ
പിറ ന്നാ
പിന്‍ വല
പിടിച്ച െടുത്തു</w>
പിടികൂട ിയത്</w>
പിടി ച്ച</w>
പാ ക്ക്</w>
പറഞ്ഞ ിട്ടില്ല</w>
പരാതി യുടെ</w>
പരസ്‌ പരം</w>
പദ്ധതി കള്‍</w>
പ റ്റാ
പ ണ്ഡി
നൽക ിയ
നോ ക്കൂ</w>
നേതൃത്വ ത്തിലുള്ള</w>
നീതി മാ
നിശ്ച യിച്ച
നിലവില ുള്ള</w>
നി യുടെ</w>
നടന്ന ിട്ടില്ല</w>
നഗ രം</w>
ന വാ
ദൈവ വച
ദക്ഷി ണ
ദ ർശ
ദ ിക്</w>
ത്തേ ത്</w>
ത്തില ുണ്ട്</w>
ത്തിരിക്ക ുന്നത്</w>
ത്തി രി</w>
തോ റ്റു</w>
തൃ ണ
തീക്ഷ ്
തിരു ത്ത
തമിഴ് നാട്</w>
തകര്‍ ന്ന
ത ല്ല
ത ങ്ങള്‍</w>
ണ െ</w>
ഡ റ
ടീമി നെ</w>
ട ീ</w>
ഞ്ഞ ുകിട
ജീവിത ത്തിന്റെ</w>
ജില്ല യിലാണ്</w>
ജി തമാ
ജാല ക
ജസ് പ്രീത്</w>
ജന സംഖ്യ
ജഡേ ജ</w>
ജ ലം</w>
ച്ച് ​</w>
ച്ച െ
ചെയ് യില്ല</w>
ചിന്തി ച്ച
ചി ല്ല
ച ക്ര
ങ്ങള ുമുണ്ട്</w>
ങ്ങ നെയ
ഗവര്‍ണ ര്‍</w>
ക്ഷണ ിച്ചു</w>
ക്കുറ ിച്ച
ക്കു മോ</w>
ക്കാല ത്ത്</w>
ക്കാ വുന്ന</w>
ക്കാ ലം</w>
ക് വാര്‍ട്ട
ക് യൂട്ട
കോ ൺ
കേ ട്ട്</w>
കുറ വ്</w>
കുട്ടികള ാണ്</w>
കുട്ട ിക്കാ
കീ ഴ്‌
കിട ന്നു</w>
കാണ ുന്ന</w>
കശ്മീ രിലെ</w>
കഴിഞ്ഞ ്</w>
കഴിഞ്ഞ ിട്ടില്ല</w>
കലാ പ
കരു ത്തും</w>
കരാ ര്‍</w>
കച്ച വട
ക നാ
ക ത്തി</w>
ഓ ണ
ഏ കാ
എല്ലാ വരെയും</w>
എല്ലാ വരുടെയും</w>
എന്തി നു</w>
എനിക്ക ൊരു</w>
എടു ത്ത
എ ഫ്
ഉത്ത രാ
ഉണ്ടാ യിട്ടുണ്ട്</w>
ഉണ്ടാ യിട്ട
ഉ പ്പും</w>
ഇന്ത്യ ാ</w>
ഇതി നുള്ള</w>
ഇത ോടെയാണ്</w>
ആവശ്യ ത്തിന്</w>
ആദ്യ മായാണ്</w>
ആഗ്രഹ ിക്കുന്ന</w>
ആ സി
ആ സാ
ആ ദ്
ആ ട
ആ ച
അവ ൾക്ക്</w>
അഭി പ്രായ</w>
അപ ല
അന് യ
അധ ്യാ
അതി ലേക്ക്</w>
അതി ക്രമ
അ ല്‍</w>
അ ക്ര
അ ംബാ
ം റ</w>
ം ഖ
7 :
5 2</w>
ൊ രിക്കലും</w>
േ റ
േ ന</w>
ുകള ായി</w>
ുക യാണെന്ന്</w>
ു മെന്നും</w>
ിക്കു ചെയ്യുക</w>
ികള ുണ്ട്</w>
ിക ൾ
ിക ൊ
ഹ ോ</w>
സ്‌കൂ ളില്‍</w>
സ്റ്റ ീ
സ്റ്റ ര്‍</w>
സ്ഥിര ീകരിക്ക
സ്ഥാനാ ർഥ
സുരക്ഷ ാ
സു സു
സീറ്റ ുകളില്‍</w>
സീ സ
സിദ്ധ ാ
സഹാ യക
സന്ദർ ഭ
സത്യ സന്ധ
സത്യ പ്രതി
സ സ്‌പെ
ശുശ്രൂ ഷ</w>
ശാ ന്തി
ശ ൃ
വ്യാപാ ര</w>
വ് ​</w>
വേ ദി
വീര മൃ
വിഷയ ത്തിൽ</w>
വിഷ ്
വിശേഷ ിപ്പ
വിശദാംശ ങ്ങൾ</w>
വിശദാംശ ങ്ങള്‍</w>
വിദ്യാ ലയ
വിത രണ
വാർത്ത കൾ</w>
വാസ്‌തവ ത്തിൽ</w>
വാസ്തവ ത്തിൽ</w>
വായ് പ</w>
വാ ഴ
വാ ണ്‌</w>
വര്‍ ക്കെതിരെ</w>
വ ര്
വ നം</w>
ളിയ ം</w>
ള ാ</w>
ലോ ക
ലീ ഡ്</w>
ല ുകള
റിപ്പോ ര്‍
റി ലാണ്</w>
റണ്‍ സാണ്</w>
ര ണ്‍
യ്‌ ക്കും</w>
യൂണിവേ ഴ്‌
യു വാക്ക
യി ല</w>
യ ുന്നു</w>
മ്പോ ള്‍</w>
മൊഴ ി</w>
മേഖല യിലെ</w>
മൂ ന്നും</w>
മുസ്‌ ലിം
മുണ്ട ്‌</w>
മു ട്ടി</w>
മി ന്ന
മാറ്റ ങ്ങള്‍</w>
മാര്‍ ക്ക
മാതാപിതാ ക്കളുടെ</w>
മാതാ വ്</w>
മഹീ ന്ദ്ര</w>
മറ്റുള്ള വര
മരിക്ക ുകയും</w>
മധു ര
മത്സര ത്തിൽ</w>
മതി യായ</w>
മ െയ
മ ീ</w>
മ ല്ലി
മ ത്</w>
മ താ</w>
മ ഞ്ഞ</w>
മ ംഗളൂ
ഭീകര വാദ
ഭീ ഷണ
ഭാഷ കള
ഭയങ്ക ര</w>
ബ്ര സീ
ബോ ര്‍ഡ്</w>
ബ ്യൂ
ഫ െയ്‌
പ്രമേ യം</w>
പ്രതി ഷേ
പ്രചാ രണം</w>
പ്രഖ്യാപ ിച്ചത്</w>
പ്രഖ്യാപ നം</w>
പ്രക്ഷോ ഭ
പ്ര സ്</w>
പ്ര വിശ്യ
പ്പെട്ട ിട്ടില്ല</w>
പേര് ‌</w>
പെട്രോ ള്‍</w>
പൂർ ണ</w>
പുനരു ത്ഥ
പീ ഠ
പിന്ന ിലെ</w>
പിടി ത്ത
പാണ്ഡ ്യ</w>
പാഠ ം</w>
പാകി സ്ഥാൻ</w>
പാ ക്കേ
പറഞ്ഞ ു
പരിശ ോധ
പരിപാട ികള്‍</w>
പരിക്കേ ല്‍ക്കുകയും</w>
പതി വായി</w>
പണ ിയ
പട്ട ാ
പച്ചക്ക റി</w>
പ ദം</w>
നൽക ുന്നത്</w>
ന്ദ ര്‍</w>
നേരി ടുന്ന</w>
നേട ാൻ</w>
നു മാണ്</w>
നീ ല</w>
നില വിള
നിര ന്തരം</w>
നിമി ഷം</w>
നി തീഷ്</w>
നാഷണ ൽ</w>
നാര ങ്ങ</w>
നഷ്ട പ്പെട്ടു</w>
നട ക്കുന്നു</w>
നഗര ത്തില്‍</w>
ന ട്ടു
ദൈവ ത്തിന്റെ</w>
ദുരിതാ ശ്വാസ</w>
ദീ പിക</w>
ദീ പാ
ഥ േ
ത്തോ ടുള്ള</w>
ത്തില െ
തൊ ട്ടു
തുടർ ന്നാണ്</w>
തുടര്‍ ച്ച
തുടങ്ങ ും</w>
തുടങ്ങ ിയത്</w>
തു ണ്ട
തീക്ഷ് ണ
തിരഞ്ഞെടു പ്പിൽ</w>
തിരഞ്ഞെടു ക്കാൻ</w>
തി യാ
തി ന്ന
താല്‍ പര്യ
താമ സിയാ
തയ്യാ റാണ്</w>
തന്നെ യാണ്‌</w>
തക ർന്നു</w>
ത ക്ക
ഡ്ര ോ
ഡ ര്‍</w>
ഡ ബ്
ടേബി ൾ</w>
ടീ ച്ച
ടിക്ക റ്റ്</w>
ഞ ങ്ങൾക്കു</w>
ജീവിത ത്തെ</w>
ജില്ല കളില്‍</w>
ജ യില
ചെയ്യാ നും</w>
ചൂ ട്</w>
ചു റ്റ
ചു മത
ചര്‍ച്ച കള്‍</w>
ച ടങ്ങി
ങ്ങൾ ക്കായി</w>
ഗവണ്‍ മെന്റ്</w>
ക്ല ിക്കുചെയ്യുക</w>
ക്കു മ്പോൾ</w>
ക്ക ൾക്ക്</w>
ക്ക െയാണ്</w>
ക്ക ള്‍ക്ക്</w>
ക് ടീ
കൂട്ടിച്ചേ ര്‍ത്തു</w>
കുറ്റ വാള
കുറ ിച്ച
കാര്യ ങ്ങളിൽ</w>
കാര റ്റ്</w>
കാണ ുന്നില്ല</w>
കാ റും</w>
കള ുമായി</w>
കണ്ട െടുത്തു</w>
ക യും</w>
ഐപി എല്ല
എന്ന ൊക്കെ</w>
എനി ക്ക്‌</w>
എത്തി യിരുന്നു</w>
എഞ്ചി നീയ
എംഎല്‍ എ</w>
ഉരുളക്കിഴ ങ്ങ്</w>
ഉപാ ധ്യ
ഉത്സ വ
ഉ ള്
ഇര ട്ട
ഇദ്ദേഹ ത്തെ</w>
ഇട പെ
ഇ പ്പോ
ഇ ണ
ആള ുകളുടെ</w>
ആള ുകള
ആര ുടെ</w>
ആന്ധ്രാ പ്രദേശ്</w>
ആത്മ വിശ്വാസ
ആ ഞ്ഞ
ആ ം</w>
അർ ഹ
അരി ഞ്ഞത്</w>
അനുസ രിക്ക
അനുയോജ ്യ
അനു മതി
അത്ര യും</w>
അ ർത്ഥ
അ നില്‍</w>
അ ഗ്‌
ംഗ ം</w>
ം കൊണ്ടു</w>
u e</w>
i n</w>
e a
ൊന്നു മല്ല</w>
േഷ ്യ
െ പ്പോലെ</w>
െ ക്കു</w>
ുകയാണ െന്നും</w>
ു റി</w>
ു മായിരുന്നു</w>
ില ്</w>
ില ീ
ിട്ട ുണ്ടോ</w>
ിക്കാ യി</w>
ി യ</w>
ഹൃദയാ ഘാത
സ്‌ തു
സ്‌ ത
സ്വര്‍ ണം</w>
സ്യ ർ</w>
സ്കൂ ൾ</w>
സോണിയ ാ</w>
സുഖ ം</w>
സീറ്റ ില്‍</w>
സി സ്</w>
സി ന്‍
സാധ ന
സാം സ്
സഹോ ദര
സര്‍ വകലാശാല
സമ്മർ ദ്ദം</w>
സമ് മാനം</w>
സമു ദ്ര
സമീപ ിച്ചത്</w>
സഞ്ചാ രി
സംസ്ഥാന ം</w>
സംഭവ ിക്കുന്നു</w>
സം തൃപ്
ശ്രദ്ധ ാ
ശിവസേ ന
ശാസ്ത്ര ജ്ഞ
ശരീര ഭാരം</w>
വ്യാപ ക</w>
വേഷ ം</w>
വെ ച്ചു
വിശ് വ</w>
വിധേയ മാ
വിദ്യാര്‍ത്ഥ ി</w>
വിദ്യാര്‍ത്ഥ ി
വിട്ട ുകൊടു
വിട ്ട</w>
വി ശാല
വി മാന</w>
വശ്യ ം</w>
വയ സ്സാ
വ ൈ</w>
വ ച്ച</w>
ല്‌ പ
ലോ ക്ക്</w>
ലാ യ
ലാ ഭ
റ്റി ന്റെ</w>
റെ യിൽ
റു ണ്ടോ</w>
റി ഞ്ഞ
റാ യ</w>
രൂക്ഷ മായ</w>
രി ല്ല</w>
രാജ്യ ങ്ങളിൽ</w>
ര ഞ്ജ
ര ങ്ങൾ</w>
യ് ക്കാണ്</w>
യിലാ യി</w>
യി ന്റ്</w>
യഹോവ യാം</w>
യഹൂ ദ
യ െന്ന
യ ുന്ന
മ്യൂ സിയ
മോ ച
മെ ട്ര
മൂ വേ
മുഴുവ നും</w>
മു ന്തി
മി ൻ</w>
മി ല്ലാ
മാർ ക്ക
മാധ്യമ ങ്ങള്‍</w>
മാധ്യ മ</w>
മാം സം</w>
മാ യിട്ടില്ല</w>
മയ ക്കു
മ ല്ലോ</w>
മ മതാ</w>
മ കളെ</w>
ഭാഗ്യവശ ാൽ</w>
ഭാഗ ങ്ങളില്‍</w>
ഭയ പ്പെട
ഭ ്ര
ബെ ഞ്ച്</w>
ബു ക്ക്</w>
ബിജെപ ിയ
ബാറ്റി ങ്</w>
ഫയര്‍ ഫോ
പ്രവാച ക
പ്രമേ ഹം</w>
പ്രത്യേക ിച്ചും</w>
പ്രക ടി
പ്ര മാണം</w>
പോലീ സെത്തി</w>
പോക ുന്നില്ല</w>
പെട്ടെന്ന ുതന്നെ</w>
പുസ്തക ം</w>
പുറത്തിറ ക്കി</w>
പുരോഗ തി</w>
പുരസ് കാര
പീഡ നം</w>
പരി ഷ്‌
പരാതി യില്‍</w>
പരസ്പ ര</w>
പര ി</w>
പട്ടിക യിൽ</w>
പ തു
പ ച്ച</w>
ന്യൂ സിലാ
നേതാ ക്കൾ</w>
നിര്‍ ദ്ദേശ
നി ഷ്
നി ലും</w>
നായി ക
നാട്ട ിൽ</w>
നാട്ട ിലെ</w>
നാ വില്ല</w>
നാ ധ
നടത്ത ാന്‍</w>
നട ന്‍</w>
നട ത്താ
നട ക്കുക</w>
ന ക്ഷ
ദിന ം
ദരി ദ്ര
ദക്ഷിണാ ഫ്രിക്ക</w>
ത്തു നിന്ന്</w>
ത് മ
തെറ്റി ദ്ധ
തെന്ന ി
തിരി ഞ്ഞു</w>
തിര ി</w>
താര ങ്ങളും</w>
താങ്ക ളുടെ</w>
താ ന
താ ണു</w>
തള്ള ിക്കള
തണു ത്ത</w>
ത രും</w>
ത യിൽ</w>
ത ക</w>
ഡോക്ട ര്‍</w>
ഡീസ ല്‍</w>
ഡിയ ോ
ഡി എഫ്</w>
ഡി എ</w>
ഡ ർ</w>
ടെസ്റ്റ ില്‍</w>
ട ങ്ങിയ</w>
ഞാന െ
ച്ച േ
ചേ ര
ചെയ് താ
ചെയ ര്‍മാ
ചി ഹ്
ച ർമ്മ
ങ്ങി യില്ല</w>
ഘ ു
ഗ് രി
ഗോ വ</w>
ഗുണ ങ്ങൾ</w>
ഗീ തങ്ങൾ</w>
ഗാന്ധ ിക്ക്</w>
ഖ ര്‍</w>
ക്ഷേ പ
ക്ട ർ</w>
ക്കുന്നതി ല്‍</w>
ക്കുന്ന തു</w>
ക്കാര ന്‍</w>
ക്കാനാ വില്ല</w>
ക്കാ നായി</w>
ക്കാ ട്</w>
ക് രാ
കോൺഗ്ര സിന്</w>
കേരള ത്തിലെ</w>
കേന്ദ്ര മന്ത്രി
കേണ്ട ത്</w>
കുടുംബ ത്തിലെ</w>
കു ളം</w>
കാര്യ വും</w>
കാണ ിച്ച
കര്‍ ത്താ
ക ള്‍
ക മായി</w>
ക ട</w>
ഓപ് ഷൻ</w>
ഒഴി വാക്ക
ഒരാള ാണ്</w>
എല്ലാ യ്‌
എബ്രാ യർ</w>
എന്നിവ യും</w>
എങ്ങ ോട്ട
എ ത്തും</w>
എ ക്‌സി
ഉദ്ദേശ ്യ
ഈ ടാ
ഈ ജി
ഇവിട െയുണ്ട്</w>
ഇത്തര ത്തില്‍</w>
ഇതി ഹാ
ആസ്പ ത്രി
ആശുപത്രിയിലെത്തി ച്ച
ആശയ വിനി
ആവശ്യ പ്പെട്ട്</w>
ആള ുകൾക്ക്</w>
ആരോഗ്യ ത്തിന്</w>
ആരാ ണ
ആനുകൂ ല്യ
ആ ശ്വാസ
ആ റു
ആ യിത്തീ
അവാര്‍ ഡ്</w>
അവസര ങ്ങള്‍</w>
അവ ര്‍ക്ക
അനുഷ്‌ ക</w>
അത ോ
അടുത്ത ുള്ള</w>
അടു ക്കല്‍</w>
അട യാള
അ ന്ധ
t or
h p</w>
e w
b hp</w>
7 .
6 2</w>
3 8</w>
20 18</w>
ോട ി</w>
ോഗ്രാ ം</w>
ുന്ന ുണ്ടോ</w>
ുക ള്‍ക്കും</w>
ിക്കുന്ന തു</w>
ിക്കുക യോ</w>
ിക്കാ റുണ്ട്</w>
ിക്ക ാ</w>
ി ന്</w>
ാന ു
ഹൃദയ ത്തെ</w>
സ്‌നാ പന
സ്വീ കാര്യ
സ്വര്‍ ണ
സേവന ങ്ങൾ</w>
സെ ന്റ
സുബ്രഹ്മണ ്യ
സിനിമ യിലെ</w>
സിനിമ കളില്‍</w>
സിദ്ധ രാമ
സാക്ഷ ്യം</w>
സഹ കരിക്ക
സമൂ ഹ</w>
സച്ചി ന്‍</w>
സംഭവ സ്ഥലത്ത്</w>
സ ത്യാ
ശ്രമ ങ്ങൾ</w>
ശ്രദ്ധ ിക്കണം</w>
ശാരീ രിക</w>
ശാ സ്‌ത്ര
ശരി യാ
ശതമാന വും</w>
വ്യായാ മ
വ്യവസാ യ
വ്യക്തമാ ക്കുന്നു</w>
വൈ റ്റ്</w>
വൈ ദ
വേണ മെങ്കിലും</w>
വേ ാ
വെളി പ്പെടുത്ത
വെച്ച ാണ്</w>
വിന്യ സ
വി സ്‌
വി ല്
വി പണ
വാര്‍ ത്താ</w>
വള ർച്ച
വരാ ണ്‌</w>
വയ നാട്</w>
വന്ന ിരുന്നു</w>
വ റ്റ
വ ന്നു
ള ീ
ലോക ത്തിന്‍റെ</w>
ലീ ഗ്</w>
ലാ ൽ</w>
ലക്ഷ്യ ങ്ങൾ</w>
ല ിക
റ്റ ര്‍</w>
റോമ ർ</w>
റേ ജ്</w>
റി നെതിരെ</w>
റണ്‍ സി
റ െയ്
രി യായ</w>
രാഷ്ട്ര പതി
രാജ്യ ത്തിന്‍റെ</w>
രാജി വെച്ചു</w>
യ്‌ ക്കെതിരെ</w>
യേശു വിനെ</w>
യൂറോ പ്യ
യു പി
യി ല്ലെന്ന്</w>
യാഥാ ർഥ
യാ തൊ
യാ ണി
യഥാർഥ ത്തിൽ</w>
യ ല്‍</w>
മോ ഷ്ടാ
മെ തിരെ</w>
മുമ്പാ കെ</w>
മുന്‍ പ്</w>
മുന്നറിയി പ്പു</w>
മുണ്ടാ യത്</w>
മു ത്ത
മിശ് ര</w>
മി ക്സ്</w>
മാന ദണ്ഡ
മാണ െന്നാണ്</w>
മാ വും</w>
മാ യില്ല</w>
മഴ യ്ക്ക്</w>
മറ്റ ും</w>
മരിച്ച വരില്‍</w>
മനു ഷ്യാ
മത്സ്യ ത്തൊഴിലാള
മക ൻ</w>
മ യാണ്</w>
മ ജി
ബൗ ള
ബ്രിട്ട ീഷ്</w>
ബ്ര ാ</w>
ബൈബി ളി
ബൈബി ള
ബാ റ്റ്‌
ഫെയ്‌ സ്ബു
ഫെ ഡറ
പൗര ത്വം</w>
പ്രേ രിപ്പ
പ്രാ ർത്ഥ
പ്രതിസന്ധ ി
പ്രതി കൾ</w>
പ്പിച്ച ിരുന്നു</w>
പോ കു
പേര െയും</w>
പുരോഗ മിക്കുകയാണ്</w>
പുരാ തന</w>
പു ഷ്ട
പിട ിച്ച്</w>
പി ല്‍</w>
പറഞ്ഞ ത്‌</w>
പരിശോധന യ്ക്ക്</w>
പരി സര
പരമ്പര യില്‍</w>
പന്തി ല്‍</w>
പതി നാ
പ ു</w>
പ ിച്ച്</w>
പ വാ
ന്യൂ യോ
ന് ധ</w>
നേതാ വുമായ</w>
നെ പ്പോലെ</w>
നു ബന്ധ
നീ യെ
നീ ട്ടി</w>
നില്‍ ക്കുന്ന</w>
നിരീക്ഷ ണ</w>
നിയമ ിച്ചു</w>
നി രു
നാ യില്ല</w>
നല്‍ക ുന്നു</w>
നടന്ന ില്ല</w>
ന ോടു</w>
ന ുള്ള
ദേ ാ
ദേ വേന്ദ്ര</w>
ദുര ന്തം</w>
ദ െ
ദ ു</w>
ത്തെ ക്കുറിച്ചുള്ള</w>
ത്തിരിക്ക ുന്നു</w>
ത്തി രുന്നു</w>
ത്തി യായി</w>
ത്ത ോടും</w>
തൊഴ ില്‍</w>
തൊഴ ിലി
തേ ടി
തുറ ന്നു
തീ കരിക്ക
തിള പ്പിക്കുക</w>
തിമൊഥെയ ൊസ്‌</w>
താ റു
തവണ യാണ്</w>
തട്ട ിക്കൊണ്ടു
ത െന്നു</w>
ത ല്ലേ</w>
ത കളും</w>
ണ ങ്ങൾ</w>
ഡൽഹി യിൽ</w>
ഡൊണാ ള്‍ഡ്</w>
ഡി സ്‌
ഡി എം
ഡ ുകൾ</w>
ഡ ില്‍</w>
ട്ട ിയ
ടു ത്ത
ട ്യൂ
ജമ്മ ുക
ജ ിയുടെ</w>
ജ നിച്ച
ച്ഛ േദ
ചേർ ന്ന്</w>
ചെയ്‌ത ത്‌</w>
ചെയ്യ ണമെന്ന്</w>
ചുമത ല</w>
ചിത്ര ങ്ങളും</w>
ചികി ല്‍
ചലച്ചി ത്ര</w>
ഗുജറാ ത്തിലെ</w>
ഗ ിയ
ക്ര െ
ക്കെ ാ
ക്കുന്ന താണ്</w>
ക്കു രു
ക്കാ ളും</w>
ക്കാ രാണ്</w>
ക്കള ാണ്</w>
ക്കണ മെന്നും</w>
ക്ക ുകള്‍</w>
ക്ക ട്ടെ</w>
ക് ലേ
കോട ി
കൊ ടു</w>
കൃ ത</w>
കൂട്ട ു
കൂടിക്കാ ഴ്ച
കു റു
കു മെന്നാണ്</w>
കാലാ വധി</w>
കാത്തിരിക്ക ുകയാണ്</w>
കാ ൽ
കള ുണ്ട്</w>
കല്യാ ണം</w>
കര്‍ഷ കര്‍</w>
കരുത ുന്നു</w>
കണക്ക ില
ക ൾക്കും</w>
ഒരി ട
ഒന്ന ിച്ചു</w>
ഒ ത്ത
ഏകദിന ത്തില്‍</w>
എംഎൽ എ
എ ഫെ
എ പ്പോൾ</w>
ഊ ന്ന
ഉയ ർന്ന
ഉപ യോ</w>
ഉപ കരണം</w>
ഉത്തർ പ്രദേശ്</w>
ഉത്തരവാദി ത്തം</w>
ഉത്തര വിട്ടു</w>
ഉ ൽ
ഇവിട െയും</w>
ഇന്റർ നെറ്റ്</w>
ഇന്ത്യ യാണ്</w>
ആഹ്വാ നം</w>
ആശ ങ്ക</w>
ആരാധ ക
ആര േയും</w>
ആപ്പി ൾ</w>
ആംബ ുല
ആ രെ</w>
അവിട െയും</w>
അവാർ ഡ്</w>
അവര ോട്</w>
അവ രി
അറിയ ുന്നില്ല</w>
അധ്യക്ഷ നായി</w>
അത ോടൊപ്പം</w>
അത ുകൊണ്ട്</w>
അടിസ്ഥാന ത്തിലാണ്</w>
അ പ്ലിക്ക
അ ന്നു</w>
അ ഡ്മി
en t</w>
9 ,
8 ,
5 .
4 4</w>
19 8
0 0
ൊരു ങ്ങി</w>
ൊ രാ
ോ ടെ</w>
െത്തി യ
െടു ക്കാന്‍</w>
െ ന്താണ്</w>
െ ത്തന്നെ</w>
ുകളി ലാണ്</w>
ില്ല െന്നാണ്</w>
ില ോ
ിരിക്ക ണം</w>
ിച്ച ിരുന്ന</w>
ിച്ച ിരിക്കുന്ന</w>
ിക്കേണ്ട ി
ിക്കാനാ വില്ല</w>
ിക്ക യും</w>
ഹർ ജി</w>
ഹി ത</w>
സ്‌ത്ര ീ</w>
സ്ഥിതിഗതി കള്‍</w>
സ്ഥാനാര്‍ത്ഥ ി</w>
സ്ത്രീക ള്‍ക്ക്</w>
സ് പോ
സീറ്റ ുകളാണ്</w>
സി നു</w>
സാമൂഹ ്യ</w>
സാമൂഹ ിക
സര്‍ വ്
സമൂ ഹം</w>
സമാ ധാന</w>
സന്തോ ഷ
സത്യ ത്തിൽ</w>
സംസ്ഥാന ങ്ങളിലെ</w>
സംഭാഷ ണം</w>
ഷൂട്ടി ങ്</w>
ശസ്ത്ര ക്രിയ
ശമ്പ ളം</w>
ശ ിര
വർധ ിപ്പ
വ്യവസാ യ</w>
വൈ റ്റ
വേല യിൽ</w>
വേ ര്‍
വെളിച്ച ം</w>
വെറു മൊരു</w>
വെ ബ്
വെ ട്ടി</w>
വിൽപ്പ ന</w>
വിവരമറിയി ച്ചു</w>
വില യില്‍</w>
വിദ്യാര്‍ഥ ികള്‍</w>
വി സ</w>
വി പുല
വി നോ
വി നും</w>
വി നു</w>
വി ഡ്
വാ റ
വഴറ്റ ുക</w>
വലി പ്പം</w>
വ ുകയും</w>
വ ന്ന്</w>
വ ണം</w>
ളള ത്</w>
ലി സ്റ്റ്</w>
ലി യാണ്</w>
ലാ ത്തി
ല ൂടെ</w>
ല ിക്ക്</w>
റ്റി നും</w>
റ്റി ംഗ്</w>
റി ങ്</w>
റ ഫ
റ ണാ
റ ം</w>
ര്‍ ഹ
ര്‍ ക്കു
രി യുടെ</w>
രാജ്യ സഭാ</w>
രാജ് നാഥ്</w>
ര വി
യ് ക്കിടെ</w>
യോജ ിപ്പ
യൂണിവേ ഴ്
യിലേ ക്കും</w>
യാണ ല്ലോ</w>
യ ോടു</w>
യ ൊരു</w>
മെച്ച പ്പെട്ട</w>
മെഗാപി ക്സ
മുഖാ ന്തരം</w>
മു ദ്രാ
മി ൽ</w>
മി ല്ലെന്നും</w>
മി നി
മായി ത്തീ
മന്‍ മോഹന്‍</w>
മനസ് സി</w>
മക നെ</w>
മ ും</w>
മ റി</w>
ഭൂമി യിൽ</w>
ഭൂചല നം</w>
ഭാഷ ാ
ഫോണ ില്‍</w>
ഫ ൈ</w>
പ്ലാ സ്റ്റിക്</w>
പ്രൊ ഫ
പ്രസ ക്ത
പ്രശ്‌ന മാണ്</w>
പ്രവർത്തി ക്കുന്നു</w>
പ്രധാന മന്ത്ര
പ്രത്യാ ശ</w>
പ്രതിഷേ ധ</w>
പ്രതിക രിച്ചു</w>
പ്രതി ഫലം</w>
പ്രതി കൂ
പ്ര കോ
പ്പ ൊക്ക
പ്പ ട
പ് ലേ
പോ യിരുന്നു</w>
പേ സ്</w>
പെരു മാറ്റ
പുറത്തിറ ങ്ങി</w>
പുറ ം
പീഡ ന
പിൻ വല
പിറ്റ േ
പി രിച്ചു
പാ റ
പറയ േണ്ട
പരിക്കേറ്റ ത്</w>
പരമ്പ രാഗ
പ ദാ
പ ത്ത്</w>
ന്നാ യിരുന്നു</w>
നേരിട ാന്‍</w>
നേ പ്പാ
നേ ക്കാള്‍</w>
നെ ഹ്‌
നു ഭവ
നീ ഷ്</w>
നിർദേശ ങ്ങൾ</w>
നിശ്ച യി
നിശ് ചി
നിലവാ രം</w>
നില യിലാണ്</w>
നിര്‍ മാണം</w>
നിര സ
നി ഴ
നി ന്ന</w>
നി ക
നടപട ികള
നട ത്തുക</w>
ന മ്
ന കൾ</w>
ധാരാള മായി</w>
ധന കാര്യ</w>
ദൃഷ്ടാ ന്ത
ദിനം പ്രതി</w>
ദാ രു
ദമ്പ തിക
ത്തി യിരിക്കുന്നത്</w>
ത്തി ന്
ത്താ തെ</w>
ത് ത്​</w>
തോന്ന ുന്നില്ല</w>
തെ ന്ത
തി യാണ്</w>
താരത മ്യ
താത്‌ പര്യം</w>
തരാ വസ്ഥ
ത ുകൊണ്ട്</w>
ത യില്‍</w>
ണ് …</w>
ഢ ്</w>
ഡേ വിഡ്</w>
ട്വിറ്റ റില്‍</w>
ട ൊ
ജീവി ത</w>
ജല നിര
ജയലളി തയുടെ</w>
ജന ത്തെ</w>
ചെയ്‌ തിരിക്ക
ചെയ്യാനാ കും</w>
ചെയ്യ േണ്ട</w>
ചെയ ർമാ
ചിന്ത ി</w>
ചിക്ക ൻ</w>
ങ്ങള ുള്ള</w>
ഘ ടകം</w>
ഗ്ലാ സ്</w>
ഗ്രാമീ ണ</w>
ഗോ ള്‍</w>
ഗുരു തരാവസ്ഥ
ഗ വർണ
ക്ഷ മ</w>
ക്രമീ കരിക്ക
ക്കൊ സ്‌</w>
ക്കു ട്ട
ക്കി യിരിക്കുന്നു</w>
ക്കള ായ</w>
ക് ര</w>
കോട ്</w>
കൊല പ്പെടുത്തിയ</w>
കൊ റിയ
കൊ ന്ന
കോൺ ഗ്ര
കേ സുമായി</w>
കൊ ല്ല
കെഎസ് ആര്‍
കിരീ ട
കാരണ മാകും</w>
കാണ ി</w>
കാ വ
കാ ന്ത്</w>
കശ്മീ ർ</w>
കഴ ിക്കാൻ</w>
കര ോട്</w>
കണ്ണ ുകൾ</w>
ക ൾക്കു</w>
ക റി
ക ണ്ണി
ഒ ഴു
എഴുത്ത ുകാര
എളുപ്പ ത്തിൽ</w>
എയ ർ</w>
എന്നി വയ
എത്തിച്ച േ
എടു ത്തു
എ യി
എ മ്മ
ഉപര ോധ
ഉപയോഗ ിക്കുക</w>
ഉ ചിതമായ</w>
ഇന്നി ങ്‌
ഇത്തവ ണ</w>
ഇതി ലെ</w>
ഇതി നിട
ഇട യ
ഇട ം</w>
ഇങ്ങ നെ
ഇ ം
ആവശ്യ മെങ്കിൽ</w>
ആരോഗ്യ നില</w>
ആര ോ</w>
ആദ് മി</w>
ആഗോ ള
ആക്രമണ ത്തിൽ</w>
ആ ഫ്രിക്ക
ആ ണെന്ന്</w>
അശോ ക്</w>
അവസാ നിച്ച
അവതരിപ്പ ിക്കുന്നത്</w>
അവ ര്‍ക്കും</w>
അറിയി ല്ലായിരുന്നു</w>
അയ ോധ
അപ്പൊസ്‌തല നായ</w>
അനുശോ ചനം</w>
അനുഭ വിച്ച
അതി നും</w>
അത ല്ല</w>
അക ലെ</w>
ം സ</w>
tor q
torq ue</w>
ew s</w>
N m</w>
7 7</w>
6 00</w>
ൊ ന്നു</w>
േ ജ്</w>
െയ ർ</w>
െയ െങ്കിലും</w>
െയ ു
െന്ത ാ</w>
ുള് ളി
ുന്നതി നും</w>
ുണ്ടാ യി</w>
ുകൂ ടാ
ുകള ുണ്ട്</w>
ുകള ില്ല</w>
ുകള ിലേ
ുക ട
ിര ുന്നത്‌</w>
ിട്ട ുള്ള</w>
ിക്കുന്നതി നു</w>
ിക ൾക്കും</w>
ാ ധി
ഹ ്ര
സൗജന്യ മായി</w>
സ്‌ പോ
സ്വർഗ ീയ</w>
സ്പീ ക്കര്‍</w>
സ് സും</w>
സെഞ്ച ുറി</w>
സിന്ധ ു</w>
സാഹചര്യ ത്തിൽ</w>
സാര മായി</w>
സാ യി</w>
സര്‍ വ്വ
സമീപ ം</w>
സമാന മായി</w>
സംസ്ഥാന ത്തിന്റെ</w>
സം ബോധ
സംബോധ ന</w>
സ ുകൾ</w>
ഷ്യ ല്‍</w>
ഷി പ്പ്</w>
ശാ ഖ
ശര്‍ മ്മ</w>
ശ ൗ
ശ രാശ
ശരാശ രി</w>
ശ മൂവേ
വ്യാ ഖ്യാ
വ്യ ോ
വൈറ ലായി</w>
വൈകാ രിക
വൈ കിട്ട
വേറ ൊരു</w>
വേ റെ
വേ ണു
വെ ക്കുക</w>
വീരമൃ ത്യു</w>
വീടി ന്</w>
വിഷാ ദ
വിശ്വസ്‌ത ത</w>
വിശദ ീകരിച്ചു</w>
വി വിധ
വി ലാണ്</w>
വാര്‍ ത്താ
വാദ ി</w>
വാ യു
വാ നുള്ള</w>
വശ ത്ത്</w>
വഴ ികൾ</w>
വള ർത്തി
വര്‍ ത്ത
വ ൻ
വ നാ
വ തി</w>
ലളി തമായ</w>
റ്റ ീ
റ്റ റ
റോഡ ില്‍</w>
റിപ്പ ബ്ല
റി ട്ട
റ ിലും</w>
റ ഷ്യ</w>
രൂ ക്ഷ</w>
രാജ്യ ങ്ങളില്‍</w>
രണ്ടാ ം
രക്ഷ ിക്കാനായില്ല</w>
യിരിക്ക ുന്ന
യിര ം</w>
യിട്ട ും</w>
യി ല്ലാത്ത</w>
യാഥാര്‍ഥ ്യ
യാത്രക്കാ ര്‍</w>
യാ യത്</w>
യഹോവ യ്‌ക്ക്</w>
മ്പോ ഴും</w>
മൊ രു
മെഗാപി ക്‌സ
മുക േഷ്</w>
മു ഴു
മിശ് രി
മാറ്റ ിയ
മാ യോ</w>
മാ യിരിക്കുന്നു</w>
മാ താ</w>
മറ ന്ന
മറ ക്കരുത്</w>
മനോഹ ര്‍</w>
മനുഷ്യ ർ</w>
മനുഷ്യ വർഗ
മന ോഹ
മട ങ്ങി</w>
മക്കള ുടെ</w>
മ യുടെ</w>
ഭാര വാഹ
ഭാര തം</w>
ബാന ര്‍ജി</w>
ബാക്കിയ ുള്ള
ബാ ദ
ബഹു മാന
ബഹി രാ
ബസ ുകളും</w>
ഫില ിപ്പ
ഫയ ല്‍</w>
ഫ ണ്ട്</w>
പ്രവേശിപ്പ ിച്ച
പ്രവ ണ
പ്രദേശ ം</w>
പ്രദര്‍ശ ിപ്പ
പ്രതിഷേധ ക്കാരെ</w>
പ്രഖ്യാപ ിച്ചിട്ടില്ല</w>
പ്രകട ന
പ്ര ഭാവം</w>
പ്പോഴ േക്കും</w>
പ്പ ിക്കുന്ന</w>
പോസ്റ്റ ു
പോഷ ക
പോവ ുകയാണ്</w>
പോ ഴും</w>
പൊ ടി
പേര െയാണ്</w>
പെണ്‍ കുട്ട
പെ രുക
പൂർണ്ണ മായും</w>
പൂര്‍ണ്ണ മായും</w>
പൂ ട്ട
പുറത്താ യി</w>
പുരോ ഹിത
പുരു ഷ</w>
പിന്ന ി
പി ടി</w>
പാദ നം</w>
പാ ത്രം</w>
പാ ട്ട്</w>
പാ ക
പശ്ചി മ
പല പ്പോഴും</w>
പല തവണ</w>
പറയ ുകയും</w>
പറയ ട്ടെ</w>
പറഞ്ഞ ിട്ടുണ്ട്</w>
പറഞ്ഞ ാല്‍</w>
പരിപാട ികൾ</w>
പരി ഭാഷ
പത്രി ക</w>
പത്ര ോ
പത്ര ൊസ്‌</w>
പ ർ
പ േ</w>
പ െടു
പ ൃ
പ ശു
പ ണ്ട
ന്‍ സര്‍</w>
ന്റ േയും</w>
ന്യായ പ്രമാണം</w>
നോ ട്ട്</w>
നൈ റ്റ്</w>
നേരി ട്ടു</w>
നെ ഞ്ച
നുറു ങ്ങ
നിർ ത്തി</w>
നിര്‍ മ്മാണം</w>
നി സാ
നി ശബ്ദ
നി രാ
നി യാണ്</w>
നി കുതി
നമു ണ്ടാ
നടത്ത ുന്നു</w>
ന ത്തിനു</w>
ധാ രണ</w>
ധ രിച്ച
ദ്വീ പ
ദൃശ്യ ങ്ങൾ</w>
ദി നേ
ദശ ലക്ഷം</w>
ത്വ വും</w>
ത്ര െ</w>
ത്തി നാണ്</w>
ത്ത ുകയും</w>
തോ റ്റ
തോ തില്‍</w>
തൊ രു</w>
തെളി വുകൾ</w>
തൃണ മൂ
തുടക്ക ത്തിൽ</w>
തുട രാ
തിരിച്ചറി ഞ്ഞു</w>
തിരിച്ച ്</w>
തിര െയാണ്</w>
തിര ുന്നു</w>
തി യിൽ</w>
താമസിയാ തെ</w>
തല വേദന</w>
തമിഴ ിലും</w>
തക ർന്ന
ത ർക്ക
ണ് ണ്</w>
ണി ച്ച</w>
ണ ിൽ</w>
ഡോക്ട ര്‍മാ
ഡോ ണ
ഡ ിൽ</w>
ട്ടിക്കി ള്‍</w>
ടു ത്ത</w>
ട െന്ന
ട ാൻ</w>
ജേ താ
ജീ ര
ജ ന്‍</w>
ജ നി
ചെയ്യു മെന്ന്</w>
ചെ റുക
ചൂണ്ടിക്കാ ണ
ചുവ ന്ന</w>
ചുവ ടെ</w>
ചില പ്പോഴ
ചിത്ര ത്തിന്‍റെ</w>
ചാമ്പ്യ ന്‍
ചാ യ</w>
ചര്‍ച്ച യില്‍</w>
ച ൂട
ങ്ങൾ ക്ക
ങ്ങള്‍ ക്കു</w>
ഘ ട്ട</w>
ഗവ ൺ
ഗ വ</w>
ഖ േ
ക്കേണ്ട ി</w>
ക്കു മായി</w>
ക്കാ രായ</w>
ക്ക െടു
ക്ക ുള്ളത്</w>
ക്ക മുള്ള
ക്ക ട
ക് ​
ക് യു
കോ മ
കെ യി
കൃ ത
കൂടുത ലായി</w>
കൂടുത ലാണ്</w>
കുറ ച്ചു
കിട്ട ാ
കാ ത്ത
കസ്റ്റഡി യിൽ</w>
കള ൊന്നും</w>
ക ൽ
ക വര്‍
ക പൂ
ഔ ഷ
ഓ ഹരി
ഒഴിവാ ക്കണം</w>
ഏ ഴു
എളു പ്പം</w>
എന്ന േക്കും</w>
എന്ന തിന്‍റെ</w>
എന്ന തി
എന്ത ൊക്കെയാണ്</w>
എന്ത ും</w>
ഉൾ പ്പെട
ഉയര്‍ ന്നു</w>
ഉപയോഗ ിക്കുന്ന</w>
ഉദാഹരണ ത്തിന്</w>
ഇരു വര
ഇര ട്ട</w>
ഇങ്ങനെയ ൊരു</w>
ഇ ല്ലാതെ</w>
ആശ്രയിച്ച ിരിക്കുന്നു</w>
ആശംസ കള്‍</w>
ആവശ്യ മുള്ള</w>
ആള ാണ്</w>
ആര്‍ ട്ടിക്കിള്‍</w>
ആരാധ കർ</w>
ആരാ ണ്‌</w>
ആ ചാര
അറസ്റ്റിലാ യ</w>
അറ േ
അമിതാ ഭ്</w>
അഭി സംബോധന</w>
അഭി ഷേ
അപ കട</w>
അദ്ദേഹ ത്തിന്‍റെ</w>
അടു ത്തു</w>
അടിയ ന്തര
അട ിച്ചു</w>
അട യ്
അഞ്ച ാം</w>
അച്ഛ നും</w>
അങ്ങനെയ ൊരു</w>
അക്ഷ ര
അക്കാദ മി</w>
അക്കാ ര്യം</w>
അ ര്‍ത്ഥ
അ പ്
അ തി</w>
അ ങ്ങി
m ent</w>
5 5</w>
4 9</w>
4 1</w>
3 .
20 16</w>
10 :
ൽ നിന്നുള്ള</w>
ൻ റ്</w>
ോട ുകൂടെ</w>
ോ …</w>
ൊരു ങ്ങ
െല്ലാ വരും</w>
െയ ാ</w>
െങ്ക ിലു
ൂ രി
ുണ്ട ്​</w>
ുകൊണ്ട ിരിക്കുകയാണ്</w>
ുകെ ട്ട
ില ുണ്ട്</w>
ിക്കുന്നതി ല്‍</w>
ിക്കാ ര
ികള ിലും</w>
ാന ്</w>
ാ രു</w>
ഹാജരാ ക്കിയ</w>
സർക്കാരി ന്</w>
സൗന്ദ ര്യ
സൗക ര്യം</w>
സ്വാധീ നിക്ക
സ്ഥല ത്തു</w>
സ്ത്രീ കളുടെ</w>
സൈനി കര്‍</w>
സേ വി</w>
സെ ഷ
സുഹൃത്തു ക്കളെ</w>
സുസു ക്കി</w>
സു വിശേഷം</w>
സു ഗന്ധ
സീറ്റ ും</w>
സീതാരാമ ന്‍</w>
സിനിമ യിൽ</w>
സിനിമ കൾ</w>
സാധ ിച്ചു</w>
സാ വ
സല്‍ മാന്‍</w>
സമ് പാ
സമീപ ിച്ചു</w>
സമാ ന</w>
സന്ദര്‍ശ നം</w>
സജ്ജ മാക്കുക</w>
സങ്കീ ർ
സ െയ്
ഷ്‌ ട
ഷ്ട ം</w>
ശാസ് ത്ര</w>
ശാ ശ്വ
ശരി യല്ല</w>
ശബരി മല
ശങ്ക ര്‍</w>
ശ ം</w>
വ്യക്തമാ ക്കിയിരുന്നു</w>
വ് വഹ
വോ ട്ടി
വെടിയ േറ്റ്</w>
വീട ുകളും</w>
വിവേ ക
വിലാ സം</w>
വിറ്റാ മിന്‍</w>
വിട്ടയ ച്ചു</w>
വിക സി
വി പണി</w>
വി നെയും</w>
വി കാ
വാര്‍ത്ത കള്‍</w>
വാ തിൽ</w>
വഷ ളാ
വര വ്</w>
വധ ശിക്ഷ</w>
വ നും</w>
ല്ലായ് മ</w>
ലേഖ നത്തിൽ</w>
ലക്ഷക്കണ ക്കിന്</w>
റ്റ് ​</w>
റ്റി ന്</w>
റോ ളം</w>
റു മില്ല</w>
റി ഞ്ഞു</w>
രേഖ കള്‍</w>
രാഷ്ട്രീയ ത്തില്‍</w>
രാജാ ക്ക
രാം നാഥ്</w>
രക്ത ത്തിലെ</w>
യു മുണ്ട്</w>
യില ുള്ളത്</w>
യിര ുന്നത്‌</w>
യിട്ട ുള്ള</w>
യാ യിരുന്നില്ല</w>
യക മായ</w>
യ െന്നും</w>
മ്മാ ണ</w>
മ് പാടും</w>
മോ ചനം</w>
മെ ഹ്
മുള കു
മുഖ്യമന്ത്രി യായി</w>
മു ഫ്
മാ രാണ്</w>
മാ ക്കുന്നു</w>
മഹ േന്ദ്ര</w>
മല്‍ സ
മലയാ ള</w>
മന ഃ
മത്സര ങ്ങളില്‍</w>
മക നും</w>
മ സ്‌
ഭൂരി ഭാഗം</w>
ഭരണകൂട ം</w>
ബൈബി ളിൽ</w>
ബാറ്റി ംഗ്</w>
ബാ റ്റ്</w>
ബാ ഡ്മി
ബഹ ളം</w>
ബല ഹീന
ബന്ധു ക്കള്‍</w>
ബ ർ
ബ ിയ
ബ ലം</w>
ഫാ ക്ട
ഫല പ്രദ
ഫ ിക്</w>
പ്രി ന്‍
പ്രസ്താ വന</w>
പ്രശസ്ത മായ</w>
പ്രവര്‍ത്ത കരെ</w>
പ്രതികരണ മാണ്</w>
പ്രതി ദിനം</w>
പ്രഖ ്യാ
പ്ര യോ</w>
പ്ര ഭാഷ
പോലീസി ൽ</w>
പേ ട
പെൺ കുട്ടിയെ</w>
പൊ ലീസി
പൂ ജ
പുരസ് കാരം</w>
പുതു തായി</w>
പിതാ വ്‌</w>
പിടിയിലാ യത്</w>
പി ശാ
പി യില്‍</w>
പലയിട ങ്ങളിലും</w>
പറയ ു</w>
പരി ഭ്രാന്ത
പരി ജ്ഞാനം</w>
പടിഞ്ഞാ റ
പ ൊ</w>
പ ിച്ച
പ യ്യ
ന്‍റ േ
ന്മാ രാ
ന്ന തു</w>
ന്ത ു
ന്ത രാ
നോ ഹ
നോ ളജി</w>
നോ ടു</w>
നു സരിച്ച
നു സ
നു ണ
നീ ണ്ടു
നിൽ ക്കാൻ</w>
നിർ മ്
നിർ മല
നില്‍ ക്കുന്നു</w>
നില ച്ചു</w>
നിര്‍ മാണ
നി ഗ
നാള ായി</w>
നാധ ്വാ
നാ വിക
നല്‍കി യില്ല</w>
നല്‍ കുക</w>
നമ്പ ര്‍</w>
നത്തി നെ
നടത്ത ുകയും</w>
ന വീ
ന ന്ദി
ധാരണ ാ
ധ നാ
ദൃ ഷ്ട
ദൂ രം</w>
ദീപ ക്</w>
ദിവസ ങ്ങള്‍</w>
ദിന ത്തില്‍</w>
ദാ ര്‍</w>
ദളി ത്</w>
ദ േ</w>
ദ ിയ
ത്തു മെന്ന്</w>
ത്തു നിന്നും</w>
ത്തില ്</w>
ത്തില െത്ത
ത് …</w>
ത് മക
തോന്നി യില്ല</w>
തെലങ്കാ ന</w>
തൃ ശ
തുടർ ന്നും</w>
തീര്‍ ത്തും</w>
തിരിക്ക ാന്‍</w>
തിരക്ക ഥ
തി മൊ</w>
താരത മ്യം</w>
താ യിരിക്കും</w>
തര്‍ ക്കം</w>
തരാ യി</w>
തട്ട ിപ്പ
ത ങ്ങളെ</w>
ണ്ട ും</w>
ഡ്രൈവ റെ</w>
ഡി റ്റ്</w>
ഡല്‍ഹി യിലെ</w>
ഡ ൌ
ഡ െ</w>
ജീവ ിക്കുന്നത്</w>
ജീവ ിക്കാൻ</w>
ജി ത്</w>
ജാഗ്ര താ</w>
ജാ മ്യാ
ജ ു</w>
ജ ില്ല</w>
ജ നു
ജ ം</w>
ചേർ ന്നു</w>
ചേരുവ കൾ</w>
ചേ ട്ട
ചെയ്ത തായി</w>
ചെന്ന ിത്ത
ചെ വി
ചി ന്ത</w>
ചരിത്ര ത്തിലെ</w>
ച ാന
ങ്ങളെ ക്കുറിച്ച്</w>
ങ്ങളില ൊന്നാണ്</w>
ങ്ക ം</w>
ഗർ ഭ
ഗ്രാ മം</w>
ഗുജറാ ത്തില്‍</w>
ഗാ ംഗ
ഗ ലാ
ഖ ാനും</w>
കർശ ന</w>
കൗ മാര
ക്രിമിന ൽ</w>
ക്രി സ്</w>
ക്കു മെന്നാണ്</w>
ക്കി ലാണ്</w>
ക്കി ന്‌</w>
ക്കി നാള
ക്കാനാ യില്ല</w>
ക്കാ റില്ല</w>
ക്ക ീ
ക്ക വും</w>
ക്ക ഴിഞ്ഞു</w>
ക്ക യും</w>
ക് സി</w>
കോൺഗ്ര സും</w>
കൊണ്ട ിരിക്കുകയാണ്</w>
കേസെടുത്തി ട്ടുണ്ട്</w>
കൊ ണ്ട്</w>
കൂ ടെ
കുറ്റ പത്രം</w>
കുറയ് ക്കാൻ</w>
കുടി വെള്ള</w>
കുട ിക്കുക</w>
കു ൽ
കാര്യ ങ്ങളില്‍</w>
കാരോഗ ്യ</w>
കാരണങ്ങളാ ൽ</w>
കാത്തി രി
കാ ൻ
കാ റ
കാ ന്തി
കള െല്ലാം</w>
കള െയും</w>
കല് യാണ
കറു പ്പ്</w>
കരു തി</w>
കരാ ർ</w>
കര മായിരുന്നു</w>
കമ്മി റ്റ
കഠി നാധ്വാ
കട ലില്‍</w>
കം പ്യൂട്ട
ക മന്
ഓർ മ്മ
ഓട്ടോ മാറ്റ
ഓ സീസ്</w>
ഒരു പാട
ഒരാ ൾക്ക്</w>
ഒന്ന ിച്ച്</w>
ഒ ളിച്ച
ഐ ശ്വ
ഏ പ്ര
ഏ ത്‌</w>
ഏ തു
എന്ന ല്ല</w>
എന്ന റിയില്ല</w>
എന്ന താണ്‌</w>
എന്തി നാ
എത്ര ത്തോളം</w>
എ റണാ
എ ംബ
ഊ ഷ്
ഉള്‍ പ്പെടുന്നു</w>
ഉറ വിട
ഉപദ്ര വ
ഉപദേഷ്ടാ വ്</w>
ഉപ ഭ
ഉദാഹരണ ങ്ങള്‍</w>
ഉണ്ടാ യിരുന്ന</w>
ഇലക് ട്ര
ഇരു വര്‍ക്കും</w>
ഇ ത്​</w>
ആഹ് ലാ
ആശ്വ സിപ്പ
ആശുപത്രിയിലെത്തി ച്ചു</w>
ആശുപത്രി യിലാണ്</w>
ആരോഗ ്യ
ആന്‍ ഡ്രോ
ആഗ്രഹ ിക്കുന്നത്</w>
ആകാം ക്ഷ
ആ ൾ
ആ ഴ്ച
ആ പ്ലിക്ക
ആ കര്‍ഷ
അശ് ലീ
അവ രില്‍</w>
അവ ധ
അറിയിച്ച ിരുന്നു</w>
അയോധ ്യ</w>
അമ്മ യെ</w>
അമി ത</w>
അഭിനന്ദ ിച്ചു</w>
അന്തരീക്ഷ ം</w>
അനധിക ൃത</w>
അദ്ധ്യ ക്ഷ
അടിസ്ഥാന ത്തിൽ</w>
അക്ഷ യ്</w>
അംഗ ങ്ങളാണ്</w>
അ പരി
അ ട്ടി
അ ങ്ങിനെ</w>
ംബ ർ</w>
o n</w>
i t
6 4</w>
6 .
4 3</w>
ൾ ക്കെതിരെ</w>
ർ ഹ
ർ ഫോ
ൻ തന്നെ</w>
ോ ഹിത
െയ ൊക്കെ</w>
െ ന്ന്‌</w>
ുവ െന്നാണ്</w>
ുവ െന്ന
ുവ ന്നു</w>
ുള്ള ു</w>
ുന്നതി നു
ുകൊടു ത്തു</w>
ുക ്</w>
ുക േ
ില്ല െങ്കില്‍</w>
ില െത്തി</w>
ിയു മായ</w>
ിട്ട ുമില്ല</w>
ിക്കുക യുണ്ടായി</w>
ിക്കുക യില്ല</w>
ിക്ക ളയ
ാ ഗോ
ഹോ സ്റ്റ
ഹരിയാ ന
സ്റ്റേ ഡിയ
സ്റ്റ െ
സ്ഥാപന ങ്ങളും</w>
സ്ഥാന ത്തേക്ക്</w>
സ്ഥലത്തെ ത്തിയ</w>
സ് തു
സെ മി</w>
സു ഗമ
സിപി ഐ</w>
സാഹി ത്യ
സാഹചര്യ ങ്ങളിൽ</w>
സാധ്യ തകള്‍</w>
സാധാരണ യായി</w>
സാ ദ്ധ്യ
സഹായി ച്ചു</w>
സഹ കരണം</w>
സമ്മര്‍ ദ്ദം</w>
സമൂഹ മാധ്യമ
സമയ വും</w>
സത്യപ്രതി ജ്ഞ</w>
സഖ്യ ത്തിന്</w>
സംഭവ ിക്കാം</w>
സംഘ ട
സം ഭാവന</w>
സ േ</w>
സ സ്യ
ഷാ യുടെ</w>
ശൃ ംഖ
ശസ്ത്ര ക്രിയ</w>
ശര്‍ മ്മ
വ്യാപാ ര
വ്യക്തമാ ക്കിയത്</w>
വ്യക്ത മായി</w>
വേണ്ട ത്ര</w>
വേണു ഗോ
വെ ച്ച</w>
വീട ുകൾ</w>
വീക്ഷ ാഗോ
വീ ണ</w>
വീ ടു
വിശ്വസ ിക്കുന്നില്ല</w>
വിര മ
വിമര്‍ശ നവുമായി</w>
വിദ്യാർഥ ികൾ</w>
വിട്ട ത്</w>
വിജയ കരമായി</w>
വി നിയോഗ
വാണി ജ്യ</w>
വാഗ്‌ ദാന
വാ ഷി
വാ തക
വസ്ത്ര ം</w>
വയസ്സ ുള്ള</w>
വന്ന ിരിക്കുന്നു</w>
വ റ
വ മ്പ
വ കാശ</w>
ഴി ഞ്ഞ</w>
ളി ന്</w>
ള ്</w>
ള ോ
ള ുകള്‍</w>
ലോകക പ്പില്‍</w>
ലൈ റ്റ്</w>
ലി യിൽ</w>
ലി നും</w>
ലഭിച്ച ിട്ടുണ്ട്</w>
ല ക്കം</w>
റ് ‌</w>
റെഡ് ഡി</w>
റി ംഗ്</w>
റാ വു</w>
റ െയും</w>
ര്‍ ന്ന
രൂ ഹ
രീതി കൾ</w>
രാമ ക്ഷേത്രം</w>
രാജ്യ ങ്ങളുടെ</w>
രാജാ വ്‌</w>
രാജ േഷ്</w>
രജി സ്ട്ര
രച യി
യ്‌ ക്ക
യേ ൽ</w>
യില െ
യിരിക്ക ാൻ</w>
യാ ള്‍</w>
യാ ത്രാ
യാ തൊരു</w>
മേ ഘ
മെന്റ റി</w>
മൃ ദു
മുൻ പ്</w>
മുള ള</w>
മുന്നോട്ട ു
മുംബൈ യിൽ</w>
മാറ്റ ാന്‍</w>
മാറു ക</w>
മാനേ ജ
മാ വു</w>
മാ ല
മാ ക്കാൻ</w>
മഴ യില്‍</w>
മല പ്പുറം</w>
മറ്റ ുള്ള</w>
മരിച്ച ു
മരണ സംഖ്യ</w>
മനസ്സിലാ യില്ല</w>
മത പരമായ</w>
മടങ്ങ ിയ
മ ൽ
മ ള
മ മത</w>
മ ദ്ധ്യ
മ ത്താ</w>
മ ത്ത
ഭൂമി യിലെ</w>
ഭൂ കമ്പ
ഭാഷ കളില്‍</w>
ഭവ ന</w>
ബോളിവുഡ ിലെ</w>
ബേ ല്‍</w>
ബെ ഞ്ച
ബുദ്ധിമുട്ട ാണ്</w>
ബി ഐ</w>
ബഹു മതി
ബംഗാ ളില്‍</w>
ബ ്യ
ഫ്ര ഞ്ച്</w>
ഫുട്‌ ബോള്‍</w>
ഫുട ്
ഫിലി ം</w>
ഫ െയ്
ഫ ും</w>
ഫ സ്റ്റ്</w>
പ്‌ റ്റ
പ്രോത്സാഹ ിപ്പ
പ്രശ സ്ത</w>
പ്രവർത്തി ക്കുന്ന
പ്രവര്‍ത്ത ന</w>
പ്രവ ൃ</w>
പ്രമേ ഹ
പ്രത്യേക ത</w>
പ്രതീക്ഷ ിക്കുന്നത്</w>
പ്രതിഷേധ ിച്ചു</w>
പ്രതികരിച്ച ിട്ടില്ല</w>
പ്രതി മാസം</w>
പ്രഖ്യാപ ിച്ചിട്ടുണ്ട്</w>
പ്രകാര മാണ്</w>
പ്ര ശാന്ത്</w>
പ്പെടുത്തി യ
പ്പെടു ത്തും</w>
പ്പെട ുന്നില്ല</w>
പ്പ ുകൾ</w>
പോസ് റ്റ്‌
പോയി ന്റ്</w>
പോകാ ം</w>
പൊ ട്ടി</w>
പൃ ഥ
പൂർണ മായി</w>
പൂ ജാ
പുല്‍വാ മ</w>
പുല ർത്ത
പുല ര്‍ത്ത
പുര ോഹിത
പു ളി
പാട ുകള്‍</w>
പല ർക്കും</w>
പരിക്കുകള ോടെ</w>
പരി ശ്രമ
പരാജ യം</w>
പങ്കെടു ത്ത</w>
പങ്ക ിട
പ ള്ള
ന്‍ ഷന്‍</w>
ന്യൂന പക്ഷ
ന്യായ പ്രമാണ
ന്മാ രാണ്</w>
നേരി യ</w>
നെ ഗ
നു ണ്ടാ
നീ ണ്ടു</w>
നിർ മാണ
നില പാടി
നില കൊള്ള
നിറ വേ
നിറ ഞ്ഞു</w>
നിയമ വിരുദ്ധ
നി വൃത്തി
നാട്ട ിലേക്ക്</w>
നാ യും</w>
നാ ഗ
നല്‍ക ിയ
നന്ദ ിയും</w>
നടപടിയ ുണ്ടാ
നട ക്കുന്നില്ല</w>
ന മാ
ധാ തു
ദ്ദീ ന്‍</w>
ദ് വാ
ദ് ദി
ദോഷ ം</w>
ദുബാ യ്</w>
ദീപാ വലി</w>
ദിവസ മാണ്</w>
ദക്ഷി ണ</w>
ദ ിലീ
ത്തോ ള
ത്തു നിന്നു</w>
ത്തില ോ</w>
ത്തി ന്നും</w>
തോല്‍ വി</w>
തൊ ഴിലാ
തൊ ഴി
തേ ജ
തെളി വുകള
തെറ്റ ും</w>
തെ റ്റി</w>
തെ യാണ്</w>
തൃപ് തി
തുടങ്ങിയ വരും</w>
തുട ര്‍</w>
തു പോലെ</w>
തീർ ത്തും</w>
തീരുമാന ങ്ങൾ</w>
തി യുടെ</w>
താങ്ക ള്‍</w>
താ ര</w>
തട സ്
ത ഴ
ത ടാ
ണ്ട െന്ന്</w>
ണമെന്ന ു</w>
ണ ില്‍</w>
ഡ്ര ോ
ഡി സൈ
ടു മുള്ള</w>
ടു ക്കി</w>
ടി ച്ച</w>
ഞാന ത്</w>
ജ്യ ോ
ജെ ഡി
ജുഡീ ഷ്യൽ</w>
ജി ത
ജമ്മുക ശ്മീ
ച്ച ില
ചെന്നിത്ത ല</w>
ചികിത്സ ാ</w>
ചരിത്ര ത്തില്‍</w>
ച ി</w>
ച ര്യ
ച ന്ദ്</w>
ങ്ങള്‍ ക്ക
ങ്ങ ില്‍</w>
ങ്ക ര്‍</w>
ങ് കാര
ഘാ തം</w>
ഘടക ങ്ങൾ</w>
ഗൃ ഹ
ഗൂ ഗി
ഗലാ ത്യ
ഗര്‍ ഭ
ഖ ി</w>
ഖ ി
ക്ഷീ ണം</w>
ക്ഷീ ണ
ക്രീ ം</w>
ക്യാ മ്പ
ക്കേണ്ട ി
ക്കുന്നതി നും</w>
ക്കുന്നതി നു</w>
ക്ക ുട
കോട ിയ
കോ ളി
കൊല്ല പ്പെട്ട</w>
കൊല പ്പെടുത്തി</w>
കൊ ൽക്ക
കൈ കള്‍</w>
കേരള ത്തിന്റെ</w>
കെ ജ്‌രിവാ
കെ ജ്
കുത്ത നെ</w>
കു ലു
കിട്ട ിയ
കാരണ മാകുന്നു</w>
കഴിയാ ത്ത</w>
കലാ കാര
കറി വേ
കരുത ൽ</w>
കണ്ണ ൂര്‍</w>
കണ്ണ ു</w>
കണ്ണ ീ
കണക്കാ ക്കുന്നത്</w>
കണക്ക ുകള്‍</w>
കഠി നമായ</w>
ഓ ള്‍
ഓ ഫ
ഒരാള ുടെ</w>
ഒ ാ
ഒ ലി
ഒ ഡീ
എല്ലാവര ോടും</w>
എന്‍ ജി
എന്ന റിയ
എക്‌ സ്
എ ട്ടു</w>
ഉപയോഗ ിക്കാൻ</w>
ഉദ് ‌
ഉണ്ടാ കില്ല</w>
ഇൻ സ്റ്റ
ഇവ യാണ്</w>
ഇയാ ള്‍
ഇമ് രാന്‍</w>
ഇന്ദി രാ
ഇ ട്ടു</w>
ഇ ട്ട
ഇ ഞ്ച്</w>
ആഹാ രം</w>
ആരോഗ്യ കരമായ</w>
ആരംഭ ിക്കുക</w>
ആന്ധ ്ര</w>
ആത്മാ ർഥ
ആ ൻ
ആ തിഥ
ആ ണോ</w>
അവസര ങ്ങൾ</w>
അല്‍ പം</w>
അരു ൺ</w>
അമ്പ ര
അബ് ദ
അപ്പീ ല്‍</w>
അപേക്ഷ ിക്കാം</w>
അപകട കരമായ</w>
അനുകൂ ല</w>
അതിര്‍ത്തി യില്‍</w>
അതാ യത്‌</w>
അത ുകൊ
അണി നിര
അടു ത്ത്</w>
അംഗീകരിച്ച ില്ല</w>
അ സ്
അ സൂ
ംബ ്
ം ”</w>
r o
a n
8 :
7 2</w>
7 0
2 9
“ നീ</w>
ൾ സ്</w>
ർ ബോ
ർ ന്നു
ർ ജി</w>
ർ ജ
ൻ ഷൻ</w>
ോ ഷ</w>
േഷ്‌ ഠ
േ ഡ്</w>
െടുത്തി ട്ടില്ല</w>
െ മ്യാ
െ ന്തി
ുവ രുന്ന</w>
ുന്നതി നിടെ</w>
ുകൊണ്ട ിരിക്ക
ുക ൾക്കും</w>
ുക ഴിഞ്ഞ
ുക യുമില്ല</w>
ീയ മായ</w>
ില െ
ിക്കുന്നതി ന്‌</w>
ിക്കുന്നതി നുള്ള</w>
ിക്ക ോ</w>
ിക്ക േണം</w>
ിക്ക ര
ാ വശ്യ
ാ നാണ്</w>
ഹോ ം</w>
ഹര്‍ ജി
ഹ ്</w>
സർ ട്ടിഫിക്ക
സ്‌റ്റ ോ
സ്ഥാനാർത്ഥ ി</w>
സ്ത്രീ കളെ</w>
സ്കൂ ളിൽ</w>
സൈ ക്കി
സേ നയും</w>
സൂക്ഷ ിക്കുക</w>
സുഷ മാ</w>
സി ന്‌</w>
സി ന
സി ക്യൂ
സാഹചര്യ ത്തിലാണ്</w>
സാധ ിച്ചിട്ടില്ല</w>
സാംസ്‌ കാരിക</w>
സാ രി</w>
സാ യു
സാ മ്പി
സാ ത്താ
സമു ദായ
സംഭവ ിക്കുന്ന
സംഭവ ിക്കും</w>
സംഭവ സ്ഥലത്തു
സംഘര്‍ ഷം</w>
സംഗ ം</w>
സ ൺ</w>
സ ബ്
സ ന്നാ
ഷ് ഠി
ശ്രമ ിക്കുന്നത്</w>
ശ്രമ ത്തിലാണ്</w>
ശൈ ലി</w>
ശേഷ വും</w>
ശമ്പ ള
വർഷ ത്തെ</w>
വർ ധന
വർ ക്കെതിരെ</w>
വൈ കീ
വിഷ മം</w>
വിശ്വസ ിക്കാൻ</w>
വിവര മറി
വിവര ങ്ങളും</w>
വിള ി</w>
വിദ്യാർത്ഥ ി</w>
വിട്ട ില്ല</w>
വിജ ്
വാർ ത്താ
വാഹന ത്തിന്റെ</w>
വാഗ് ദാന
വാ യിട്ടില്ല</w>
വസ്തു ത</w>
വര െല്ലാം</w>
വര ുന്നില്ല</w>
വനി ത
വ ്ര
വ ുന്നില്ല</w>
വ ുണ്ട്</w>
വ ല്ലാത്ത</w>
വ ണ്ടി</w>
ഴ്‌ സും</w>
ള ോ</w>
ല്‍ പ
ല്‌പ ത്തി</w>
ല് ല്യ
ല് പ
ലു ക്ക്</w>
ലി ൻ</w>
ലാ ഭം</w>
ലക്ഷ് മി</w>
ല ല്ല</w>
ല ജ്ജ
ല ക്‌
റ്റ ാ</w>
റെയിൽ വേ</w>
റിസര്‍ വ്</w>
റി സർ
റാ വ
റണ്‍ സ
റ ാ</w>
റ ഹ്
റ യും</w>
ര്‍ ക്കു</w>
രഹ സ്യം</w>
രണ്ട ്‌</w>
രജ നീ
രചയി താ
രക്ഷ പ്പെട
രം ഭ</w>
യ് ‌</w>
യു ണ
യിര െമ്യാ
യി ല്ലേ</w>
യാഥാർഥ ്യ
യാത്രക്കാ ര്‍ക്ക്</w>
യാതൊ രു
യഥാ ർത്ഥ
യ ോടെയാണ്</w>
യ െടു
യ വ
മ്പ ും</w>
മോ ദി</w>
മൂപ്പ ന്മാർ</w>
മുറ ിച്ച്</w>
മു ങ്ങി</w>
മീഡിയ യിലൂടെ</w>
മി സ്ര
മി നു
മായ ൊരു</w>
മാ സി
മാ യിരുന്ന</w>
മാ കെ</w>
മസ് ജി
മറ്റ ൊന്നും</w>
മറ്റ േ
മര്‍ ദ
മരണമട ഞ്ഞു</w>
മന്ത്രി യും</w>
മന് ദി
മധ്യ പ്രദേശ
മദ്യ ം</w>
മ റ്റ്‌</w>
മ ദ്രാ
ഭൂമ ിയുടെ</w>
ഭീകര ര്‍</w>
ഭാഗ ികമായി</w>
ഭക്ഷ ്യ
ബ് ബ
ബെംഗളൂ രു
ബിസിന സ്സ്</w>
ബാഡ്മി ന്റ
ബ ല്യ
ബ ലി
ബ ര്‍
പ്രോ ത്സാഹ
പ്രിയ പ്പെട്ട</w>
പ്രാ ണ
പ്രസിഡ ണ്ട്</w>
പ്രസാ ദ
പ്രശ സ്
പ്രവർത്ത കർ</w>
പ്രധാന മായ</w>
പ്രദേശ ങ്ങളില്‍</w>
പ്രതിരോധ മന്ത്രി</w>
പ്പെടുത്തി യിട്ടുണ്ട്</w>
പ്പെടുത്ത ണം</w>
പ്പെട ുന്നത്‌</w>
പ്പ ിച്ച്</w>
പ്പ ാൻ</w>
പ്പ ണ
പൊട്ടിത്തെ റ
പൊ ള
പൊ രുത്ത
പൊ തു
പൃഥ ്
പൂ ട്ടി</w>
പു ര</w>
പിരി ഞ്ഞു</w>
പാല ിക്കണം</w>
പാര്‍ ശ</w>
പാന ീയ
പാണ്ഡ െ</w>
പാ സ്
പറയ ണം</w>
പറഞ്ഞ ാൽ</w>
പരുക്കേറ്റ ിട്ടുണ്ട്</w>
പരുക്കേറ്റ വരെ</w>
പരിപാടി യില്‍</w>
പദ്ധതി കൾ</w>
പതു ക്കെ</w>
പണ്ഡി ത
പ ത്ത
പ കുതി</w>
ന്‍ െറ</w>
ന്ന ുള്ള</w>
നോ ടുള്ള</w>
നോ ക്കുക</w>
നേടി യിരുന്നു</w>
നുറുങ്ങ ുകൾ</w>
നിൽ ക്കുന്ന</w>
നിർ ണ്ണ
നിയമ പ്രകാരം</w>
നിത്യ ജീവ
നി ധി
നാ ണോ</w>
നാ ക്കി</w>
നല്‍കി യിരുന്നു</w>
നല്ല തു</w>
നരേന്ദ്ര മോദ
നമു ണ്ട്</w>
നടപടി ക്രമം</w>
നടത്ത ുകയാണ്</w>
നട ന്നു
നക്ഷ ത്ര
ന ത്തിനായി</w>
ധാ ന്യ
ദൃഷ്ടാ ന്തം</w>
ദിവസ ങ്ങളിൽ</w>
ത്തിനു വേണ്ടി</w>
ത്തി യാണ്</w>
ത്താ ണ്‌</w>
ത്ത ോടൊപ്പം</w>
ത്ത ോടെയാണ്</w>
ത്ത ുണ്ട്</w>
തോന്ന ിയ
തോ മസ്</w>
തേ ടിയ
തെരഞ്ഞെടു ക്കുക</w>
തൂ ക്കം</w>
തുറ ക്കുക</w>
തുടർ ച്ച
തുടങ്ങ ുന്നു</w>
തീ പി
തി യെ</w>
തി നു
താമസ ിക്കുന്നത്</w>
താ ണോ</w>
താ ക്കൂ
തല സ്ഥാന
തരാ ം</w>
തനിക്ക ു</w>
ണ്‍ ലോഡ്</w>
ണ്ട ്‌</w>
ണ ല്‍</w>
ണ ല്ലോ</w>
ഡയറക്ട ര്‍</w>
ട്ടാ സ്യം</w>
ടേബി ള്‍</w>
ടെലിവിഷ ൻ</w>
ജ് ജ</w>
ജോ സ
ജെ യി
ജീവിത വും</w>
ജീവനക്കാ ര്‍</w>
ജാ ദ
ജലനിര പ്പ്</w>
ജ ൈ
ജ ഡ
ചർച്ച കൾ</w>
ച്ച ിട്ടുണ്ട്</w>
ച്ച ത്‌</w>
ചോ പ്ര</w>
ചോ ദ്യ
ചെയ്യ ു</w>
ചെയ്യ ാ</w>
ചെ ലു
ചുവ പ്പ്</w>
ചിദംബ ര
ചന്ദ്ര ന്‍</w>
ചതു രം</w>
ച തി
ഗർ ഭി
ഗ ോ</w>
ഖ ു
കൽപ്പ ന</w>
കൗ ൺ
ക്ഷേ മ
ക്ലാ സ്</w>
ക്കു ണ്ടാ
ക്കിയ ത്‌</w>
ക്കാ ല</w>
ക്കാ രി
ക്ക ൂട
ക്ക ള്‍
ക്ക പ്പെട്ട
ക് ലോ
ക് ലീ
ക് രം</w>
കോർപ്പറ േഷൻ</w>
കോട ിയുടെ</w>
കോട ിയാണ്</w>
കോ ർ
കോ വിന്ദ്</w>
കൊ രി</w>
കൊ ണ്ടാ
കേ സിന്റെ</w>
കെഎസ്ആര്‍ ടിസി</w>
കു ര
കു ംബ്
കീഴ ടങ്ങ
കിട്ട ിയത്</w>
കിട ക്ക
കാരണ മെന്ന്</w>
കാ റി
കഴ ിക്കാ
കരു ണ
കര ി</w>
കന ത്ത
ക ോ</w>
ക ുന്നുണ്ട്</w>
ഔദ്യോഗ ികമായി</w>
ഓപ്പ ണ
ഒരു ത്ത
ഏറ്റുമുട്ട ലില്‍</w>
എസ് ഡി</w>
എഴുത്ത ുകാ
എന്നി വരുടെ</w>
എന്ന ോടു</w>
എന്താ യിരിക്കും</w>
എ സ്ട
എ ഫ്‌
ഉപയോഗ ിച്ച</w>
ഉപ മുഖ്യമന്ത്രി</w>
ഉദ്ദേശ ്യം</w>
ഉ ല്‌പത്തി</w>
ഉ മേഷ്</w>
ഇവ യെല്ലാം</w>
ഇല്ല െങ്കിൽ</w>
ഇയ്യോ ബ്‌</w>
ഇന്ത്യ ക്കാര
ഇന് ധന
ഇതാ ദ്യ
ഇ ഴ
ഇ ച്ഛ
ആസൂത്ര ണം</w>
ആശുപത്രിയിലെത്തിച്ച െങ്കിലും</w>
ആവശ്യ പ്പെട്ടിരുന്നു</w>
ആവശ്യ പ്പെട്ടത്</w>
ആള പായ
ആരു മില്ല</w>
ആരാ ണെന്ന്</w>
ആരംഭ ിച്ചത്</w>
ആനന്ദ ്</w>
ആ റാ
ആ ഗ
അഹമ്മദാ ബാദ്</w>
അവര െല്ലാം</w>
അവ രാണ്</w>
അവ യുടെ</w>
അവ ന്</w>
അര്‍ ജു
അഭ യാ
അപകട ത്തില്‍
അധ്യ യ
അത്യ ന്തം</w>
അതോ റി
അണിയ റ
അട ഞ്ഞുകിട
അച്ഛ ന്റെ</w>
അംഗ ീകരിച്ചു</w>
അ നീതി
അ നാഥ
a la
3 50</w>
1 1:
‌ ്
്യ വും</w>
ോട്ട െ</w>
ൊക്ക െയോ</w>
െ ണ്ണ</w>
ൂ രില്‍</w>
ുവരിക യാണ്</w>
ുള്ള ി</w>
ുന്നതി ന്‍റെ</w>
ുകൊണ്ട േ
ുകള ൊന്നും</w>
ുക യല്ല</w>
ു വാന്‍</w>
ീകരിക്ക ുന്ന</w>
ില ുള്ളത്</w>
ിച്ച ാൽ</w>
ിക്കാ വുന്ന</w>
ി യായിരുന്നു</w>
ി നും</w>
ാന ോ</w>
ാന ുണ്ട്</w>
ാ ണോ</w>
ാ ണു</w>
ാ ടക
ഹോ സ്
ഹോ ക്കി</w>
ഹിമാ ച
ഹാ ർ
ഹാ രം</w>
ഹാ ര
ഹര ജി</w>
സർ വകലാശാല
സ്വീകരിക്ക ണം</w>
സ്റ്റ േ</w>
സ്ഥിര ീകരിച്ചു</w>
സ്ത്രീക ള്‍ക്കും</w>
സ്തംഭ ിച്ചു</w>
സേ നാ
സൂപ്പ ർ</w>
സീറ്റ ുകൾ</w>
സിനിമ യും</w>
സി ങ്ങി
സാമൂഹ ്യ
സാങ്കേതിക വിദ്യ
സാംസ് കാരിക</w>
സഹോദര ൻ</w>
സയ ന്‍സ്</w>
സമ്മ തം</w>
സമര്‍ പ്പിച്ചു</w>
സഭാ ംഗ
സങ്കീർ ണ്ണ
സംസാരിക്ക ാ
സം സാ</w>
ഷ െയ്
ഷ െ</w>
ശ്രീനഗ ര്‍</w>
ശ് ര</w>
ശൈ ല
ശൈ ത്യ
ശിവസേ നയും</w>
ശി ച്ച</w>
ശതമാന മാണ്</w>
വ്യ ൂ</w>
വോട്ടെടു പ്പ്</w>
വൈ കി
വേദ നയും</w>
വേ ത
വേ ണോ</w>
വേ ണമെന്ന്</w>
വെള്ള പ്പൊക്ക
വു മാണ്‌</w>
വു മല്ല</w>
വീട്ടുകാ ര്‍</w>
വീടി നു</w>
വീക്ഷ ണം</w>
വിറ്റാ മിൻ</w>
വിധ ിയ
വിക്ക റ്റും</w>
വി സ്</w>
വി ന്‌</w>
വാ ള്‍</w>
വാ ട്ട്‌
വളരെയ േറെ</w>
വള ർച്ച</w>
വന്ന ിട്ടുണ്ട്</w>
വച്ച ാണ്</w>
വ സാ
വ റി</w>
വ യ്‌
വ ച്ചത്</w>
ഴ് ച്ച
ലോക്‌ സഭ</w>
ലോ ട്ട്</w>
ലിക ോ
ലി ലാ
ലഭ ിക്കുന്നു</w>
ലണ്ട ന്‍</w>
ല ൂ</w>
ല ിയെ</w>
ല ങ്ക
റ്റ ോ
റ്റ ാണ്</w>
റഷ്യ ൻ</w>
റണ്‍ സിന്റെ</w>
ര്‍ ത്ത്</w>
രോ ഗ</w>
രൂപ ീകരിച്ച
രു തെന്ന്</w>
രു ചിക
രാഹു ല്‍
രാജ്യ ത്തിന്</w>
രാ ഷ്​
രാ വ
രാ ജ</w>
രാ ഗ്</w>
രംഗ ത്തു
ര മേഷ്</w>
ര ഞ്
ര ക്ഷ</w>
യേ റിയ</w>
യൂണിവേഴ് സിറ്റി</w>
യിലാ ണ്‌</w>
യില ു
യിരിക്ക ുന്നത്‌</w>
യിര ിക്കുക</w>
യി ല്ലല്ലോ</w>
യി റ
യി ദ്</w>
യി ച്ചു</w>
യാത്രക്കാ ർ</w>
യാണ ത്</w>
യാ ഴ്ച</w>
യാ കുന്നു</w>
യഹോവയ ോടു</w>
യഹോവ യ്‌ക്കു</w>
യഥാര്‍ ഥ</w>
യ ുട
യ ള
യ ല്ലേ</w>
മ് യ</w>
മോര്‍ ട്ടം</w>
മേ യുള്ളൂ</w>
മേ ണ</w>
മെന് താണ്</w>
മെ ല്ലെ</w>
മുസ്‌ ലിം</w>
മുസ്ലീ ം</w>
മുള കും</w>
മിസ്ര യീ
മിക്ക പ്പോഴും</w>
മി നെ</w>
മാറ ിയത്</w>
മായിട്ട ാണ്</w>
മായാവ തി</w>
മാതാപിതാ ക്കളെ</w>
മാ ർക്ക്</w>
മാ ലി
മാ ന്യ
മറ്റൊ ന്ന്</w>
മറ്റുള്ള വര്‍</w>
മറ്റുള്ള വരുടെ</w>
മരിച്ച തായി</w>
മര ങ്ങള്‍</w>
മയ ോടെ</w>
മനോഹ ര
മനുഷ്യ ന്‍</w>
മത്സര ങ്ങള്‍</w>
മത്സ രിക്കുന്നത്</w>
മണ്ഡല ത്തില്‍</w>
മട ക്കം</w>
മ നം</w>
ഭൂമി യില്‍</w>
ഭു ത
ഭാഷ കളിൽ</w>
ഭാവി യിൽ</w>
ഭാ വന
ഭരണഘട നാ</w>
ഭ ർത്ത
ഭ ഗ
ബ്ര ൗ
ബ് രു
ബോ ർ
ബി ന്റെ</w>
ബാ റ്റ്
ബഹ ള
ബംഗളൂ രു
ഫല ങ്ങള്‍</w>
പ്രേ മ
പ്രാ വശ്യം</w>
പ്രാ രംഭ</w>
പ്രസിഡ ന്‍റ്</w>
പ്രശ്‌ന ങ്ങളും</w>
പ്രഥ മ</w>
പ്രതിഷേധ ക്കാർ</w>
പ്ര യോഗം</w>
പ്പു ഴ</w>
പ്പി ലാണ്</w>
പ്പ ൂ
പ്പ ുകള്‍</w>
പോ ലും</w>
പെ ട്ട</w>
പുറപ്പെടു വിച്ച
പുറത്താ ക്കി</w>
പുക വലി</w>
പു ൽ
പിന്നീട ാണ്</w>
പിന്നീ ടു</w>
പിടികൂ ടി
പാര്‍ട്ടി യില്‍</w>
പല രെയും</w>
പറ യില്ല</w>
പരിശോധ ിക്കുക</w>
പരി ധ
പഠ ിച്ച
പഠ ിക്കുന്ന</w>
പട്ടേ ല്‍</w>
പഞ്ചാ ബ
പങ്കാളി ത്ത
പങ്ക ു</w>
പ മ്പ
പ ബ്ല
ന്‍ സി</w>
ന്റ െ
ന്യൂ സ്</w>
ന്മാര െയും</w>
ന്തോ റും</w>
നേട ും</w>
നെ തിര
നൂറ്റാണ്ട ിലെ</w>
നീ ര
നീ ങ്ങി</w>
നിർ മാണം</w>
നിർ ത്ത
നിറു ത്ത
നിരോധ നം</w>
നിയ ോ
നിന ക്ക
നിട െയാണ്</w>
നി ല്
നി ന്ന്‌</w>
നാശ ം</w>
നാ ൾ</w>
നാ യുള്ള</w>
നല്‍കി യിരിക്കുന്നത്</w>
നല്‍ക ുകയായിരുന്നു</w>
നട ക്കുക
നട ക്കാൻ</w>
ന മ്മി
ന ബി</w>
ന ന്മ</w>
ന ട്ട
ധ ്യ</w>
ദൗ ത്യം</w>
ദ്യ ൂര
ദൈവ വചനം</w>
ദു രൂഹ
ദു രു
ദു ബ
ദിവസ ങ്ങളിലും</w>
ദ ോ
ത്തെ ക്കുറിച്ചു</w>
ത്തുട ങ്ങി</w>
ത്തിനു ശേഷം</w>
ത്ത ത്‌</w>
തെലങ്കാ ന
തെറ്റ ു
തെരഞ്ഞെടു പ്പിന്</w>
തെരഞ്ഞെടു ത്ത</w>
തുടക്ക ത്തില്‍</w>
തുട രുക</w>
തുട രാൻ</w>
തീരുമാന ങ്ങള്‍</w>
തിരുവെഴുത്ത ുകൾ</w>
തിരു ന്ന</w>
തിരഞ്ഞെടു ക്കാം</w>
തിര ുന്ന
തട യാൻ</w>
തകര്‍ ത്തു</w>
ത ർ
ത ോട
ത ുകൊണ്ട
ത രൂ
ണു ത</w>
ണ ിക്</w>
ഡോക്ട ർമാർ</w>
ഡിഎം കെ</w>
ഡി സം
ഡാ റ്റ</w>
ഡ േറ്റ
ഡ േ</w>
ഠ ാ
ട് ​</w>
ട് സ്</w>
ടൂറി സം</w>
ടു ക്ക
ടീമി ന്</w>
ടി 20</w>
ഞ്ച ാ
ജോ ലിയ
ജീവന ക്കാര
ജീവ നും</w>
ജാ ര്‍
ജനാധിപ ത്യം</w>
ജന സംഖ്യ</w>
ജന നം</w>
ജന ങ്ങളും</w>
ജ ന്
ചൗ ധ
ച്ച ൊ
ചോദ്യ ങ്ങൾക്ക്</w>
ചോദ്യ ം
ചേര്‍ ന്ന</w>
ചിത്ര ങ്ങളിലും</w>
ചര ക്ക്</w>
ഘട്ട ത്തില്‍</w>
ഗ് ഗം</w>
ഗുണ ങ്ങള്‍</w>
ഗു പ്
ഗിര ി</w>
ക്‌ ട
ക്യൂട്ട ീവ്</w>
ക്കൊ ടു
ക്കു മാണ്</w>
ക്കാ ര്‍ക്ക്</w>
ക്കാ ത്ത</w>
ക്കണ മെന്ന
ക്ക ുകൾ</w>
ക്ക യ
കൊല്ല പ്പെടുകയും</w>
കൈ കൾ</w>
കുറ്റ ക്കാ
കുറ്റ കൃത്യ
കുടുംബ ത്തെ</w>
കുടുംബ ത്തില്‍</w>
കിലോമീറ്റ ർ</w>
കില ോ</w>
കാസര്‍ കോട്</w>
കാല യള
കാര്യ ങ്ങളാണ്</w>
കാരണ വും</w>
കാര ി</w>
കാണാ തായ</w>
കാണ ണം</w>
കസ്റ്റഡിയില െടുത്തിട്ടുണ്ട്</w>
കഷ്ട ം</w>
കഴ ിച്ചു</w>
കര്‍ഷ ക</w>
കര്‍ണാടക യില്‍</w>
കരു ത്തു
കര മാ
കമ്മ ്യൂ
കന്ന ട</w>
കണ്ടെ ത്തുക</w>
ക ീ</w>
ക ള്‍ക്കും</w>
ക രിച്ച</w>
ഓട്ടോ റി
ഓ ഹരി</w>
ഓ ള്‍</w>
ഒരുമ ിച്ചു</w>
ഒരുങ്ങ ുന്നത്</w>
ഒന്ന ല്ല</w>
ഏ തെല്ലാം</w>
എഴുന്ന േ
എളുപ്പ മുള്ള</w>
എഫെ സ്യർ</w>
എന്നാ ലി
എന്ത ൊക്കെ
എനിക്ക ത്</w>
എത്തി യ</w>
എത്തി ച്ചത്</w>
എടു ത്ത്</w>
എഞ്ചി ൻ</w>
എം എസ്</w>
എ സ്‌</w>
എ ങ്ങിനെ</w>
എ ക്കാല
ഉള്‍ ക്കൊള്ള
ഉയ രം</w>
ഉപയോഗ ിച്ച്</w>
ഉപകരണ ങ്ങൾ</w>
ഉദാഹരണ ങ്ങൾ</w>
ഉത്തര്‍ പ്രദേശില്‍</w>
ഉത് പാദിപ്പ
ഉണ രുക</w>
ഇവിട െ
ഇല്ല െങ്കില്‍</w>
ഇര യാ
ഇന്‍ സ്റ്റിറ്റ്യൂട്ട്</w>
ഇന് ദ്ര
ഇതേ ക്കുറിച്ച്</w>
ഇതില ൂടെ</w>
ഇതി ലും</w>
ഇടയാ ക്കി</w>
ഇട തു
ഇ വിടുത്തെ</w>
ഇ ല്ലാത്ത</w>
ഇ റ്റ
ഇ രി
ആഹാ ര
ആശയ ക്കുഴ
ആശ യം</w>
ആവശ്യ ക
ആള ുകളാണ്</w>
ആര്‍ എസ്എസ്</w>
ആന്റ ി</w>
ആദ ര
ആ ലയ
ആ ന്‍ഡ്</w>
ആ കാം</w>
അവസാ നിച്ചു</w>
അവതരി പ്പിച്ചു</w>
അവ ള്‍ക്ക്</w>
അറിയാ തെ</w>
അറിയ ുന്നു</w>
അരങ്ങേ റി</w>
അമേരിക്ക യുടെ</w>
അമേരിക്ക യില്‍</w>
അമി ത്
അമി തമായ</w>
അമി ത
അഭിഷി ക്ത
അപ്പോഴ േക്കും</w>
അപ്പൊസ്‌തല ൻ</w>
അന വധി</w>
അന ന്ത
അധികാര ത്തില്‍</w>
അത്തര ത്തിലുള്ള</w>
അത്തര ത്തില
അതി ഥ
അതി ജീവ
അടു ക്ക
അടിയ ന്തരാ
അടിയ ന്തര</w>
അട ിക്കു
അംഗ ങ്ങള്‍</w>
അ പ്പോ
അ ക്
u n
s e
C om
4 7</w>
4 6</w>
20 14</w>
18 0</w>
15 :
“ ഒരു</w>
​ േ
ൽ പ്പോലും</w>
ൻ സ്‌</w>
്‌ ന
ോള ൂ</w>
ൊരു ക്ക
േ …</w>
െയ ുടെ</w>
െന്ന ു
ൂ ടെ
ുള്ള വർ</w>
ുകൊണ്ട ിരുന്നു</w>
ിയ ുടെയും</w>
ിട്ട ുണ്ട്‌</w>
ിക്കുന്നതി നായി</w>
ിക്കുന്ന വർ</w>
ിക്കുന്ന വരെ</w>
ിക്കു മ്പോള്‍</w>
ിക്കാ തെ</w>
ിക്ക പ്പെടുന്നു</w>
ികള െയും</w>
ികള ുമായി</w>
ി യിൽ</w>
ഹര്‍ ജ
സൗജന്യ മാണ്</w>
സൗകര്യ വും</w>
സൗകര്യ ങ്ങളും</w>
സൗ മ്യ
സ്‌തു തി
സ്വർ ണം</w>
സ്വദേശ ി</w>
സ്വ ഭാവം</w>
സ്റ്റ േഷൻ</w>
സ്ഥിര മായി</w>
സ്ഥാന വും</w>
സ്ത്രീ യെ</w>
സൊ സൈ
സേന യുടെ</w>
സൂ പ്ര
സു പ്രി
സിപ്പ ൽ</w>
സിന്ധ ു
സിനിമ യാണ്</w>
സി വിൽ</w>
സാക്ഷ ്യ
സഹി ഷ്‌
സഹി ഷ്
സഹായി ക്കുന്ന</w>
സഹജ മായ</w>
സഹ വിശ്വാസി
സഹ മന്ത്രി</w>
സര്‍ക്കാരി നെ</w>
സമ്മതി ച്ച
സമൂഹ ത്തിന്റെ</w>
സമര്‍ പ്പിച്ച</w>
സന്തോഷ മുണ്ട്</w>
സംസ്‌ കാരം</w>
സംസ്ഥാന ങ്ങളിൽ</w>
സംസ് കാര
സംബന്ധ ിച്ചുള്ള</w>
സംഘര്‍ഷ ത്തില്‍</w>
സം തൃ
സ ൽ</w>
സ ോ</w>
സ ിയുടെ</w>
സ ന്‍</w>
ഷ റ
ഷ ഭ്</w>
ശ്വാസ കോ
ശ്രമ ങ്ങള്‍</w>
ശ്രദ്ധേയ മായ</w>
ശ്ര മിച്ച</w>
ശേഖ ര
ശു ദ്ധ</w>
ശാസ്ത്ര ം</w>
ശരീര ത്തിലെ</w>
ശരീര ത്തിന്റെ</w>
ശരി യായി</w>
ശത്ര ു</w>
വർധ ിച്ചു</w>
വ്യക്തി യാണ്</w>
വൈകുന്നേ ര
വേ ട്ട
വേ ഗ</w>
വെളി പ്പാടു</w>
വെറു തെ
വെടിവെ പ്പില്‍</w>
വൃ ത്ത
വൃ ക്ഷ
വീ ശ
വീ ര്‍</w>
വിശ് വാ</w>
വിമാനത്താവള ത്തില്‍</w>
വിഭാഗ വും</w>
വിനോ ദ</w>
വിദ്യാര്‍ഥ ി
വിടു വ
വിചാ രിച്ച
വി ന്‍
വാർത്ത ാ</w>
വാഗ്‌ ദാനം</w>
വാക്ക ുകള
വാ ദ</w>
വാ ണ
വസ്‌തു ത</w>
വസ് തു</w>
വഴി യാണ്</w>
വള ർന്ന
വല ിച്ച
വരു മെന്ന്</w>
വരു ം
വരാ ൻ</w>
വകു പ്പിന്റെ</w>
വകലാ ശാല</w>
വക യിരു
വ ്‌
വ ക</w>
ഴി ഞ്ഞ്</w>
ലോക ്</w>
ലോക ത്തിൽ</w>
ലോ ഭ
ലേ വ്യ
ലി റ്റി</w>
ലി നു</w>
ലാ യാണ്</w>
ലഭ ിക്കുക</w>
ലക്ഷ ത്തോളം</w>
ലംഘ നം</w>
റൺ സ്</w>
റ്റ ിക്</w>
റെ യില്‍</w>
റാ യിരുന്നു</w>
റദ്ദാ ക്കിയ</w>
രേഖ കൾ</w>
രി യാ
രാത്രി യിൽ</w>
രാജി വയ്
രാജസ്ഥാ നിലെ</w>
രണ്ടു പേരെ</w>
ര ുന്നത്</w>
യ്‌ ക്കുള്ള</w>
യെ ദ്യൂര
യൂണിയ ന്‍</w>
യു മായിരുന്നു</w>
യിരുന്ന ോ</w>
യിട്ട ുണ്ട്‌</w>
യി ന്‍</w>
യി ക</w>
യാത്ര ാ</w>
യാത്ര ക്കാര
യാണ െന്നു</w>
യാ ച
യ ട
മർ ദ്ദ
മർ ദ
മ് പ</w>
മോശ മായ</w>
മോട്ടോ ർ
മോ ഹം</w>
മോ ന്ന
മൊഴ ിയ
മൊ ന്നു
മേധാ വി
മേ റ്റ
മേ റിയ</w>
മൂ ട
മുൻ കൂട്ടി</w>
മുമ്പ ും</w>
മുതല േ</w>
മു റ</w>
മിട ുന്നത്</w>
മി സോ
മി ശി
മി ല്ലേ</w>
മി ല്ലി</w>
മി ല്ലാത്ത
മാർ ഗം</w>
മാസ ക്ത
മാറ്റ ുക</w>
മായിരിക്ക ുന്നത്‌</w>
മാതാപിതാ ക്കളും</w>
മാതാ ക്കളായ</w>
മാ ര്‍ക്ക്</w>
മാ ധ
മഴ യെ</w>
മരണ പ്പെട്ടു</w>
മന്ത്രി യുടെ</w>
മനോ ജ്</w>
മനുഷ്യ ന്‍റെ</w>
മത്സര ങ്ങളും</w>
മ ൌ
മ ല്ലെന്ന്</w>
മ യ</w>
മ തേ
ഭാഷ കളിലും</w>
ഭാഗ ത്തു</w>
ഭക്ഷ ്യ</w>
ഭക്ഷ ണ</w>
ഭ ംഗി
ബൈ ബി</w>
ബുദ്ധി മു
ബു ംറ</w>
ബി ൻ</w>
ബാധ ക
ബന്ധ വുമില്ല</w>
ഫൈന ല്‍</w>
ഫയ ലുകള്‍</w>
പ്രിന്‍ സിപ്പ
പ്രാർഥന യിൽ</w>
പ്രവേശിപ്പ ിച്ചത്</w>
പ്രതീക്ഷ ിച്ച
പ്രഖ്യാ പിച്ച</w>
പ്രകട നമാണ്</w>
പ്ര ള
പ്ര ലോഭ
പ്ര ഭ
പ്പൊ ടി</w>
പ്പെട്ട ില്ല</w>
പ്പെടു ത്താനാ
പ്പെട േണ്ട</w>
പ്പി ല</w>
പ്പാ ദ
പ്പറ യുന്ന</w>
പ്പ ന്‍</w>
പ് യൂ
പോ യിട്ടില്ല</w>
പേരു ്</w>
പേജ ുകൾ</w>
പേ ര്‍ക്കും</w>
പൂർ വ
പൂ രി
പൂ ജ</w>
പുറ പ്പെട്ടു</w>
പുരോഗ തി
പുന ര്‍
പു ഞ്ചി
പി സിസി</w>
പി പ്പ
പി ന്‍</w>
പാല ക്കാട്</w>
പാര്‍ട്ട ിയുടെ</w>
പര്യ ടന
പരിശോധ ിച്ച്</w>
പരിശോധ ിക്കാം</w>
പരമ്പര യിലെ</w>
പരമാ ധി
പത്രോ സ്‌</w>
പതി പ്പ്</w>
പണി യിട
പണ വും</w>
പട ം</w>
പഞ്ചസാര യുടെ</w>
പങ്കു വെ
പ ിയെ</w>
പ ാ</w>
പ ള്ളി
പ ല്ല
പ ടി</w>
നൽകി യിരുന്നു</w>
നൽക ുകയും</w>
നേരിട േണ്ടി</w>
നേരിട ുന്നത്</w>
നേ ടുന്ന</w>
നെയ ്യ
നു ളള</w>
നിർ ത്തി
നിശ്ച യം</w>
നിറ ങ്ങിയ</w>
നി ലേക്കു</w>
നി ലാണ്</w>
നാശ നഷ്ടം</w>
നായി ഡു</w>
നല്‍കി യിട്ടില്ല</w>
നല്‍ക ുന്ന
നരേന്ദ്ര മോദിയുടെ</w>
നയി ക്കുന്ന</w>
നയ ുണ്ട്</w>
നടത്ത ുന്നുണ്ട്</w>
നടത്ത ണം</w>
നട ൻ</w>
ന ോടും</w>
ന ന
ധാന ം</w>
ദ് രോ
ദൃശ ്യം</w>
ദൂ ര</w>
ത്തേ യും</w>
ത്തില െത്തി
ത്തി ൻറെ</w>
ത്ത ന്ന
തെളി ഞ്ഞ
തു മായി</w>
തിരുവനന്ത പുര
തിരിച്ചറിയാ ൻ</w>
തി ട്ട
താഴ െ
താ ം</w>
തട യാ
ത സ്
ത യില്ല</w>
ത നിച്ച
ത നി
ണ്ട ര്‍</w>
ണ്ട ത്‌</w>
ഡി വിഷ
ഡ േറ്റ്</w>
ട്ട ീ
ടെലിവിഷ ന്‍</w>
ടെ ക്‌
ടൂ ര്‍ണ
ടു ം
ഞെ ട്ടി</w>
ഞാ നാ
ജെഡി എസ്</w>
ജെ റ്റ്</w>
ജീവിത ത്തിന്‍റെ</w>
ജീവി ച്ചു</w>
ജീര കം</w>
ജാ ഗ
ജയി ലില്‍</w>
ജന ങ്ങൾക്ക്</w>
ജന ങ്ങള
ച്ചെ ല
ചൈന യുടെ</w>
ചൈന യില്‍</w>
ചെയ്യ ുന്നതിന്</w>
ചെയ് ‍
ചെ ല്ല
ചെ റു</w>
ചുമതല യേ
ചുമ ത്തി</w>
ചിലപ്പോഴ ൊക്കെ</w>
ചികില്‍ സ
ചി ട്ട
ചാർ ജ്</w>
ചാ ര്‍ജ്</w>
ചരിത്ര പരമായ</w>
ച ക്ര</w>
ങ്ങളി ല്‍
ങ്ങ ു
ങ്ങ ിക്കിട
ഗുണ മേ
ഗു രു</w>
ഗി രി
ഗലാത്യ ർ</w>
ക്രിസ്‌ത്യാനി കളെ</w>
ക്രിസ്‌ ത്യാ</w>
ക്രമീ കരണം</w>
ക്ര ോ
ക്ര മേണ</w>
ക്ട ോ
ക്കേണ്ട തില്ല</w>
ക്കുന്നതി നുള്ള</w>
ക്കുക യോ</w>
ക്കു വാൻ</w>
ക്കു മ
ക്കു ം
ക്കാ ണ
ക്ക ര
കോള ജ്</w>
കൊള്ള ാം</w>
കൊ ല്ലാ
കൊ ട്ടാ
കേസെടു ത്തിരിക്കുന്നത്</w>
കേ ഷ്</w>
കേ ണ്ട</w>
കെട്ടിട ത്തിന്റെ</w>
കൃഷ്ണ ന്‍</w>
കുമാര സ്വാമ
കുതി ച്ചു
കുട്ടിക ൾ
കുടുംബ ത്തിൽ</w>
കിഴ ക്കന്‍</w>
കാല മാണ്</w>
കാത്തു സൂക്ഷ
കാത്തിരിക്ക ുന്നു</w>
കാത്തി രുന്നു</w>
കാണാതാ യ
കാ റിൽ</w>
കാ തെ</w>
കഴിയുന്ന ത്ര</w>
കഴ ിച്ച
കള്ള ം</w>
കള ങ്ക
കരു ത്ത്</w>
കരാ റ
കയ റ്റു
കമ്മ്യൂ ണി
കഥ യാണ്</w>
കണ്ട ിട്ട
കണ്ട ത്</w>
കണ് ‌
കട പ്പാട്</w>
കട പുഴ
കക്ഷി യായ</w>
ക ുകയായിരുന്നു</w>
ക വും</w>
ക പൂര്‍</w>
ഓൺലൈ ൻ</w>
ഓസ്ട്ര േലിയ</w>
ഓ ഫി
ഒഴ ിക
ഒര ുകാ
ഒപ്പ ുവ
ഒ ത്തു
എസ് യു
എഴുന്ന േറ്റു</w>
എഴുതി യ</w>
എല്ലായ്‌ പോഴും</w>
എല്ലാ യ്
എയ ർ
എന്നി വര്‍
എന്നി വരെ</w>
എടുത്തി ട്ടുണ്ട്</w>
എടു ക്കാൻ</w>
എക് സി
എ പ്പോള്‍</w>
ഉറ പ്പു
ഉയര്‍ ത്തി
ഉപയോഗ ിക്കുന്നത്</w>
ഉപ തെരഞ്ഞെടുപ്പ്</w>
ഉണ്ടാ യിരിക്കും</w>
ഉ ല്
ഉ ല
ഇസ് ലാം</w>
ഇഷ്ട മുള്ള</w>
ഇവ യില്‍</w>
ഇള ക്കി</w>
ഇന്ത്യ യിലേക്ക്</w>
ഇന്ത്യ യിലും</w>
ഇന് ധന</w>
ഇത്തര ത്തിൽ</w>
ഇതു പോലെ</w>
ഇടി ഞ്ഞു</w>
ഇട യില്‍</w>
ആരോ ഗ്യ</w>
ആ ഴ്ച</w>
ആ മ
ആ ന്റ്</w>
ആ ഘാത
ആ ഘ
ആ ഗ്ര
അവിട ത്തെ</w>
അവതരി പ്പിച്ച
അല ഹ
അറിഞ്ഞ ിരിക്ക
അറ സ്
അഭ്യ ൂ
അഭി നയ
അനുക രിക്ക
അനു ഗമ
അദ്ധ ്യാപ
അദ്ദേഹ ത്തിനു</w>
അതോറി റ്റി</w>
അതി വേഗ</w>
അതി ര്‍ത്തി</w>
അതി ന്നു</w>
അതാ യിരുന്നു</w>
അതാ ണ്‌</w>
അടിസ്ഥാന ത്തിലാ
അജ യ്</w>
അച്ച ട
അംഗ ങ്ങൾ</w>
അ സം</w>
അ ല്ലാത്ത
അ പൂര്‍
അ ന്നു
a r
Com ment</w>
9 .
5 ,
20 19</w>
12 :
1, 2</w>
1 3:
​ ​</w>
്യ മാണ്</w>
ോട ൊപ്പ
ോട ൊ
ൊ ടു
ോ ട
േ ന്ത്യ
േ ത
െന്ന ത്</w>
ുവ െന്നു</w>
ുവ ല്ലോ</w>
ുള്ള തു</w>
ുട നീളം</w>
ുകള ്</w>
ുകയ ുള്ളൂ</w>
ിയ ുണ്ട്</w>
ിച്ചു പോയി</w>
ിക്കേണ്ട തിന്നു</w>
ിക്ക പ്പെടുന്ന</w>
ിക ളി
ി ന്‍</w>
ി ച്ച്‌</w>
ഹ് മ
സർ വ്വ
സ്‌നേഹ വും</w>
സ്‌ നാ</w>
സ്സി ന്റെ</w>
സ്വന്തമാ ക്കിയത്</w>
സ്വ ത്തു
സ്റ്റ ൈ
സ്ഥിതി യും</w>
സ്ഥാപ നം</w>
സ്ഥാന ത്തും</w>
സ് സു
സോ ഫ്
സേവ ിക്കാൻ</w>
സെക്രട്ട റി
സു വിശേഷ
സിം ഹ
സി ങ
സാഹചര്യ ങ്ങൾ</w>
സഹാ യ</w>
സര്‍വീ സുകള്‍</w>
സര്‍ക്കാ റിന്റെ</w>
സമ്പാ ദ്യം</w>
സമ്പ ദ്‌
സമര്‍ പ്പിച്ച
സന്നി ഹിത
സന്ദർശ നം</w>
സംസ്ഥാന മാണ്</w>
സംസാരിക്ക ുന്നു</w>
സംഭവിച്ച ില്ല</w>
സംഭവിച്ച ിട്ടില്ല</w>
സംഭവ ത്തിന്</w>
സംഘടന കള്‍</w>
സംഘ മാണ്</w>
സ ു</w>
സ ിയും</w>
ഷൂട്ടി ംഗ്</w>
ഷ ്‌</w>
ശ്ര േഷ്‌ഠ
ശുദ്ധ മായ</w>
ശു പാര്‍ശ</w>
ശിക്ഷ ിക്കപ്പെട
ശി ഷ്ട
ശ െ
വ്യക്തി യുടെ</w>
വ്യക്തി ഗ
വ്യക്ത മാണ്</w>
വൈദ്യു തി
വേവ ിക്കുക</w>
വേഗ ത</w>
വെളിപ്പെടുത്തി യിട്ടില്ല</w>
വെടിയ ു
വീട്ടു തടങ്ക
വീ ശി</w>
വീ ഴ്ച</w>
വിഷ ്‌
വിശ്വാസ വും</w>
വിശ്വാസ മുണ്ട്</w>
വിശ് വ
വിശാല മായ</w>
വിശദ ീകരണ
വിവാഹിത രാ
വിള ിക്കുന്നു</w>
വില യും</w>
വിമർശ നവുമായി</w>
വിമാന ങ്ങള്‍</w>
വിദ്യാര്‍ത്ഥ ികള്‍ക്ക്</w>
വിക്കറ്റ ുകള്‍</w>
വി ലും</w>
വി മുക്ത
വാ ല</w>
വാ തക</w>
വാ ട്ട
വാ ടക</w>
വളര്‍ ച്ച</w>
വള െ</w>
വലു താ
വര്‍ ക്ക
വരു ത്</w>
വരി ക</w>
വരാ ന്‍</w>
വര ല്ല</w>
വയ സ്സി
വയ റി
വന ം
വ ൊ
വ ട്ട
ല്‍ സ്</w>
ല്ലാ യിരുന്ന
ലോ കാരോഗ്യ</w>
ലൈ സ
ലൈ ഫ്</w>
ലോ ച
ലി യില്‍</w>
ലി യാ
ല ർ</w>
ല ഡാ
ല ഘു
റ്റ േ
റു മുണ്ട്</w>
റിയാ ൻ</w>
റി ട്ട</w>
റ ണ്ണ
രേഖപ്പെടുത്തി യത്</w>
രേ ന്ദ്ര
രീ സ്</w>
രാഹു ലി
രാജി വെ
രാ വില
രാ ധന
രക്ഷിതാ ക്കള്‍</w>
രക്ഷ പ്പെടുത്തി</w>
ര നെ</w>
യെരൂശലേ മ
യുവാ വിന്റെ</w>
യിസ്രായേ ല്‍
യാഥാര്‍ത്ഥ ്യ
യാണ ുള്ളത്</w>
യാ യിരുന്ന</w>
യാ യി
യഹോവ യിൽ</w>
യഹൂ ദ</w>
യഥാർത്ഥ ത്തിൽ</w>
യ ോട്‌</w>
യ ൊ</w>
യ വും</w>
യ ന്ത്ര
മ്യൂസിയ ം</w>
മ്പോഴ േക്കും</w>
മോ ര്‍ട്ട
മോ ചിപ്പ
മേഖല യിൽ</w>
മേഖല കളില്‍</w>
മേ റ്റു</w>
മേ ക്ക്</w>
മെന് റില്‍</w>
മൂന്നാ മ
മുറി വേ
മുതി ർന്ന
മുണ്ടാ യ
മുണ്ട െന്ന്</w>
മു ള്‍
മു റു
മു മ്പു
മിശ്രി തം</w>
മി ര്‍</w>
മി ണ്ടി
മാത്ര മാണ്‌</w>
മാ സ്‌
മാ രില്‍</w>
മാ ബാദ്</w>
മാ ണ്​</w>
മസ്ജി ദ്</w>
മഴ യും</w>
മറ്റാ രു
മറ ിച്ച
മരണ കാരണം</w>
മന്ത്രി സഭാ</w>
മനുഷ്യ നും</w>
മന സി
മത്സ രിച്ചത്</w>
മത്സ ര</w>
മക നായ</w>
മ ൻ
മ മായ</w>
ഭർത്താ വും</w>
ഭോ പ്പാ
ഭീകര രെ</w>
ഭാര്യ യുടെ</w>
ഭാഗ ്യം</w>
ഭ രിക്കുന്ന</w>
ബൈ ക്കും</w>
ബെ ഥേ
ബൂ ബ</w>
ബിജെപി യിലേക്ക്</w>
ബിജെപ ിക്കെതിരെ</w>
ബി ൾ</w>
ബി ഗ്</w>
ബാറ്റ്‌ സ്മാ
ബാബ ിലോ
ബാധ ിക്കും</w>
ബന്ധു ക്കളും</w>
ബന്ധ വും</w>
ബന്ധ മാണ്</w>
ബംഗാ ൾ</w>
ബംഗാ ളി</w>
ബ യോ
ബ ന്ധ</w>
ബ ദാ
ബ ദ
ബ ജാ
ഫോ ര്‍
പ്രൈ മറി</w>
പ്രസാ ദിപ്പ
പ്രസംഗ ി</w>
പ്രദേശ വാസി
പ്രതീക്ഷ ിക്കുന്നു</w>
പ്രതിഷേധ ക്കാര്‍</w>
പ്രതി ബദ്ധ
പ്രക്ഷോ ഭം</w>
പ്ര ാ</w>
പ്ര സാധ
പ്ര സംഗ</w>
പ്ര പഞ്ച
പ്പോ ഴ
പ്പെട്ട ു
പ്പെട്ട താണ്</w>
പ്പെടു ത്താ
പോയി ന്റ
പോ യില്ല</w>
പോ കുക</w>
പൊ ലി
പൊ ട
പോ ലീസ്</w>
പെട്രോ ളിയം</w>
പൂര്‍ണ മായി</w>
പൂര്‍ ത്തിയായി</w>
പൂര്‍ ത്ത
പൂര്‍ ണ</w>
പുരോഗമ ിക്കുന്നു</w>
പുന ർ
പു ത്രി
പീഡിപ്പ ിച്ച</w>
പിൻ വരുന്ന</w>
പിൻ പറ്റ
പിറന്നാ ള്‍</w>
പിന്ന ില
പിന്തുണ യും</w>
പിതാ വിന്‍റെ</w>
പാ ഴാ
പാ ളയ
പാ കം</w>
പഴ യ
പഴ ങ്ങളും</w>
പല ര്‍ക്കും</w>
പറ്റ ുന്നില്ല</w>
പറയ േണ്ടത്</w>
പറയ ൂ</w>
പറയ ുകയുണ്ടായി</w>
പര്യ ന്തം</w>
പരിഹരിക്ക ാന്‍</w>
പരിശീല ക
പരിപാട ിയുടെ</w>
പരിഗണ ന</w>
പരാതി യുമായി</w>
പരമ്പരാഗ ത</w>
പര മായും</w>
പയനിയ ർ</w>
പച്ചക്കറ ികളും</w>
പ ക്വ
ന്‍ഡ ര്‍</w>
ന്‍ തന്നെ</w>
ന്മാ ര്‍
ന് യായ</w>
നേരിട്ട ത്</w>
നേതാ ക്കളെ</w>
നേട ാന്‍</w>
നിൽ ക്കുന്നു</w>
നിശ മന</w>
നില നിര്‍ത്ത
നിര ൂ
നിയമ സഭയില്‍</w>
നിയമ സഭ
നിന്ന ോ</w>
നിങ്ങൾ ക്ക
നി ഷ്</w>
നാവി സ്</w>
നാട കം</w>
നാ ള്‍</w>
നാ ഗാ
നഷ്ട പ്പെട്ട
നമു ക്കെ
നടത്ത ുന്ന
ധീ ര
ധാർ മിക
ധാ രണം</w>
ദൈവ മേ</w>
ദൈവ ത്തിനു</w>
ദേശ ത്തു</w>
ദേ വിയുടെ</w>
ദുര ന്ത</w>
ദിവസ ങ്ങൾ</w>
ദാന ീ
ദാ ഹ
ദക്ഷിണ േന്ത്യ
ദ ത്ത</w>
ത്തിലേ ക്കുള്ള</w>
ത്തില ുള്ളത്</w>
ത്തി ൻ
ത്തി ള
ത്തി രി
തൊഴിലാള ികള്‍</w>
തൊഴില വസര
തോന്ന ുന്നു</w>
തെളി വുകള്‍</w>
തെന്നി ന്ത്യ
തീവ്രവാദ ികളെ</w>
തീരുമാ നിച്ചത്</w>
തീ രു</w>
തിരിച്ച െത്തി</w>
തിരഞ്ഞെടു ത്തു</w>
തിയ തി</w>
തമിഴ്‌ നാട്ടില്‍</w>
തണു പ്പ
തട ഞ്ഞ
തക ർത്തു</w>
ത ൃ</w>
ത വും</w>
ത ല്‍
ത ത്വ
ത ങ്ങൾക്ക്</w>
ണ്ടാ യിരുന്ന</w>
ണ്ട േ</w>
ഡിജിറ്റ ല്‍</w>
ഡി ംഗ്</w>
ട്വിറ്ററില ൂടെ</w>
ട്രോ ള്‍</w>
ട്ടി ന്</w>
ട്ട ിൽ</w>
ടു ത്തു</w>
ടി ഞ്ഞു</w>
ഞ്ഞ ിട്ട
ഞ്ഞ ി</w>
ഝ ാ
ജോല ിക്ക്</w>
ജെ ഡിഎ
ജെ ഡി</w>
ജി ല്ലാ
ജാമ്യാ പേക്ഷ</w>
ജാ ത</w>
ജനു വരി</w>
ജന പ്രിയ</w>
ജ യിച്ചത്</w>
ജ നിക്ക
ചെയർമാ ൻ</w>
ചെയ്യേണ്ട തുണ്ട്</w>
ചെയ്താ ല്‍</w>
ചെ വി</w>
ചില ര്‍ക്ക്</w>
ചില പ്പോൾ</w>
ചിത്ര വും</w>
ചിത്ര ങ്ങളില്‍</w>
ചി റ
ചി രിക്ക
ചാ ടി</w>
ച ന്ദ്ര</w>
ങ്ങള ുമാണ്</w>
ഗെയി ം</w>
ഗൂ ഢ
ഗുണ ഭോക്താ
ഗുജറാ ത്തി</w>
ഗാംഗ ു
ഗര്‍ ഭി
ഗണ ്യ
ക്രിമിന ല്‍</w>
ക്രിക്ക റ്റിലെ</w>
ക്കേ ട
ക്കൂ ട്ടം</w>
ക്കിട യിൽ</w>
ക്കി യിട്ട
ക്കാ നോ</w>
ക്കാ ന
ക്ക റിയാം</w>
ക്ക പ്പെടുന്നു</w>
കോൺഗ്ര സിന്റെ</w>
കോര്‍ പ്പറ
കോണ്‍ ഫറ
കൊലപാതക ത്തിന്</w>
കൊ ളു
കൊ ച്ചി</w>
കോട തി</w>
കൊ ണ്ട
കൂട്ട ുകാര
കൂട്ട ം</w>
കൂടിയ ുണ്ട്</w>
കുമാ രി</w>
കുടുംബ ത്തിന്</w>
കീ ഴിൽ</w>
കിട്ടി യ</w>
കിട ക്കുന്നു</w>
കാശ്മീ രില്‍</w>
കാല ുകൾ</w>
കാല ത്തു</w>
കാരണ ങ്ങളും</w>
കാണ ില്ല</w>
കാണ ിക്കുക</w>
കാ ർഡ്</w>
കാ റിന്റെ</w>
കാ ത്തു</w>
കാ ഞ്ഞ
കഴിയ ൂ</w>
കഴിയ ു</w>
കഴ ിക്കാം</w>
കള ായി</w>
കല്ല െ
കല് ‌
കയ് യില്‍</w>
കമ്പനി യുടെ</w>
കണ്ണ ൂർ</w>
കണ ക്
കഠി ന
കട ന്നാ
ഓര്‍ മ
ഓരോരുത്ത രും</w>
ഓ ടിക്ക
ഒഴിവാ ക്കി</w>
ഒഴിവാ ക്കാൻ</w>
ഒഴ ിച്ച്</w>
ഒളി വില്‍</w>
ഒരാ ള്‍ക്ക്</w>
ഒര ൊ
ഒര െണ്ണം</w>
ഒട്ട ന
ഒ രിക്ക</w>
ഐപിഎല്ല ില്‍</w>
ഏഷ്യ ന്‍</w>
ഏതാ യാലും</w>
എസ് എ
എറണാ കുളം</w>
എന്നിവിട ങ്ങളില്‍</w>
എന്തൊ ക്കെയാണ്</w>
എന്ത ുകൊണ്ടാണ്‌</w>
എത്തിച്ച െങ്കിലും</w>
എടു ത്ത</w>
എങ്ങ ും</w>
എ ത്തു
ഉൾ പ്പെട്ട
ഉള്‍പ്പെട െയുള്ള
ഉറപ്പ ുവരു
ഉറ ച്ചു
ഉറ ച്ച</w>
ഉയ ർത്ത
ഉപ കാര
ഉന്ന യിച്ച
ഉദ്‌ ബോധ
ഉദ്യോഗസ്ഥ രും</w>
ഉദാ ഹ</w>
ഉട മ്പ
ഉട ന്‍തന്നെ</w>
ഉ ജ്
ഇവിട ം</w>
ഇവ യുടെ</w>
ഇരിക്ക ുന്നു</w>
ഇര ുന്നു</w>
ഇന്നി ംഗ്‌
ഇന്ത്യ ക്കു</w>
ഇതു വഴി</w>
ഇ ഷാ
ഇ ല്ലേ</w>
ഇ ല്ലാത്ത
ഇ യാള
ആഹ്ലാ ദ
ആശയവിനി മയം</w>
ആവശ്യ മുള്ള
ആവശ്യ മുണ്ട്</w>
ആഴ ത്തിൽ</w>
ആള െ</w>
ആരോപണ ങ്ങള്‍</w>
ആത്മീയ മായി</w>
ആഞ്ഞ ടിച്ച്</w>
ആഗ്രഹ ിക്കുന്നില്ല</w>
ആക്രമണ ത്തിന്റെ</w>
ആ സ്
ആ ന്റി
അസോസിയ േഷൻ</w>
അവ ൾ
അവ യെല്ലാം</w>
അറ്റ കുറ്റ
അറസ്റ്റി ലായി</w>
അര്‍ പ്പ
അഭി മുഖം</w>
അഭി മാനിക്ക
അബ്രാഹാ ം</w>
അപേക്ഷ ാ
അപ മാനിക്ക
അനുവദ ിക്ക
അനുയോജ്യ മായ</w>
അനു സരിച്ച
അനു ഭ</w>
അധ്യാപ കരും</w>
അധി കാരി
അധ ്വാ
അതു തന്നെയാണ്</w>
അതി ലൊ
അത ാ</w>
അണു ബാധ</w>
അടു ത്തത്</w>
അടു ക്കള
അടിസ്ഥാന ം</w>
അങ്ങ ോട്ട്</w>
അഖ ിലേ
അക്കാര്യ ത്തില്‍</w>
അ സാധാരണമായ</w>
അ ലോ
അ ര</w>
അ യോഗ്യ
അ മ്
അ മര്‍
അ ബദ്ധ
അ പ്പാ
അ ത്​</w>
അ ഡ്
ംശ ം</w>
ംബ ര്‍</w>
ംഗ ്യ
c o
8 00</w>
5 1</w>
2 7
1/ 2</w>
“ എന്‍റെ</w>
“ എന്താ</w>
​െ ൻറ</w>
​ ൽ</w>
ൾ സ്പൂൺ</w>
ർഥ ം</w>
ർ ത്തുന്ന</w>
ൊ ഴുക
െയ ൊന്നും</w>
െയ െ</w>
െന്നാ രോ
െന്ന ാണ്‌</w>
െന്ത ു</w>
െടുത്തി രുന്നു</w>
െടു ക്കുകയും</w>
െടു ക്കും</w>
െങ്ക ിലോ</w>
െ ത്തുന്ന</w>
ൂട ൂ
ൂ രി</w>
ുന്നതി ന്റെ</w>
ുന്നതി നാൽ</w>
ുണ്ട െന്നാണ്</w>
ുടേ താണ്</w>
ുകൂട ാ</w>
ുകള ോ</w>
ുകള ുമാണ്</w>
ുക ൾക്കു</w>
ുക െ</w>
ു ദീ
ീക രിച്ച</w>
ില്ല െങ്കിൽ</w>
ില്ല െങ്കിലും</w>
ിരിക്ക ുകയാണ്‌</w>
ിയ െയും</w>
ിപ്പി ൻ</w>
ിപ്പ ിക്കുന്ന</w>
ിട ിച്ച്</w>
ിച്ചു ്</w>
ിക്കേണ്ട ി</w>
ിക്കുന്ന തായി</w>
ിക്കു മെന്ന
ിക്ക പ്പെട്ടത്</w>
ഹോസ് പിറ്റ
ഹൃദയാഘാത ത്തെ</w>
ഹി തം</w>
ഹി ച്ച</w>
ഹാ നി
ഹ ു</w>
സർ വ
സൗ രവ്</w>
സ്‌നേഹ ത്തിന്‍റെ</w>
സ്വാധീ നം</w>
സ്റ്റേഷ നില്‍</w>
സ്റ്റാ ൻ
സ്റ്റ ീവ്</w>
സ്നേഹ ിക്കുന്നു</w>
സ്ഥിതി ക്ക്</w>
സ്ട്ര ീ
സൈ റ്റ്</w>
സേവന ത്തിൽ</w>
സെ ലക്ഷ
സൃഷ്ട ി
സൂ ചി
സുഹൃത്തു ക്കളും</w>
സുരക്ഷ യാണ്</w>
സുന്ദ രി</w>
സിനിമ യ്ക്ക്</w>
സിനിമ കളിലും</w>
സി വില്‍</w>
സി ക്</w>
സാത്താ ന്‍റെ</w>
സാ മ
സഹ ിച്ചു
സഹ കരണ</w>
സര്‍ക്കാ ര
സയ ൻസ്</w>
സമ്മർ ദ
സമ്മര്‍ ദ്ദ
സമ് പുഷ്ട
സമയ ത്തും</w>
സമ നില
സന്നാ ഹ
സന്തോഷ ്</w>
സന്തോഷ ത്തോടെ</w>
സന്ത ോ</w>
സഞ്ചാ ര
സജ്ജീ കരണ
സങ്ക ടം</w>
സംസാരിക്ക ും</w>
സംഘടന യുടെ</w>
സം ഹ
സ സ്പെ
സ പ്പോ
ഷെ രീ
ശ്രമിച്ച െങ്കിലും</w>
ശ്രദ്ധ ിച്ചു</w>
ശ്ര േ
ശി ഖര്‍</w>
ശക്തി യും</w>
ശക്തി പ്പെടുത്ത
ശ വ
ശ ല്യ
വ്യാപാ രം</w>
വ്യാപ നം</w>
വ്യക്തിഗ ത</w>
വൈ ദ്യ</w>
വേദ ി</w>
വേ ള</w>
വെളി പ്പെടുത്തി</w>
വെല്ലു വിളി
വെട്ട േറ്റു</w>
വെ സ്റ്റി
വുന്ന താണ്‌</w>
വീട ുകളില്‍</w>
വിശ്വസ ിക്കുന്നു</w>
വിശ്വസ ിക്കാന്‍</w>
വിശദീകരിക്ക ുന്നു</w>
വിവേ ക്</w>
വിറ്റാ മിന
വിര ോധ
വിധ ിക്കെതിരെ</w>
വിദ ഗ്‌
വിജയ ന്‍</w>
വിചാ രണ
വാര്‍ ഷിക</w>
വായ്പ ാ</w>
വാ ൾ</w>
വാ സം</w>
വാ റും</w>
വാ രി
വാ ടക
വര്‍ധ ിച്ചു</w>
വര്‍ധ ന</w>
വരിക യായിരുന്നു</w>
വരാ നിരിക്കുന്ന</w>
വര െയാണ്</w>
വര വേ
വയസ്സ ുള്ള
വമ്പ ന്‍</w>
വധ ശിക്ഷ
വക മായ</w>
വ ുള്ള</w>
വ ല്‍ക്ക
വ നാണ്</w>
ഴു ത
ള്‍ സ്</w>
ല്‍പ്പ ന്ന
ലോക് സഭ</w>
ലി ക</w>
ലി ംഗ
ലാ ക്കി</w>
ലളി തമായി</w>
ലണ്ട ൻ</w>
ലക്ഷ ത്തിലധികം</w>
ല ര്‍</w>
ല മായി</w>
റ്റ് സ്</w>
റ്റ ുകളും</w>
റോഡ ുകളും</w>
റോ സ്</w>
റോ ഡിന്റെ</w>
റോ ഡി
റിമാ ൻഡ്</w>
റിപ്പോർട്ട ുകൾ</w>
റി യില്‍</w>
റാ യ്</w>
റാ യി
റ ിലേക്ക്</w>
റ ിയത്</w>
റ ല്‍</w>
ര്‍ മ
ര്‍ ഡ
രാഷ്​ ട്ര
രാജാ വ്</w>
രവീ ന്ദ്ര
രണ ാ
രഞ്ജ ന്‍</w>
രക്ഷാ പ്രവര്‍ത്തനം</w>
രംഗത്തെ ത്തിയത്</w>
ര ോഷ
യോ ജ
യൂണി റ്റ
യൂ ത്ത്</w>
യു ക്ത
യു ം
യില്‍ നിന്ന്</w>
യില െയും</w>
യില ൂടെയാണ്</w>
യാഥാ ർത്ഥ
യാതൊരു വിധ</w>
യാണ െന്നാണ്</w>
യാ ന
യ െന്നു</w>
യ െന്നാണ്</w>
മ്പ ു</w>
മോഹ ൻ</w>
മോ ഷണം</w>
മോ ശ</w>
മേൽ വിചാര
മെന് ന്‌</w>
മെഗാപിക്സ ൽ</w>
മെ യില്‍</w>
മെ ന്ത്</w>
മെ ക്‌സ
മുന്‍ ഗണ
മുന്ന േറ്റം</w>
മു ദ്ര
മിക ്</w>
മി സൈ
മാവ ുകയും</w>
മാന ഭംഗ
മാ റായി</w>
മഹാരാഷ്ട്ര യിലെ</w>
മഹാരാഷ്ട്ര യിലും</w>
മറ്റ െ
മരണ ത്തിന്</w>
മനോ ഭാവം</w>
മനുഷ്യ രുടെ</w>
മദ്രാ സ്</w>
മത്സ രിച്ച
മതി യാ
മണ്ഡല ത്തിൽ</w>
മ ർ</w>
മ ോട
മ ുകൾ</w>
മ ലാ
മ ഞ്ജ
ഭർത്ത ാ</w>
ഭൂ ത
ഭുവനേ ശ്വര്‍</w>
ഭാഷ യിൽ</w>
ഭാവി യില്‍</w>
ഭ ര
ഭ ദ്ര
ബ്ലാ ക്ക്</w>
ബ്ല ൂടൂ
ബ്രാ ഞ്ച്</w>
ബ്ര ൌ
ബ്ര െ
ബോ ളിവു
ബുദ്ധിയുപ ദേശം</w>
ബുദ്ധിമുട്ട ുകൾ</w>
ബിരുദ ധാ
ബിജെപി യാണ്</w>
ബി സി</w>
ബി റ്റ്</w>
ബി ന്‍</w>
ബാധ ിച്ചു</w>
ബാധ ിച്ച
ബാ ബ</w>
ബന്ധു ക്കള
ബന്ധ ത്തില്‍</w>
ബട്ട ൺ</w>
ബജാ ജ്</w>
ഫ്ര ണ്ട്</w>
ഫെയ്‌സ്ബു ക്ക്</w>
ഫു ഡ്</w>
പ്‌ ത
പ്ലാ ൻ</w>
പ്രാ ബല്യ
പ്രാ പ്‌തി
പ്രശ്‌ന മല്ല</w>
പ്രശ്ന മല്ല</w>
പ്രവർ ത്തി</w>
പ്രവര്‍ത്തി ക്കുന്നത്</w>
പ്രദേശ ങ്ങളിൽ</w>
പ്രതീക്ഷ ിക്കാം</w>
പ്രതി ഫ
പ്രചാ ര
പ്ര ോട്ട
പ്ര ോഗ്രാം</w>
പ്ര ോ</w>
പ്ര യ
പ്പെട േണ്ട
പ്പ ാ</w>
പ്പ ടെ</w>
പോസ് റ്റ്
പോരാ ട
പോക ണം</w>
പോ ള്‍</w>
പൊ റു
പൊ രു
പൈ സ
പോ കുന്നു</w>
പേര്‍ ക്കു</w>
പെൺ കുട്ടിയുടെ</w>
പെരു മാറ്റം</w>
പെ യി
പൂർ വകമായ</w>
പൂര്‍ വം</w>
പൂ ട്ടി
പുനഃ സ്ഥാപ
പുന ര
പു ഷ്
പു ള
പിന്ന െ
പിടി യിൽ</w>
പിടി പ്പ
പി എസ്</w>
പാവ പ്പെട്ട
പാര്‍ട്ട ികള്‍</w>
പാച ക
പാകിസ്താ ന്</w>
പാ രി
പറ ുദീ
പരീക്ഷ ണം</w>
പരിഹ സ
പരിശോധ ിച്ചു</w>
പരിശീല കന്‍</w>
പരിക്കേറ്റ ിരുന്നു</w>
പരി ജ്ഞാന
പര മോന്ന
പതിനാ യിര
പഠിപ്പ ി</w>
പച്ചക്കറ ികള്‍</w>
പങ്കു വയ്
പ ദു
പദു ക്കോ
പ ത്തു</w>
ന്‍ റി
ന്മാ ർക്കു</w>
ന്മാ രായ</w>
ന്മ േഷ
ന് ന്‍</w>
ന് തിര
ന് താഗ
നൊ ബേല്‍</w>
നേരിട്ട ുള്ള</w>
നേരിട ാൻ</w>
നേതൃത്വ ത്തില്‍</w>
നേ ടുക</w>
നൂറ്റാണ്ട ിൽ</w>
നൂറുകണ ക്കിന്</w>
നു മായിരുന്നു</w>
നില്‍ ക്കുകയാണ്</w>
നിറ ങ്ങൾ</w>
നിര്‍ബന്ധ മായും</w>
നിര്‍ദേശ ങ്ങള്‍</w>
നിര്‍ മാണ</w>
നിയ ന്
നിന്നുള്ള വരാണ്</w>
നിഗ മന
നിക്ക ോ
നി രിക്ക
നായി കമാ
നാ നാ
നാ ട്ടി
നാ കില്ല</w>
നഷ്ട പരിഹാര
നവാ സ്</w>
നയി ക്കാൻ</w>
നട ക്കില്ല</w>
നട ക്കാന്‍</w>
ന ുള്ളില്‍</w>
ന ന്നേ</w>
ധാർ മിക</w>
ധ ൂ
ദൗ ത്യ
ദൈവ ത്തോടു</w>
ദൈ വാ
ദേ ഷ്യ
ദേ വ്</w>
ദയ നീയ
ത്സ ാ</w>
ത്തോ ടെ</w>
ത്തെ ത്തി</w>
ത്തിലേ ക്കും</w>
ത്തില െത്തി</w>
ത്ത താണ്</w>
തോന്നി യ</w>
തൊഴിലാ ളി</w>
തേ യില്ല</w>
തൊ ഴിൽ</w>
തെര ച്ചിൽ</w>
തൃണമൂ ല്‍</w>
തീവ്ര ത</w>
തീ ര്‍ത്ഥ
തിരക്ക ഥ</w>
തിക ഞ്ഞ</w>
തി യേറ്റ
താഴ െയുള്ള</w>
താറു മാറായി</w>
തല മുറ</w>
തല ത്തിൽ</w>
തര ംഗ
തടസ്സ പ്പെട്ടു</w>
തട യാന്‍</w>
ത രണ
ണ്ട ർ</w>
ണു ്</w>
ഡൽഹി യിലെ</w>
ഡൗ ൺ
ഡ്രൈ വ്</w>
ട്രാ ൻ
ട്ടി ന്റെ</w>
ട്ട ാം</w>
ടേബി ൾസ്പൂൺ</w>
ടെന്ന ീസ്</w>
ടെ സ്റ്റി
ട യ
ട ച്ചു</w>
ഞെ ട്ടി
ഞ ങ്ങളും</w>
ജീവ പര്യന്തം</w>
ജാല കം</w>
ജയി ക്കാന്‍</w>
ജന ത</w>
ജന ത
ജഡ് ജി
ജ ർമ
ജ ോ</w>
ജ യില്‍</w>
ജ ന</w>
ജ ക്
ഛ ര്‍
ചൗധ രി</w>
ച്ച ുള്ള</w>
ചേര്‍ ന്നാണ്</w>
ചെറിയ ൊരു</w>
ചെയ്​ തു</w>
ചെയ് യി
ചെന്നൈ യിലെ</w>
ചീ സ്</w>
ചില ർക്ക്</w>
ചില രെ</w>
ചില ര
ചിന്തി ച്ചു</w>
ചി ന്താഗ
ചാ ല
ചന്ദ്ര ബാബു</w>
ങ്ങി യിരുന്നു</w>
ങ്ങള്‍ ക്കായി</w>
ങ്ങ നെ
ങ്ക ോ
ഘട്ട ത്തിലാണ്</w>
ഗിയ ർബോ
ഗ ്യാ
ഗ ില്‍</w>
ഗ രം</w>
ഖ ്
ഖ േദ
ഖ ത്ത
കർത്താ വിന്‍റെ</w>
ക്ഷേ മ</w>
ക്ഷേ ത്ര</w>
ക്രെ ഡിറ്റ്</w>
ക്രി പ്
ക്യാമറ യും</w>
ക്കൊണ്ട ിരിക്കുകയാണ്</w>
ക്കൊ ണ്ടു</w>
ക്കേ സില്‍</w>
ക്കെ ട്ട്</w>
ക്കാ ർക്ക്</w>
ക്കാ രം</w>
കോൺഗ്ര സിൽ</w>
കോടതി യ
കോ വി
കോ ച്ച്</w>
കൊൽക്ക ത്ത</w>
കൊള്ള ാ
കൊടു ക്കുക</w>
കൊ ച്ച
കൈ വശ
കൂട െയ
കൂ ൺ</w>
കൂ ടു
കുറയ് ക്കുക</w>
കുറ യും</w>
കുട്ടിക്കാ ലം</w>
കുടി വെള്ളം</w>
കുട ും</w>
കുഞ്ഞി ന്റെ</w>
കുഞ്ഞ ാ
കു റിപ്പ
കാർ ഷിക</w>
കാൻ സർ</w>
കാര്‍ ത്തി
കാണാ തായി</w>
കാ ള
കഴിയ ുന്നത്</w>
കഴിഞ്ഞ ാല്‍</w>
കള ിക്കുന്നത്</w>
കല്ല േ
കരുത ുന്നത്</w>
കര വും</w>
കഥ കള്‍</w>
കണ്ടെത്തി യ</w>
കണ് ണ്</w>
കണ മെന്ന
കണ ക്ട്</w>
കട ലിൽ</w>
കട ന്ന്</w>
ക െയ്
ക െടു
ഓട്ടോമാറ്റ ിക്</w>
ഓ ടിയ
ഒഴ ിച്ചു</w>
ഒറ്റ യ്ക്ക്</w>
ഒരു ക്കുന്നത്</w>
ഒമ്പ ത്</w>
ഒന്നാമ ത്</w>
ഒട്ടന വധി</w>
ഐക്യ നാട
ഏജ ന്‍സി
ഏ ല
എന്‍ ഡിഎ</w>
എന്നു ്</w>
എന്നാ ണു</w>
എതി രാ
എങ്ങനെയ െന്ന്</w>
എക്‌സ് പ്രസ്</w>
എ ലീ
ഊര്‍ ജ്
ഉറപ്പാ ക്കുക</w>
ഉയര്‍ ത്ത
ഉയ ർത്തി
ഉപയോഗ ിക്കാം</w>
ഉപയോഗ ം</w>
ഉപയോഗ ിക്കുന്നു</w>
ഉദ്യോഗസ്ഥ ർ</w>
ഉദ്യോഗസ്ഥ ന്‍</w>
ഉത്‌ കണ്‌
ഉത്തര്‍ പ്രദേശിലെ</w>
ഉത്ത ര</w>
ഉത് ഭവ
ഉത് പന്ന
ഉണ്ടാ വും</w>
ഉണ്ട െന്ന്</w>
ഉട ല
ഉ മ്മ</w>
ഉ ചിത
ഇവര െല്ലാം</w>
ഇലക് ട്രോ
ഇന്‍ സ്റ്റ
ഇതേ ത്തുടര്‍ന്ന്</w>
ഇതിഹാ സം</w>
ഇതി ന്‍റെ</w>
ഇതി നിടെ</w>
ഇട പെട്ട
ഇംഗ്ല ണ്ട
ഇ വരിൽ</w>
ഇ വയ
ഇ ന്നു
ഇ ന്തോ
ഇ ന
ഇ ടുക</w>
ആവശ്യപ്പെട്ട ിട്ടുണ്ട്</w>
ആരോഗ്യ വും</w>
ആര ാ</w>
ആന്‍ഡ്രോ യിഡ്</w>
ആഗ്രഹ ിച്ചു</w>
ആക്രമണ ത്തിന്</w>
ആ ൽ
ആ വർത്ത
ആ റാം</w>
ആ കു
ആ ം
അവിട െയാണ്</w>
അവര െ
അവ ള്‍
അവ രുമായി</w>
അവ രാ
അറിയിച്ച ിട്ടുണ്ട്</w>
അറിയി ക്കുന്നു</w>
അറിയി ക്കുകയും</w>
അറി വായിട്ടില്ല</w>
അറസ്റ്റിലാ യ
അരുളിച്ച െയ്
അരു ണാ
അരി ഞ്ഞ</w>
അയ ച്ച</w>
അഭ്യ ര്‍ഥ
അഭിഭാഷ ക
അപ്പ ോ</w>
അപകട ത്തെ</w>
അന്വേഷണ വും</w>
അന്തി മ
അനുവദ ിച്ചത്</w>
അനു വാദ
അനു ജ
അനിവാര്യ മാണ്</w>
അനാ വ
അധ്യാപ ിക
അത്ര യ്ക്ക്</w>
അതു വഴി</w>
അതു തന്നെ</w>
അതിന ൊരു</w>
അതി ർത്തി
അതാ ണു</w>
അടിയന്തര മായി</w>
അടിയ ന്തി
അട ങ്ങുന്ന</w>
അങ്ങനെയ ൊന്നും</w>
അങ്ങ േ
അഗ് നി
അക്ര മാസക്ത
അക ത്ത്</w>
അംഗ ം</w>
അ സിസ്റ്റ
അ സാധു
അ സ
അ മ
അ ന്‍
ംസ കള്‍</w>
ംഗ ില്‍</w>
ം ബി
ം കൂടി</w>
ti on</w>
e r</w>
a c
V I</w>
7 3</w>
5 8</w>
5 4</w>
2 2
14 :
“ ഇത്</w>
്ട ണ്‍</w>
ോ ടു
ൊ രാള
ോ ധന
േ ദം</w>
േ ണമേ</w>
െന്നാ ണു</w>
െന്ന താണ്</w>
െ ൻറ</w>
ുമാ യിരുന്നില്ല</w>
ുന്നതി ലും</w>
ുണ്ടാ യിരുന്ന
ുകൂ ടിയ</w>
ുകു ട്ട
ുകള െല്ലാം</w>
ുകള ുള്ള</w>
ുകള ുടെയും</w>
ുകയു മായിരുന്നു</w>
ുക യാണോ</w>
ു മല്ല</w>
ീ ന
ിപ്പ റ
ിട്ടുണ്ട െന്നും</w>
ിട്ട ു
ിച്ചിട്ട ്</w>
ിച്ച താണ്</w>
ിക്കുന്ന വര്‍</w>
ിക്കുന്ന വ
ിക്കു മായിരുന്നു</w>
ിക്കാന ുണ്ട്</w>
ിക്കാ ത്ത</w>
ിക്കാ തിരിക്ക
ാവശ്യ പ്പെട്ട്</w>
ാനാ വില്ല</w>
ാ ലോച
ാ ക്കെ</w>
ഹ്ര സ്വ
ഹൈക്കോടതി യുടെ</w>
ഹോ ട്ട
ഹൃദ യ</w>
ഹ ാന
സൗഹൃദ ം</w>
സ്‌റ്റ േ
സ്‌നേഹ ിക്കുന്നു</w>
സ്റ്റ ു
സ്മാർ ട്ട്
സ്മാര്‍ ട്ട്‌
സെഞ്ച ുറ
സെ പ്‌റ്റ
സെ ഞ്ച്
സൂചിപ്പ ിക്കുന്നത്</w>
സീറ്റ ാണ്</w>
സി ലും</w>
സി ലാണ്</w>
സി റ്റ
സാധ്യ മായ</w>
സാധ ിച്ചിരുന്നില്ല</w>
സാധ നങ്ങൾ</w>
സാങ്കേതിക വിദ്യ</w>
സാ പ്പ്</w>
സര്‍ക്കാരി നെതിരെ</w>
സര്‍ക്കാ രാണ്</w>
സര്‍ വ
സമ്പ ദ്
സമൃദ്ധ മായ</w>
സമയ മാണ്</w>
സമ ഗ്ര
സഭാ പ്രസംഗി</w>
സന്തോഷ വും</w>
സത്യ ത്തിന്‍റെ</w>
സജ്ജ മാ
സങ്കീർത്തന ക്കാര
സംസാ ര
സംവിധാന ങ്ങള്‍</w>
സംരക്ഷ ണ</w>
സംഭവിച്ച ിട്ടുണ്ട്</w>
സംഭവ ത്തിന്റെ</w>
ഷെ ട്ടി</w>
ഷാ ഹി
ഷ ുറ
ഷ ു
ശ്രദ്ധ യോടെ</w>
ശ് വസ
ശേഷ ിയുള്ള</w>
ശേഷ മുള്ള</w>
ശീ ത
ശാസ്ത്ര ീയ</w>
ശര ത്</w>
ശബരി മല</w>
വ്യോ മ
വ്യക്തമാ ക്കിയിട്ടില്ല</w>
വ് വം</w>
വോ ളം</w>
വൈറ്റ മിന്‍</w>
വൈ രാഗ
വേദ നിപ്പ
വേത നം</w>
വേ രിയ
വേ ര
വേ നൽ
വെള്ള ിയും</w>
വെളു ത്ത</w>
വെളിച്ച െണ്ണ</w>
വെടിയ േറ്റു</w>
വെടി വെച്ചു</w>
വു മോ</w>
വീണ്ട െടു
വീട ുകളുടെ</w>
വീ ക്ഷണ
വിഷയ ങ്ങൾ</w>
വിഷ മിക്ക
വിവേ ച
വിവാ ദ</w>
വില്ല േജ്</w>
വിമര്‍ശ ന
വിഭവ ങ്ങൾ</w>
വിദ്യാർത്ഥ ികൾ</w>
വിദ്യാര്‍ഥ ി</w>
വിദ് വേഷ
വിട്ട ിട്ടില്ല</w>
വിട ുന്നു</w>
വിജയ മാണ്</w>
വിജ യ</w>
വി സ
വി നെതിരെ</w>
വി ച്ച്</w>
വാ ട്
വസ്തു ക്കള്‍</w>
വഴ ിയും</w>
വഴ ങ്ങ
വര്‍ ഗ്ഗ
വരു ത്തും</w>
വരി ലും</w>
വര ട്ടെ</w>
വന്നാ ൽ</w>
വന്ന പ്പോൾ</w>
വധ ശ്രമ
വ ൾ</w>
വ ള്ള
വ ല</w>
വ യും</w>
വ ട്ടം</w>
ഴ ല
ള്‍ ഡര്‍</w>
ള്ള ൂ</w>
ളി ൽനിന്ന്</w>
ള ായി</w>
ല്ല െന്നു</w>
ല് യാ
ലൂ ക്കൊസ്‌</w>
ലു മായി</w>
ലിറ്റ റിന്</w>
ലിയ ോ
ലാ ലു</w>
ലഭ്യ മായ</w>
ലഭ ിക്കുന്ന
ല ിലേക്ക്</w>
റ്റ്‌ ലി</w>
റ്റ ിലും</w>
റെക്കോ ര്‍ഡ്</w>
റു ണ്ടാ
റിയാ മോ</w>
റിയാ ന്‍</w>
റിയ ോ</w>
റിമാ ന്‍ഡ്</w>
റി നും</w>
റി ക്ടര്‍</w>
റഫ ാല്‍</w>
റ േറ്റ്</w>
റ ിയുടെ</w>
റ വ
രോഗ ങ്ങൾ</w>
രൂപ ീകരണ
രാജ്യ സഭയില്‍</w>
രാജ്യ സഭ
രജി സ്‌ട്ര
രക്ഷാ പ്രവര്‍ത്തന
രക്ഷ ാ</w>
ര ൺ
ര വിശ
ര ജ്
യോഗ ങ്ങളിൽ</w>
യേ ക്കും</w>
യില ോ</w>
യില ുമാണ്</w>
യില ുണ്ട്</w>
യിരിക്ക െ</w>
യി ല്ലാതെ</w>
യാദ വും</w>
യഹോവയ ോട്‌</w>
യഥാ ര്‍ത്ഥ
യ ജ
യ ച്ചു</w>
മ്മ േ</w>
മൈ സൂ
മേ ള
മെ ന്ത
മൃതദേഹ ങ്ങൾ</w>
മൂല മാണ്</w>
മുൻ ഗണ
മുളകു പൊടി</w>
മുമ്പി ല്‍</w>
മുമ്പ േ</w>
മുമ്പ ുള്ള</w>
മുന്നറിയി പ്പ
മുന്ന ൊരുക്ക
മുന്ന േറ
മുന്തി രി
മുദ്രാ വാക്യം</w>
മുഖ ത്ത്</w>
മു നി
മു ക്തി</w>
മിണ്ടി യില്ല</w>
മിക്ക വരും</w>
മാർ ഗ്ഗ
മാറ്റ മുണ്ടാ
മാറ ുകയാണ്</w>
മായ തോടെ</w>
മാനേ ജ്‌
മാണ ോ</w>
മാണ ല്ലോ</w>
മാക്കി യാണ്</w>
മാ വ്</w>
മാ പ്പു
മാ ക്കാന്‍</w>
മഹത് ത്വ
മസാ ല</w>
മലയാള ി</w>
മലയാള ത്തിലും</w>
മറ്റുള്ള വരുമായി</w>
മറി ഞ്ഞു</w>
മറാ ത്തി</w>
മരുന്ന ുകൾ</w>
മയക്കു മരുന്ന്</w>
മന്ത്രി സഭ</w>
മനോഹ രമായ</w>
മനുഷ്യാ വകാശ</w>
മനസ്സിലാ യി</w>
മനസ്സി നെ</w>
മനസ്സ ു</w>
മണ്ണി ടിച്ച
മണ ിക്ക
മ െടുത്തു</w>
മ ുകളില
മ ില
മ സൂ
മ വും</w>
മ ല്ലാ
മ യെ</w>
മ ണി
മ കന
ഭർത്താ ക്ക
ഭൗ തിക</w>
ഭീഷണി പ്പെടുത്തി</w>
ഭാഷ ാ</w>
ഭ രിക്ക
ബൗ ളി
ബ്ല ൂ</w>
ബോംബ ്</w>
ബേ ക്കിംഗ്</w>
ബിജെപ ിക്ക
ബിഎസ് പി</w>
ബാ ക്ടീ
ബന്ധ ത്തിൽ</w>
ബ സും</w>
ഫോ റ
ഫെ ബ്രു
ഫീ ല്‍
പ്ലാ ന്‍</w>
പ്രോത്സാഹ നം</w>
പ്രൊ ഫ
പ്രീ മിയ
പ്രമേ യ
പ്രത്യേക തകൾ</w>
പ്രതിഭാ സ
പ്രതി യായ</w>
പ്രതി ക്കെതിരെ</w>
പ്രഖ്യാപ ിച്ചിരുന്നു</w>
പ്ര െ
പ്ര സ്ഥാന
പ്പ് ​</w>
പ്പോഴ ാണ്</w>
പ്പെടുത്ത ുന്ന
പ്പു ചെയ്യുക</w>
പ്പാ ടി
പ്പ ില
പ്പ ള്ളി</w>
പോ ര്‍ട്ട
പോ ര
പൊ തി
പൊ ട്ടാസ്യം</w>
പൈ തൃ
പേ രു</w>
പേ ടിയ
പുൽ വാ
പുറത്തിറ ങ്ങും</w>
പുത്ത ൻ</w>
പുണ ്യ
പു ട്ട്</w>
പിറ്റേ ന്ന്</w>
പിന്തുട ര
പി ള്ള</w>
പി ന്തി
പാത ക</w>
പാക്കേ ജ്</w>
പാ സ്‌
പശ്ചാ ത്ത
പറ്റ ുമോ</w>
പറയ ുന്നതു</w>
പര്‍ വ്വ
പരീക്ഷ ണ
പരിശോധ ിച്ച
പരിശോധ നാ</w>
പരിശുദ്ധാത്മാ വ്‌</w>
പരിപാടി യിൽ</w>
പരിക്കേ ൽ
പരിക്ക ുണ്ട്</w>
പരി പ്പ്</w>
പരാജയ പ്പെട്ട
പദ്ധ തിക
പതി വ്</w>
പഠ ിക്കുകയും</w>
പങ്കെടു ത്തിരുന്നു</w>
പങ്കെടു ക്കാൻ</w>
പങ്ക ി
പ ​
പ െയ്യ
പ ും</w>
പ വർ</w>
പ ള്ളി</w>
പ റ</w>
പ ദ്
നൽ കേണ്ട
ന്‍റ െയോ</w>
ന്‍ റെ
ന്റ് ‌
ന്ന ോ</w>
നേരി ട്ട</w>
നേര ുന്നു</w>
നേട്ട ങ്ങള്‍</w>
നേടി യിട്ടുണ്ട്</w>
നേട ുകയും</w>
നൂറുകണ ക്കിനു</w>
നീ ര്</w>
നിസാ ര</w>
നിശ് വസ്‌
നിശ മന
നിലപാട ാണ്</w>
നില നിര്‍
നിറ യെ</w>
നിറ ത്തിലുള്ള</w>
നിര്‍മ് മാണ
നിര്‍മ ല</w>
നിര ത്തിലി
നിയമ ങ്ങള്‍</w>
നിയന്ത്ര ിക്കാന്‍</w>
നിന്ന ത്</w>
നിങ്ങള ോടു</w>
നി ര്
നി ബന്ധ
നാലു പേരെ</w>
നാ യിട്ടില്ല</w>
നാ യാണ്</w>
നഷ്ട മാണ്</w>
നഷ്ട പ്പെട്ട</w>
നല്‍ക ുന്നുണ്ട്</w>
നരേന്ദ്ര മോദിയെ</w>
നടത്തി യിട്ടില്ല</w>
നഗ ർ</w>
ന ോട്‌</w>
ന ല്‍</w>
ന യാണ്</w>
ധ്യാ നിക്ക
ധി ക</w>
ദ് യാ
ദൈവ ത്തിൽ</w>
ദിവസ ങ്ങളായി</w>
ദില്ലി യിലെ</w>
ദി നാ
ദാമ്പ ത്യ
ദാ രി
ത്രി ല്ല
ത്രി പുര
ത്ര യും</w>
ത്യാ ഗ
ത്തിന ുള്ളിൽ</w>
ത്തി ര
ത്തി നിര
ത്തി നടി
ത്ത െയാണ്</w>
ത്ത തായി</w>
ത് ത്
തോ ന്നും</w>
തെ ന്ന</w>
തൂ ക്ക
തുറ ന്ന</w>
തുടര്‍ ന്ന
തുടരു മെന്ന്</w>
തുടങ്ങിയ വർ</w>
തുടങ്ങി യിരുന്നു</w>
തുടങ്ങ ുന്നത്</w>
തുടക്ക മായി</w>
തു ര
തു തന്നെ</w>
തു ണ
തീരുമാന ത്തെ</w>
തീ പിടിത്ത
തിരിച്ച ുവ
തിരിച്ച ും</w>
തി ന്നും</w>
താഴ്‌ മ</w>
താമസ ിച്ചിരുന്നത്</w>
താക്ക റെ</w>
താ ള
താ ല്
താ ര്യ
തസ് തിക
തല യ്ക്ക്</w>
തര ത്തില്‍</w>
തര ത്തിലും</w>
തയ ുണ്ട്</w>
തന്നെ യാ
തത്ത്വ ങ്ങൾ</w>
തട്ടി പ്പ്</w>
ണ് യ</w>
ണ െ
ണ മെന്ന</w>
ഡൗ ണ്‍ലോഡ്</w>
ഡോക്ട റെ</w>
ഡോക്ട റുടെ</w>
ഡയറക്ട ർ</w>
ഡ ്യ
ഡ ൈ
ഡ ന്‍</w>
ഡ ംബ
ട്രെയി നുകള്‍</w>
ട്ര ക്ക്</w>
ട് ര</w>
ടെ ക്</w>
ടീമ ുകള്‍</w>
ടീമ ുകളും</w>
ടീ മുക
ടാ ബ
ടങ്ങ ുന്ന</w>
ട ുന്നു</w>
ഞ്ഞ ിരുന്നു</w>
ഞ്ജ ലി</w>
ഞ് ഞ്
ജോല ികള്‍</w>
ജില്ല കളിൽ</w>
ജി ങ്</w>
ജി എസ്ട
ജന് മം</w>
ജനാധിപത്യ ത്തിന്റെ</w>
ജന ക
ജഡ് ജി</w>
ജ ീ</w>
ജ ലാ
ജ നിച്ചത്</w>
ചേരുവ കളും</w>
ചേ രു
ചെറു പ്പം</w>
ചെയ്‌ തി</w>
ചെയ്യു വാന്‍</w>
ചെന്നൈ യില്‍</w>
ചൂണ്ടിക്കാ ട്ട
ചൂ ടുള്ള</w>
ചുവ ടു
ചീ ര</w>
ചിത്ര ീകരിച്ച
ചിത്ര ീകരിക്ക
ചിത്ര മായ</w>
ചിത്ര മാണിത്</w>
ചികിത്സ യില്‍</w>
ചികി ൽ
ചി രി</w>
ചരിത്ര ത്തിൽ</w>
ങ്ങി പ്പോ
ങ്ങളി ൽനിന്ന്</w>
ങ്ങളാ യിരുന്നു</w>
ങ്ങള ൊന്നുമില്ല</w>
ങ്ങ ള്
ങ് കു
ഘ ടന
ഗൗ രി</w>
ഗ ോഗ
കൗ തുക
ക്രിസ് ത്യ
ക്കുന്നതി ന്‌</w>
ക്കു റ്റം</w>
ക്കു മായിരുന്നു</w>
ക്കാ റുണ്ട്</w>
ക്കാ ര്‍ക്കും</w>
ക്കാ തിരിക്ക
ക്ക ൊ</w>
ക്ക ിലും</w>
ക്ക ള്‍ക്കും</w>
ക്ക ല്ല
കോട്ട യം</w>
കോടിയ ോളം</w>
കോ പ
കൊഴു പ്പ്</w>
കൊല പാതക</w>
കേന്ദ്ര സർക്കാർ</w>
കേന്ദ്ര സര്‍ക്കാര്‍</w>
കെട്ട ുക
കെ പിസിസി</w>
കൂട ും</w>
കുറ്റ ക്കാര
കുറ േ
കുറ ിച്ചും</w>
കുറ യ്ക്കും</w>
കുമാ റിന്റെ</w>
കുമാ റിനെ</w>
കുതിച്ചു യ
കുട്ടിക ൾക്കും</w>
കുട ിയ
കു മെന്നു</w>
കാല ത്തും</w>
കാര്യ ങ്ങളെ</w>
കാണ ു
കാണ ിക്കുന്നു</w>
കാണ പ്പെടുന്നു</w>
കാ മറ
കാ പ്പി</w>
കാ ട
കശ്മീരി ന്</w>
കഴിയു മോ</w>
കഴിയ ുക</w>
കഴി വുകൾ</w>
കഴ ിക്കാന്‍</w>
കള ുടെയും</w>
കറിവേ പ്പില</w>
കമ്പനി യായ</w>
കണ്ണ ു
കണ്ടെത്താനാ യില്ല</w>
കണക്കില െടുത്ത്</w>
കടപുഴ കി</w>
കക്ഷ ികള്‍</w>
ക ർക്ക്</w>
ക ുന്നത്‌</w>
ക ിയ
ക ിട്ടില്ല</w>
ക രിയ
ക ര</w>
ഔഷ ധ
ഓസ്‌ട്രേലിയ ന്‍</w>
ഓഫീ സിൽ</w>
ഓട്ടോറി ക്ഷ
ഓ യില്‍</w>
ഒരിക്ക ല്‍</w>
ഐ ഡിയ</w>
ഐ എസ്
ഏഴ ാം</w>
ഏറ്റുമുട്ട ല്‍</w>
ഏറ്റ െടുത്തു</w>
ഏ ഷ്യ</w>
എസ് ​</w>
എസ് ബിഐ</w>
എമ്മ ും</w>
എന്ന ൊരു</w>
എന്ന ൊന്നും</w>
എന്ന െയും</w>
എന്ന ാ</w>
എന്ത െല്ലാ
എന്ത ുകൊണ്ട
എന്ത ുകൊ
എനിക്ക ൊന്നും</w>
എത്തി യിട്ടുണ്ട്</w>
എതിര ല്ല</w>
എച്ച് ഡി</w>
എംഎല്‍എ മാര്‍</w>
എ ട്ടു
ഋ ഷഭ്</w>
ഉൾപ്പെട െയുള്ള</w>
ഉൾ ക്കൊള്ള
ഉൽപ്പന്ന ങ്ങൾ</w>
ഉള്‍ പ്പെടുത്തി
ഉറങ്ങ ാൻ</w>
ഉയ ർന്നു</w>
ഉപേക്ഷ ിച്ച്</w>
ഉപാധ്യ ക്ഷന്‍</w>
ഉപയോഗ ിച്ചു</w>
ഉപയോഗ ിക്കുന്നു</w>
ഉപയോഗ ിക്കുക</w>
ഉണ്ടാ കാം</w>
ഉണ്ട ോ</w>
ഉണ ങ്ങിയ</w>
ഉ വ്
ഉ ള്ളി
ഉ ദയ
ഇൻ സ്റ്റിറ്റ്യൂട്ട്</w>
ഇസ്‌ ലാ
ഇഷ്ട മായിരുന്നു</w>
ഇവിട ത്തെ</w>
ഇവ യെ</w>
ഇവ യിൽ</w>
ഇറ ാൻ</w>
ഇറ ാനി</w>
ഇരു ചക്ര</w>
ഇയാ ള്‍ക്ക്</w>
ഇതിന ോട്</w>
ഇട യ്ക്കിടെ</w>
ഇട പാട
ഇങ്ങ ോട്ട
ഇങ്ങ നെയാണ്</w>
ഇക്കാ ല
ആശ് ചര്യ
ആവശ്യ മാണ്‌</w>
ആവശ്യ ങ്ങൾ</w>
ആള ുകളും</w>
ആരോഗ്യ ത്തിനും</w>
ആരംഭ ിക്കുന്നത്</w>
ആക െയുള്ള</w>
ആ ധിപ
ആ ട്ടി
ആ ക്ര
ആ കട്ടെ</w>
അവി ഭാ
അവന ോടു</w>
അവ ൾക്കു</w>
അവ ശ
അല്ലാ ഹു
അറിയി പ്പ്</w>
അറിയാ ത്ത</w>
അറിയ ുന്ന
അറി ഞ്ഞു</w>
അറ സ്​
അരുണാ ച
അരു ള
അരങ്ങ േറ്റം</w>
അയാ ള്‍ക്ക്</w>
അഭിപ്രായ ങ്ങൾ</w>
അഭി വൃദ്ധ
അഫ്ഗാനി സ്ഥാന്‍</w>
അപ്ലിക്ക േഷൻ</w>
അപ കീ
അന്വേഷണ ത്തില്‍</w>
അന്വേഷ ിച്ചു</w>
അന്വേഷ ിക്കാന്‍</w>
അനുവദ ിച്ച
അനുകൂല മായ</w>
അനു സ</w>
അനു രാഗ്</w>
അന ന്തര
അദ് ഭുത
അത്ഭു തം</w>
അതെ ന്താ</w>
അതു ണ്ടാ
അതിശ യി
അതില ൊന്നും</w>
അതി ലെ</w>
അതി നെക്കുറിച്ച്</w>
അടിയന്തി ര</w>
അടി ത്ത
അട ക്കമുള്ള</w>
അങ്ങ ്</w>
അക്രമ ത്തില്‍</w>
അ സ്വാ
അ ശുദ്ധ
അ നിൽ</w>
അ ഗര്‍
അ ംഗ</w>
t a
n ame</w>
9 4</w>
50 ,000</w>
5 9</w>
2 8
17 ,
10 5</w>
1 3
’ ’</w>
​​ ​
​ ൻ</w>
​ ഗ്ര
ൾ പ്പെടെ</w>
ൻ ഡ്
ൈ റ്റഡ്</w>
ോ ടും</w>
േറ്റി ംഗ്</w>
േണ്ടി വരും</w>
േണ്ട തിന്നു</w>
േ യില്ല</w>
െങ്ക ി
െ യായിരുന്നു</w>
ുന്നതി നെ</w>
ുന്ന ു
ുകാ ണ
ുകള ുമായി</w>
ു മെ
ു ം
ീക ൃത</w>
ില്ല െന്നു</w>
ിയ ർ</w>
ിയ ോട്</w>
ിപ്പ ോ
ിപ്പ ാ
ിക്കേണ്ട തില്ല</w>
ിക്കു വാന്‍</w>
ിക്കു മെന്നാണ്</w>
ിക്കപ്പെട ും</w>
ികള്‍ ക്കെതിരെ</w>
ി ത
ി ട</w>
ഹർ ജ
ഹൈ ക്ക
ഹീ റോ</w>
ഹാര്‍ ദിക്</w>
ഹാ ര്‍</w>
ഹ ിച്ചു</w>
സർക്കാരി നെ</w>
സ്‌ കെയി
സ്​ ഥ
സ്വീകരിച്ച ത്</w>
സ്വപ് ന
സ്വ രാജി
സ്റ്റ ോ
സ്മാ ര്‍ട്ട്</w>
സ്ഥാപന ങ്ങള്‍</w>
സ്ഥല മാണ്</w>
സ്ഥല ങ്ങളില്‍</w>
സ്ത്രീക ൾക്ക്</w>
സ്ത്രീ യുടെ</w>
സ്ത്ര ീയ
സൈന്യ ത്തിന്റെ</w>
സേ ഴ്സ്</w>
സെ റ്റ്</w>
സുരക്ഷി തരാ
സുരക്ഷി ത</w>
സുരക്ഷ യും</w>
സുപ്രീം കോടതിയില്‍</w>
സു ഭാഷ
സു താര്യ
സീറ്റ ുകളിൽ</w>
സീറ്റ ിലും</w>
സീരിയ ല
സീതാരാമ ൻ</w>
സി റിയ
സാഹചര്യ മാണ്</w>
സാധ്യമാ യില്ല</w>
സാധ ിക്കുന്ന</w>
സഹോദര ന്‍</w>
സഹ പാഠ
സമീപ ത്തുള്ള</w>
സന്ദർശ ിച്ചു</w>
സന്ദര്‍ശ ിക്കാന്‍</w>
സന്തോഷ ിപ്പ
സഞ്ച രിച്ച</w>
സജീവ മായി</w>
സച്ചി ൻ</w>
സങ്കീ ർണ
സങ്കീ ര്‍ണ
സങ്ക ീ</w>
സംസ്ഥാന ങ്ങളിലും</w>
സംശയ മില്ല</w>
സംവിധാന വും</w>
സംവിധാന മാണ്</w>
സംഭവ ിക്കാൻ</w>
സംഭവ ിക്കാ
സംഭവ ി</w>
സംഭവ ത്തിനു</w>
സംഘർ ഷം</w>
സംഘടന യായ</w>
സം ഭാവന
സ വും</w>
സ ദാ</w>
സ ദാ
ഷ്യ സ്</w>
ഷെ ഡ്യൂ
ഷി ദ്</w>
ഷണ ൽ</w>
ഷ ോ</w>
ഷ മ
ഷ ന്റെ</w>
ശ്വര ം</w>
ശ്രീ ധ
ശ്രമ ിക്കണം</w>
ശലോമോ ൻ</w>
ശമൂവേ ൽ</w>
വ്യാപക മായ</w>
വ്യവസാ യം</w>
വ്യത്യ സ്‌
വ്യക്ത ത</w>
വ്യ തിയാ
വ് വ</w>
വൈദ്യു ത</w>
വൈകീ ട്ട്</w>
വേഗ ത്തിലാ
വെടിവെ പ്പ്</w>
വെ ബ്‌
വെ ബ്</w>
വു മാ
വീട്ട ിലെ</w>
വിശ്വസ നീയ
വിവര ങ്ങൾക്ക്</w>
വിള ിച്ച്</w>
വിര മിക്ക
വിമര്‍ശ നം</w>
വിഭാഗ ത്തില്‍</w>
വിപണി യിലെ</w>
വിന്യസ ിച്ചിട്ടുണ്ട്</w>
വിധ ിയെ</w>
വിധ ി
വിധ ത്തിലുള്ള</w>
വിദ്യാർഥ ി</w>
വിദ്യാർത്ഥ ികൾക്ക്</w>
വിദ്യാഭ്യാസ വും</w>
വിതരണ വും</w>
വിട ാന്‍</w>
വിജ യിച്ചത്</w>
വി സമ്മതിച്ചു</w>
വി ള്ള
വി പരീ
വി ക</w>
വാർ ഷിക
വാഹനാപകട ത്തില്‍</w>
വാസ്തവ ം</w>
വായി ക്കാം</w>
വായ ന</w>
വാ ല
വാ നില</w>
വാ നി</w>
വാ ത്ത</w>
വാ ക്‌സി
വസ്തു ക്കൾ</w>
വശ ാലും</w>
വഴി യിൽ</w>
വളർത്ത ാൻ</w>
വലു താണ്</w>
വരാ യി</w>
വര ൂ</w>
വര ുകയാണ്</w>
വയ ൽ
വയ ല
വയ റു
വധ ം</w>
വച്ച ിരുന്നു</w>
വ ിക്കുന്നു</w>
വ യുടെ</w>
വ ന്‍റെ</w>
വ ച്ചു
ഴ്‌ സ
ഴു തി</w>
ഴു തി
ഴ ിച്ച്</w>
ളി നെ</w>
ള ിക
ല്‍ നിന്നും</w>
ല്ല ും</w>
ല് യൂ
ലോ ക്കല്‍</w>
ലോ കന
ലേഖ ന</w>
ലഭ്യമാ കും</w>
ലഭിച്ച ിരുന്നു</w>
ല ൈ</w>
ല ുണ്ട്</w>
ല ില
ല ഹരി
ല യ</w>
റ്റ ൽ</w>
റ്റ െ
റ്റ ില
റ്റ ാൻ</w>
റൂ ം</w>
റണ്‍ സായിരുന്നു</w>
റ േ</w>
റ ന്റ
റ ഞ്ഞ</w>
രോഗ ്യ
രുന്ന ാ
രു ണ്ടാ
രി ന്റെ</w>
രാജസ്ഥാ നില്‍</w>
രാജ സ്ഥാൻ</w>
രാ ധാ
രാ ണു</w>
രണ്ടു പേർ</w>
രജിസ്ട്ര േഷൻ</w>
രജനീ കാന്ത്</w>
രക്ഷിതാ ക്കളും</w>
രംഗത്തെ ത്തിയിരുന്നു</w>
രംഗ ത്തെ</w>
ര ോട്‌</w>
ര ത്
യ് ക്ക്‌</w>
യ് ക്കു
യോ ളം</w>
യോ ജി
യെഹൂ ദ
യെ ക്കുറിച്ചുള്ള</w>
യൂണിവേഴ്‌ സിറ്റി
യൂണിയ ൻ</w>
യുണ്ടാ യിരുന്നു</w>
യുണ ൈറ്റഡ്</w>
യു മായും</w>
യു ക്തി
യില്‍ നിന്നു</w>
യിലേ യ്ക്ക്</w>
യിലാ യ</w>
യില ുണ്ടായ</w>
യി ല്ലായിരുന്നു</w>
യാത്രക്കാ രാണ്</w>
യാ ൾ</w>
യാ യിരിക്ക
യ ുന്നത്</w>
യ ര്‍
മ്പ ി</w>
മോഡ ല
മോ ർ
മോ ഷണ
മൊ ഴി
മൊ ത്ത
മെയ ്</w>
മെട്ര ോ</w>
മെച്ച പ്പെടുത്ത
മെഗാപിക്‌സ ല്‍</w>
മെ സേ
മെ ന്‍റ്</w>
മൂ ത്ത</w>
മുല യൂട്ട
മുറി യിൽ</w>
മുറ ികൾ</w>
മുറ ിക്കുക</w>
മുമ്പ െ</w>
മുന്‍ കരുതല
മുഖ ്യാ
മു മ്
മു ന്
മിക്ക വാറും</w>
മിക്ക തും</w>
മി ര്‍
മി ഥ
മാറ്റ ാൻ</w>
മാറ്റ വും</w>
മാറി യിരിക്കുന്നു</w>
മാര്‍ ഗ്ഗ
മാനേ ജ്
മാനു വൽ</w>
മാ വില്ല</w>
മാ രി
മാ കുന്നത്</w>
മാ കുന്ന</w>
മഹാ ത്മാ
മരണ ത്തിൽ</w>
മന്ത്രി സഭയുടെ</w>
മനുഷ്യ നെ</w>
മനസ്സിലാ ക്കുന്നു</w>
മത്സ രിക്കും</w>
മത് സ്യം</w>
മണ്ഡല ത്തിലെ</w>
മജി സ്ട്ര
മക്കള ുണ്ട്</w>
മംഗളൂ രു
മ യില്‍</w>
മ നീഷ്</w>
ഭൗ മിക</w>
ഭൂഷ ണ്‍</w>
ഭാഷകളി ലായി</w>
ഭാവി ക</w>
ഭാര തീയ</w>
ഭക്ഷണ ങ്ങൾ</w>
ഭ രി
ബ് ലോക്ക്</w>
ബോധ വും</w>
ബോ ൾ</w>
ബോ സ്</w>
ബെഞ്ച ാണ്</w>
ബെ ന്‍</w>
ബൂ ബ
ബുദ്ധിമുട്ട ുള്ള</w>
ബി ള്‍</w>
ബാദി ന്റെ</w>
ബാഡ്മിന്റ ണ്‍</w>
ബാക്കിയ ുള്ള</w>
ബാ ര്‍</w>
ബാ ക്കി
ബഹു മതി</w>
ബഹിരാ കാശ</w>
ബലാ ല്‍
ബന്ധു ക്കൾ</w>
ബന്ധപ്പെട്ട ിരിക്കുന്നു</w>
ബന്ധ പ്പെട
ബ സ്സി
ഫ്ര ീ
ഫേസ്ബു ക്കില്‍</w>
ഫയ ർഫോ
ഫയ ർ</w>
ഫ ാ</w>
പ്ല സ്</w>
പ്രൊ ഫൈ
പ്രായോഗ ിക
പ്രായ മുള്ള</w>
പ്രായ പൂര്‍ത്തിയാ
പ്രാധാന്യ മുള്ള</w>
പ്രസിദ്ധ ീകരിക്ക
പ്രശ്ന ങ്ങള്‍</w>
പ്രവർത്ത ന</w>
പ്രവേശ ന</w>
പ്രവര്‍ത്ത കര്‍
പ്രഭാ ത
പ്രധാനമന്ത്രി യും</w>
പ്രധാന മാണ്‌</w>
പ്രതികരിക്ക ുന്ന
പ്രതി യുടെ</w>
പ്രതി കളുടെ</w>
പ്രച രണ
പ്രകടി പ്പിച്ചു</w>
പ്ര ഭു
പ്ര ധാ
പ്പി ള്‍</w>
പ്പാട ്‌</w>
പ്പ മാണ്</w>
പ്പ ണി</w>
പ് ത
പോലെ തന്നെ</w>
പോല െയല്ല</w>
പോക ുകയായിരുന്നു</w>
പോക ില്ല</w>
പോ കും</w>
പേര്‍ ക്കാണ്</w>
പേരി ലാണ്</w>
പേര ുടെയും</w>
പേ സ്റ്റ്</w>
പേ ശ
പേ ടിക്ക
പെട്രോ ളി
പെട്ട െന്നു</w>
പെ ട്ട്</w>
പൂ രില്‍</w>
പുറ ത്തേ
പുരസ്‌കാര ങ്ങള്‍</w>
പുനരുത്ഥ ാനം</w>
പുന രാ
പു ഷ്‌
പു ഴു
പിന്ന െയ
പിതാ വിനെ</w>
പിതാ വായ</w>
പിടിയിലാ യി</w>
പിടികൂട ാന്‍</w>
പിടികൂ ടാ
പിടിക ിട്ട
പി ങ്ക്</w>
പി എഫ്</w>
പാ ള
പാ ന്‍</w>
പറ്റി യില്ല</w>
പറ്റ ൂ</w>
പറയാ നുള്ളത്</w>
പറഞ്ഞ തു</w>
പരിഹരിക്ക ാൻ</w>
പരിശ ീ
പരിഗണ ിക്കുക</w>
പരി ഷ
പരി ഭാഷ</w>
പരമോന്ന ത</w>
പട ര്‍
പ െ</w>
പ ത്മ
പ ത്തു
പ ത്</w>
ന്മാര േ</w>
ന്മാ ര്‍ക്കും</w>
ന്നു പോയി</w>
ന്ത്യ ം</w>
നോ ട്ടം</w>
നേരിട ും</w>
നേതാക്കള ായ</w>
നേതാ വാണ്</w>
നേട്ട മുണ്ടാ
നേടി യാണ്</w>
നേ ാ</w>
നേ ഷ്യ
നെഹ്‌ റു</w>
നുബന്ധ ിച്ച്</w>
നു ്</w>
നു വേണ്ടി</w>
നിർ ണാ
നിർ ണ
നിശ്ചി ത</w>
നിര്‍ണാ യക</w>
നിര്‍ വ്വഹ
നിര്‍ ണ
നിയമ പരമായ</w>
നിന്നു മുള്ള</w>
നി സ്
നി ല്ലെന്ന്</w>
നി ങ്ങൾക്കും</w>
നാരായ ണ
നാര ങ്ങ
നായിക യായി</w>
നായക നാ
നാണ ക്കേ
നാഗാ ലാ
നാ യത്</w>
നഷ്ട മായത്</w>
നല്‍ക ുകയും</w>
നയി ക്കും</w>
നമ്മ ളും</w>
നഗര ത്തിലെ</w>
നഗ ര്‍</w>
ന െന്ന്</w>
ന ുകളും</w>
ന സീ
ന ദി
ന ത്തിന്‍റെ</w>
ധ ്
ധ വാന്‍</w>
ദ്ദേ ഹം</w>
ദ്ദ ു</w>
ദൈവ ത്തി
ദേ ഷ്യം</w>
ദു ല്‍
ദിവസ േന</w>
ദിവ ്യ</w>
ദിലീ പ്</w>
ദി ശ
ദി നാശ
ദാ സ്</w>
ദാ യക
ദമ്പതി കൾ</w>
ദ യാ
ത്തേ ക്കും</w>
ത്തിലാ യി</w>
ത്തില ൂടെയാണ്</w>
ത്തില ുമുള്ള</w>
ത്തിനിട യാ
ത്തിനാ യുള്ള</w>
ത്താ ക
ത്ത ുന്നു</w>
തോ തി
തേ ങ്ങ</w>
തെ ന്താണ്</w>
തൃ ശൂ
തൂ ത്തു
തുടര്‍ ന്ന്‌</w>
തുടര ുന്ന
തുടങ്ങിയ വയാണ്</w>
തുടങ്ങി യിട്ടുണ്ട്</w>
തുടങ്ങ ാം</w>
തീര ൂ</w>
തീ പ്പി
തിരഞ്ഞെടു പ്പിന്</w>
തിരഞ്ഞെടു ക്കുകയായിരുന്നു</w>
തി ലും</w>
താണ െന്നു</w>
താക്ക ീ
താ ലൂ
താ യിരിക്കണം</w>
താ കുന്നു</w>
തവണ യും</w>
തള്ള ിക്കളയ
തല വന്‍</w>
തര ണ</w>
തയ്യാറാ കണം</w>
തയ ുള്ള
തമ്മ ില
തമാ ശ
തട ിച്ച
തകര്‍ ന്ന്</w>
തകരാ റി
ത രു
ത ത്‌
ണ്ണാ ടക
ണ്ട െ</w>
ഡ് ജ
ഡോള ര്‍</w>
ഡോക്ട ർ</w>
ഡോ ക്‌ട
ഡല്‍ ഹ
ഡ ൻ</w>
ഡ ോ</w>
ഡ ുകളും</w>
ഡ ാ</w>
ട്രെയി ൻ</w>
ട്രാ ഫിക്</w>
ട്രംപി ന്റെ</w>
ട്ട േ</w>
ടു ത്ത്</w>
ടി യില്‍</w>
ടി ഡി
ടാ പ്പുചെയ്യുക</w>
ടാ തെ</w>
ട ർ
ഞാ നാണ്</w>
ജ്ജ ം</w>
ജോസ ഫ്</w>
ജോലി യാണ്</w>
ജെ ഡിയ
ജീവിത ത്തിലും</w>
ജീവനക്കാ രും</w>
ജി ത്ത്</w>
ജാമ്യ ത്തില്‍</w>
ജാഗ്ര ത
ജയി ലിലാണ്</w>
ജയ ന്തി</w>
ജന വിധി</w>
ജന പ്രതിനിധ
ജ ല</w>
ച്ച േ</w>
ച്ച ാ</w>
ചോദ്യ ത്തിന്</w>
ചോദ ിച്ചത്</w>
ചോദ ി</w>
ചേർ ത്തു</w>
ചേ രും</w>
ചെല വാ
ചെറുക ിട</w>
ചെയ്‌തിരിക്ക ുന്നു</w>
ചെയ്യു മെന്നും</w>
ചെയ്യാ റുണ്ട്</w>
ചെയ്യാ നായി</w>
ചെയ്യ ുകയാണ്</w>
ചെയ്തിര ുന്നത്</w>
ചില വ്</w>
ചിന്തി ച്ചു
ചികിത്സ യിലാ
ചി രിച്ച
ചാമ്പ്യന്‍ ഷിപ്പ
ചാ ര്‍
ചാ യ്‌
ചാ ം
ചാം പ്യ
ചന്ദ്ര ശേഖ
ങ്ങൾ ക്കു
ങ്ങളില െയും</w>
ങ്ങളാ ക്കി</w>
ങ്ങള േ</w>
ങ് ​</w>
ഘട്ട ത്തിൽ</w>
ഗൗരവ മായി</w>
ഗോ ത്ര
ഗവർണ ർ</w>
ഗവേഷ ണം</w>
ഗവ ണ്
ഗതാഗത ക്കുരു
ഗംഭീ ര</w>
ഗംഭീ ര
ഗ െയ്
ഗ ഡ്
ഖ ാ</w>
കൗണ്‍ സില്‍</w>
ക്‌ സ്‌</w>
ക്ഷമ യും</w>
ക്രൂര മായി</w>
ക്രമീകരണ ങ്ങൾ</w>
ക്കേ ണമേ</w>
ക്കെതിര െയുള്ള</w>
ക്കെതിര െയും</w>
ക്കുക യാണ്‌</w>
ക്കാ യിരുന്നു</w>
ക്കാ ത്ത
ക്കണ മെന്ന</w>
ക്ക ൊരു</w>
ക്ക റ
ക്ക പ്പ്</w>
കോൺഗ്ര സി
കോണ്‍ഗ്രസി നും</w>
കോണ്‍ഗ്ര സ്സി
കോടതി യാണ്</w>
കോട ിക്കണ
കോ ലിയുടെ</w>
കോ ട്ട്</w>
കൊട്ടാ ര
കൊ ച്ചി
കൈ യ്യ
കേൾ ക്കാൻ</w>
കോൺഗ്ര സ്​</w>
കോ ള
കേസ ുകളിൽ</w>
കെട്ട ിപ്പ
കെജ് രിവാ
കെ ട്ടു
കൂടുത ലാ
കൂടി യായിരുന്നു</w>
കുറയ് ക്കാന്‍</w>
കുറ െ
കുറ യാ
കുട്ട ിയും</w>
കുട്ട ിക്ക്</w>
കുടുംബ വും</w>
കുട ിയേ
കുട ിക്കാൻ</w>
കു ളി
കീഴട ങ്ങി</w>
കീ പ്പര്‍</w>
കീ ട
കില ോ
കിട്ട ുന്ന
കി ല്ല
കാല ങ്ങളിൽ</w>
കാരണ മെന്നാണ്</w>
കായി ക
കാണ ിച്ചു</w>
കാണ ിക്കുന്നത്</w>
കാ റില്‍</w>
കാ ന്‍സര്‍</w>
കാ ത
കാ ട്ടി</w>
കഷണ ങ്ങൾ</w>
കള െ
കള ിലേക്ക്</w>
കള ികളില്‍</w>
കര്‍ഷ കര്‍ക്ക്</w>
കര്‍ഷ കരുടെ</w>
കര്‍ശ നമായി</w>
കരു ണാ
കരി ങ്ക
കര ൾ</w>
കര സ്ഥ
കമ്പ്യൂട്ട ർ</w>
കഥാപാത്ര ങ്ങളെ</w>
കത്തി നശിച്ചു</w>
കണ്ട ിട്ടുണ്ട്</w>
കണ ക്ഷ
കട ുക്</w>
കട ം</w>
ക വർ
ക മ്പോ
ഔ ദാ
ഓർ ക്കുക</w>
ഒഴിവാ യി</w>
ഒരൊ റ്റ</w>
ഒരു ക്കിയിരിക്കുന്നത്</w>
ഒരു ക്കി
ഒരിട ത്തും</w>
ഒന്നു മല്ല</w>
ഒന്നാമ തായി</w>
ഒ ത്തിരി</w>
ഐ യുടെ</w>
ഐ ടി</w>
ഏറ െയും</w>
ഏ താണ്</w>
എസ് പി</w>
എളുപ്പ ത്തില്‍</w>
എപ്പോഴ ാണ്</w>
എന്നിവിട ങ്ങളിൽ</w>
എന്തി ന്‌</w>
എന് റ
എത്ത ുന്നു</w>
എതി ർപ്പ
എടു ക്കുന്നത്</w>
എടു ക്കും</w>
എങ്ങനെ യാണു</w>
ഉള് ളിൽ</w>
ഉറങ്ങ ാന്‍</w>
ഉയ രുന്നു</w>
ഉപയോഗ ിക്കേണ്ട</w>
ഉപയോഗ ിക്കാൻ</w>
ഉപയോഗ ിക്കാ
ഉണ്ടായിരുന്ന ുള്ളൂ</w>
ഉണ്ടാ വില്ല</w>
ഉണ്ടാ യിരിക്കണം</w>
ഉണ്ടാ യ</w>
ഉണ്ടാ ക്കുക</w>
ഉണ്ടാ കുന്നത്</w>
ഉട ൻതന്നെ</w>
ഉ ല്‍പ്പന്ന
ഉ റ്റ
ഉ റു
ഉ ണ്ണ
ഉ ചി
ഇള വ്</w>
ഇര ുകൂട്ട
ഇയ്യോ ബി
ഇമ് രാൻ</w>
ഇന്‍ ഡോ
ഇന്റ േ
ഇത്തവ ണ
ഇതു സംബന്ധിച്ച്</w>
ഇതു വര
ഇത ോടെ</w>
ഇട ിയുടെ</w>
ഇട യ്‌
ഇട പാടി
ആസ്പത്രി യില്‍</w>
ആശ് വസ
ആശുപത്രി യിലും</w>
ആള ുകള്‍ക്ക്</w>
ആരംഭ ിക്കാൻ</w>
ആയിരിക്ക ാം</w>
ആയിര ം</w>
ആയ തിനാൽ</w>
ആദാ യ</w>
ആദ രിക്ക
ആതിഥ േയ
ആ ള്‍</w>
ആ രു</w>
ആ ഭരണ
ആ ധി
ആ ംഗ്യ
അൽ പ്പം</w>
അശ് വിന്‍</w>
അവസാ നി
അവര ോട്‌</w>
അവധ ിക്കാ
അവ ലോകന
അവ നും</w>
അവ ധി
അവ താര
അല്ല െ</w>
അറി വ
അറസ്റ്റു ചെയ്തു</w>
അര്‍ജു ന്‍</w>
അരുളിച്ച െയ്യ
അയ്യ ോ</w>
അയോധ്യ യില്‍</w>
അയ യ്
അമേ ഠി
അഭ്യൂ ഹ
അഭിപ്രായ പ്പെട്ടു</w>
അബ്രാഹാ മി
അപേക്ഷ ിച്ച്</w>
അന്വേഷണ ത്തിലാണ്</w>
അന്ന ത്തെ</w>
അന് ത്യം</w>
അനുസ രണ
അനുഭവ മായിരുന്നു</w>
അനുകൂല മായി</w>
അനാ വശ്യ
അധ്യക്ഷ നായ</w>
അധിക വും</w>
അധി കാര</w>
അദ്ധ്യ ക്ഷൻ</w>
അദ്ധ്യ ക്ഷന്‍</w>
അദ്ധ ്യാപക
അതിശ യ
അട്ടി മറ
അടുത്ത മാസം</w>
അടച്ച ിട
അംബ ാനി</w>
അംഗീ കാര
അ ​
അ സാധ്യമാണ്</w>
അ രി</w>
അ പ്പോള്‍</w>
അ ത്‌
അ ത്താ
അ ജ്ഞാ
o c
l in
ea d</w>
e ra
9 7</w>
7 6</w>
5 7</w>
5 6</w>
1. 5</w>
0 .
“ യഹോവ</w>
“ അവൻ</w>
ൾ ത്തന്നെ</w>
ൽ ത്തന്നെ</w>
ർട്ട ്
ർ ഥ</w>
ൻ ഷ
് ്</w>
ോഗ ്</w>
ോ ർ
ൊക്ക െയ
ൊ ടി</w>
ൈ സ്</w>
ോഗ ം</w>
ോ ഷ
േഷ ്
േ ദ്
െന്ന ുവ
െന്ന ാൽ</w>
െന്ന തു</w>
െ നിക്ക്</w>
െ ക്കാൾ</w>
ുവ രുത്ത
ുമാ റാ
ുന്ന ത
ുണ്ട െങ്കിലും</w>
ുടേ തായ</w>
ുടെ മേൽ</w>
ുട ു
ുകാ രണം</w>
ുകള ഞ്ഞു</w>
ുക ോ
ുക ിട്ട
ു മായും</w>
ീയ മായി</w>
ിലേ ക്കാണ്</w>
ിരിക്ക ുകയായിരുന്നു</w>
ിരിക്ക യാണ്</w>
ിപ്പ ാന്‍</w>
ിച്ചിട്ട ുള്ളത്</w>
ിച്ചിട്ട ുമില്ല</w>
ിച്ച ായിരുന്നു</w>
ിക്കൊ ന്നു</w>
ിക്കൊ ണ്ടു</w>
ിക്കുന്ന വരാണ്</w>
ിക്കു റ
ിക്കപ്പെട ുന്നത്</w>
ിക്ക ോ
ിക്ക രുത്‌</w>
ിക്ക പ്പെടു
ികള ുടെയും</w>
ാനാ കും</w>
ാ ത്ത</w>
ാ ത്ത
ഹൈക്കോടതി യില്‍</w>
ഹെ ലികോ
ഹെ ഡ്</w>
ഹാ രി
ഹര്‍ജി യില്‍</w>
ഹ ല്‍</w>
ഹ നു
സർവീ സ്</w>
സർ വകലാശാല</w>
സർ ക്ക
സൗകര്യ ങ്ങൾ</w>
സ്‌ഫോട നം</w>
സ്‌ കേ
സ്വീകരിക്ക ുകയും</w>
സ്വീ ക</w>
സ്വര്‍ ണ</w>
സ്വദേശ ിയാണ്</w>
സ്വദേശ ി
സ്ഥിരീകരിച്ച ത്</w>
സ്ഥി രം</w>
സ്ഥി ര</w>
സ്ത്രീക ള്‍
സ് റ്റ്
സ് പിന്ന
സൈന്യ വും</w>
സെ ന്റ്</w>
സൂചിപ്പ ിക്കുന്നു</w>
സൂച നയുണ്ട്</w>
സുരക്ഷി തമായി</w>
സുപ്രീം കോടതിയെ</w>
സുകാ ര
സു സ്ഥിര
സു രേന്ദ്ര
സു നിൽ</w>
സീറ്റ ിൽ</w>
സീ ല
സീ നിയ
സിനിമ കളിൽ</w>
സിദ്ധരാമ യ്യ</w>
സിദ്ധരാമ യ്യ
സിംഗ ും</w>
സി യില്‍</w>
സി നെ
സി ദ്ദു</w>
സി ഡ്‌
സാഹ ച</w>
സാധ്യതയ നുസരിച്ച്</w>
സാധ ിച്ച
സാധ ിക്കുമോ</w>
സാ റ</w>
സാ നിയ</w>
സാ ഗ
സാ ംസ
സഹോദര ങ്ങൾ</w>
സര്‍ക്കാ രും</w>
സമ്മർ ദം</w>
സമ് മാനിക്ക
സമൂഹ മാധ്യമങ്ങളില്‍</w>
സമൂഹ ത്തില്‍</w>
സമൂഹ ത്തിലെ</w>
സമിതി യുടെ</w>
സമര ക്കാരെ</w>
സമ നിലയില്‍</w>
സമ നില</w>
സജ്ജീ കരിച്ച
സകല വും</w>
സംസ്ഥാന ങ്ങളിലാണ്</w>
സംരക്ഷ ിക്കുക</w>
സംഭവിച്ച ിരുന്നു</w>
സംഭവിച്ച ത്‌</w>
സംഭവ മാണ്</w>
സംഭവ ത്തെ
സം വാദ
സ ിക്ക
സ ണ്ണി</w>
ഷൂ ട്ട്</w>
ഷാഹി ദ്</w>
ഷാ വസ്ഥ</w>
ശ്ര േയ
ശ് ശേ
ശോ ഭ
ശേഖ രം</w>
ശാസ് ത്രി
ശാ സ
ശരീര ത്തിൽ</w>
ശങ്ക ർ</w>
ശ ാ</w>
ശ ശി</w>
ശ യ
വർദ്ധ ിപ്പ
വ് വാ
വോട്ട െണ്ണ
വൈറ ലായിരുന്നു</w>
വൈദ ിക
വൈകിട്ട ്</w>
വൈ ഫൈ</w>
വേദ നി
വെള്ള ച്ചാ
വെടി വെയ്
വെ ടു
വു മായുള്ള</w>
വീ തി
വിശ് വസ്
വിവരമറി യിച്ച
വിറ്റ ു
വിര ുന്ന
വിധ ിയില്‍</w>
വിധ ിച്ചു</w>
വിധ ങ്ങളിൽ</w>
വിദ്യാര്‍ഥ ികളെ</w>
വിദഗ്‌ ധ
വിദഗ് ധ</w>
വിഡ് ഢ
വിട ാതെ</w>
വിജയ ൻ</w>
വിചാ രിക്ക
വിക്ക റ്റില്‍</w>
വികസി പ്പിച്ച
വി നെ
വി നയ
വി തരണ</w>
വി ച്ഛേദ
വി ംഗ്</w>
വാസി കൾ</w>
വാങ്ങ ാൻ</w>
വാ സി</w>
വാ സ</w>
വഹ ിക്കുന്നു</w>
വഹ ിക്കും</w>
വഴ ിയോ</w>
വളര െ
വള രുന്ന</w>
വലി പ്പ
വര്‍ഷ വും</w>
വരു മാന</w>
വരാ യിരുന്നു</w>
വയസ്സാ യ
വയ സ്സ്</w>
വട ക്കു</w>
വച്ച ിട്ടുണ്ട്</w>
വച ന
വ ുന്നത്</w>
വ ീ</w>
വ ത്സ
വ ണ
ഴ് ച്ച</w>
ള ുകൾ</w>
ലീ ല</w>
ലി ങ്ക്</w>
ലംഘ ിക്കുന്ന
ല ൗ
ല െയും</w>
റൺ സ
റോഡ ിൽ</w>
റോ യ
റെ ഡി</w>
റൂ ഖ്</w>
റില യ
റിയാ തെ</w>
റി നു</w>
റി ങ്‌</w>
റാ ഫേ
റദ്ദാ ക്കിയ
റ ുള്ളത്</w>
റ ുന്നു</w>
ര് യാദ
രേഖ കളും</w>
രൂപീകരിക്ക ാന്‍</w>
രുന്ന ്</w>
രീതി യിലാണ്</w>
രി ലും</w>
രി പ്പ്</w>
രാജ്യ ങ്ങള്‍</w>
രാജാ വു</w>
രാജ ിക്ക
രാജ ക
രാ സ
രണ്‍ വീര്‍</w>
രണ്ട െണ്ണം</w>
രജ നി
രച ിച്ചിട്ടുണ്ട്</w>
രക്ഷ ിക്കാന്‍</w>
ര ല്ല</w>
യ് ഡ്</w>
യ് ക്കെതിരായ</w>
യോഗ ങ്ങൾ</w>
യോ ഹ</w>
യോ ജ്യ
യേശു ക്രിസ്‌തു</w>
യേ ല്‍</w>
യൂറോപ്യ ന്‍</w>
യുള്ള ു</w>
യുണ്ടാ യ</w>
യു ണ്ടോ</w>
യില ുണ്ടായിരുന്ന</w>
യി ൻ</w>
യാ ലോ</w>
യാ യാണ്</w>
യാ ധിപ
യാ ക്കോ
യാ കട്ടെ</w>
യ ര്‍</w>
മോഹന്‍ ലാല്‍</w>
മോഹന്‍ ലാ
മോദ ിക്കും</w>
മോ ർട്ട
മോ ര്‍ച്ച
മോ ചി
മേ ള</w>
മേ നോ
മേ ധ
മെച്ച പ്പെടും</w>
മെ നു</w>
മൂന്നു പേര്‍</w>
മൂ ത്ര
മൂ ടി
മുൻ കൂട്ട
മുമ്പി ൽ</w>
മുമ്പാ ണ്</w>
മുന്നി ലാണ്</w>
മുന്ന ോട
മുഖ്യാ തിഥ
മുഖ്യ മന്ത്ര
മു ഹമ്മ
മു പ്പ
മീ ൻ</w>
മീ തെ</w>
മീ ഖാ</w>
മി ഷന
മി ല്യ
മി നി</w>
മി ത
മി ടുക്ക
മാർ ച്ച്</w>
മാസ്‌ ക്</w>
മാറ ുന്നു</w>
മാര്‍ ച്ച്</w>
മാര്‍ ക്കും</w>
മാര െയും</w>
മാര ക
മാര ംഭ
മാക്കിയ ുള്ള</w>
മാ സ്
മാ നി
മാ ക്ക
മാ കാം</w>
മഹാരാഷ്ട്ര യിൽ</w>
മസൂ ദ്</w>
മല്‍സര ത്തില്‍</w>
മലിനീ കരണം</w>
മരുന്ന ുകള്‍</w>
മരിക്ക ുകയായിരുന്നു</w>
മരണ വും</w>
മമ്മ ൂ
മന്ത്രി സഭ
മന് ദ
മനുഷ്യ നാണ്</w>
മനസ്സിലാ ക്കണം</w>
മനസി ലായി</w>
മദ്യപ ാനം</w>
മത്സ്യത്തൊഴിലാള ികള്‍</w>
മത്സ്യ ബന്ധ
മത്സര ങ്ങൾ</w>
മത്സര ങ്ങളുടെ</w>
മട ക്കി</w>
മഞ്ഞ ള്‍
മംഗ ലാ
മ ​
മ ുകളിലും</w>
മ ഹി
മ ല്ലാത്ത</w>
മ ല്ലല്ലോ</w>
മ രം</w>
മ നു</w>
മ താ
മ ഗ്
ഭൗ തിക
ഭൂരിപക്ഷ വും</w>
ഭിന്ന ത</w>
ഭാര തി</w>
ഭാഗ്യ വാ
ഭാഗ ങ്ങൾ</w>
ഭരണ ാധി
ഭ യ</w>
ബ്ര ോ
ബ്ര ോ
ബ് യ</w>
ബുദ്ധിമു ട്ട്</w>
ബില്ലി നെ</w>
ബിരു ദാന
ബിജെപി യിൽ</w>
ബാങ്കി ന്റെ</w>
ബാംഗ്ലൂ ര്‍</w>
ബാ ഹു
ബാ ല്യ
ബഹു മാനം</w>
ബന്ധ പ്പെടുക</w>
ബ ൊ
ബ ു</w>
ബ സില്‍</w>
ബ ല്‍</w>
ഫോണി ന്റെ</w>
ഫൈന ലിൽ</w>
ഫോ ൺ</w>
പ്രോ ട്ടീ
പ്രി ന്റ്</w>
പ്രാ വര്‍ത്തി
പ്രസ്താവന യില്‍</w>
പ്രസിഡന് റു
പ്രവർത്തി ച്ച
പ്രവൃത്തി കള
പ്രയാസ മാണ്</w>
പ്രയാ സം</w>
പ്രതിഷേധ ിച്ച്</w>
പ്രതിഭാ സം</w>
പ്രതിഫ ലിപ്പ
പ്രച രണം</w>
പ്രകടമാ ക്കുന്നു</w>
പ്പെടു ത്തു
പ്പെ ാ
പ്പു ്</w>
പ്പിച്ച ിരിക്കുന്നത്</w>
പ്പി നുള്ള</w>
പ്പ ിക്കാൻ</w>
പ് ‌</w>
പോലീസുകാ ര്‍</w>
പോയി ന്
പോ ള
പൊതു വായ</w>
പൊ ളിച്ച
പൊ ടിയും</w>
പോ രാ
പോ കു
പേ രായിരുന്നു</w>
പേ യ്
പെ രുന്നാ
പൃഥ് വി
പൂർണ മായ</w>
പൂർ ത്തി
പുറപ്പെടു വ
പുറത്തുവിട്ട ത്</w>
പുറത്തു വന്നിട്ടില്ല</w>
പുതു ക്കിയ</w>
പു രി</w>
പു ന</w>
പീഡ നത്തി
പീ ര
പിടിച്ച െടുത്തിട്ടുണ്ട്</w>
പിട ിച്ചത്</w>
പി രിയ
പാർല മെന്റ്</w>
പാർട്ടി യിൽ</w>
പാടി ല്ലാത്ത
പാക്കിസ്ഥാ ന്റെ</w>
പാകിസ്താ നില്‍</w>
പാ നില്‍</w>
പശ്ചാത്തല ത്തില്‍</w>
പലി ശ
പറ്റ ിയത്</w>
പറഞ്ഞ ിട്ട
പര്‍വ്വ ത
പരുക്കേ ല്‍ക്കുകയും</w>
പരിശ ോധന
പരി വര്‍ത്ത
പരി ഭവ
പരി ചിന്തിക്കുക</w>
പരി ചിന്തി
പരാതി യിൽ</w>
പബ്ല ിക്</w>
പദ്ധതി യുടെ</w>
പദ്ധതി ക്ക്</w>
പതാ ക</w>
പണിയിട ം</w>
പണി മുട
പഠ ിക്കുക</w>
പഠ ിക്കും</w>
പഠ ിക്കാം</w>
പട്ടേ ൽ</w>
പട്ട ണം</w>
പടിഞ്ഞാറ ന്‍</w>
പങ്കെടു ക്കാന്‍</w>
പങ്കാളി ത്തം</w>
പകുതി യില്‍</w>
പ പ്പാ
പ ക്ക
നൽകി യിട്ടില്ല</w>
നൽക ണം</w>
ന്‍ സും</w>
ന്വേഷ ണം</w>
ന്റേ താണ്</w>
ന്റ ി</w>
ന്യായ മായ</w>
ന്യാ യാധിപ
ന്യാ യം</w>
ന്ദ ർ</w>
ന്ത ും</w>
ന് യു
ന് മേ
ന് ന്
നോ ക്കാം</w>
നേര െയുള്ള</w>
നെഗ റ്റീവ്</w>
നെ റ്റ്
നെ ന്ന</w>
നെ ക്കാൾ</w>
നൃ ത്ത
നീ ഷ്യം</w>
നീ ല
നീ യും</w>
നിർ മാണ</w>
നിർ ഭാഗ്യവശാൽ</w>
നിസ്സാ ര
നിഷ്‌ ഠ
നിശ് ചിത
നില്‍ കുമാര്‍</w>
നിറ ങ്ങളില്‍</w>
നിര്‍ ത്താതെ</w>
നിരോധ നാ
നിര സിച്ചു</w>
നിയ മന
നിമി ത്ത
നിങ്ങള ോട്</w>
നിക്ഷേ പ</w>
നി തി
നി ഘ
നാവി ക</w>
നാലാ മത്തെ</w>
നായി ത്തീ
നായക നായി</w>
നായ ര്‍</w>
നാട്ട ില
നാ മി</w>
നഷ്ട മാ
നശിപ്പ ിച്ചു</w>
നമ്മി ൽ</w>
നമ് പറ
നടപടി യാണ്</w>
നടപട ികളും</w>
ന ൗ
ന െടു
ന ക
ധ്യ ം</w>
ധ നം</w>
ദൗ ര്‍
ദ്രോ ഹ
ദ്ര ോ
ദ്ദേ ശ</w>
ദൈവ രാജ്യം</w>
ദൈവ ത്തിന്നു</w>
ദൈ ർഘ
ദൈ നം
ദേ വി
ദുർ ബല
ദിനേ ശ്</w>
ദാവീദി ന്‍റെ</w>
ദാവീ ദ്</w>
ദാമ്പ ത്യ</w>
ദയ യും</w>
ത്തുട ർ
ത്തിരിക്ക ുന്ന</w>
ത്തിന ുള്ളില്‍</w>
ത്തി ൻ്റെ</w>
ത്താ യിരുന്നു</w>
ത്ത ുന്ന
ത് മാ</w>
തോല്‍ വി
തൊഴിലി ല്ലായ്മ</w>
തൊട്ട ടുത്ത</w>
തോ ടെ</w>
തേ ൻ</w>
തേ നും</w>
തെളി വ്</w>
തെളി വ
തെളി യിച്ച
തെ റ
തെ ന്തി
തെ ങ്കിലും</w>
തുടര്‍ച്ച യായി</w>
തുട രാന്‍</w>
തീരുമാന മായിട്ടില്ല</w>
തീയ ണ
തീപി ടുത്ത
തീ ർന്ന
തിരുവെഴുത്ത ുകളിൽ</w>
തിരിച്ച െത്തി
തിര െയുള്ള</w>
തിയ റ്ററ
തി ല
തി രാ
തി നും</w>
താൽ പര്യ
താര ത്തെ</w>
താ ങ്ങ
തവ ണ്ണം</w>
തള്ള ിയത്</w>
തര ുന്നു</w>
തയ്യാറ ല്ല</w>
തത് ത്വം</w>
തടസ പ്പെട്ടു</w>
തകര്‍ പ്പന്‍</w>
തക ര്‍ച്ച
ത ുള്ള
ത സ്സ
ത പ
ത ന
ത ങ്ങള്‍ക്ക്</w>
ണ്‍ ഗ്ര
ണ്ടു ല്‍ക്ക
ണ് ഠ
ണി ത
ണമെന്ന ായിരുന്നു</w>
ണ െന്നു</w>
ണ ത്തിൽ</w>
ഡേറ്റ ാ</w>
ഡി വൈ
ഡി നേ
ഡ ിലെ</w>
ഡ ാണ്</w>
ഡ ന്റ
ട്രെയില ര്‍</w>
ട്ര ൈ
ട്ര ി</w>
ട്ടിക്കി ൾ</w>
ട്ട ുക</w>
ടൈ പ്പ്</w>
ടെ യായിരുന്നു</w>
ടീമ ുകളാണ്</w>
ടീ സ
ഞ്ഞ ൂ
ഞ്ഞ ി
ഞ്ചി ന്</w>
ഞ്ച ു</w>
ജ് ജ്</w>
ജോലി യില്‍</w>
ജോല ിക്കാ
ജൂ ലൈ</w>
ജിത മാക്കി</w>
ജാദ വ്</w>
ജാഗ രൂ
ജയി ലിൽ</w>
ജന പ്രിയ
ജ യ്‌
ജ ന്റ
ജ ക്ട
ഛ േദ
ചോദ്യ മാണ്</w>
ചോ ദ്യ</w>
ചേർ ന്ന
ചേ തേ
ചെല വേ
ചെല വുകൾ</w>
ചെറു താ
ചെയ്‌ താ
ചെയ്യുന്നതി ൽ</w>
ചെയ്യു മ്പോൾ</w>
ചെയ്യ പ്പെട്ടു</w>
ചെയ്യ പ്പെട്ട
ചെയ്ത തെന്ന്</w>
ചെയര്‍മാ ന്‍</w>
ചെ ട
ചൂടാ ക്കുക</w>
ചു മ</w>
ചില രുടെ</w>
ചിന്തി ക്കാൻ</w>
ചിന്തി ക്കണം</w>
ചിന്ത കൾ</w>
ചികിത് സാ
ചി ത്ത
ച ്</w>
ങ്ങള്‍ ക്കു
ങ്ങളിലാ യാണ്</w>
ങ്ങളാ ണ
ങ്ങള ുണ്ടായിരുന്നു</w>
ങ്ങ നെയാണ്</w>
ങ്ക ു</w>
ങ് ങ്‌</w>
ഗോവ യില്‍</w>
ഗോ ത
ഗൊ ഗോ
ഗൂഢ ാലോച
ഗു ഹ
ഗു ലാം</w>
ഗാന്ധി ജി</w>
ഗവണ്‍ മെന്റിന്റെ</w>
ഗന്ധ ം</w>
ഗ ംഗ
ഖ ുറ
ഖ ലീ
ഖ ണ്ഡി
കൺവെൻ ഷ
ക്ര ി</w>
ക്യാ ന്‍സ
ക്കോ സ്‌</w>
ക്കേണ്ട ത്‌</w>
ക്കേ ണം</w>
ക്കെതിര െയാണ്</w>
ക്കുന്ന തായി</w>
ക്കു മെന്നു</w>
ക്കിയ താണ്</w>
ക്കാല ത്ത്‌</w>
ക്കാ ണ്‌</w>
ക്ക െങ്കിലും</w>
ക്ക ൂടെ</w>
കോഹ് ലി</w>
കോളേജ ില്‍</w>
കോമ ഡി</w>
കോണ്‍ഗ്ര സാണ്</w>
കൊല യാള
കൊറോ ണ
കൊടു ക്കാൻ</w>
കൊ ച്ചു
കേസെടുത്തി രുന്നു</w>
കേസെടു ത്തത്</w>
കേരള ത്തിന്</w>
കേ ജ്‌രിവാ
കൊല്ല പ്പെട്ടു</w>
കൊ ല
കെ ട്ട</w>
കൃ പ
കൂ ര്‍</w>
കുൽ ദീപ്</w>
കുഴ ഞ്ഞു
കുറ്റ പ്പെടുത്തി</w>
കുമാ റും</w>
കുട്ടികള ുണ്ട്</w>
കുടുംബ മാണ്</w>
കുടി വെള്ള
കീഴ ില്‍</w>
കിഴ ക്കൻ</w>
കി ങ്‌
കാല മായി</w>
കാരി യായ</w>
കാന ഡ
കാത്തിരിക്ക ുക</w>
കാണാ നില്ല</w>
കാണ ിച്ച്</w>
കാണ ിക്കുന്ന</w>
കാ റുകള്‍</w>
കാ റുകളും</w>
കസ്റ്റഡിയില െടുത്തത്</w>
കഴിയ ുന്നത്‌</w>
കഴിഞ്ഞ ിരുന്നില്ല</w>
കളി ലാണ്</w>
കളി ച്ച</w>
കള ിക്കാന്‍</w>
കള ായിരുന്നു</w>
കള ഞ്ഞു</w>
കലാ ശാല
കല ാ</w>
കയ് യിൽ</w>
കയ റ്റ
കയ റി
കമ ല്‍</w>
കഥാപാത്ര ത്തെ</w>
കത്തി ച്ചു</w>
കണ്ണ ുകള്‍</w>
കണ്ടെത്താനാ യിട്ടില്ല</w>
കണ് ഠ
കഠിനാധ്വാ നം</w>
കഠി നമായി</w>
കട കളും</w>
ക ുകയാണ്</w>
ക ല്‍
ക പൂർ</w>
ക ടി
ക ങ്ക
ഓസ്‌ട്രേലിയ യുടെ</w>
ഓള്‍ റൗണ്ട
ഓപ്പ ണ്‍</w>
ഓ യിൽ</w>
ഓ ക്സി
ഓ ം</w>
ഒഴ ിക്കുക</w>
ഒളി മ്പി
ഒറ്റ ക്ക
ഒരിക്ക ല്‍
ഒന്നാ ം
ഒന്ന ോ</w>
ഒഡീ ഷ</w>
ഒ ൻ
ഒ ടിയ
ഒ ക്ടോ
ഏ ൽ
എഴുതി യിട്ടുണ്ട്</w>
എഴു തുക</w>
എഫ്‌ ഐ
എന്നാ ണോ</w>
എന്ത ുമാ
എന് തായി</w>
എത്ര മാത്രം</w>
എത്ത ുന്നുണ്ട്</w>
എതിര്‍ ത്തു</w>
എണ്ണ ത്തില്‍</w>
എടു ക്കാന്‍</w>
എംഎൽ എ</w>
എ ല്ലി
എ ട
എ എ
ഊര്‍ ജിതമാ
ഉവ് വ്</w>
ഉള്‍പ്പെട െയുള്ള</w>
ഉല്‍ പ്പാദ
ഉരു ള്‍
ഉന്ന യിച്ചത്</w>
ഉദ്യോഗസ്ഥ ര്‍</w>
ഉത്സ വം</w>
ഉത്ത മ
ഉണ്ടാ ക്കി</w>
ഉണ്ട െങ്കിൽ</w>
ഉണ്ട ു</w>
ഉടമ സ്ഥ
ഉ യി
ഉ ഭ
ഉ ന്നാ
ഉ ദ
ഉ ത്സാഹ
ഈ സ്റ്റ്</w>
ഇസ്‌ ലാം</w>
ഇസ്ലാ മാബാദ്</w>
ഇഷാ ന്ത്</w>
ഇറ ച്ചി</w>
ഇരു മ്പ്</w>
ഇന്നി ങ്
ഇന്ന ോ
ഇന്ദിരാ ഗാന്ധി</w>
ഇന്ത്യ ക്കായി</w>
ഇനി പ്പറയുന്ന</w>
ഇതെ ങ്ങനെ</w>
ഇതു തന്നെ</w>
ഇതിനെ തിരെയാണ്</w>
ഇതാ ണോ</w>
ഇത ോടൊപ്പം</w>
ഇടപെ ട്ട്</w>
ഇട ക്കാല</w>
ഇങ്ങനെയ ൊക്കെ</w>
ഇ വരി
ഇ ളം</w>
ഇ ന്‍റ
ഇ ട്ട്</w>
ആസാ ദ്</w>
ആശയക്കുഴ പ്പ
ആശയ ങ്ങൾ</w>
ആവേശ ം</w>
ആരംഭ ിക്കുന്നതിന്</w>
ആയുധ ങ്ങളും</w>
ആമ സോ
ആധി കാരിക
ആധാ ര്‍</w>
ആദ്യ കാല</w>
ആദിത്യ നാഥ
ആത്മഹത്യ ക്ക്</w>
ആത്മഹ ത്യാ
ആ ഴ്‌ച
അസുഖ ം</w>
അവസ്ഥ യിലായിരുന്നു</w>
അവര ോടു</w>
അവകാശ വാദം</w>
അവ ശ്യ
അള വിൽ</w>
അല്ലാ ഹു</w>
അറേ ബ്യ</w>
അറിയാ വുന്ന</w>
അറി വ്‌</w>
അറസ്റ്റിലാ യിട്ടുണ്ട്</w>
അരി ഞ്ഞ
അയാ ൾക്ക്</w>
അമ്മ യെയും</w>
അമി തമായി</w>
അഭ്യ ർഥ
അഭിനയി ക്കുന്നത്</w>
അഭയാ ർഥ
അഫ്ഗാനി സ്ഥാൻ</w>
അപല പ
അനു ഷ്ഠ
അനു യോജ്യ
അനാവ ശ്യ</w>
അതു ല്യ
അതില ൂടെ</w>
അതിന ോട്</w>
അടു പ്പം</w>
അടിയന്തരാ വസ്ഥ</w>
അടിയ ന്തിര
അടിക്കു റി
അട ച്ചു
അഞ്ച ാ
അങ്ങനെയ െങ്കിൽ</w>
അഖ ില
അക ത്തേക്ക്</w>
അക ത്തു</w>
അംബ േദ്
അ ഹ്മ
അ സാധാരണ</w>
അ സാ
അ വിടുത്തെ</w>
അ മൂല്യ
അ പൂർണ
അ ജ്ഞ
അ ങ്കി
ംഗ് സ്</w>
ം ചെയ്തു</w>
ം കൊണ്ട്</w>
s h
9 :
8 6</w>
8 5</w>
7 50</w>
7 00</w>
6 9</w>
6 3</w>
6 1</w>
50 0
4 ,000</w>
200 9</w>
20 12</w>
10 4</w>
10 0
10 ,000</w>
10 ,
1 30</w>
1 12</w>
/ 1</w>
… …</w>
“ ഈ</w>
‘ ഞാന്‍</w>
​​ െൻറ</w>
ൾ ക്കു
ൽ നിന്ന
ർ ഡ്‌</w>
ർ ക്കുള്ള</w>
ർ ക്കു
ോദ ാ
ോട ി
ോ യ്</w>
ോ പ
ോട ുകൂടെ</w>
ോ ട്</w>
ോ ടു
േഷ നുകൾ</w>
േ ഷ</w>
േ ല്‍</w>
േ ജ
െങ്ക ി</w>
െ ട
െ ച്ച
ൃത മായി</w>
ൂ ണ
ുന്നതി നാല്‍</w>
ുന്ന ുണ്ടായിരുന്നു</w>
ുന്ന തെന്ന്</w>
ുട െയോ</w>
ുകൊണ്ട ു
ുകൊ ണ്ട
ുകൂ ടി
ുകാ ര്‍</w>
ുകയാ യിരുന്ന</w>
ു ”</w>
ു മെല്ലാം</w>
ിലേ ക്ക്‌</w>
ില േറ്റ
ില െയാ
ിരിക്ക ാം</w>
ിയ ുള്ള
ിപ്പ േ
ിച്ചിട്ട ുണ്ടോ</w>
ിച്ച പ്പോൾ</w>
ിച്ച തായി</w>
ിക്കേണ്ട താണ്</w>
ിക്കുന്ന ുണ്ടോ</w>
ിക്കുന്ന വരുടെ</w>
ിക്കുന്ന വന്‍</w>
ിക്കു വാൻ</w>
ിക്കി ടെ</w>
ിക്കാ റുണ്ടോ</w>
ിക്കര ഞ്ഞു</w>
ിക്ക ൊ
ാ രണ
ാ ന</w>
ാ ണെന്ന്</w>
ഹൈദരാ ബാദി
ഹൃദയ ത്തിൽ</w>
ഹി റ്റാ
ഹാ രി</w>
സൽ മാൻ</w>
സർട്ടിഫിക്ക റ്റ്</w>
സൗ ത്ത്</w>
സ്‌റ്റ േറ്റ്</w>
സ്‌ഫോട ന
സ്‌കൂള ിലെ</w>
സ്​ റ്റ
സ്വീകരിച്ച ില്ല</w>
സ്വീകരിക്ക ാന്‍</w>
സ്വാതന്ത് ര്യ</w>
സ്വാഗ താ
സ്വാ ർഥ
സ്വ വർഗ
സ്വ ല
സ്വ രാജ
സ്വ മേധ
സ്റ്റോ ള്‍</w>
സ്റ്റേഷ ന
സ്ര ോ
സ്മി ത്ത്</w>
സ്ഫോട നം</w>
സ്ഥിതി യാണ്</w>
സ്ഥിതി ചെയ്യുന്നത്</w>
സ്ഥാന ത്തുനിന്ന്</w>
സ്ഥ ാ</w>
സ്ട്ര ോ
സ് ‍
സ് ഫറ
സ് കൂട്ട
സോഫ് റ്റ്‌
സോ ഫ്റ്റ്</w>
സെൻ ട്ര
സെൻട്ര ൽ</w>
സെക്ക ന്‍ഡ
സെ ല
സെ പ്റ്റ
സൃഷ്ട ിക്കുക</w>
സൃഷ്ട ിക്കും</w>
സൂപ്പ ർ
സൂക്ഷ് മ
സുഹൃ ത്ത്</w>
സുബ്രഹ്മണ്യ ന്‍</w>
സുപ്രീം കോടതിയുടെ</w>
സുപ്രി ം
സുന്ദ രി
സുന്ദ രമായ</w>
സു നാമി</w>
സീറ്റ ുകളും</w>
സീതാ റാം</w>
സിപി എമ്മി
സിനിമ യെ</w>
സിനിമ യിലും</w>
സി ലേക്ക്</w>
സി പി</w>
സി ഖ്</w>
സാ ല്‍
സാ ല
സഹോദര ന്‍റെ</w>
സഹായ ത്തോടെ</w>
സര്‍ വേ</w>
സമർ പ്പിച്ച</w>
സമ്മര്‍ ദം</w>
സമ്പദ്‌ വ്യവസ്ഥ
സമൂഹ ത്തിൽ</w>
സമു ച്ച
സന്നിഹിത രായിരുന്നു</w>
സന്ദർഭ ങ്ങളിൽ</w>
സന്ദര്‍ശ ിച്ചു</w>
സന്ദ ീ
സത്യാ വസ്ഥ</w>
സഞ്ച രിച്ച
സഞ്ച രിക്ക
സജീവ മാണ്</w>
സങ്കീർണ്ണ മായ</w>
സംസാരിക്ക ുന്നത്</w>
സംഭവ ിക്കാന്‍</w>
സംതൃപ് തി</w>
സംഘടി പ്പിച്ചു</w>
സംഘടന കളും</w>
സം വദ
സ ുകളും</w>
സ ിക്കി
സ യ്
സ ത്‌
സ ഞ്
ഷ്‌ ഠ
ഷാ രൂ
ഷാ ദ്</w>
ഷ വോ
ഷ യെ</w>
ഷ ന്</w>
ശർ മ്മ</w>
ശ്രീനഗ ർ</w>
ശ്രമ ിക്കുകയാണ്</w>
ശ്രമ വും</w>
ശ്രദ്ധ യില്‍
ശ് വർ</w>
ശുശ്രൂഷ യിൽ</w>
ശു ഭാ
ശു പാർ
ശുപാർ ശ</w>
ശു പാ
ശുപാ ർശ
ശി ശു</w>
ശാസ്‌ത്ര ജ്ഞ
ശാ സ്‌
ശാ ക്
ശബ് ദ</w>
ശബരിമല യില്‍</w>
ശ ോധ
ശ ിക
ശ ങ്ങൾ</w>
ശ ക്
വർഷ വും</w>
വ്യത്യാസ മുണ്ട്</w>
വ്യത്യാ സമില്ല</w>
വ്യക്തി ത്വ
വ്യക്ത ം</w>
വൈദ്യ സഹായം</w>
വൈക ിയ
വൈ കാരിക</w>
വേഷ ത്തിലാണ്</w>
വേണ്ട േ</w>
വേണ മെങ്കിൽ</w>
വേഗ ത
വേ ലി</w>
വേ യില്‍</w>
വെള്ള ത്തിനടി
വെല്ലുവിള ികള്‍</w>
വെട്ട ിക്കുറ
വെടിയു തി
വെ ളി</w>
വെ ളള
വെ ക്കുകയും</w>
വൃത്തി യായി</w>
വൃത്ത ങ്ങള്‍</w>
വു മെന്ന്</w>
വീട്ടില െത്തി
വീട്ട മ്മ
വീട ും</w>
വീക്ഷാഗോ പുര
വീ ഴും</w>
വീ ടു</w>
വിഷയ മല്ല</w>
വിഷയ ങ്ങള്‍</w>
വിശ കല
വിവേ ചനം</w>
വിവാഹിത രായി</w>
വിവാഹ മോച
വിവര വും</w>
വിവര ണങ്ങൾ</w>
വിവര ങ്ങളൊന്നും</w>
വിവ ര</w>
വില ൂടെ</w>
വില ുള്ള</w>
വില യിൽ</w>
വിഭാഗ ങ്ങൾ</w>
വിഭ വ</w>
വിപുല മായ</w>
വിനോദ ്</w>
വിധ ിച്ചത്</w>
വിദ്യാര്‍ഥ ികള്‍ക്ക്</w>
വിട െയും</w>
വിജയി ക്കാനാ
വിജയ മായിരുന്നു</w>
വി ൻ
വി വാദം</w>
വി ദൂര
വി ഡിയോ</w>
വി ഡിയോ
വി ക്രം</w>
വി കാരം</w>
വാഹന ങ്ങളാണ്</w>
വായി ക്കാൻ</w>
വാച കം</w>
വാ രി</w>
വാ രണാ
വാ ര
വാ ട
വസ രം</w>
വഴിയ ൊരു
വഴ ികള
വളര്‍ ന്ന
വള ർന്നു</w>
വള ർത്തി</w>
വള ർ
വള രാൻ</w>
വലു പ്പ
വര്‍ധ ിപ്പിച്ചു</w>
വര്‍ദ്ധ ന
വരു മ്പോൾ</w>
വരു ത്തുക</w>
വരു ത്താൻ</w>
വയസ്സാ യിരുന്നു</w>
വയറു വേദന</w>
വയറി ള
വധ ിപ്പേ
വട ക്കന്‍</w>
വകുപ്പ ുകള്‍</w>
വകാശ ം</w>
വ ുകയായിരുന്നു</w>
വ ല്ലാത്ത
വ രിച്ചു</w>
വ ന്ദ
ഴ ു</w>
ളു രു</w>
ളു മായി</w>
ല്ല െങ്കിൽ</w>
ലോഗ ിന്‍</w>
ലോക്‌ സഭ
ലോക ത്തിന്റെ</w>
ലേ ാ</w>
ലി യിലെ</w>
ലാ ണു</w>
ലഭ്യമാ ക്കുക</w>
ലഭിച്ച ിരിക്കുന്നത്</w>
ലഭിച്ച ത്‌</w>
ല ഹരി</w>
റ്റി ങ്</w>
റ്റ ൻ</w>
റ്റ ന്‍</w>
റോമ ൻ</w>
റോഡ ുകള്‍</w>
റോ യ്</w>
റിയ താണ്</w>
റിപ്പോര്‍ ട്ടുണ്ട്</w>
റിട്ട േ
റി സ്</w>
റി സോ
റി യിൽ</w>
റി പോര്‍ട്ട്</w>
റാ വു
റണ്‍സ െടുത്തു</w>
റ ൗ
റ മ
റ ങ്ങി
രോഗ ികളുടെ</w>
രോഗ മാണ്</w>
രോഗ ബാധിത
രോഗ ങ്ങൾ</w>
രേഖ പ്പെടുത്ത
രൂപ ം
രു മാണ്</w>
രാജ്യ ഹാ
രാജ ാ</w>
രാജ മൗ
രാ ള്‍</w>
രാ നും</w>
രഹ ാനെ</w>
രവിശ ങ്കര്‍</w>
രണ്ട ോ</w>
രക്ഷ പെട്ടു</w>
ര ​
ര ോടും</w>
ര മ
ര ത്‌
യ്‌ സ്</w>
യ് സ്</w>
യ് ക്കെതിരെ</w>
യ് ക്കു്</w>
യോജ ിപ്പിക്കുക</w>
യോജ ന</w>
യോ സേ
യേശു ക്രിസ്‌തു
യേ റെ</w>
യെ ക്കുറിച്ചു</w>
യൂ ട്യൂ
യുവാ ക്കളെ</w>
യു വ</w>
യു റ
യിലാ ക്കി</w>
യില െത്തും</w>
യില ല്ല</w>
യില ധികം</w>
യിട്ട ുണ്ടോ</w>
യിട്ട ില്ലെന്ന്</w>
യാഥാര്‍ത്ഥ ്യം</w>
യാണ െന്ന
യാ വു</w>
യാ ഴ്ച
യാ രം</w>
യാ ഗം</w>
യ ധികം</w>
യ തോടെ</w>
മ്മ ാ</w>
മ്പോ ൾ</w>
മ്പാ ടുമുള്ള</w>
മോർ ട്ടം</w>
മോശ െ</w>
മോദ ിക്കെതിരെ</w>
മോട്ടോ ഴ്സ്</w>
മോ ഷ്ട
മൈക്ര ോ</w>
മേൽവിചാര ക
മോ ദ
മേ ഘാ
മെട്ര ോ</w>
മെ ഹ
മെ യിൽ</w>
മെ ന്‍
മൃഗ ങ്ങൾ</w>
മൂ ന്ന്‌</w>
മുൻ നി</w>
മുസ് ലി
മുള്ള ത്‌</w>
മുറ ികള
മുര ളി</w>
മുഫ് തി</w>
മുണ്ടാ യിട്ടില്ല</w>
മുണ്ടാ യ</w>
മുക ു
മു റ്റ
മു ങ്ങ
മി ല്‍
മി ന്</w>
മി ട്ടു</w>
മാലി ന്യ
മാറ്റ ുകയായിരുന്നു</w>
മാറ്റ ിയത്</w>
മാറ്റ മില്ല</w>
മാര്‍ ന്ന</w>
മായ ല്ല</w>
മായ തിനെ</w>
മായ ങ്ക്</w>
മാന് ദ്യ
മാധ്യമപ്രവര്‍ത്ത കരോട്</w>
മാധ്യമ ങ്ങൾ</w>
മാധ്യമ ങ്ങളിൽ</w>
മാത്ര മെ</w>
മാത്ര മായിരുന്നില്ല</w>
മാണ െന്ന</w>
മാ ര്‍ച്ച
മാ യിരിക്കണം</w>
മാ പ്പു</w>
മാ ത്ത
മാ കുന്ന
മഹ ്
മഹ ാന
മഴ യാണ്</w>
മല േഷ്യ
മറ്റ െല്ലാം</w>
മറുപടിയ ുമായി</w>
മറ ന്നു</w>
മര്‍ദ്ദ നമേ
മരണ ത്തില്‍</w>
മന്ത്രി യുമായ</w>
മന്ത്രി മാരും</w>
മനുഷ്യ രെ</w>
മനുഷ്യ ന്റെ</w>
മനസ്സി ല്‍</w>
മന ി</w>
മധ്യ പ്രദേശിലെ</w>
മധു രവും</w>
മധു രം</w>
മത്സര ങ്ങളിൽ</w>
മത വും</w>
മണ്ഡല ങ്ങളിലേ
മണ ിയ
മംഗളൂ രു</w>
മ ൻ</w>
മ ുകളും</w>
മ ുകളിലേ
മ ല്യ</w>
മ ല്യ
മ ധ്യ</w>
മ ണ്ണ്</w>
ഭർത്താ വ്‌</w>
ഭൂഷ ൺ</w>
ഭീകരാ ക്രമണം</w>
ഭീകര ത
ഭി ത്തി
ഭി ച്ച</w>
ഭാര ത</w>
ഭാഗ ത്ത്‌</w>
ഭാഗ ത്തെ</w>
ഭാഗ ങ്ങളിലും</w>
ഭാ യ്</w>
ഭര്‍ത്താ വിനെ</w>
ഭരണ ത്തില്‍</w>
ഭയ ന്ന്</w>
ഭംഗി യായി</w>
ഭ രിക്കുന്നത്</w>
ഭ ക്തി</w>
ബോളിവുഡ ില്‍</w>
ബോംബ െ</w>
ബുദ്ധിയുപ ദേശ
ബു ധനാ
ബു ദ
ബിഹാ റില്‍</w>
ബിഹാ റിലെ</w>
ബിഹാ ര്‍</w>
ബിജെപ ിക്കാ
ബാറ്റ് സ്മാ
ബാറ്റി ങ്ങി
ബാന ര്‍ജ
ബാധ ിക്കുന്നു</w>
ബാധ കമാണ്</w>
ബാ സ്</w>
ബാ ബു
ബന്ധ മുണ്ട
ബന്ധ ത്തെ</w>
ബന്ധ ങ്ങള്‍</w>
ബദാ ം</w>
ബ ഷീ
ബ ലി</w>
ഫ്‌ ളാ
ഫ്ര െയി
ഫ് രി
ഫോണ ിൽ</w>
ഫോ ട്ട
ഫീ ൽ
ഫിലിപ്പ ിയർ</w>
ഫി സി
ഫി ന്റെ</w>
ഫല പ്രദമായ</w>
ഫറ വോ
ഫയര്‍ഫോ ഴ്‌സും</w>
ഫ ര്‍</w>
ഫ ഡ്‌
പൗലൊ സിന്‍റെ</w>
പൗര ത്വ
പ്രോത്സാഹ ിപ്പ
പ്രോ ഗ്രാം</w>
പ്രേക്ഷ കര്‍</w>
പ്രീ തി</w>
പ്രിയ പ്പെട്ട
പ്രായോഗ ിക</w>
പ്രാ ര്‍ഥ
പ്രസിദ്ധ ീകരിച്ച
പ്രസിദ്ധ ീകരണ
പ്രസിഡ ന്റ
പ്രശ്‌ന ങ്ങള
പ്രവേശ ന
പ്രയോഗ ിച്ചു</w>
പ്രയോ ജനങ്ങൾ</w>
പ്രദേശ ങ്ങളും</w>
പ്രദര്‍ശ നം</w>
പ്രതിഷേധ ിച്ച</w>
പ്രതിഷേധ ത്തിന്</w>
പ്രതിപക്ഷ ത്തിന്റെ</w>
പ്രതികള ായ</w>
പ്രതികള ാ
പ്രതി ജ്ഞാ
പ്രണയ ത്തിലാ
പ്രണ യ</w>
പ്രചോദ നം</w>
പ്രചാ രണ</w>
പ്രകൃതി യുടെ</w>
പ്രകാശ നം</w>
പ്ര വാസി
പ്യൂ ട്ടി</w>
പ്പെട ുകയാണ്</w>
പ്പി ൻ</w>
പ്പി ന്‍</w>
പ്പ ർ</w>
പ് ലോ
പോരാട്ട മാണ്</w>
പോ ൾ</w>
പോ വുക</w>
പൊള്ളലേ റ്റ</w>
പൈല റ്റ
പോ ലീ
പേര്‍ ക്കെതിരെ</w>
പേരു ണ്ടായിരുന്നു</w>
പേ ർക്കു</w>
പെൺ കുട്ടികൾ</w>
പെണ്ണ ു
പൂ രിലെ</w>
പുസ്‌തക ത്തിന്‍റെ</w>
പുസ്‌ ത</w>
പുല ര്‍ച്ച
പുറ ക
പുരോഗമ ിക്കുക
പുരു ഷാ
പുക വല
പുക ഴ്
പുക യില</w>
പു ര്‍</w>
പീഡ ന</w>
പിഴ യും</w>
പിറ്റ േ</w>
പിന്തുണ യ്‌
പിന്തുണ യുമായി</w>
പിന്തുണ യാണ്</w>
പിതാ വും</w>
പിടിയിലാ യ</w>
പിടി ത്തം</w>
പി ൽ</w>
പി ൽ
പി റു
പാര്‍ട്ട ിയും</w>
പാര്‍ട്ട ിക്ക്</w>
പാത യിൽ</w>
പാകിസ്ഥാന ും</w>
പാകിസ്താ ൻ</w>
പാക ത്തിന്</w>
പാ ലം</w>
പഴ ങ്ക
പല രുടെയും</w>
പറ്റ ും</w>
പറയ ുന്നുണ്ട്</w>
പറയ രുത്</w>
പറഞ്ഞ ുകൊണ്ട്</w>
പറഞ്ഞ ിരിക്കുന്ന</w>
പരിശോധന യില്‍</w>
പരിഗണ ിക്കുന്നത്</w>
പരിഗണ ിക്കും</w>
പരി രക്ഷ
പരാമര്‍ശ ം</w>
പരസ്യ മായി</w>
പര േ
പര സ്യ</w>
പദ്ധതി കളും</w>
പഠ ിച്ചത്</w>
പഠ ന</w>
പട്ടി ണി</w>
പങ്കു വെച്ച
പങ്കാള ികളാ
പ ്ട
പ ുട
പ ിക്കും</w>
പ വന്‍</w>
പ ട്
പ കരണ
നൽകിയ ത്‌</w>
നൽകി യിരിക്കുന്നത്</w>
നൽക ുന്നുണ്ട്</w>
ന്‍ മാര്‍</w>
ന്യൂസിലാ ന്‍ഡ്</w>
ന്യൂ സീല
ന്മാര ുടെയും</w>
ന്ത്യ ാ</w>
നോ ഹ</w>
നോ ക്കുന്നു</w>
നോ ക്കുന്ന
നോ ക്കിയ
നോ ട്ട
നോ ടു
നേര െയും</w>
നേതൃത്വ ത്തിലാണ്</w>
നേതാ ക്കളുടെ</w>
നേ ടു
നെയ്യ ്</w>
നൂ റു</w>
നീ രവ്</w>
നിർമ് മാണ
നിർ വഹിച്ചു</w>
നിർ മ്മാണം</w>
നിർ മ്മാണ</w>
നിസ്സാ ര</w>
നിവാ രണ</w>
നില്‍ ക്കുന്ന
നിലവില ില്ല</w>
നിറ മുള്ള</w>
നിര്‍ണാ യക
നിര്‍ ണ്ണാ
നിര പരാ
നിങ്ങള്‍ ക്ക
നിങ്ങള െ
നിക്ക ിര
നി വർത്തി
നി ല്‌
നി ങ്ങളാ
നാട്ടുകാ രുടെ</w>
നാടി ന്റെ</w>
നാ ളെ</w>
നാ ല്
നാ ലും</w>
നാ ണം</w>
നവ ജാത</w>
നയിച്ച ത്</w>
നയി ച്ച</w>
നയ ന്‍
നമ്മ െത്തന്നെ</w>
നമു ക്കി
നടപട ിയെ</w>
നടക്കാ നിരിക്കുന്ന</w>
നട ിയാണ്</w>
ന ർ</w>
ന ൗ</w>
ന ര്‍</w>
ന മസ്‌
ന ന്
ന ദി</w>
ധ്യ യ
ധാരണാ പത്രം</w>
ധാ ര്‍
ധാ ര
ധ ര്‍മ്മ
ധ ക്യ
ദ്വീ പ്</w>
ദ് ​</w>
ദൈവ പുത്ര
ദൈനം ദിന</w>
ദേവ ഗൗ
ദൂത ന്മാർ</w>
ദിവ സം
ദാ താ
ദഹ ന
ദല്‍ ഹി
ദ ലി
ദ ര്‍
ഥ െ</w>
ത്യ ന്തി
ത്തോ ടും</w>
ത്തേ ണ്ട</w>
ത്തിള ക്കുക</w>
ത്തില ുള്ള
ത്തിന്റ േയും</w>
ത്തി നോ</w>
ത്തി ട്ടുണ്ട്</w>
ത്ത ുകൾ</w>
തോന്നി യിട്ടില്ല</w>
തൊഴിലാള ികളുടെ</w>
തൊഴിലവസര ങ്ങള്‍</w>
തൈ ര്</w>
തേ യുള്ളൂ</w>
തെറ്റ ു</w>
തെരഞ്ഞെടു പ്പു</w>
തെരഞ്ഞെടു ക്കപ്പെട്ടു</w>
തെര െ
തെ ന്ത്</w>
തൃശ ൂര്‍</w>
തൂ ങ്ങി</w>
തുടർ ന്ന്​</w>
തുടര്‍ച്ച യായ</w>
തുടര ുന്നത്</w>
തുടക്ക മാണ്</w>
തു രു
തീരുമാന മാണ്</w>
തിരിച്ചറിഞ്ഞ ിട്ടില്ല</w>
തിരഞ്ഞെടു പ്പിന്റെ</w>
തിരഞ്ഞെടു പ്പിനെ</w>
തിര ച്ചിൽ</w>
തിര ക്കി
തിമൊഥെയ ൊ
തിനു ശേഷം</w>
തി യ്യ
തി ന്മ
താഴ െയി
താര ത്തിന്</w>
താണ െന്നും</w>
താങ്ക ൾ</w>
താ ൽപ്പ
തന്ന െയുണ്ട്</w>
തന്ന ില്ല</w>
തടാ ക
തടസ് സം</w>
തട ഞ്ഞു
തക്ക വണ്ണം</w>
ത െയും</w>
ത രി
ത യോ</w>
ണ മോ</w>
ഡ് ജ്</w>
ഡോള റാണ്</w>
ഡോണ ൾഡ്</w>
ഡിസ് ക്</w>
ഡി ഫ
ഡി ങ്</w>
ട്‌ സ്</w>
ട്വിറ്ററില ൂടെയാണ്</w>
ട്വിറ്റ റിൽ</w>
ട്വിറ്റ ര്‍</w>
ട്രാ ന്‍
ട്ടി ൻ</w>
ട്ടി യില്‍</w>
ടോ പ്</w>
ടോ ം</w>
ടെ ര്‍
ടും കൂടെ</w>
ടീമി ൽ</w>
ടീമ ില
ടീ മാണ്</w>
ടാ യിരുന്നു</w>
ടാ ം</w>
ഞ്ഞ് ‌</w>
ഞ്ച് ‌</w>
ജോ ഷി</w>
ജോ ര്‍ജ്</w>
ജൂ നിയ
ജൂ ണ്‍</w>
ജീവി തക
ജീവനക്കാ രെ</w>
ജീവന ോടെ</w>
ജീവ ിക്കും</w>
ജില്ല യിൽ</w>
ജാ വ
ജന താ
ജഡേ ജ
ജ ാ</w>
ജ വഹ
ജ യിൽ</w>
ജ നിച്ചു</w>
ഛത്തീസ്ഗ ഢ്</w>
ച്ചു വെ
ച്ച ൂരി</w>
ച്ച വ്യാ
ചോ പ്ര
ചൈന യിലെ</w>
ചോദ ിച്ചു</w>
ചെയ്യാ തെ</w>
ചെ മ്മ
ചൂടാ ക്കി</w>
ചുമതല യുള്ള</w>
ചുമ ത്തിയിരിക്കുന്നത്</w>
ചു ഴല
ചിന്തി ക്കുന്ന
ചിദംബ രം</w>
ചിത്ര ത്തെ</w>
ചാ രം</w>
ചാ ണ്ടി</w>
ചര്‍ മ
ചടങ്ങ ്</w>
ങ്ങൾ ക്കെതിരെ</w>
ങ്ങൾ ക്കുള്ള</w>
ങ്ങി പ്പോയി</w>
ങ്ങളി ൽനിന്നു</w>
ങ്ങള ുണ്ടാകും</w>
ങ്ങ ിൽ</w>
ഘ ടന</w>
ഗർഭി ണ
ഗ്രാമ ത്തിലാണ്</w>
ഗ്രാ ഹ
ഗ് ലോ
ഗെയി ം
ഗൂഗി ള്‍</w>
ഗുപ് ത</w>
ഗുണമേ ന്മ
ഗാ മ
ഗഡ് കരി</w>
ഗ ്‌</w>
ഖുറ േഷ
ഖ ർ</w>
കർണാടക യിൽ</w>
കൺവെൻ ഷന
ക്‌സ ോ</w>
ക്ഷേത്ര ത്തിന്റെ</w>
ക്ഷാ മം</w>
ക്ഷ മിക്ക
ക്ഷ മയോടെ</w>
ക്വാര്‍ട്ട റില്‍</w>
ക്രിസ്‌ത്യാനി കൾക്ക്</w>
ക്യാ മ്പി
ക്കോ ള
ക്കുന്നതി നിടെ</w>
ക്കു റിപ്പ
ക്കു റി</w>
ക്കിയ േക്കാം</w>
ക്കിയ തായി</w>
ക്കിട യിലെ</w>
ക്കാര നാണ്</w>
ക്ക ളി
ക്ക രു
കോളേജ ിൽ</w>
കോടതി ക്ക്</w>
കോ ഡ്</w>
കൊല്ലപ്പെട്ട വരുടെ</w>
കൊല്ലപ്പെട്ട തായി</w>
കൊല്ല പ്പെട്ടിരുന്നു</w>
കൊല്ല ം</w>
കൊടു ക്കുന്ന
കൊ ല</w>
കൊ യ്
കൊ തി
കൈ മാറ്റം</w>
കൈ മാറി
കോ ടി</w>
കേരള ാ</w>
കേന്ദ്ര ീകരിച്ച
കേ ക്ക്</w>
കൊ ടു
കെ ട്ടി</w>
കൃഷി യിട
കൂട്ടാ ക്കിയില്ല</w>
കൂടി യാണിത്</w>
കൂടി യാ
കുറ്റ വാ
കുറ ിച്ചത്</w>
കുട്ടികള െയും</w>
കുടുംബ ത്തിന്റെ</w>
കുടു ങ്ങിക്കിട
കുഞ്ഞു ങ്ങളുടെ</w>
കുഞ്ഞ ും</w>
കു തിര
കീ ഴ്
കിട്ടി യിട്ടില്ല</w>
കിട പ്പു
കി ര്‍
കി യ</w>
കാശ്മീ ര്‍</w>
കാര്യ ങ്ങള
കാരണ വശാലും</w>
കാരണ മായത്</w>
കാത്തിരിക്ക ുന്നത്</w>
കാണ ു</w>
കഴുക ിക്കള
കഴുക ണം</w>
കഴിയു മെന്ന്</w>
കഴിയ ുന്നു</w>
കളി യാ
കള ാണ്‌</w>
കലാശ ിച്ചു</w>
കലാ പരിപാടികളും</w>
കരു തു
കര സേന</w>
കര മാണ്‌</w>
കമ്മീഷ ന്റെ</w>
കമ്പനി കള്‍</w>
കഥ യും</w>
കണ്ടെ ത്തും</w>
കണക്ക ുകൾ</w>
കണക്ക ുകൂട്ട
കടന്നാ ക്രമ
കട ല
കച്ചവട ം</w>
ക ​
ക ശ്
ക രം</w>
ക യില്ല</w>
ക മല
ക ബ
ക പില്‍</w>
ക ത്തോ
ഓര്‍ മ്മ
ഓഫീ സര്‍</w>
ഓടി പ്പോ
ഓ ഫറ
ഓ ഡി
ഒഴി ഞ്ഞു</w>
ഒഴി ഞ്ഞു
ഒളി വിലാണ്</w>
ഒലി വ്</w>
ഒരിക്ക ലു
ഒന്നാമ തെ
ഒ ല
ഒ പ്പു
ഐ ഫോണ്‍</w>
ഏഷ്യ ൻ</w>
ഏഴ ാ
ഏ ല്‍
ഏ ക്ക
എൻജി നീയ
എഴുത ുന്നു</w>
എഴു തിയ
എല്ലാ വരിലും</w>
എല്ലാ വ</w>
എയി ംസ്</w>
എഫ് ഐ
എന്നിവര ടങ്ങിയ</w>
എന്നിവ യിൽ</w>
എന്ന തായിരുന്നു</w>
എന്ന താണു</w>
എന്ത ൊക്കെയോ</w>
എത്തി യാണ്</w>
എതിരാള ികള്‍</w>
എഞ്ചി നാണ്</w>
എക്കാല ത്തെയും</w>
എം ജി</w>
എം എം</w>
എ സും</w>
എ ളി
എ ബ്രാ</w>
എ ബി
എ ത്താ
ഊഷ് മള
ഉള്ള ു</w>
ഉള്ള വരാ
ഉറവിട ം</w>
ഉറ പ്പിച്ചു</w>
ഉറ ച്ചു</w>
ഉയര്‍ ത്തി</w>
ഉഭ യക
ഉപേക്ഷ ിച്ചു</w>
ഉന്നയി ച്ച</w>
ഉദ്യോഗസ്ഥ രും</w>
ഉദ്ധ വ്</w>
ഉത്തരാ ഖണ്ഡ്</w>
ഉത്തരാ ഖണ്ഡ
ഉത്തര വാദ
ഉത്തര ങ്ങൾ</w>
ഉണ ര്‍
ഉട നടി</w>
ഉ പരി
ഉ ന്മേഷ
ഉ ദര
ഉ ടു
ഇൻ സ്റ്റാ
ഇൻ ഡ
ഇസ്രായേ ലിലെ</w>
ഇസ് രാ</w>
ഇവിട േ
ഇലക്ട്ര ിക്ക്</w>
ഇറാ ഖ
ഇരു വർക്കും</w>
ഇരു വശ
ഇരു ചക്ര
ഇര ുന്ന
ഇന്‍ സ്റ്റോള്‍</w>
ഇന്ധന വില</w>
ഇന്ത്യ യുമായി</w>
ഇനിയ ുള്ള</w>
ഇതേ ത്തുടർന്ന്</w>
ഇതിനിട യില്‍</w>
ഇത ല്ല</w>
ഇട ിച്ചു</w>
ഇട യുണ്ട്</w>
ഇട ത്തരം</w>
ഇംഗ്ലണ്ടി ന്</w>
ഇ ല്ലെന്ന്</w>
ഇ ല്ലല്ലോ</w>
ഇ നം</w>
ഇ ടുക്കി</w>
ഇ ക്ക
ആർ ട്ടിക്കിൾ</w>
ആവർത്തി ക്കുക</w>
ആവേശ കരമായ</w>
ആവശ്യ മായി</w>
ആവശ്യ ങ്ങള്‍</w>
ആല പ്പുഴ</w>
ആര്‍ എസ്എ
ആരോപണ വുമായി</w>
ആരാധ കരെ</w>
ആരാധ കരു
ആരാ ധന
ആര ം
ആയുധ ങ്ങള്‍</w>
ആയിരക്കണ ക്കിനു</w>
ആദ്യ ത്തേത്</w>
ആത്മാ വ്‌</w>
ആഗ സ്റ്റ്</w>
ആക് ടി
ആ ർക്ക്</w>
ആ രി
ആ ന്ത
ആ ത്യന്തി
ആ ഡംബ
ആ കർ
ആ കും</w>
അസ്വസ്ഥ ത</w>
അസോസിയ േഷന്‍</w>
അസൂ യ
അവർ ക്കും</w>
അവർ ക്ക
അവസാന ിക്കുന്നില്ല</w>
അവര ്</w>
അവര െയും</w>
അവതരിപ്പ ിച്ചത്</w>
അവകാശ പ്പെടുന്നു</w>
അവ ി</w>
അവ ശ്യ</w>
അവ യില്‍</w>
അവ യവ
അല്ലാത്ത പക്ഷം</w>
അല് പ
അല ട്ട
അല ങ്ക
അറസ്റ്റിലാ യത്</w>
അമ്മ യാണ്</w>
അഭിഷേ ക്</w>
അഭിഷേ കം</w>
അഭിഷി ക്ത</w>
അഭി മാനം</w>
അബ്ദു ല്‍</w>
അബ്ദ ുള്ള</w>
അഫ് ഗ
അപകട ത്തിൽ
അപകട ങ്ങൾ</w>
അപകട ങ്ങള്‍</w>
അപ ഹ
അന്വേഷ ിക്കുന്നുണ്ട്</w>
അനുഭവ പ്പെട്ടു</w>
അനുഭവ ങ്ങൾ</w>
അനുഗ്രഹ ങ്ങൾ</w>
അനി ഷ്ട</w>
അധ്യാപക ർ</w>
അധ്യാപ ക</w>
അധ്യാ യ
അധി ക്ഷേപ
അദ്ധ്യക്ഷ ത</w>
അദ്ദേ ഹ</w>
അത്‌ ല
അത്ര യേ</w>
അത്ഭുത കരമായ</w>
അതെ ന്ത
അതിനാ ലാണ്</w>
അതി ശക്തമായ</w>
അതി നിടെ</w>
അത ുക
അത ത്ര</w>
അണു ബാധ
അടുത്ത തായി</w>
അട യ്ക്കുക</w>
അട ങ്ങ
അച്ഛ നെ</w>
അങ്ങ ോട്ട
അഖിലേ ന്ത്യാ</w>
അക്ഷ രാ
അകല െയാണ്</w>
അക ലം</w>
അംഗ ത്വം</w>
അ ൽപ്പ
അ ലോക്</w>
അ മൃ
അ ഭാവ
അ പ്പ്</w>
അ പ്പം</w>
അ പാ
അ നിശ്ചിത
ംഗ ്‌</w>
n ews</w>
l i
it y</w>
e s
e r
e d</w>
e c
a l
M ala
9 1</w>
8 3</w>
7 1</w>
6 6</w>
6 0
200 4</w>
20 13</w>
20 00</w>
17 :
15 0
12 ,
1 40</w>
1 10</w>
“ എനിക്ക്</w>
​ സ്</w>
ൾ ക്കായി</w>
ർ ക്കെതിരെ</w>
ൻ ‍</w>
ൻ സിപ്പൽ</w>
ൻ റ
്ട ്ട
് ക്ക്</w>
േ റ്റ</w>
േ ക്കാ
െന്നാരോ പിച്ച്</w>
െങ്ക ില
െ ന്റെ</w>
ൂ രിലെ</w>
ൂ ട്ട്</w>
ുവ ന്ന
ുമാ യാണ്</w>
ുന്ന വർ</w>
ുണ്ടാ വും</w>
ുണ്ടാ കുന്ന</w>
ുണ്ട ോ</w>
ുണ്ട ല്ലോ</w>
ുകൊണ്ട ുള്ള</w>
ുകൊണ്ട ിരിക്കുന്നു</w>
ുകൊ ൾ
ുകാ ലം</w>
ുകള െയും</w>
ുകള യ
ുകയാ യിരുന്ന
ീ രിയ
ീ കരണ</w>
ിലേ ക്കുള്ള</w>
ില ൂടെയാണ്</w>
ിയ് ക്കുന്നു</w>
ിയു മായും</w>
ിട്ടി ല്ലാത്ത</w>
ിട്ട ില്ലെന്ന്</w>
ിച്ച ിരിക്കുന്നത്‌</w>
ിക്കൊ ള്ള
ിക്കെ തിരേ</w>
ിക്കെ തിരായ</w>
ിക്കുന്ന ുവോ</w>
ിക്കുന്ന ുവെന്ന്</w>
ിക്ക ുള്ള</w>
ിക്ക ഴിഞ്ഞ
ിക്ക രു
ിക്ക ണമെന്ന
ിക ൾക്കു</w>
ിക ള്‍ക്കും</w>
ിക യും</w>
ാ യിരിക്കും</w>
ാ ന്നും</w>
ഹെലികോ പ്റ്റ
ഹെ സ്‌കേ
ഹിന്ദി യിലും</w>
ഹാസ ന്‍</w>
ഹാര്‍ ദ്ദ
ഹാ ര</w>
ഹര്‍ ദിക്</w>
ഹ ാനി</w>
ഹ സ
സർക്ക ിട്ട്</w>
സൗകര്യ ങ്ങള്‍</w>
സ്‌ഫോട നത്തില്‍</w>
സ്‌ഥ ാന
സ്‌കൂ ളിൽ</w>
സ്‌ കൂട്ട
സ്വർ ണ</w>
സ്വീകാര്യ തയാണ്</w>
സ്വീ കരണ
സ്വാധീ ന
സ്വാ ഭാവിക</w>
സ്വാ ദ
സ്വമേധ യാ</w>
സ്വപ്‌ നം</w>
സ്വ ത
സ്റ്റാൻ ഡേ
സ്റ്റാ ർ</w>
സ്യ ത്തൊഴിലാള
സ്ഫറ സ്</w>
സ്പീ ക്കർ</w>
സ്ഥിതി വിവര
സ്ഥാപ ിച്ചു</w>
സ്ഥല ങ്ങൾ</w>
സ്ത്രീ യും</w>
സ്ക്രീ ൻ</w>
സ് രാ
സ് യൂ
സ് നാ
സൈ ന</w>
സേ തു
സെയ് ഫ്</w>
സെപ്‌റ്റ ംബർ</w>
സെഞ്ച് വറി</w>
സൂപ്ര ണ്ട്</w>
സുഹൃത്തു ക്കള്‍</w>
സുരക്ഷി തമായ</w>
സുഭാഷ ്</w>
സു ശാന്തി
സു ധീ
സീറ്റ ുകളിലും</w>
സീറ്റ ുകളിലാണ്</w>
സീ രീസ്</w>
സിന്‍ ഹ</w>
സി ൽ
സി നെതിരായ</w>
സി ങ്ക്</w>
സി ആര്‍
സാഹ ോദ
സാന്നിധ്യ ം</w>
സാധ്യത യില്ല</w>
സാധ്യ തയും</w>
സാധാരണ മാണ്</w>
സാധാരണ ഗതി
സാധന ങ്ങളുടെ</w>
സാധ ്യ</w>
സാക്ഷ ികള്‍</w>
സാക്ഷ ികളെ</w>
സാക്ഷ ാ
സാ ഹം</w>
സാ റാ</w>
സാ രമായ</w>
സാ ന്
സാ നി
സഹായ ത്തിനായി</w>
സഹ ിക്കാൻ</w>
സസ്‌പെ ന്‍ഡ്</w>
സര്‍വ് വീ
സര്‍ട്ടിഫിക്ക റ്റ്</w>
സര്‍ക്കാ റിന്</w>
സര്‍ക്കാ റി
സയ ന്‍സ
സമർ പ്പിച്ച
സമ്മർ ദ്ദ
സമ്മേള നത്തിൽ</w>
സമ്മേള ന
സമ്മ ത
സമ്പൂ ർ
സമ് മാ
സമീപ നം</w>
സമ േ
സമ ര</w>
സമ യ</w>
സന്തോഷ മായി</w>
സന്തോ ഷം</w>
സന് താന
സത്യ വാ
സത്യ ത്തില്‍</w>
സഞ്ചാ രിക
സഞ്ചാ ര</w>
സംശയി ക്കുന്നു</w>
സംഭവ ിക്കുകയും</w>
സംബന്ധ ിച്ചും</w>
സംഘർഷ ത്തിൽ</w>
സംഘടി പ്പിച്ച</w>
സംഗ മം</w>
സ ുക
സ ിക്ക്</w>
സ സ്</w>
സ ജീ
ഷ്​ ട
ഷ് ക</w>
ഷ െയര്‍</w>
ഷ നാണ്</w>
ശ്രേയ സ്</w>
ശ്രീലങ്ക ന്‍</w>
ശ്രീ ദേവിയുടെ</w>
ശ്രമ ിച്ചത്</w>
ശ്രദ്ധാ പൂർവം</w>
ശേഷ മായിരുന്നു</w>
ശൃംഖ ല
ശുപാർശ കൾ</w>
ശിഷ്യ രാ
ശി വം</w>
ശര്‍മ്മ യും</w>
ശര്‍ മയും</w>
ശരീര ത്തില്‍</w>
ശത്രു ക്കള
ശതമാന മായി</w>
ശ ൌ
ശ ോ</w>
ശ ലോ
ശലോ മോ
വ്യോ മാ
വ്യാ വസാ
വ്യാവസാ യിക</w>
വ്യവ സ്ഥിതി
വ്യത്യാസ ങ്ങൾ</w>
വ്യത്യ സ്ഥ
വ്യക്തി യെ</w>
വ്യക്തമാ ക്കിയിട്ടുണ്ട്</w>
വ്യ ഞ്
വോട്ട ു</w>
വോ ള്
വൈകുന്നേ രം</w>
വേഷ ത്തില്‍</w>
വേണ്ട ത്‌</w>
വേണുഗോ പാല്‍</w>
വേ വിച്ച</w>
വേ ഡ്</w>
വേ ക്കു</w>
വെസ്റ്റി ന്‍
വെള്ള ത്തിന്റെ</w>
വെളിപ്പെടുത്ത ല്‍</w>
വെബ് സൈ
വെടിവയ് പ്പില്‍</w>
വെടി വെച്ച
വെച്ചു തന്നെ</w>
വെ ള്ളി
വൃത്തിയാ ക്കുക</w>
വൃത്തിയാ ക്കാൻ</w>
വൃത്തി യാക്കി</w>
വു ്</w>
വു മായിരുന്നു</w>
വീത വും</w>
വീഡിയ ോ</w>
വീട്ടുകാ ർ</w>
വീട്ട ിലേക്കു</w>
വീട ്‌</w>
വിസ്‌ മയ
വിശ്വസ ിക്കാനാ
വിവാഹ ത്തെ</w>
വിവാഹ ത്തിന്</w>
വിവരമറിയി ക്കുകയായിരുന്നു</w>
വിവര മറിഞ്ഞ്</w>
വിളിച്ച പേക്ഷ
വില് പന</w>
വിരമിക്ക ല്‍</w>
വിര ല
വിമാനത്താവള ം</w>
വിമാന ങ്ങൾ</w>
വിപണി യില്</w>
വിനി മയ</w>
വിന യ്</w>
വിധ ത്തില്‍</w>
വിദ്യാർഥ ികളുടെ</w>
വിദ്യാര്‍ഥ ികളും</w>
വിദ്യാര്‍ത്ഥ ികള്‍
വിട്ടു വീഴ്ച
വിജ് ഞാ
വിജയി കള്‍ക്ക്</w>
വിജയ ലക്ഷ്യം</w>
വികാര ങ്ങൾ</w>
വികാര ങ്ങളെ</w>
വികസ നത്തിന്</w>
വി ശുദ്ധ</w>
വി ശാ
വി ഴു
വി ല്‍പ്പ
വി ല്ലെന്നും</w>
വി ലേക്ക്</w>
വി മത
വി പു
വിപു ലീ
വി പി</w>
വി പ
വി നീ
വി നാ
വി ത്ത്</w>
വി ഗ്രഹ
വാഹന ങ്ങളുടെ</w>
വായി ക്കുന്നു</w>
വാതി ല
വാണി ജ്യ
വാക്ക േറ്റ
വാ ര്‍</w>
വാ രം</w>
വാ തെ</w>
വഷ ളായി</w>
വശ ക്ത
വഴി യില്ല</w>
വഴ ികളുണ്ട്</w>
വഴ ങ്ങി</w>
വല്ലാത്ത ൊരു</w>
വല്ല തും</w>
വര്‍ഷ ങ്ങളായി</w>
വര്‍ ക്കായി</w>
വയ സ്സു
വയ ലിൽ</w>
വനി തയാണ്</w>
വച്ച ായിരുന്നു</w>
വകു പ്പു</w>
വക ഭേദ
വ ്യ</w>
വ െയര്‍</w>
വ െന്ന്</w>
വ ുന്നത്‌</w>
വ ിക്ക്</w>
വ യ്യാ
ഴ ിയ
ള്‍ ട്ട്</w>
ള്‍ ക്കു
ല്ല െ
ലോഗ ്</w>
ലോ റിയും</w>
ലൈ ബ്ര
ലൈ ന്‍</w>
ലേഖ നങ്ങൾ</w>
ലേ റ്റ്</w>
ലേ യ്ക്ക്</w>
ലു വ</w>
ലീ വ്</w>
ലി ന്റെയും</w>
ലി ംഗം</w>
ലാത്തി ച്ചാ
ലാ ൻഡ്</w>
ലാ ത്തി</w>
ലാ ണ
ലഭ്യമാ യിട്ടില്ല</w>
ലഭിച്ച ിരുന്നില്ല</w>
ലഭ ിക്കാന്‍</w>
ലങ്ക േഷ്</w>
ലംഘ ന
ല െയ്
ല ംബ
റോഡ ുകൾ</w>
റോ മ</w>
റോ ണ്‍</w>
റെ പ്പേ
റീ മേക്ക്</w>
റില ധികം</w>
റിപ്പോർ ട്ടു</w>
റിപ്പോര്‍ട്ട ില്‍</w>
റാങ്കി ങ്ങില്‍</w>
റാ ഷിദ്</w>
റാ ലി</w>
റാ ണി</w>
റാ ണ</w>
റഷ്യ യിൽ</w>
റണ്‍സി നായിരുന്നു</w>
റ ൊണാ
റ ൊ
റ ുകളില്‍</w>
റ ിച്ച
റ ികൾ</w>
റ സ്</w>
റ ജി
റ ക്കി</w>
രോ ടുള്ള</w>
രൂപ വത്
രൂ പാ
രു ത്തര
രു താ
രീതി യിലുള്ള</w>
രീതി യിലാ
രിയ് ക്കുന്നു</w>
രിച്ച ിരുന്നു</w>
രാഷ്‌ട്ര ീയ</w>
രാഷ്‌ ട്ര</w>
രാഷ്ട്രീയ വും</w>
രാഷ്ട്ര മാണ്</w>
രാമ ന്‍</w>
രാത്രി യില്‍</w>
രാജ്യ വും</w>
രാജ്യ മെ
രാജ്യ ത്തു</w>
രാജ്യ ങ്ങൾ</w>
രാജിക്ക ത്ത്</w>
രാജാ വായ</w>
രാജസ്ഥാ നിലും</w>
രഹസ്യ മായി</w>
രണ്ടാമ തും</w>
രണ്ട ി
രണ വും</w>
രച ന</w>
രക്ത സമ്മർദ്ദം</w>
രംഗ ത്തുണ്ട്</w>
ര ീ</w>
ര ഹിത</w>
ര ത്തില്‍</w>
യ്‌ ക്കെതിരായ</w>
യ് ക്കാന്‍</w>
യോട ്ട</w>
യോഗ്യ താ</w>
യോ ശു
യേശുവി ന്‌</w>
യെഹൂ ദാ
യെരൂശലേ ം</w>
യെ ഹെസ്‌കേ
യൂറോപ്യ ൻ</w>
യൂണി റ്റ്</w>
യുവതി ക്ക്</w>
യുവ ജനങ്ങൾ</w>
യു മൊക്കെ</w>
യു മാ
യു പി</w>
യിരുന്ന ്</w>
യിട്ട ുമില്ല</w>
യി സ്</w>
യി ടെ</w>
യാത്രക്കാ രെ</w>
യാഗ പീഠ
യാ വും</w>
യാ ദൃ
യഹോ വേക്കു</w>
യജ മാന
യ െങ്കിലും</w>
യ ൂ</w>
മൗ ല
മ് മു
മോര്‍ ച്ച</w>
മോഡ ൽ</w>
മോഡ ിയെ</w>
മോ ഡ്</w>
മൈക്ര ോ
മേല്‍ ക്കൂ
മേഖല ാ</w>
മേ രി</w>
മെന് ന്​</w>
മെടു ക്കുക</w>
മെച്ച പ്പെടുത്തുന്നു</w>
മെച്ച പ്പെടുത്താൻ</w>
മെ ക്കാ
മൂന്ന ംഗ</w>
മൂ ര്‍
മൂ ദ്</w>
മുസ്‌ ലി
മുസ് ലിം
മുറി യില്‍</w>
മുമ്പാ യി</w>
മുന്‍ കൂട്ടി</w>
മുന്നറിയിപ്പ ുമായി</w>
മുന്ന േറ്റ
മുന്ന ിലും</w>
മുത ൽ
മുട ിയുടെ</w>
മുഖ്യമന്ത്രി യെ</w>
മു ദ്ര</w>
മീ ര്‍</w>
മീ ന്‍</w>
മിച്ച ല്‍</w>
മിക വ്</w>
മി യ</w>
മി ട്ട്</w>
മായ തും</w>
മായ തിനാല്‍</w>
മാധ്യമ ങ്ങളോട്</w>
മാതൃ കാ
മാണ ുണ്ടായത്</w>
മാണ ി</w>
മാ ള
മാ റിയ</w>
മാ നും</w>
മാ ക്കുന്നത്‌</w>
മാ ക്കുന്നത്</w>
മാ ക്കും</w>
മാ കില്ല</w>
മറ്റുള്ള വർക്ക്</w>
മറ്റുള്ള വർക്കു</w>
മറ്റുള്ള വര്‍ക്ക്</w>
മറ്റ ൊരു
മറുപ ടിയും</w>
മറ ിച്ചാണ്</w>
മറ ക്കാനാ
മരണ പ്പെട്ടിരുന്നു</w>
മരണ പ്പെട്ട
മരണ ത്തിനു</w>
മനുഷ്യ ര്‍</w>
മനു സരിച്ച്</w>
മനസ് സാക്ഷ
മത്സരിക്ക ാന്‍</w>
മത്സര ത്തിലെ</w>
മതേ തര
മജിസ്ട്ര േറ്റ്</w>
മഗ് നീഷ്യം</w>
മക്കള ാണ്</w>
മ ൾ
മ ്</w>
മ ുകളിലേക്ക്</w>
മ ിയുടെ</w>
മ ല്ലെന്നും</w>
മ യിൽ</w>
മ ട്ട
മ ടി</w>
മ ഞ്ചേ
ഭൂമ ിയെ</w>
ഭു തം</w>
ഭീകര വാദം</w>
ഭാഗ ങ്ങളിൽ</w>
ഭരണഘട നാ
ഭരണ സം</w>
ഭയ പ്പെട്ടു</w>
ബൗള ര്‍മാ
ബ്ര േ
ബൈബിളി ന്‍റെ</w>
ബീ ഫ്</w>
ബിജെപ ിയ്ക്ക്</w>
ബാധി ത</w>
ബാധി ച്ച</w>
ബാദ ിലെ</w>
ബാക്ടീ രിയ</w>
ബാ ർ</w>
ബാ ർ
ബാ ലാ
ബന്ധ മില്ല</w>
ബന്ധ ങ്ങളും</w>
ബച്ച നും</w>
ബംഗാ ളിലെ</w>
ബ ൗണ്ട
ബ ാ</w>
ഫ് ​</w>
ഫോണ ുകളും</w>
ഫൈ സാ
ഫുട്‌ ബോ
ഫി ന്</w>
ഫി നെ</w>
ഫയ ൽ</w>
ഫയ ര്‍</w>
ഫ ൗണ്ട
ഫ ര്‍
ഫ ഡ്
പ്രോട്ട ീ
പ്രോ സിക്യൂ
പ്രൊഫ സർ</w>
പ്രീ തി
പ്രിന്‍സിപ്പ ല്‍</w>
പ്രി ൻസിപ്പൽ</w>
പ്രാവര്‍ത്തി കമാ
പ്രായ മായ
പ്രായ പൂർത്തിയാ
പ്രാ വച
പ്രസ്‌താ വിക്കുന്നു</w>
പ്രസ ക്തി
പ്രശ്‌ ന</w>
പ്രശ ംസ</w>
പ്രവർത്ത കരെ</w>
പ്രവേശിപ്പ ിക്കുകയായിരുന്നു</w>
പ്രവര്‍ത്തി ച്ച
പ്രവര്‍ത്ത കരും</w>
പ്രവര്‍ത്ത കന്‍</w>
പ്രവച നങ്ങൾ</w>
പ്രഭ ു</w>
പ്രധാനമന്ത്രി യായി</w>
പ്രധാനമന്ത്ര ിക്ക്</w>
പ്രദേശ ിൽ</w>
പ്രഥ മ
പ്രതിരോധ ശേഷി</w>
പ്രതിനിധ ികള്‍</w>
പ്രതിജ്ഞാ ബദ്ധ
പ്രതികള്‍ ക്കെതിരെ</w>
പ്രതികള്‍ ക്കായി</w>
പ്രതികരിച്ച ത്</w>
പ്രതിക ള്‍ക്ക്</w>
പ്രതി ക്ക്</w>
പ്ര സം</w>
പ്ര മോദ
പ്പെടുത്ത ുന്നത്</w>
പ്പെടുത്ത ാനുള്ള</w>
പ്പെടു മെന്ന്</w>
പ്പെട രുത്</w>
പ്പിച്ച ത്‌</w>
പ്പി ൾ</w>
പ്പി ന്നെ</w>
പ്പാ യി</w>
പ്പ ുള്ള</w>
പ്പ ില്ല</w>
പ്പ ട്ട
പോഷ ക</w>
പോവ ുകയായിരുന്നു</w>
പോരാട്ട ത്തില്‍</w>
പോക ൂ</w>
പോ ക്‌സോ</w>
പൊലീസുകാ രും</w>
പൊലീസുകാ ര
പൊ യ്‌
പൊ ടിച്ച
പൈലറ്റ ുമാ
പേരു ള്ള</w>
പേ ർക്കും</w>
പേ ടി</w>
പൂർ വ</w>
പൂർ ത്ത
പൂജാ ര</w>
പൂ നെ</w>
പുസ്‌തക ത്തിൽ</w>
പുസ്തക ങ്ങള്‍</w>
പുളി ച്ച</w>
പുല ര്‍ത്തി
പുറത്തു വിട്ടു</w>
പുറത്തിറ ങ്ങിയ</w>
പുരുഷ ന്മാർ</w>
പുനരാ രംഭ
പുനര ധി
പു രി
പു ത
പീഡ ിപ്പിച്ചു</w>
പിറ ന്നു</w>
പിന്മാ റ
പി തൃ
പാർട്ടി യാണ്</w>
പാർ ശ്വ
പാല ിക്കണമെന്നും</w>
പാര്‍ല മെന്റ്</w>
പാര്‍ല മെന്ററി</w>
പാര്‍ട്ടി യാണ്</w>
പാര്‍ട്ട ിയ
പാര്‍ട്ട ികളും</w>
പാര്‍ ക്കി
പാദ ന</w>
പാത്ര ത്തില്‍</w>
പാണ്ഡ ്യ
പാടി യിട്ടുണ്ട്</w>
പാക്കിസ്ഥാ നിലെ</w>
പാകിസ്ഥാന െതിരെ</w>
പാകിസ്താ ന്റെ</w>
പാകിസ്താ നും</w>
പാ ളി
പാ ലും</w>
പശ്ചാത്തല ത്തിൽ</w>
പഴ ങ്ങള്‍</w>
പള്ളി യിൽ</w>
പല താണ്</w>
പല തരം</w>
പറയാ തെ</w>
പറയ ുന്നതി
പറയ ുകയായിരുന്നു</w>
പറയ ണമെന്ന്</w>
പറഞ്ഞ പ്പോൾ</w>
പരുക്ക ുകള
പരീക്ഷ ാ</w>
പരിശോധന കൾ</w>
പരിഗണ ിച്ചത്</w>
പരി യാരം</w>
പരാമ ർ
പരമ്പര യിൽ</w>
പര ന്ന
പന്തി ൽ</w>
പത്ര ൊ
പതി യെ</w>
പതി പ്പ
പഞ്ചസാര യും</w>
പ നീ
പ നം</w>
പ ഥ
പ ക്കൽ</w>
പ ക്കല്‍</w>
പ കരും</w>
നൽകി യില്ല</w>
ന്‍ സാ
ന്‍ ഷ
ന്റ്‌ സ്</w>
ന്റേ തായ</w>
ന്യൂസില ന്‍ഡ്</w>
ന്മാ ർക്കും</w>
ന്നി നും</w>
ന്നാ ൽ</w>
ന്ന ല്ല</w>
ന്താ ണെന്ന്</w>
ന് ത്‌</w>
നോഹ യുടെ</w>
നോ ക്ക്</w>
നോ ക്കിയ</w>
നൊ ന്ന്</w>
നേരിട ുന്നു</w>
നേതാ വിനെ</w>
നെ ഞ്ചി
നൂ റ്</w>
നു ണ</w>
നീക്ക ം
നീ ഷ്യ
നീ ണ്ട
നിഷ്‌ കളങ്ക
നിശ്വസ്‌ ത</w>
നില്‍ ക്കുന്നത്</w>
നിലനിൽ ക്കുന്നു</w>
നിലനിർ ത്താൻ</w>
നില നിന്ന
നിറ വും</w>
നിര്‍മ്മ ിക്കുന്നത്</w>
നിര്‍ വഹിച്ചു</w>
നിര്‍ മ്മാണ</w>
നിര്‍ ത്തുക</w>
നിരോധനാ ജ്ഞ</w>
നിര വധിപ്പേ
നിര യില്‍</w>
നിയോ ജ
നിയമ സഭയിൽ</w>
നിയമ മാണ്</w>
നിയമ ത്തിന്റെ</w>
നിയന്ത്ര ിക്കാൻ</w>
നിയ ന്‍</w>
നിമിഷ വും</w>
നിന്നു മാണ്</w>
നിന്ന ില്ല</w>
നിന ക്കെ
നി വേ
നി ലേ
നി ങ്ങളും</w>
നാവിക സേന</w>
നായ ർ</w>
നാട്ടുകാ രാണ്</w>
നാ ളി
നാ യ്
നാ യിരുന്ന</w>
നല്‍കി യിരുന്നില്ല</w>
നയി ക്കുന്നത്</w>
നന്നാ യിരിക്കും</w>
നദ ിയുടെ</w>
നത്തി നുള്ള</w>
നടപ്പാ ക്കാന്‍</w>
നടപട ികളാണ്</w>
നടന്ന ിട്ടുണ്ട്</w>
നടത്തി വരികയാണ്</w>
നട ന്ന്</w>
നട ക്കുമ്പോള്‍</w>
നഗര ത്തിൽ</w>
ന ോട
ന ൊരു</w>
ന ുള്ളിൽ</w>
ന ളി
ന യ</w>
ന ഗ്
ന കള്‍</w>
ധി ഷ്ഠി
ധാരണാ പത്ര
ദ്ര ോഹ
ദൈവ വും</w>
ദൈവ ത്തോടുള്ള</w>
ദൈവ ജനം</w>
ദൈ വേ
ദേ വാ
ദൃശ്യ ങ്ങളും</w>
ദുഃഖ ം</w>
ദീർഘ ക്ഷമ</w>
ദിവസ മായി</w>
ദിവസ ങ്ങള്‍ക്ക്</w>
ദില്ലി യില്‍</w>
ദാരി ദ്
ദമ്പതിക ൾക്ക്</w>
ദ ത്ത്</w>
ദ ത്ത
ത്തേ യ്ക്ക്</w>
ത്തേ ക്കുള്ള</w>
ത്തുടര്‍ ന്നാണ്</w>
ത്തിലേ റെ</w>
ത്തില േ</w>
ത്തില െയും</w>
ത്തില ുണ്ടായ</w>
ത്തിന ൊപ്പം</w>
ത്തി ന്​</w>
ത്താ കെ</w>
ത്ത റു
ത്ത തും</w>
തോ റും</w>
തോ ന്നു</w>
തോ തിൽ</w>
തൊഴിലാള ികളെ</w>
തൊ ഴിലാള
തെളി വു</w>
തെലു ങ്കിലും</w>
തെറ്റ ുകൾ</w>
തെരഞ്ഞെടുപ്പ ിലെ</w>
തെരഞ്ഞെടു പ്പി
തെരഞ്ഞെടു ത്തു</w>
തെ ള
തൃപ്തി കര
തൃ പ്‌തി
തുടർച്ച യായി</w>
തുടങ്ങിയ വരാണ്</w>
തുടങ്ങ ുകയും</w>
തുടങ്ങ ണം</w>
തുട രുന്ന</w>
തു മ്പ
തു മല്ല</w>
തീവ്ര വാദ</w>
തീ യില്‍</w>
തിരിച്ചടി യാണ്</w>
തിരിച്ച യ
തിരി ഞ്ഞു
തിരഞ്ഞെടു പ്പു</w>
തിരഞ്ഞെടു ക്കപ്പെട്ട</w>
തിരഞ്ഞെടു ക്ക
തി ങ്ക
താൽപ്പ ര്യ
താര ങ്ങൾ</w>
താര ങ്ങളുടെ</w>
താര ങ്ങളായ</w>
താമസ ിക്കുന്ന</w>
താത്‌ പ</w>
താക്കൂ ര്‍</w>
താ യിരുന്നില്ല</w>
തല വ
തല പ്പ
തല ത്തിലും</w>
തയാറാ യില്ല</w>
തമ്മി ലാണ്</w>
തമിഴ്‌ നാട്ടിലെ</w>
തട്ടിക്കൊണ്ടു പോയി</w>
തക ർത്ത
ത ൽ
ത വിട്ട്</w>
ത വി
ത മ
ത ന്ന</w>
ത ത്</w>
ത കിട
ണ്ണ ത്ത
ണ്ടു ്</w>
ണ്ടാ ണ്‌</w>
ണ്ടാ കുന്ന</w>
ണ്ട ്
ണി യിൽ</w>
ണി യ</w>
ണ ുകള്‍</w>
ണ ീ
ണ ിലെ</w>
ണ ിക്ക
ണ ര്‍</w>
ഡ് രി
ഡിസം ബ
ഡിജിറ്റ ൽ</w>
ഡി യാ
ഡാ റ്റ
ഡ ിയും</w>
ഠാ ക്കൂ
ടർ ബോ</w>
ട്രോ ള
ട്ടി യിൽ</w>
ട്ട ാണ്</w>
ടെര്‍ മിന
ടെക് നോളജി</w>
ടുത ോ
ടി സ്ഥാന
ടി ഞ്ഞ്</w>
ടാ ക്‌
ട ങ്കം</w>
ഞ്ഞ ില്ല</w>
ഞെ രു
ഞാന ്</w>
ഞാ യ
ജ്ഞ ാ</w>
ജോല ികൾ</w>
ജോ ണ്‍
ജുഡീ ഷ്യല്‍</w>
ജീവിത മാണ്</w>
ജീവ ിക്കുന്നത്‌</w>
ജില്ല കളിലും</w>
ജിഎസ്ട ി</w>
ജി ന്റെ</w>
ജാര്‍ ഖണ്ഡ്</w>
ജാതി കളുടെ</w>
ജല പീര
ജയി ക്കാനാ
ജയ ത്തോടെ</w>
ജന്മ ദിനാശ
ജന ങ്ങളോട്</w>
ജ ർ</w>
ജ ൻ</w>
ജ ്യൂ
ജ ിയോ</w>
ജ യ്</w>
ജ പ്പാന്‍</w>
ഛ േ
ഛ ാ
ച്ഛ ിക
ച്ച ോ
ച്ച െടുക്കുക</w>
ച്ച െ</w>
ച് യു
ചൊ ല്ല
ചൈന യും</w>
ചേർ ന്നാണ്</w>
ചേർ ക്കുന്നു</w>
ചേർ ക്കാൻ</w>
ചേര്‍ ത്തു</w>
ചേതേ ശ്വര്‍</w>
ചെല വ
ചെയ്‌ തു
ചെയ്യുന്ന തു</w>
ചെയ്യ പ്പെട്ടിട്ടില്ല</w>
ചെയ്യ പ്പെട്ട</w>
ചെയ്യ പ്പെടുന്നത്</w>
ചെയ്തി രിക്ക
ചെയ്ത തിന്</w>
ചൂണ്ടിക്കാ ട്ടി
ചൂ ഷണം</w>
ചു റു
ചിത്ര ങ്ങളിൽ</w>
ചര്‍ച്ച കളും</w>
ചന്ദ്ര ൻ</w>
ചതു ര
ച െ</w>
ച ുട
ച ത
ച ഞ്ച
ങ്ങൾക്ക ുള്ളിൽ</w>
ങ്ങള്‍ ക്കാണ്</w>
ങ്ങളില ുള്ള</w>
ങ്ങള ൊന്നു
ങ്ങ ോട്ട്</w>
ങ്ക ൽ</w>
ങ് ക്
ഗ്രീ ൻ</w>
ഗ്ര േ</w>
ഗോള ുകള്‍</w>
ഗുരുതര മാണെന്ന്</w>
ഗുണമേന്മ യുള്ള</w>
ഗായക ൻ</w>
ഗാന്ധ ിയാണ്</w>
ഗാംഗു ലി</w>
ഗവണ്‍ മെന്
ഗ െ</w>
ഗ ലീ
ഗ ഡ്</w>
കൗ ശ
ക്‌ സില്‍</w>
ക്ഷ െ</w>
ക്വ സ്റ്റ്</w>
ക്രിസ്ത്യ ന്‍</w>
ക്രിസ് മസ്</w>
ക്രിക്ക റ്റി
ക്രി യാ
ക്രമ ണ</w>
ക്ര ോ
ക്കൊപ്പ മാണ്</w>
ക്കൊ ള്ള
ക്കുറി ച്ച്‌</w>
ക്കുറ ിച്ചാണ്</w>
ക്കുക യുണ്ടായി</w>
ക്കുക യില്ല</w>
ക്കി നെ</w>
ക്കാ ൻ
ക്കാ ലിക</w>
ക്കാ നം</w>
ക്കാ ണു</w>
ക്കണ മെന്നാണ്</w>
ക്ക ുകളും</w>
ക് ലി
ക് ക്‌
കോൺഗ്ര സ്സ്</w>
കോഹ്‌ ലിക്ക്</w>
കോട ിയേ
കോ ഴി
കോ ലിയാണ്</w>
കോ ലാ
കോ ം
കൊലപാതക വുമായി</w>
കൊലപാതക ത്തില്‍</w>
കൊണ്ടുവ ന്നു</w>
കൊണ്ടുവ ന്ന
കൊടു ത്തില്ല</w>
കൊടു ത്ത</w>
കൊടു ക്കും</w>
കൊ തുക
കൈവ രു
കൈ യ
കൈ മാറും</w>
കോ ണ്‍ഗ്ര
കേസ ുകളാണ്</w>
കേവ ല</w>
കേള്‍ ക്കുന്ന
കേടു പാടുകള്‍</w>
കേ ശ
കെട്ടി ട</w>
കൂട്ട ുകെട്ട
കൂടി യായ</w>
കൂട ുന്നു</w>
കുഴ പ്പം</w>
കുറ്റ പ്പെടുത്തി
കുറയ് ക്കുന്നു</w>
കുറ ി</w>
കുമാ റാണ്</w>
കുട്ടികള ു
കുട്ട ിയാണ്</w>
കുട്ട ി
കുടു ങ്ങി</w>
കുടിയ േറ്റ
കു മ്പോള്‍</w>
കു ണ്ട
കീ ബോര്‍ഡ്</w>
കിട ന്ന്</w>
കിട ന്നു
കാര്യ ക്ഷമ
കാര്യ ം
കാരണ മുണ്ട്</w>
കാര ന്‍</w>
കാര നായ</w>
കാര ണ</w>
കാത്തിരിക്ക ുന്ന</w>
കാണ ുന്നത്‌</w>
കാ ഴ്‌ച
കാ റ്റ്</w>
കാ റ്റ
കാ റിന്</w>
കാ ത്ത്</w>
കാ ത്തി</w>
കാ ണിച്ച</w>
കാ ട്ടി
കവി ത</w>
കവര്‍ ച്ച
കളി യില്‍</w>
കള ുള്ള</w>
കല ഹ
കര്‍ഷ ക
കരുത്തു റ്റ</w>
കരുത ല്‍</w>
കര ോ
കര െയും</w>
കര യ
കര ഞ്ഞ
കയ്യ േറ്റ
കണ്ണ ും</w>
കണ്ട െടുത്തിട്ടുണ്ട്</w>
കണ ക്കിന്</w>
കട ലാ
ക ല്‍പ്പ
ക മ്യൂ
ക ത്തു</w>
ക ത്തിന്റെ</w>
ഓർ മിപ്പ
ഓണ്‍ലൈ നായി</w>
ഓടിക്ക ൂ
ഓ രോ
ഓ ടിച്ച
ഓ ക്‌സി
ഒഴുക ി
ഒഴി വ്</w>
ഒളി വിലാ
ഒറ്റ പ്പെട്ട</w>
ഒരേ യൊരു</w>
ഒരു വൻ</w>
ഒരു ക്കുന്ന</w>
ഒരാ ളാ
ഒപ്പ മുണ്ടായിരുന്നു</w>
ഒന്ന ിച്ച
ഐസി ഐസി
ഐസിഐസി ഐ</w>
ഐശ്വ ര്യ</w>
ഐപി എല്‍</w>
ഐ തി
ഐ ക്യം</w>
ഏറ്റുമുട്ട ൽ</w>
ഏര്‍പ്പെടുത്തി യിട്ടുണ്ട്</w>
ഏകാ ന്ത
ഏകദിന ത്തിൽ</w>
ഏ ത
എൻജി ൻ</w>
എസ്‌ പി</w>
എവിട േ
എഴു താൻ</w>
എല്ലാവര ുടേയും</w>
എല്ലാ രും</w>
എല്ലാ ത്തിനും</w>
എയി ം
എന്‍സി പി</w>
എന്നിവിട ങ്ങളിലെ</w>
എന്നിവിട ങ്ങളിലാണ്</w>
എന്നിവ യെല്ലാം</w>
എന്നി വര്‍ക്ക്</w>
എത്തി യില്ല</w>
എടുത്തി ട്ടില്ല</w>
എടു ത്തത്</w>
എടു ക്കാം</w>
എക്സ് പോ
എക്സി ക്യൂട്ടീവ്</w>
എ ഫ
എ പ്പോ</w>
എ ക്സ്</w>
ഊര്‍ ജ
ഉള് ളില്‍</w>
ഉറപ്പ ുവരുത്ത
ഉറപ്പ ില്ല</w>
ഉയര ുകയാണ്</w>
ഉയ ര്
ഉപയോഗ ിക്കണം</w>
ഉപയോഗ ം</w>
ഉന്നത തല</w>
ഉദ്യോഗസ്ഥ രെ</w>
ഉദ് ദേശം</w>
ഉത്തരവാദിത്വ ങ്ങൾ</w>
ഉത്ത ര്‍</w>
ഉണ്ടാ കുന്ന</w>
ഉണ്ടാ കാൻ</w>
ഉച്ച യ്ക്ക്</w>
ഉ റ്റു
ഈ ശ്വര
ഇസ്രായേ ൽ</w>
ഇഷ്ട മല്ല</w>
ഇഷ്ട പ്പെട്ട
ഇഷ്ട പ്പെടുന്ന
ഇള യ</w>
ഇലക്ട്രോ ണിക്</w>
ഇരുവര േയും</w>
ഇര ുന്ന്</w>
ഇന്തോ നേഷ്യ
ഇന് ത്യാ
ഇതു സംബന്ധിച്ച</w>
ഇതിന ൊക്കെ</w>
ഇതി ന്‌</w>
ഇടപെ ടാ
ഇട ിച്ച്</w>
ഇട നാ
ഇട ം
ഇങ്ങ നെയും</w>
ഇ വള
ആൻ ഡ്രോ
ആസ്പ ദ
ആശ്ര യ
ആശ ങ്കാ
ആവർത്ത ന
ആവശ്യ മുണ്ട
ആവശ്യ പ്പെടുന്നു</w>
ആലോച ിച്ചു</w>
ആര്‍ ക്കാണ്</w>
ആരാധ കര്‍
ആരാധ കരും</w>
ആരംഭ ിക്കുന്നു</w>
ആര ൊക്കെ</w>
ആര ുടേയും</w>
ആയു ര്‍
ആയിരിക്ക ാൻ</w>
ആന്ധ്ര ാ</w>
ആനുകൂ ല്യം</w>
ആധിപ ത്യം</w>
ആദി മ</w>
ആദാ ം</w>
ആ ​
ആ ലോച
ആ യിട്ടില്ല</w>
അർഥ വ
അഹ ങ്
അസിസ്റ്റ ന്റ്</w>
അവിഭാ ജ്യ</w>
അവിടെ നിന്ന്</w>
അവിടെ നിന്നു</w>
അവസ്ഥ യാണ്</w>
അവള ്</w>
അവലോകന ങ്ങൾ</w>
അവര്‍ ക്കു</w>
അവന ോട്‌</w>
അവകാശ വാദ
അവകാശ മുണ്ട്</w>
അവ ശിഷ്ട
അവ യൊന്നും</w>
അഴ ിച്ചു
അലഹ ബാദ്</w>
അല ങ്കാര
അറിയി പ്പ
അറിയാ ന്‍</w>
അറിയ പ്പെടുന്ന</w>
അറിയ ണം</w>
അറി വ്</w>
അര്‍ ജന്റ
അരുള പ്പാടു</w>
അയോഗ്യ രാ
അയാ ള്‍
അമ്മ യ്ക്ക്</w>
അമ്മ യ
അമേരിക്ക യിലെ</w>
അഭ്യ ര്‍ത്ഥ
അഭിമുഖ ീകരിക്ക
അഭിപ്രായ പ്പെടുന്നു</w>
അപ്പോഴ ാണ്</w>
അപകട ത്തിന്റെ</w>
അന്വേഷണ ത്തിനായി</w>
അനുസ രിച്ചു</w>
അനുവദ ിച്ചില്ല</w>
അനുക മ്പ
അനു ഗ്രഹം</w>
അധ്യാ യം</w>
അധികാര ത്തിൽ</w>
അധികാര ത്തിലേ
അദ്ദേഹ ത്തിന്‌</w>
അത്തര ത്തില്‍</w>
അതെ ങ്ങനെ</w>
അതിന ൊന്നും</w>
അതി ർത്തി</w>
അതി നി
അതാ കട്ടെ</w>
അത െന്നെ</w>
അഡ്മി നി
അടു ത്തു
അടഞ്ഞുകിട ന്നു</w>
അട യാ
അങ്ങനെ തന്നെ</w>
അഖില േഷ്</w>
അക്രമ ികള്‍</w>
അംഗീകരിക്ക ാന്‍</w>
അ മർ
അ പ്‌
അ ണ്‍
അ ഡീ
അ ങ്ക
ം വദ
ം മുമ്പ്</w>
un i
u r
s o</w>
ra n
on lin
onlin en
onlinen ews</w>
m m</w>
k era
d i
a s
R E
Mala y
C ity</w>
9 99</w>
6, 7</w>
6 7</w>
3, 4</w>
2. 0</w>
19 19</w>
19 14</w>
19 ,
18 :
1 6:
1 1
0 ന്</w>
“ യഹോവയുടെ</w>
ൽ നി</w>
ർമാ രുടെ</w>
ർന്ന ിരുന്നു</w>
ർഥ ത്തിൽ</w>
ർ ഡ
ൻ സും</w>
ൻ സിൽ</w>
ോട ാണ്</w>
ോഗ ം</w>
ൊരു മ
ൊ തു
ോ ട്ട്</w>
േഷ ിന്റെ</w>
േണ്ടി യിരുന്നു</w>
േണ്ട താണ്</w>
േ ശ
േ റിയ</w>
േ യാണ്</w>
ൊ ന്നും</w>
െയ ോ</w>
െയ ുമാണ്</w>
െന്ന ല്ല</w>
െന്ത െങ്കിലും</w>
െത്ത ുന്നത്</w>
െടുത്തി ട്ട
െടു ക്കുന്നു</w>
െടു ക്കണം</w>
െ ക്കുറിച്ചു</w>
ൂട െയുള്ള</w>
ുവ ന്ന</w>
ുള്‍ പ്പെടെ</w>
ുന്നതി നെക്കുറിച്ച്</w>
ുന്നതി നെ
ുന്ന വരുടെ</w>
ുന്ന വന്‍</w>
ുന്ന തുപോലെ</w>
ുന്ന തായി</w>
ുട ീ
ുകൊണ്ടേ യിരുന്നു</w>
ുകൊ ള്‍
ുകാ രി</w>
ുകളില െയും</w>
ുകയാണ ുണ്ടായത്</w>
ുക യായി</w>
ു വിൻ</w>
ു ളള
ു ര
ു മുണ്ടായിരുന്നു</w>
ീ ഷ
ീ ം</w>
ിലേ യ്ക്ക്</w>
ില െയും</w>
ില ിടിച്ച്</w>
ില ധികം</w>
ിരുന്ന ോ</w>
ിരിക്ക െ</w>
ിരിക്ക ാൻ</w>
ിപ്പ ുറ
ിപ്പ ാൻ</w>
ിച്ചു വരുന്നു</w>
ിച്ചിട്ട ുള്ള</w>
ിച്ച െന്ന്</w>
ിച്ച ുവരിക
ിച്ച തെന്ന്</w>
ിച്ച തിനെ</w>
ിക്കൊണ്ട ിരിക്കുന്നു</w>
ിക്കുന്ന െങ്കിൽ</w>
ിക്കു മെന്ന</w>
ിക്കു ട്ട
ിക്കണ മെന്നാണ്</w>
ിക്കണ മെന്ന</w>
ിക്ക ൊപ്പം</w>
ിക്ക ല
ികള ായി</w>
ിക െ</w>
ി ഷ്ട
ി കാ
ാനാ കില്ല</w>
ാ റില്ല</w>
ാ ടന
ഹോ ളിവു
ഹൃദയാ ഘാതം</w>
ഹൃദയ ങ്ങളെ</w>
ഹിന്ദു സ്ഥാന്‍</w>
ഹിന്ദു മത
ഹി ം</w>
ഹാ ർഡ്</w>
ഹാ ദിയ
ഹാ ജി</w>
ഹര്‍ ത്താല്‍</w>
ഹ ൃ</w>
ഹ ാൻ</w>
ഹ ാന്‍</w>
ഹ ബ
ഹ ന്നാ
സർ വ്
സർ വേ</w>
സൗകര്യ പ്രദ
സൗ ര
സൗ ദി
സ്‌റ്റേ ഡിയ
സ്‌നേ ഹിത
സ്‌നേ ഹി</w>
സ്‌കെയി ലില്‍</w>
സ്‌ ക്രീ
സ്സ ു</w>
സ്വർ ണ
സ്വീകരിക്ക ുമെന്നും</w>
സ്വീകരിക്ക ാൻ</w>
സ്വീ കരിച്ച</w>
സ്വി ച്ച്</w>
സ്വവർഗ ര
സ്വര്‍ ണ്ണ
സ്വര്‍ ഗ്ഗ
സ്വതന്ത്ര മായി</w>
സ്വകാര്യ ത</w>
സ്വ ി</w>
സ്മാര്‍ ട്‌
സ്പീ ക്ക
സ്ഥിരീകരിച്ച ിട്ടുണ്ട്</w>
സ്ഥിതിഗതി കൾ</w>
സ്ഥിതി ക</w>
സ്ഥാപ നങ്ങൾ</w>
സ്ഥല ത്തെ</w>
സ്ഥല ങ്ങളിൽ</w>
സ്ഥല ങ്ങളിലും</w>
സ്ഥല ം
സ്ത്രീ കളാണ്</w>
സ്താ ന്‍</w>
സ്ട്ര ി</w>
സ്ട ്രി
സ് വ</w>
സ് രോ
സ് മാന്‍</w>
സ് ആപ്പ്</w>
സൈനി കർ</w>
സൈനി കര്‍ക്ക്</w>
സൈ സ്</w>
സെമി യില്‍</w>
സെമി നാ
സെ ഷന
സെ ത്തിയാണ്</w>
സെ ഖ
സൃഷ്ട ിക്കാൻ</w>
സൂക്ഷ ിച്ചിരിക്കുകയാണ്</w>
സൂക്ഷ ിച്ച
സൂക്ഷ ിക്കും</w>
സൂ ചിക
സുഹൃത്തുക്കള ാണ്</w>
സുഹൃത്തു ക്കൾ</w>
സുഹൃ ത്താണ്</w>
സു ശീ
സു ശാന്ത്</w>
സു ഡ
സീരിയല ുകളിലും</w>
സിബിഐ ക്ക്</w>
സിന്ധു വിന്</w>
സിക്കി ം</w>
സിആര്‍ പിഎഫ്</w>
സി ല്‍
സി റിയ</w>
സി ബി</w>
സി നാണ്</w>
സി ഡി</w>
സി ങ്​</w>
സി ങ്ങും</w>
സി എ
സാഹചര്യ ങ്ങളും</w>
സാര മില്ല</w>
സായു ധ</w>
സാമ്പത്തിക മായി</w>
സാമ ഗ്രി
സാധ്യത യുള്ള</w>
സാധ്യ തകൾ</w>
സാധാരണഗതി യിൽ</w>
സാധ ിക്കുന്നില്ല</w>
സാധ നങ്ങള്‍</w>
സാ ർ</w>
സാ ര്‍</w>
സാ ം</w>
സഹിഷ്‌ ണുത</w>
സഹിഷ് ണുത</w>
സഹ കരിച്ച
സര്‍ക്കാ രുണ്ടാ
സയ് യിദ്</w>
സമർപ്പ ിക്കാൻ</w>
സമർ പ്പിച്ചു</w>
സമ്മാന ങ്ങൾ</w>
സമ്മാന ങ്ങള്‍</w>
സമ്പന്ന മായ</w>
സമ്പ ത്ത്</w>
സമൂഹമാധ്യമ ങ്ങളിൽ</w>
സമീ പ</w>
സമാന മാണ്</w>
സമാധാന പരമായി</w>
സമാ ധാ
സമര്‍പ്പ ിക്കും</w>
സമര ത്തില്‍</w>
സമ ല്ല</w>
സമ ഗ്ര</w>
സന്നി ധി
സന്നദ്ധ ത</w>
സന്ദര്‍ശ ിക്കുന്ന</w>
സന്ദര്‍ശ ന
സന്ത ോഷ</w>
സന് യാ
സത്യവാ ങ്
സഞ്ച രിച്ചു</w>
സഖ്യ മുണ്ടാ
സംസ്‌ കൃത</w>
സംസ് കാരം</w>
സംസാ രം</w>
സംശ യാ
സംരക്ഷ ിക്കാന്‍</w>
സംഭവ ിക്കുന്ന</w>
സംഭവ മാണിത്</w>
സംഭവ ങ്ങളും</w>
സംഭ വിച്ച</w>
സംഘര്‍ ഷാവസ്ഥ</w>
സംഘ ാടക
സംഘ ത്തിലെ</w>
സംഗതി കൾ</w>
സം വര
സ ുള്ള</w>
സ ബ്</w>
സ ണ്‍
ഷോ പ്പി
ഷെരീ ഫ്</w>
ഷെയ് ഖ്</w>
ഷുറ ൻസ്</w>
ഷാരൂ ഖ്</w>
ശ്വ ര</w>
ശ്രീ നിവാ
ശ്രമ ിക്കുന്നു</w>
ശ്രദ്ധ ിച്ച
ശ്ര ോ
ശ് രു
ശൈ ഖ്</w>
ശേഷ മേ</w>
ശീ ലം</w>
ശിര ോ
ശിക്ഷ ാ
ശാസ്ത്ര വും</w>
ശാസ്ത്ര മാണ്</w>
ശാന്ത ി</w>
ശരീര ത്തെ</w>
ശരീര ത്തിനും</w>
ശരി തന്നെ</w>
ശക്ത മാണ്</w>
ശക്ത മാക്കി</w>
ശ ോ
ശ ശിക
ശ ശി
ശ ബ്‌
ശ ംസകള്‍</w>
വർദ്ധ ന
വർത്ത നം</w>
വർ ത്തി</w>
വ്യായാമ ങ്ങൾ</w>
വ്യാപ ിച്ചു</w>
വ്യവസ്ഥ കൾ</w>
വ്യത്യസ്ത മല്ല</w>
വ്യക്തി യും</w>
വ്യക്തി കൾ</w>
വ്യക്തി ക്ക്</w>
വ്യ ഭി
വ് ര</w>
വോട്ടെണ്ണ ല്‍</w>
വോട്ട ുകള്‍</w>
വോട്ട ര്‍മാ
വൈ രു
വേഷ മിട്ട
വേവ ലാ
വേറ െയാണ്</w>
വേരിയ ന്റ
വേണ്ട ിയല്ല</w>
വേണ്ട ാ</w>
വേണ മെന്നും</w>
വേ ണ്ടാ
വെള്ള മൊഴ
വെള്ള ം
വെല്ലുവിള ികൾ</w>
വെറു തേ</w>
വെബ്‌ സൈ
വെടിവെ പ്പിൽ</w>
വെടിയ േറ്റ
വെടി വച്ച
വെങ്ക ല
വെ ക്കുന്നു</w>
വു മുള്ള</w>
വീട്ടില െത്തി</w>
വീ ർ
വീ ഴ്‌ച</w>
വീ ഴ്‌ച
വീ ണു
വിസ് മയ
വിഷയ മാണ്</w>
വിഷയ ങ്ങളും</w>
വിഷയ ങ്ങളില്‍</w>
വിശ്വാ സ്യ
വിശ്വാ സമില്ല</w>
വിശ്വസ്‌ത രായ</w>
വിശ്വസ ിക്കുന്ന</w>
വിശകല നം</w>
വിശ േഷ</w>
വിശ ദ</w>
വിവര മുണ്ട്</w>
വിവര ങ്ങള്‍ക്ക്</w>
വിലയിരുത്ത ൽ</w>
വില ക്കേ
വിരുദ്ധ മാണ്</w>
വിരമ ിച്ചു</w>
വിയ ർ
വിമർശ ിച്ച്</w>
വിമാന ത്തില
വിമാന ങ്ങളും</w>
വിമര്‍ശ ിച്ച്</w>
വിധ ിയുടെ</w>
വിദ്യാർഥ ികളും</w>
വിദ്യാർത്ഥ ികളുടെ</w>
വിദ്യാർത്ഥ ികളും</w>
വിദ്യാര്‍ത്ഥി നി</w>
വിദ്യാര്‍ത്ഥ ികളെ</w>
വിദേശ ത്ത്</w>
വിദഗ് ദ്ധ
വിടുവ ിക്കും</w>
വിടു ക</w>
വിട ുകയും</w>
വിട ാൻ</w>
വിജ ില
വിജ യാ
വിക്കറ്റ ുകളാണ്</w>
വിക്ക റ്റിന്</w>
വി സമ്മതി
വി ല്യ
വി ര്‍
വി ടുത
വാഹന മോട
വാഷി ങ
വാര്‍ത്താ സമ്മേളനത്തില്‍</w>
വാര്‍ ഷിക
വായി ക്കാന്‍</w>
വാദ പ്രതി
വാട്‌ സ്</w>
വാങ്ങ ിയത്</w>
വാ ശി
വാ ശ
വാ രാണ
വാ രാ
വാ ദ്</w>
വാ ട്ട്
വാ ഗ്</w>
വാ ക്കു
വഹ ിക്കുന്ന</w>
വഹ മായ</w>
വഴി യില്‍</w>
വഴി പാട
വഴ ികള്‍</w>
വര്‍ഷ ത്തെ</w>
വര്‍ ക്കാണ്</w>
വരു ത്തുന്ന</w>
വരു ത്തിയ</w>
വരാ നി
വരാ ത്രി</w>
വരാ ണ
വര ോട്‌</w>
വയറിള ക്കം</w>
വന്നാ ല്‍</w>
വന്ന ിരിക്കുന്നത്</w>
വന്ന ത്‌</w>
വനി തക
വട ക്ക്</w>
വട ക്കു
വകുപ്പ ുകളുടെ</w>
വകു പ്പി
വ െയർ</w>
വ ണ്ണ
വ ക്കീ
ള്ള ത്‌</w>
ളാ സ്</w>
ല്‍ റ്റ്</w>
ല്‌ പ</w>
ല്ലാ വരും</w>
ല്ല …</w>
ല്ല ോ</w>
ല്ല െന്ന</w>
ല്ല െങ്കില്‍</w>
ലോക്‌ സഭയില്‍</w>
ലോക ത്തെ
ലോ റി
ലോ ഞ്ച്</w>
ലൈംഗിക ത</w>
ലൈംഗ ികാ
ലൈ ൻ</w>
ലോ ഡ്</w>
ലോ കം</w>
ലേ ല
ലി സ്റ്റ
ലി സ
ലാ റ്റി
ലാ യിരിക്കും</w>
ലഭ ിക്കുന്നില്ല</w>
ലഭ ിക്കുന്നത്‌</w>
ലഭ ിക്കില്ല</w>
ലഡാ ക്ക്</w>
ലക്ഷ്യ മിടുന്നത്</w>
ലക്ഷ ്യ</w>
ലക്ഷ ങ്ങൾ</w>
ല േഷൻ</w>
ല ിക്കാ</w>
ല നം</w>
ല ജ്ജ</w>
റൗണ്ട ില്‍</w>
റ്റ് ലി</w>
റ്റി ലാണ്</w>
റ്റ ൈ
റ്റ ിയ
റോ ള
റോ യല്‍</w>
റെയ് ഡ്</w>
റെ യിൽ</w>
റു മാണ്</w>
റു ന്ന</w>
റിസർ വ്</w>
റിപ്പോ ർട്ട്</w>
റിപ്പോ ർട്ട
റി ഞ്ഞത്</w>
റാഫേ ല്‍</w>
റാ ലിയിൽ</w>
റഹ് മാന്‍</w>
റഷ്യ ന്‍</w>
റ െയ്‌
റ ുകളാണ്</w>
റ ിലേ
റ ിച്ചാ
റ ിക്ക്</w>
റ യില്‍</w>
റ ബ്
ര്‍ത്ഥ ം</w>
രോഗ ികള്‍</w>
രോഗ മുക്തി</w>
രോഗ ങ്ങള്‍</w>
രേഖപ്പെടുത്തി യിട്ടില്ല</w>
രേ ന്ത്യ
രേ ണ്ട
രൂപ ീകരിച്ചു</w>
രൂപ യ്ക്ക്</w>
രൂക്ഷ മാണ്</w>
രുചിക രമായ</w>
രു ള്ള
രിക്ക ്</w>
രിക്ക ു
രി യെ</w>
രി ട
രാഹുല്‍ ഗാന്ധി</w>
രാജ്യ സഭയിൽ</w>
രാജ്യ ങ്ങളിലെ</w>
രാജി വെച്ച
രാജാ വായി</w>
രാജ ന്‍</w>
രാജ കുമാര
രാ ധ
രാ ണെന്ന്</w>
രണ്ട ്​</w>
രണ്ട ുവ
രജ് പു
രജിസ്‌ട്ര േഷന്‍</w>
രക്ഷിതാ ക്കൾ</w>
രക്ഷ പ്പെട്ട
രക്ഷ പ്പെടുകയായിരുന്നു</w>
രംഗ ത്ത്‌</w>
ര ുകയും</w>
ര യും</w>
ര നാണ്</w>
ര ഥ
ര ത്തെ</w>
ര ഘു
യ് ക്കാൻ</w>
യ് ക്ക</w>
യൊ സ്‌</w>
യേ യുള്ളൂ</w>
യെദ്യൂര പ്പ</w>
യെ ല്ലോ</w>
യെ ച്ചൂരി</w>
യൂണിവേഴ്‌ സിറ്റി</w>
യുപി എ</w>
യുദ്ധ ത്തില്‍</w>
യുദ്ധ ത്തിന്</w>
യുണ്ടാ കും</w>
യുഎ ഇ</w>
യു ദ്ധ</w>
യു ഗ
യിൽ നിന്നുള്ള</w>
യിൽ നിന്നും</w>
യിസ്രായേ ലി
യിലേ ക്കാണ്</w>
യില ില്ല</w>
യിട്ട ല്ല</w>
യിട ങ്ങളില്‍</w>
യി ള
യി ല്ലെന്നും</w>
യി ല്ലാത്ത
യി യുടെ</w>
യി ം</w>
യായ തായി</w>
യാത്ര കൾ</w>
യാണ െങ്കിൽ</w>
യാ നോ</w>
യഹോവ യുമായുള്ള</w>
യഹോവ യായ</w>
യഥാര്‍ത്ഥ ത്തില്‍</w>
യഥാ ക്രമം</w>
യ ുകയാണ്</w>
മർ ക്കോ</w>
മർ ക്കൊസ്‌</w>
മ്പ ുകൾ</w>
മോ ചിത
മൊ ന്നുമല്ല</w>
മൈക്ര ോ
മേഖല യിലും</w>
മേഖല കള്‍</w>
മേഖല കളിൽ</w>
മേ ൽപ്പ
മേ റ്റ</w>
മേ റെ</w>
മേ ക്കപ്പ്</w>
മെന്ന ത്</w>
മെന്ത െന്ന്</w>
മെഡ ല്‍</w>
മെക്കാ നിക്ക
മെ സ്
മെ ന്‍റ
മെ ത്തി
മൂ ടു
മൂ ടി</w>
മുഴ ു</w>
മുഴ ം</w>
മുന്‍കരുതല ുകള്‍</w>
മുന്നോട ിയായി</w>
മുത ലായ
മുത ലാണ്</w>
മുട ി
മുട ങ്ങി</w>
മുഖ ത്തും</w>
മുംബൈ യിലേക്ക്</w>
മീ റ
മിസ്രയീ ം
മിശി ഹാ</w>
മിട യില്‍</w>
മി സ്</w>
മി സ്
മി ഷന്‍</w>
മി ല്ലി
മി ല്ലാ</w>
മി യില്‍</w>
മി പ്പിച്ചു</w>
മാർക്ക റ്റിംഗ്</w>
മാർ ക്കും</w>
മാസി ക
മാസ ങ്ങള്‍</w>
മാവ ുന്നു</w>
മാവ ുകയാണ്</w>
മാറ്റ ുന്നു</w>
മാറ്റ ം
മാറു ന്ന</w>
മാര്‍ ഗം</w>
മാര ക</w>
മാനേജ്‌ മെന്റ്</w>
മാനേജ് മെന്റ്</w>
മാനേജ ര്‍</w>
മാനസിക മായും</w>
മാത്ര മായി</w>
മാ ലിയ</w>
മാ നാണ്</w>
മാ ത്യു</w>
മാ ണ്ഡ
മാ ക്കുന്ന</w>
മാ കട്ടെ</w>
മാ ംസ
മഹ ത്വം</w>
മസ് തി
മഴ യിൽ</w>
മഴ മൂലം</w>
മഴ ക്കെടു
മല്ലി യില</w>
മലി ന
മറ്റൊരാ ൾ</w>
മറ്റാ രും</w>
മറ്റാ ര
മറികട ന്ന്</w>
മറി ഞ്ഞ
മര ുന്നു</w>
മര ങ്ങൾ</w>
മര ങ്ങളും</w>
മന്ത്രി യാണ്</w>
മനുഷ്യ ർക്ക്</w>
മനുഷ്യ ന്</w>
മനസ്സി ൽ
മനസ്സ ോടെ</w>
മനസ് സും</w>
മനസിലാ യില്ല</w>
മധ്യപ്രദേശ ിലും</w>
മധ്യ േ</w>
മധ്യ പ്രദേശില്‍</w>
മത്സ രിക്കുന്ന</w>
മണ്ഡല ങ്ങളിൽ</w>
മണിക്ക ൂർ</w>
മഞ്ഞ ൾ
മജി സ്‌ട്ര
മക്കള ാണുള്ളത്</w>
മ ിലെ</w>
മ ിലി
മ രിക്കും</w>
മ ണ്‍
മ ങ്ങൾ</w>
ഭ്യാ സ
ഭവ ന
ഭര്‍ത്താ വിന്റെ</w>
ഭരണാധി കാരി
ഭക്ഷണ ത്തിൽ</w>
ഭ ട്ട്</w>
ബ്ലൂടൂ ത്ത്</w>
ബ്യൂ ണൽ</w>
ബോ റ
ബോ ര്‍
ബിരുദാന ന്തര</w>
ബി യ</w>
ബി എച്ച്
ബാന ർജി</w>
ബാധ്യ സ്ഥ
ബാ ക്ക്</w>
ബഹുമാനിക്ക ുന്നു</w>
ബഹിരാ കാശ
ബലാത് സംഗ</w>
ബന്ധ ങ്ങൾ</w>
ബജ റ്റില്‍</w>
ബ ൈ</w>
ബ സ്സ
ബ സിൽ</w>
ബ ല്‍
ബ റേ
ഫ്‌ ള
ഫോണി ന്</w>
ഫോ ർ
ഫോ റം</w>
ഫെയ് സ്ബു
ഫെബ്രു വരി</w>
ഫെഡറ േഷന്‍</w>
ഫെ ലി
ഫി നാ
ഫഡ്‌ നാവിസ്</w>
ഫ ില്‍</w>
പൗ ഡർ</w>
പ്രേക്ഷ ക</w>
പ്രൊ ഫ</w>
പ്രിയങ്ക ാ</w>
പ്രായ മുള്ള
പ്രസക്ത മായ</w>
പ്രവർത്തി ച്ചു</w>
പ്രവർത്തി ക്കും</w>
പ്രവർത്തി ക്കാൻ</w>
പ്രവർത്തന ങ്ങളിൽ</w>
പ്രവർത്തക ർക്ക്</w>
പ്രവര്‍ത്തി പ്പ
പ്രവര്‍ത്തി ച്ചു</w>
പ്രവര്‍ത്തന ങ്ങളില്‍</w>
പ്രവര്‍ത്ത ക</w>
പ്രള യം</w>
പ്രമുഖ ര്‍</w>
പ്രഭാഷ ണം</w>
പ്രഭാ സ്</w>
പ്രധാന മായി</w>
പ്രദർശ ിപ്പ
പ്രത്യ ു
പ്രത്യ യ
പ്രതീക്ഷ ിച്ചില്ല</w>
പ്രതിഷേധ മാണ്</w>
പ്രതിരോധ ം</w>
പ്രതിബദ്ധ ത</w>
പ്രതിനിധ ീകരിക്ക
പ്രതികൂ ലമായി</w>
പ്രതിക ൾക്കെതിരെ</w>
പ്രതി കളും</w>
പ്രതി കളാണ്</w>
പ്രണ യി
പ്രചോദ ിപ്പ
പ്രച രിക്ക
പ്രഖ്യാപ ിച്ച്</w>
പ്രഖ്യാപ ിച്ച
പ്രകട നവും</w>
പ്ര യോഗ
പ്ര യോ
പ്പെടു ത്താം</w>
പ്പെട ാന്‍</w>
പ്പെട ണം</w>
പ്പെ രു
പ്പിച്ച ാണ്</w>
പ്പ ൊ</w>
പ്പ ഴം</w>
പ്പ ണം</w>
പ്പ ട്ട</w>
പോസ്റ്റ ര്‍</w>
പോലീസുകാ രെ</w>
പോയിന് റുമായി</w>
പോകുന്ന തെന്ന്</w>
പോക ുകയും</w>
പോ ർട്ട
പോ സി
പോ ന്നു</w>
പോ ക്സ
പോക്സ ോ</w>
പോ കുമ്പോൾ</w>
പോ കരുത്</w>
പോ കരു
പൊതു വെ</w>
പൊതു ജന
പൈസ യും</w>
പോ ലീസി
പേര ുകൾ</w>
പേയ് മെന്റ്</w>
പേടിക്ക േണ്ട</w>
പേ ടിച്ചു</w>
പൊ തി
പൊതി യാൻ</w>
പെണ്‍ കുട്ടികള്‍</w>
പെട്ട ന്ന്</w>
പെടു ത്തി</w>
പെ രി
പൂർ വ്വം</w>
പൂര്‍ത്തിയാ ക്കിയ</w>
പൂ രിപ്പ
പൂ ട്ടിയ</w>
പൂ ക്കൾ</w>
പുലര്‍ച്ച െ</w>
പുല ര്‍
പുറപ്പെടു വിച്ചു</w>
പുന രു</w>
പുത്ര നെ</w>
പു ലി
പു രോ</w>
പു ച്ഛ
പീഡനത്തി നിര
പീഡ നത്തിന്</w>
പീ പ്പി
പിന്നീ ട്​</w>
പിന്ന ോട്ട
പിതാ വു</w>
പിതാ വിന്റെ</w>
പിതാ വി
പിതാ ക്ക
പിടിയിലാ യ
പിടികൂ ടു
പിടികിട്ട ാ
പി ള
പി യാണ്</w>
പി താ</w>
പാർശ്വ ഫലങ്ങൾ</w>
പാര്‍ല മെന്റില്‍</w>
പാഠ ്യ
പാച ക</w>
പാക്കേ ജ
പാക്കിസ്ഥാ നിൽ</w>
പാ ​
പാ വം</w>
പാ ര്‍ക്ക്</w>
പാ തി
പഴ ഞ്ച
പഴ ം</w>
പറയാ നുണ്ട്</w>
പറയാ നു
പറയാ നാവില്ല</w>
പറയാ നാ
പറയ േണ്ട</w>
പറഞ്ഞ ിരുന്നത്</w>
പറ േഷന്‍</w>
പരീക്ഷ യുടെ</w>
പരീക്ഷ ണ</w>
പരിഹാ ര</w>
പരിഹ സിച്ചു</w>
പരിഹ രിച്ച
പരിശോധ ിക്കും</w>
പരിശുദ്ധാത്മാ വി
പരിശീല ന</w>
പരിശീല ന
പരിശ ീ</w>
പരിമി തി
പരിച രണം</w>
പരിക്കേറ്റ തായി</w>
പരിക്ക േറ്റ്</w>
പരി സ്ഥിതി
പരി ചിത
പരാതി യും</w>
പരാതി കള്‍</w>
പര വും</w>
പര മാണ്</w>
പന്ന ങ്ങൾ</w>
പദ്ധതി യില്‍</w>
പതി ന
പഠിപ്പ ിച്ചു</w>
പഠ ിക്കു</w>
പഠ ിക്കാനുണ്ട്</w>
പട്ടാ ള
പട ികൾ</w>
പട ര്‍ന്നു</w>
പച്ചക്കറ ികൾ</w>
പച്ച മുളകും</w>
പങ്കെടു ക്കുന്നുണ്ട്</w>
പങ്കെടു ക്കുന്നത്</w>
പങ്കെടു ക്കുന്ന</w>
പ ൌ
പ ിക്കെതിരെ</w>
പ വി
പ ഴു
പ യോഗം</w>
പ ന്ത്ര
പ തു</w>
പ കരു
ന്‍മാ രില്‍</w>
ന്വേഷ ണ
ന്മാ രായി</w>
ന്നു ണ്ടായ</w>
ന്നാ ല്‍</w>
ന്ന ുണ്ട്</w>
ന്ന ാൻ</w>
ന്തര ത്തിൽ</w>
ന് ത്യ</w>
നോ ക്കണം</w>
നോ ക്കി</w>
നേട്ട ങ്ങൾ</w>
നെ റ്റ്‌
നെ റ്റി
നൃ ത്തം</w>
നൂറ്റാ ണ്ടി
നൂറുകണ ക്കിനാള
നൂ റു
നുസ രിച്ചു</w>
നു ര
നീള വും</w>
നീതി ന്യായ</w>
നീ ട്ട
നീ ക്കി
നിർമ ല</w>
നിർദ്ദേശ ങ്ങൾ</w>
നിഷേധ ിച്ചിട്ടുണ്ട്</w>
നിശ് ശബ്ദ
നില്‍ ക്കും</w>
നിലവില ുണ്ട്</w>
നില യിലാ
നില നിറു
നില നിര്‍ത്തി</w>
നില ം</w>
നില ം
നിറു ത്തി</w>
നിറ ങ്ങളിൽ</w>
നിര്‍മ്മ ല</w>
നിരു ത്സാഹ
നിയോഗ ം</w>
നിയമ നടപടി</w>
നി ന്ന്​</w>
നി ന്നായി</w>
നി ന്ദ
നി ങ്ങളില്‍</w>
നി ങ്ങ</w>
നായി ഡു
നാമ ത്തിൽ</w>
നാഥ ന്‍</w>
നാണ യ
നാ യിരിക്കും</w>
നാ ണെന്ന്</w>
നാ ഗ്
നാ ക്ഷി</w>
നഷ്ട പരിഹാരം</w>
നല്‍ കുമെന്നും</w>
നല്ല പോലെ</w>
നരേന്ദ്ര മോദിയും</w>
നയി ക്കുന്നു</w>
നട്ട െ
നടപടിയെടു ക്കണം</w>
നടപടിയ ുണ്ടാകും</w>
നടപടിക്രമ ങ്ങൾ</w>
നടപടിക്രമ ങ്ങള്‍</w>
നടപട ിക്ക്</w>
നടപട ിക്കെതിരെ</w>
നട ിയും</w>
നട ക്കണം</w>
ന ുക
ന വ്
ന വോ
ന ഴ്‌
ന യുടെ</w>
ന ഡ്
ന ഖ
ധോ ണി
ധിക വും</w>
ധാരാള മുണ്ട്</w>
ധ ൃ
ധ ീ</w>
ധ ന്യ
ധ നി
ദർശ നം</w>
ദ്യ ോഗ
ദ്ദേ ഹ
ദ്ദീ ൻ</w>
ദ് ദി</w>
ദ് ദ</w>
ദൈവ രാജ്യ
ദേശ ീ
ദേ ഹ
ദേ വ്
ദൃഢ നിശ്ചയം</w>
ദുഷ്ട ത</w>
ദുരി തം</w>
ദുബ െ</w>
ദു ഷ്
ദിവസ ത്തേക്ക്</w>
ദി ര്‍
ദി ച്ച</w>
ദാരു ണാ
ദാരുണാ ന്ത്യം</w>
ദാനീ യേൽ</w>
ദ ൽ
ദ രി</w>
ഥാ കൃ
തർ ക്കം</w>
ത്സ വം</w>
ത്വ ക്ക്</w>
ത്രി പുര</w>
ത്യ ര്‍</w>
ത്ഥ ാ</w>
ത്തേ റ്റ്</w>
ത്തെ ക്കാൾ</w>
ത്തു മെന്നാണ്</w>
ത്തീ ർ
ത്തില്‍ നിന്ന്</w>
ത്തില്‍ നിന്നു</w>
ത്തില ുളള</w>
ത്തിന കം</w>
ത്തി ൻ</w>
ത്താക മാനം</w>
ത്താ ലും</w>
ത്ത ൂ
ത്ത ുള്ളത്</w>
ത്ത ക്ക
ത് ”</w>
തോൽ വി</w>
തോല്‍ വിയുടെ</w>
തോന്ന ുന്നത്</w>
തോന്ന ുന്ന</w>
തോന്ന ുന്ന
തോ ല്‍പ്പ
തോ ട്ട
തൊഴിലാള ികള്‍ക്ക്</w>
തൊഴിലാള ികളാണ്</w>
തൊ ണ്ട
തൊ ട
തോ ന്നി</w>
തേ ടുക</w>
തെളി വും</w>
തെറ്റിദ്ധ ാരണ
തെരഞ്ഞെടു പ്പിനെ</w>
തെ ളിച്ച
തെ ക്കൻ</w>
തൃശ ൂർ</w>
തൂ ങ്ങി
തുടര്‍ ന്നും</w>
തു ള
തു ല്യ</w>
തു മുതൽ</w>
തു ണി</w>
തീവ്രവാദ ി</w>
തീവ ണ്ട
തീര്‍ പ്പാ
തീരുമാനിച്ച ിട്ടില്ല</w>
തീരുമാന ത്തില്‍</w>
തീരുമാന ങ്ങള
തീ ർന്നു</w>
തീ വ്ര</w>
തീ രാ
തീ പിടിത്തം</w>
തിള ങ്ങി</w>
തിരുവെഴു ത്തു</w>
തിരുവനന്തപുര ത്ത്</w>
തിരഞ്ഞെടു ത്ത</w>
തിരക്കഥ യും</w>
തിരക്ക ഥാകൃ
താഴ് വര
താഴെയി റ
താറു മാറാ
താര ങ്ങളാണ്</w>
താ യി
താ നി
തവ ഹിച്ചു</w>
തള്ളിക്കള ഞ്ഞു</w>
തള്ളി യിരുന്നു</w>
തള്ള ിയ
തള ര്‍
തല വൻ</w>
തല വേദന
തറ ക്കല്ല
തയ്യാറാ യിട്ടില്ല</w>
തന്നെ യാണു</w>
തന്നെ ത്താന്‍</w>
തന്നെ ത്തന്നെ</w>
തട വ
തകര്‍ ച്ച</w>
ത െയ
ത ുകാ
ത ല്ലി</w>
ത നുസരിച്ച്</w>
ത ങ്ങളെ
ത ങ്ങള
ത കര
ണ്ട ിപ്പ
ണി ത്‌</w>
ഡോണ ള്‍ഡ്</w>
ഡോ ക്യു
ഡോക്ട റുടെ</w>
ഡെ ബിറ്റ്</w>
ഡെ പ്യൂട്ടി</w>
ഡിവിഷ ൻ</w>
ഡി ന്</w>
ഡബ് ല്യ
ഡ ൽ</w>
ഡ ം</w>
ഠ ി</w>
ട്ട ർ</w>
ട്ട ുകൊ
ട് വ
ടൊ യോട്ട</w>
ടെര്‍മിന ല്‍</w>
ടൂറി സ്റ്റ്</w>
ടു ത്തം</w>
ടീച്ച ർ</w>
ടി ം</w>
ട െയാണ്</w>
ഞ്ഞു പോയി</w>
ഞ്ഞ ടു
ഞ്ച ി</w>
ഞായ റാ
ഞാന ൊന്നും</w>
ഞ ങ്ങളെ
ജ് ഞാനി
ജോ ൺ</w>
ജോ സ്</w>
ജോ ര്‍
ജോ യിന്റ്</w>
ജേ വാല</w>
ജെയി ംസ്</w>
ജു ൻ</w>
ജീവനക്കാ രുടെ</w>
ജീവ ിക്കുന്നു</w>
ജീവ ിക്കാന്‍</w>
ജീവ ിക്കാനുള്ള</w>
ജീവ നെ</w>
ജില്ല യുടെ</w>
ജില്ല കളില
ജി ലാണ്</w>
ജാ പ്പ
ജയ് പൂര്‍</w>
ജയില ില
ജയിച്ച ിരുന്നു</w>
ജയി ച്ച്</w>
ജയി ച്ച</w>
ജയി ക്കും</w>
ജയലളി ത</w>
ജനി പ്പിച്ചു</w>
ജനസംഖ്യ യുടെ</w>
ജന ങ്ങള്‍ക്കും</w>
ജന കമായ</w>
ജ നിപ്പ
ഛത്തീസ്ഗ ഡ്</w>
ച്ഛ േദം</w>
ച്ച ുകയ
ച്ച ിലി
ച്ച വട
ചോദ ിച്ചില്ല</w>
ചേര്‍ ത്തിളക്കുക</w>
ചേ രി
ചെയ്‌ത ുകൊണ്ട്</w>
ചെയ്‌ ത്‌</w>
ചെയ്‌ തിരുന്നു</w>
ചെയ്യുന്നതി ല്‍</w>
ചെയ്യുന്ന തെന്ന്</w>
ചെയ്യാ നാണ്</w>
ചെയ്യ ൂ</w>
ചെയ്യ ട്ടെ</w>
ചെയ്തിട്ട ുള്ളത്</w>
ചെയ്തി രിക്കുന്നു</w>
ചെയ്തി ട്ടി
ചുഴല ിക്കാ
ചുരു ക്കം</w>
ചീ ന
ചീ ത്ത</w>
ചീ ത്ത
ചില്ല റ</w>
ചില ർക്കു</w>
ചിന്താഗ തി
ചിത്ര ീകരണ
ചാ ര്യ
ചാ ന്ദ്ര
ചര്‍മ്മ ത്തിന്</w>
ചന്ദ്ര ചൂ
ച െന്ന്</w>
ച ുണ്ട
ച വിട്ട
ങ്ങളാ ൽ</w>
ങ്ങളാ ണുള്ളത്</w>
ങ്ങള ുടേയും</w>
ങ ി
ഗൗ ര
ഗ്രാഹ ്യം</w>
ഗോവ യിലും</w>
ഗോ ൾ
ഗോ പാല്‍</w>
ഗോ ഡ്</w>
ഗൂഗി ൾ</w>
ഗു ളിക
ഗിരി രാജ്</w>
ഗാന്ധി ജ
ഗര്‍ഭി ണി
ഗതാഗത വും</w>
ഗ ്യ
ഗ േറ്റ്</w>
ഗ ിലെയാ
ഗ ള്‍
ഗ ഢ്</w>
ഖാ ന്റെ</w>
ഖ ാന്</w>
കർഷ കരുടെ</w>
കൗൺ സിൽ</w>
ക്ഷ ം</w>
ക്വാര്‍ട്ട ര്‍</w>
ക്വാ ഡ്</w>
ക്ലീ ൻ</w>
ക്ല ബ്
ക്രൂര ത</w>
ക്രിസ്‌ത്യാനി കളുടെ</w>
ക്രിസ് റ്റ്
ക്രിക്ക റ്റിൽ</w>
ക്രമ ിക
ക്രമ സമാധാന</w>
ക്രമ മായി</w>
ക്യാമറ യാണ്</w>
ക്യാമറ കള്‍</w>
ക്ക് …</w>
ക്കൊണ്ട ിരിക്കുന്നത്</w>
ക്കൊ ല
ക്കേ ാ</w>
ക്കേ സിലെ</w>
ക്കൂട ്ട</w>
ക്കുന്ന ു
ക്കു റ്റ
ക്കി ൾ</w>
ക്കി ല്ലെന്ന്</w>
ക്കി യാണ്</w>
ക്കി ത്</w>
ക്കാ രു
ക്കാ യില്ല</w>
ക്കള ാ
ക്ക ിലെ</w>
ക്ക രുത്‌</w>
ക്ക ര</w>
ക് ​</w>
കോൺ സ്റ്റ
കോഹ്‌ ലിയ
കോണ്‍ഫറ ന്‍സ്</w>
കോണ്‍ഗ്ര സ്സ്</w>
കോണ്‍ഗ്ര സ്സും</w>
കോടിക്കണ ക്കിന്</w>
കോ ശ
കോ പം</w>
കോ ം</w>
കൊളു ത്തി</w>
കൊണ്ട ുള്ള</w>
കൊണ്ട ിരുന്നു</w>
കൊടു ക്കാന്‍</w>
കൈ വശം</w>
കൈ യിൽ</w>
കൈ യില്‍</w>
കൈ ക്കൊണ്ട
കേസ ുകളില്‍</w>
കേരള ത്തിലും</w>
കേട്ട ത്</w>
കേടു പാട
കേ സും</w>
കേ ണ്ടി
കേ ട്ട</w>
കെ ട്ട്</w>
കൃഷ ിയും</w>
കൃ തി</w>
കൂട്ടിച്ചേ ർ
കൂടുത ലായ</w>
കൂടുത ല
കൂട ്ട</w>
കൂട ാ</w>
കുറ്റക്കാ ര്‍ക്കെതിരെ</w>
കുറ വായിരുന്നു</w>
കുറ യ്‌
കുമാ റി
കുന്ന തു</w>
കുട്ടിക്കാ ല
കുട്ടികള ുമായി</w>
കുട്ടികള ുമാണ്</w>
കുട്ടിക ളില്‍</w>
കുടുംബാംഗ ങ്ങൾ</w>
കുടുംബ ത്തോടൊപ്പം</w>
കുടുംബ ങ്ങള്‍</w>
കുട ിച്ചു</w>
കുട ിക്കുകയും</w>
കുഞ്ഞി ന്</w>
കുംബ് ലെ</w>
കു വൈ
കു ഴി
കു മെന്ന</w>
കീ ഴി
കിട ക്കുന്ന</w>
കി ളി
കി ന്റെ</w>
കാലി ക</w>
കാല ത്തിന്റെ</w>
കാരണങ്ങളാ ല്‍</w>
കാരണ മാണ്</w>
കാരണ ങ്ങളുണ്ട്</w>
കാണ ൂ</w>
കാണ പ്പെടുന്നത്</w>
കാ ൽ</w>
കാ ഴ്ച്ച
കാ ല്‍</w>
കാ റ്റും</w>
കാ റുകൾ</w>
കാ റില
കാ യ
കാ മ്പ
കാ ണ്‍
കാ ട്ടു
കസ്റ്റഡിയില െടുത്ത്</w>
കസ്റ്റഡിയില െടു
കഷ്ട പ്പാട
കഷണ ങ്ങളായി</w>
കശ്മീ രിൽ</w>
കഴിവ ുള്ള</w>
കഴിയാ ത്ത
കഴിയ ുമായിരുന്നില്ല</w>
കഴ ിക്കണം</w>
കള ുമാണ്</w>
കള ിച്ചു</w>
കള ിച്ചത്</w>
കള ല്ല</w>
കല് പിച്ചു</w>
കര്‍ മ്മ
കരുതി യത്</w>
കരു ത്തേ
കരു ത്ത
കരു ണ</w>
കര ീന</w>
കര മായിരിക്കും</w>
കയറ്റു മതി
കമ്മീഷണ ർ</w>
കമ്മീഷണ ര്‍</w>
കമ്മി ഷന്‍</w>
കമ്മി റ്റി
കപൂ റും</w>
കണ്ടെത്തി യിരുന്നു</w>
കണ്ടു മുട്ട
കണക്കാ ക്കുന്നു</w>
കണ ക്ഷന്‍</w>
കട ത്തി
കട കൾ</w>
കട കള്‍</w>
കംപ്യൂട്ട ര്‍</w>
ക പട
ക ന്യാ
ക തക
ക ട്ടി
ഔദ്യോഗ ികമായി</w>
ഔ ട്ട്</w>
ഔ ട്ട്
ഓരോ രുത്തര
ഓരോ ന്നും</w>
ഓ ഡിയോ</w>
ഓ ട്ട
ഓ ക്കാനം</w>
ഒഴിവാ ക്കിയിട്ടുണ്ട്</w>
ഒഴിവാ ക്കാന്‍</w>
ഒഴി വാ</w>
ഒളിച്ച ോട
ഒറ്റ ക്കെട്ട
ഒരുപാട ു</w>
ഒരുക്ക ത്തിലാണ്</w>
ഒരുകാ ര്യം</w>
ഒരിക്കല്‍ ക്കൂടി</w>
ഒരാ ളും</w>
ഒന്ന ുകൂടി</w>
ഒന്ന ടങ്കം</w>
ഒ രോ</w>
ഒ ബ്
ഒ ബാ
ഒ ന്നായി</w>
ഐശ്വ ര്യ
ഐ സ്</w>
ഐ ഒ
ഏർ പ്പെട്ട
ഏറ്റുമുട്ട ലിൽ</w>
ഏപ്ര ിൽ</w>
ഏ വ</w>
ഏ ഴി
ഏ തൊ
ഏ കോ
എൻ എം</w>
എസ്യു വി</w>
എഴു ത്തു
എഴു താ
എളുപ്പ വും</w>
എളുപ്പ മായിരുന്നില്ല</w>
എല്‍ ഡിഎഫ്</w>
എല്ലായ് പ്പോഴും</w>
എല്ലാ റ്റിനും</w>
എന്നിവ രായിരുന്നു</w>
എന്നിവ യെ</w>
എന്ന ോട്‌</w>
എന്ന ോ</w>
എന്ന ിൽ</w>
എന്തൊ ക്കെ</w>
എന്തെല്ലാ മാണ്</w>
എന്തി നെ
എതി രായ</w>
എണ്ണ വും</w>
എണ്ണ യിൽ</w>
എടുത്തി ല്ല</w>
എടു ക്കുന്ന</w>
എച്ച് ഡിഎ
എങ്ങോട്ട ാണ്</w>
എങ്ങനെയ ുണ്ട്</w>
എങ്ങ ോട്ട്</w>
എക്‌സി റ്റ്</w>
എംഎല്‍എ മാരും</w>
എ ത്തുന്ന</w>
എ ട്ടാം</w>
എ ഐസിസി</w>
ഊര്‍ ജ്ജ
ഊര്‍ ജിതമാക്കി</w>
ഉള്‍ പ്പട
ഉള്ള ത്‌</w>
ഉയര ുന്നത്</w>
ഉപയോഗ ിക്കാന്‍</w>
ഉപയോഗ ിക്കരുത്</w>
ഉപകരണ ങ്ങള്‍</w>
ഉപ തിരഞ്ഞെടുപ്പ്</w>
ഉദ്യോഗസ്ഥ ർ</w>
ഉദ്ഘാ ടന</w>
ഉദാഹരണ മാണ്</w>
[...]
