#version: 0.2
ಲ ್
ತ ್
ಿ ದ
ನ ್
ಾ ರ
ಾ ಗ
ಲ್ ಲ
ತ್ ತ
ನ ು</w>
ಿ ಸ
ಕ ್
ಂ ದ
್ ರ
ರ ು</w>
್ ದ
ನ್ ನು</w>
ಗ ಳ
ಗ ೆ</w>
ಸ ್
ಲ್ಲ ಿ</w>
್ ಯ
ಿದ ್ದ
ಮ ಾ
ರ ್
ರ ಿ
ನ ಿ
ವ ಿ
ಿದ ೆ</w>
ಪ ್ರ
ು ತ್ತ
ೆ ಯ
ು ದ
ು ವ
ಲ್ ಲ</w>
್ ಟ
ಕ್ ಕ
ಿ ಯ
ನ ಾ
ಇ ದ
ತ್ತ ು</w>
ಾರ ೆ</w>
ಅ ವ
ಂದ ು</w>
ಿ ಕ
ಂ ತ
ಿ ರ
ಂ ಡ
ಮಾ ಡ
ಕ ಾ
ವ ಾಗ
ರ ೆ</w>
ರ ಾ
ಯ ಾ
ಿದ್ದ ಾರೆ</w>
ವ ು</w>
ಗಳ ು</w>
ಿ ಲ್ಲ</w>
ವ ಾ
ನ್ ನ
ಿ ತ
ತ ಿ
ಆ ದ
ಂ ದ</w>
ು ವ</w>
ಮ ು
ಸ ಾ
ಕ್ಕ ೆ</w>
ಕ್ ಷ
ಬ ೇ
ಕ ೆ
ಟ ್ಟ
ದ ಲ್ಲಿ</w>
ಮ ್
ಸ ಂ
ುವ ುದ
ಮ ತ್ತು</w>
ಷ ್ಟ
ಲ ು</w>
ಅ ದ
ಾ ನ
ಕ ಾರ
ನ ೀ
ತ್ ರ
ಸ ಿ
ಳ ್
ಿ ಗೆ</w>
ಕ ೊ
ಂ ಗ
ಲ ಾಗ
ಬ ಿ
ಾಗ ಿ</w>
ಳ್ ಳ
ಾ ಯ
ಹ ೆ
ಆದ ರೆ</w>
ಗಳ ನ್ನು</w>
ೇ ಳ
ನ ೆ
ರ ಿಸ
ದ ೆ</w>
ಚ ್
ಚ ಿ
ಡ ೆ
ವ ೆ</w>
ವ ನ್ನು</w>
ಸ ್</w>
ನ ೆ</w>
ಎ ಂದು</w>
ಇದ ು</w>
ಂ ಬ
ದ ಿ
ಬ ್
ಗ ೊ
ಪ ಾ
ದ ೇ
ಸ್ ಥ
ಪ ್
ಹ ಿ
ಹ ೋ
ಹ ಾ
ಲ ೀ
ುತ್ತ ದೆ</w>
ಿಕ ೊ
ರ ೆ
ನ ್</w>
ಬೇ ಕ
ಹ ೇಳ
ಅವ ರು</w>
ಬ ೆ
ಭ ಾರ
ಪ ೊ
ಗ ಳ</w>
ಹ ೊ
ಧ ್ಯ
ಸ ು
ತ ಿ</w>
ಹ ಾಗ
ಲ ್</w>
ಮ್ ಮ</w>
ತ ೆ
ಚ್ ಚ
ರ ೋ
ವಾಗ ಿ</w>
ರಿ ಗೆ</w>
ಕ ು
ಪೊ ಲೀ
ದ ು
ದ ಾ
ಲ ಿ
ಾರ ್
್ಯ ಾ
ಶ ್
ಿ ತ್ತು</w>
ರಾ ಜ
ಮ ೂ
್ ಯ</w>
ಬ್ ಬ
ರ ್</w>
ನೀ ಡ
ಂ ಧ
ರ ೂ</w>
ಳ ಿಸ
ಟ ್</w>
ಪ ಡ
ಆ ಗ
ಿತ ು</w>
ಗ ೆ
ಿರ ುವ</w>
ಿದ ರು</w>
ತ್ ಯ
ಿದ್ದ ರು</w>
ಜ ೆ
ಬ ಹ
ಟ ್
ಕ ರ
ಪೊಲೀ ಸ
ನ್ ನ</w>
ಿ ದ</w>
ವ ರು</w>
ುವುದ ು</w>
ಲಾಗ ಿದೆ</w>
ಲ ೆ</w>
ಕ ೆ</w>
ಮ ಿ
ೆಯ ಲ್ಲಿ</w>
ನಾ ನು</w>
ನ ಡೆ
ಅ ನ
ಸ ಮ
ಬೇಕ ು</w>
ದ ು</w>
ಸ್ ಪ
ರ ನ್ನು</w>
ಸ ೇ
ಮ ೇ
ಲ ಿಲ್ಲ</w>
ೆ ಗೆ</w>
ಗಳ ಲ್ಲಿ</w>
ಪ ು
ಂತ ೆ</w>
ಕೆ ಲ
ಕ ೋ
ಪ ಿ</w>
ನ ಲ್ಲಿ</w>
ಗ ್
ಒ ಂದು</w>
ತ ು
ಿ ನ</w>
ಗ ು
ಲ ಾ
ತ ಾ
ಯ ೋ
ಜ ನ
ಕ ೂ
ಡ ್
ಮ ೆ
ಪ್ ಪ
ರಿ ಯ
ಮ ನ
ದ ್ದ
ಿದ ್
ಎ ಲ್ಲ
ರಿ ಂದ</w>
ುದ ು</w>
ಯಾ ವ
ಿಸ ಿ</w>
ತ ೆ</w>
ಬಿ ಜೆ
ರ ಿ</w>
ನ ೋ
ಪೊಲೀಸ ರು</w>
ಗ ಾ
ರ ು
ಮ್ ಮ
ಬ ಾ
ಡ ಿ</w>
ಶ ಾ
ಕ್ ರ
ಮು ಖ
ಡ ಿ
ತ ೀ
ಿ ಕ</w>
ಿ ವೆ</w>
ಹಾಗ ೂ</w>
ತ ಿಯ
ಯ ಾರ
ಬ ಳ
ಿ ಂದ</w>
ಮ ೊ
ದ ಿ</w>
ವ ೆ
ದ ಲ್ಲ
ಳ ು</w>
ೆಯ ನ್ನು</w>
ಬ ಂಧ
ವ ್ಯ
ವ ೇ
ಯ ೆ
ಕ ೇ
ಷ್ಟ ು</w>
್ ರ</w>
ರ ಡ
ಿಸ ುತ್ತ
ಗ ೂ</w>
ಹ ು
ಣ ೆ</w>
ಮ ೋ
ಷ ್
ರ ಲ್ಲಿ</w>
ನ್ನ ೂ</w>
ಲ ಿ</w>
ೆ ಯ</w>
ಹೆ ಚ್ಚ
ಂತ ರ</w>
ಣ ್
ಅದ ು</w>
ಿಕೊ ಳ್ಳ
ಪ ರಿ
ನಾ ವು</w>
ರ ೀ
ವಿ ರ
ಮು ಂದ
ತ್ ರ</w>
ಎ ಂದ
ಆ ರೋ
ಂ ತ</w>
ನ ಡ
ಭ ಾ
ಯಾವ ುದ
ಿದ್ದ ು</w>
ೊ ಂದ
ಸ ರ್
ಾಗ ಿದೆ</w>
ಲ ೆ
್ರ ೆ
ಿದ್ ದ</w>
ಿಕೊ ಂಡ
ಇ ಲ್ಲ</w>
ಜ ್
ನಿ ರ್
ದ ್
ಂ ಭ
ನ ನ
ಇ ರ
ಬ ರ
ುದ ್
ವ ರ
ಪ ಿ
ಜ ಿ
ಬ ಂದ
ವಾಗ ಿದೆ</w>
ಶ ಿ
ಬಿಜೆ ಪಿ</w>
ಎ ರಡ
ಧ ಾನ
ು ಗ
ಸ ೆ
ದಿ ಂದ</w>
ಬಹ ುದು</w>
ಂ ಟ
ುವುದ ಿಲ್ಲ</w>
ಮ ಾರ
ಕಾ ಂಗ
ಂ ಕ
ನ ಂತರ</w>
ದೇ ಶ
ಸ್ ವ
ಉ ತ್ತ
ಲ ಿಸ
ವ ಿದ
ಕಾಂಗ ್ರೆ
ಂ ಬ</w>
ಪ ಟ್ಟ
ಗಳ ಿಗೆ</w>
ಭಾರ ತ
ಹೋ ಗ
ುತ್ತ ಿದೆ</w>
ಹ ೇ
ಟ ಿ</w>
ಭ ಿ
ಹ ೀ
ವ ೇ</w>
ಪ ೂ
ಸಾ ಧ್ಯ
ವಾ ದ</w>
ಚಿ ತ್ರ
ವ ರ</w>
ನ ಮ್ಮ</w>
ಗ ್ರ
ಲ ೇ</w>
ಮೇ ಲೆ</w>
ಜ ಾ
ಗೊ ಂಡ
ದಾ ಖ
ತಿ ಳಿಸ
ಸ್ ತ
ವ ರ್
ಏ ನು</w>
ಪ್ರ ತಿ
ಘ ಟ
ನಡೆ ಸ
ಮ ಕ್ಕ
ಿಸ ಿದ್ದಾರೆ</w>
ದ ್ಯ
ೊ ಂದು</w>
ಸ ಭ
ಕೊ ಂಡ
ಚ ಾ
ವಿ ಷ
ಯಾವುದ ೇ</w>
ನನ ಗೆ</w>
ಕಾ ರ</w>
ಗ್ ಗೆ</w>
ಅ ಧ
ಕಾರ ್ಯ
ನಿ ಯ
ಶ ್ರ
ಅನ ು
ೀ ಯ</w>
ಣ್ ಣ
ವ ೂ</w>
ರ್ ಥ
ಜ ೀ
ನ್ ಯಾ
ನ ೇ</w>
ಡ ಿಯ
ಂದ ್ರ</w>
ಇ ಲ್ಲ
ಪ್ರ ಕರ
ಿಸ ್
ಲ ಿದೆ</w>
ತ ು</w>
ಮ ತ್ತ
ನಿ ಮ
ಂ ಡ</w>
ಯೆ ಹೋ
ಾನ ೆ</w>
ಚ ಾರ
ಸ್ ಟ
ಭಾರ ತ</w>
ಅದ ನ್ನು</w>
ಕ ೈ
ಿತ ಿ</w>
ಬ ಗ್ಗೆ</w>
ಮಾ ನ
ಿ ಗಳು</w>
ಆ ಸ್ಪ
ಸ ರ
ಹ ಿಸ
ರ ೇ
ಹ ಲ
ಬ ಾರ
ಪ್ರ ೀ
ೂ ೕ
ಸ ು</w>
ಅ ಲ್ಲ
ಕ ರ್
ಳ ೆ
ಕ್ ಷ</w>
ಡ ್</w>
ವಿರ ುದ್
ಿದ್ದ ೇ
ಳ ಿದ
ದ ೊ
ಕ್ ತ
ುತ್ತ ಾರೆ</w>
ಸ ೂ
ಮೊ ದ
ವ ೈ
ಪಡ ಿಸ
ನಡ ೆಯ
ಮ ಂದ
ಗ ಾಗಿ</w>
ಇದ ನ್ನು</w>
ೆಯ ಾಗ
ನ ೇ
ಹಾ ಕ
ಾ ನ</w>
ತ ನ್ನ</w>
ಿಯ ನ್ನು</w>
ಕ ್</w>
ಇ ಬ್ಬ
ು ನಾ
ನ ನ್ನು</w>
ಯೆಹೋ ವ
ಮ ೀ
ಂ ತ್ರ
ಮೂ ಲ
ಟ ಿ
ನೀ ವು</w>
ಜ್ ಞ
ಾರ್ ಥ
ೊಂದ ಿಗೆ</w>
ಸ್ಥ ಳ
ವ ಣ
ನಾ ಯ
ಆಸ್ಪ ತ್ರ
ನಿ ಮ್ಮ</w>
ವ ಾ</w>
ಜ ಿ</w>
ಸ್ ‌</w>
ತ ರ
ೇ ಶ
ದ ೆ
ಲ ೂ</w>
ಪೂ ರ್
ಲ ೋ
ಅ ಧ್ಯ
ಂಗ ್</w>
ಂ ಪ
ಮೋ ದಿ</w>
ನೋ ಡ
ಪ ಡೆ
ಿಯ ಲ್ಲಿ</w>
ಹ ಾರ
ಗ ಾಯ
ಆ ರ
ಅ ಂತ
ಕೂ ಡ</w>
ಕಾಂಗ್ರೆ ಸ್</w>
ನ ಾ</w>
ಲ್ ‌</w>
ಹಿ ಂದ
ಷ್ಟ ್ರ
ಕ್ಕ ೂ</w>
ಅ ಭಿ
ಅ ಗ
ದ ೂ
ತ ನಿ
ಿ ಯ</w>
ಹೇ ಗೆ</w>
ರಾಜ ್ಯ
ನ್ ‌</w>
ಸ ೋ
ನ ೂ</w>
ಸ್ ಯ
ಪ್ರ ಧಾನ
ಕೊ ಳ್ಳ
ಅವ ರಿಗೆ</w>
ವಿ ಶ್
ಗೊ ಳಿಸ
ಬ ದ
ಳ ೆ</w>
ಹೆಚ್ಚ ು</w>
ಅಧ ಿಕ
ಾ ಗ</w>
ಳ ೆಯ
ಾ ದ</w>
ರ ಾಗ
ಆ ಯ
ಕ ೇಳ
ವ ಿ</w>
ಎ ಂಬ
ಚ ುನಾ
ಿಸ ಲು</w>
ಮುಖ ್ಯ
ಡ ೆ</w>
ಭ ಾಗ
ಾ ದ
ಬಿ ಡ
ಹೊ ಂದ
ವಿರುದ್ ಧ</w>
ಮ ಹಿ
ಕಾರ ಣ
ಳ ಿ</w>
ೋ ಷ
ಂಗ ್
ನ್ ಯ
ದಿ ನ
ತ ಮ್ಮ</w>
ಬ ೈ
ಗ ಿ
ಿಯ ಾಗ
ಎರಡ ು</w>
ಜೀ ವ
ಬಳ ಿಕ</w>
ಪ್ರ ಾ
ಪ ಕ್ಷ
ಿರ ಲಿಲ್ಲ</w>
ಲ ೇ
ಲ ಾಯ
ಸ ಹ
ಇದ ೆ</w>
ಟ್ಟ ು</w>
ರ ಣ
ವಿದ ್ಯ
ಕ ು</w>
ಸ ದ
ಅವ ರನ್ನು</w>
ಕ ೃ
ನಿ ಂದ</w>
ಿಕ ೆ</w>
ಸ ಚಿ
ವಾ ದ
ಿರ ಿ</w>
ಕ ರು</w>
ನ ಿ</w>
ಕ್ಕ ಾಗಿ</w>
ಕ ಿ
ಟ ು
ಿಯ ೂ</w>
ಇದ ಕ್ಕೆ</w>
ನಿ ರ
ಇ ವ
ಭ ವ
ವಿ ಲ್ಲ</w>
ಅ ಪ
ಟ ್ರ
ಂದ ರೆ</w>
ೆಯ ೇ</w>
ಪ್ರ ಶ್
ಮ ೃ
ಇದ ರಿಂದ</w>
ಚ್ ಚಿ
ವ ಾರ
ಚ ೆ
ಸ ೆ</w>
ಸ್ ‌
ಕೊ ಡ
ಯಾ ವ</w>
ಆರ ಂಭ
ಲ ು
ವ ೀ
ತ್ ಯ</w>
ಹೊ ರ
ರೀ ಕ್ಷ
ಸ ಿ</w>
ರ ಕ್ಷ
ತ್ ವ
ದಾಖ ಲಿಸ
ಎ ಂಬ</w>
ಇದ ್ದ
ಿಸ ಿದ</w>
0 0</w>
ಂ ಚ
ಅ ಥ
ುವ ಂತೆ</w>
ನಿ ಗೆ</w>
ಕಾ ಯ
ಗ ೋ
ನ ಮ
ಕೋ ರ್
ತನಿ ಖ
ುತ್ತ ೇ
ರಾ ಷ್ಟ್ರ
ನ ಾಗ
ತ್ ಮ
ವಿಷ ಯ
ವ ಿದೆ</w>
ಿಸ ಿದ
ಸ್ಥ ಾನ
ಪ್ರಧಾನ ಿ</w>
ಕ್ರ ಮ
ತ ೋ
ಅ ರ್
ಇ ಲ್ಲಿ</w>
ಶ ೀ
ವ ೃ
ಸಾ ಧ
ನೆ ಯ</w>
ಗಾ ಂಧ
ಡ ು
ಅಥ ವಾ</w>
ದ್ದ ು</w>
ಸಂ ಬಂಧ
ಒ ಂದ
ಅನ ೇ
ವಿ ಚಾರ
ಡ್ ಡ</w>
ಮಂದ ಿ</w>
ಕ ರಿಸ
ಅವ ನು</w>
ಇ ನ್ನೂ</w>
ಿಸ ಲಾಗಿದೆ</w>
ಕ ಟ್ಟ
ರ್ ಶ
ಸಾ ಮಾ
ಕ ಿ</w>
ಆ ತ
ನ್ ‌
ನಾ ಲ್
ಚ ಿಕ
ರ ೂ
ವಿ ಧ
ವಾ ಹ
ಭಾರತ ದ</w>
ಎಲ್ಲ ಾ</w>
ಅ ಂ
ಲ್ಲ ಾ</w>
ವ ರೆ
ಳ ಿ
ಆಸ್ಪತ್ರ ೆಗೆ</w>
ುತ್ತ ಿದ್ದಾರೆ</w>
ಿಸ ಿದೆ</w>
ಮ ೆ</w>
ಕಾ ಣ
ಅ ತ್ಯ
ರ ೆಯ
ತ ್</w>
ಬ್ ಬ</w>
ಜನ ರು</w>
ಅಧಿಕ ಾರ
ಸರ್ ಕಾರ</w>
ವ ಹಿಸ
ಮಾಡ ಿ</w>
ತ ಪ್ಪ
ಸರ್ ಕಾರ
ರಿಸ ್
ಬ ್ಯಾ
ರ ಿದ
ಿಸ ಿದರು</w>
ನ ನ್ನ
ಿಸ ುವ</w>
ಕ ರ</w>
ಆಯ ್
ಶ ೇ
ಶ ು
ಮಾ ಹ
ಫ ೋ
ಪ ರ
ದ್ ಧ
ತಿ ಯ</w>
ಎಂದ ರು</w>
ಎ ನ್ನ
ಶ ಸ್
ತು ಂಬ
ಕೆಲ ವು</w>
ತಿ ಳಿದ
ಟ್ ಟ</w>
ಚುನಾ ವಣ
ತೆ ಗೆ
ಕ ಂಡ
ನ ೂ
ಜ ೊ
ಮ ್</w>
ಇ ನ್ನ
ಲ ಯ
ಲ ಭ
ಮ ದ
ಪ್ರಕರ ಣ
ಕು ಟು
ಣ ಾ
ಅದ ಕ್ಕೆ</w>
ವಿ ನ</w>
ಟ ೆ
ಉ ಪ
ಹೆ ಚ್ಚಿ
ಕ್ಷ ೇ
ನ ನ್ನ</w>
ಿಯ ೇ</w>
ಿ ತ್
ಪಡ ೆಯ
ಧ ಾರ
ವಿದ್ಯ ಾರ್ಥ
ಟ್ ‌</w>
ಮೂಲ ಕ</w>
ಪಾ ಕ
ಪ ್</w>
ಮಾ ತ್ರ</w>
ಮ ಂತ್ರ
ಿಕ ೆ
ಹ ್
ಅ ಲ್ಲ</w>
ಿರ ುವ
ಖ ಾ
ಪ್ರತಿ ಭ
ಭಾ ಷ
ಗ ಾಗ
ಒ ಳ
ದೇ ವ
ಚಿಕ ಿತ್
ಶಿ ಕ್ಷ
ತ ಂದ
ಿಯ ಾ</w>
ಯ ೇ
ಗೊ ಳ್ಳ
ುತ್ತ ವೆ</w>
ಪಾಕ ಿಸ್
ಕ್ ರಿಯ
ಹೊ ಸ</w>
ಮ ಾರ್
ಬ ೀ
ಕು ರಿ
ಕ ೀ
ಹೇಳ ಿದ್ದಾರೆ</w>
ಗಾಂಧ ಿ</w>
ಅಗ ತ್ಯ
ಷ್ ಟ</w>
ವ ು
ಯ ತ್
ನೆ ಗೆ</w>
ರಿ ಕ
ಮೂ ರು</w>
ತಿಳಿಸ ಿದ್ದಾರೆ</w>
ಇ ಂಡ
ದ ್ರ
ಮೃ ತ
ಒ ಪ್ಪ
ಮಾ ನ</w>
ಗೊ ತ್ತ
ಿ ಗೂ</w>
ರಾ ಹು
ತ ಂಡ
ಎ ಸ್</w>
ಗ ಿ</w>
ಭಾರ ತೀ
ಳ ಿಯ
ಮಂತ್ರ ಿ</w>
ಪ್ರತಿಭ ಟ
ಇಬ್ಬ ರು</w>
ೆಯ ಿಂದ</w>
ದು ಕೊಂಡ
ಆರೋ ಗ
ಲಾಯ ಿತು</w>
ುದ ್ದ
ಭ ೂ
ಬ ್ರ
ಚ ರ್
ನ್ಯಾ ಯಾ
ನ ಂಬ
ಚಾ ರ</w>
ಗಳ ಿಂದ</w>
ಟ ೀ
ತ್ ತ</w>
ಅವ ು
ರ್ ‌</w>
ಪ ಂದ
ಂದ ್ರ
ವ್ಯ ಕ್
ಸ ಂದ
ವಿಶ್ ವ
ಮಾ ತ
ಮಾಡ ಲು</w>
ಬ ಲ
ರಿಸ ಿ</w>
ಪ್ರಕರ ಣ</w>
ತ ಾನ
ಸಿ ನಿಮ
ನಡೆ ದ
ಸಿ ಗ
ಮೊದ ಲ</w>
ಭಾ ವ
ಕೆಲ ಸ
ದೇ ವರ</w>
ತೆ ಗೆ</w>
ಘ ಾ
ರ ೈ
ಜ ಯ
ಕ ಳೆ
ುತ್ತ ಿದ್ದ
ಂತ ಹ</w>
ಿಸ ಲಾಗ
ಸ ಲ್ಲ
ಒ ಳ್ಳ
ಮಕ್ಕ ಳ
ೆಯ ು</w>
ಮುಂದ ುವ
ಂ ಥ</w>
ಕ್ರ ಮ</w>
ಹಲ ವು</w>
ಕ್ ಯಾ
ಕೂ ಡ
ಅನೇ ಕ</w>
ಿದ್ದೇ ನೆ</w>
ಮ ಿ</w>
ಾರ ಿ</w>
ುವ ೆ</w>
ರ ಳ
ನಿ ೕ
ತ ೊ
ಘಟ ನೆ</w>
ಸಂ ಖ
ನಮ ಗೆ</w>
ಹಾ ರ</w>
ದ ೇ</w>
್ ‌</w>
ಹೆಚ್ಚಿ ನ</w>
ಯ ು
ಕ್ ರಿ
ಎ ಂ</w>
ಹೋ ದ
ದ ರ್ಶ
ಕಾರ ಣ</w>
ಫ ಲ
ದೊ ಡ್ಡ</w>
ಅ ಷ್ಟ
2 0
ವ ್ಯಾ
ಬಹ ು
ಸಂ ಗ
ರ ಾ</w>
ನ ಲ್ಲ
ಕೆಲ ಸ</w>
ಸಮ ಸ್ಯ
ಮುಖ ್ಯ</w>
ವ್ಯ ವ
ಯಾರ ು</w>
ಕ್ಕ ಿ
ವ ಶ
ನ ರೇ
ನಿರ ್ದ
ವ ಲ</w>
ಳ ು
ಮ ಗ
ಪೊಲೀ ಸ್</w>
ಚೆ ನ್ನ
ುತ್ತ ಿಲ್ಲ</w>
ಹೆ ಸ
ಸ ಂತ
ರಿ ಗೂ</w>
ದ ೀ
ತ್ ರಿ
ಗ ಣ
ಮಾಹ ಿತಿ</w>
ಗೆ ೂ
ಕ ೀಯ</w>
ಿದ್ದ ಾನೆ</w>
ಕೇ ಂದ್ರ</w>
ಾಯ ಿ</w>
ಲೋ ಕ
ಧ ಾ
ತ ಾ</w>
ಕೆ ೂ
ನ ು
ಯೋ ಜ
ದ ೃ
ಇ ನ್ನು</w>
ಿಸ ುವ
ಬೇ ರೆ</w>
ಿಸ ುತ್ತದೆ</w>
ಹೇಳ ಿದರು</w>
ಸ ೀ
ಎ ದು
ಇದ ೇ</w>
ವ ಲ್ಲ</w>
ಭ ೇ
ೊ ಬ್ಬ
ಲ ಕ್ಷ
ಪಾ ದ
ನಾ ಡ
ನರೇ ಂದ್ರ</w>
ತನಿಖ ೆ</w>
ಹ ತ್ಯ
ರಾಜ ್ಯ</w>
ಭಾರತೀ ಯ</w>
ಕ ಡಿ
ರ್ ಮ
ಮಾ ಣ
ೆಯ ೂ</w>
ೆ ೕ
ಕರ್ ತ
ಸ ೌ
ತುಂಬ ಾ</w>
ದು ಕೊಳ್ಳ
ಿ ತ</w>
ರಾಹು ಲ್</w>
ಮ ಹ
ಬೆ ೕ
ದೇಶ ದ</w>
ತೀ ವ
ಎ ಲ್ಲ</w>
ಗಳ ಿವೆ</w>
ಬೈ ಬ
ಅ ಲ್ಲಿ</w>
ಪ್ರ ಯತ್
ಅವ ಕಾ
ಕೋ ಟಿ</w>
ಾನ ್</w>
ು ಷ
ಸೇ ವ
ಸಮ ಯ
ಸಂಖ ್ಯ
ಹೀ ಗೆ</w>
ಬೇ ಕಾ
ಲ ಾ</w>
ರ ಲ್ಲ
ಸಾ ಕ
ಸ ೈ
ಹ ಿತ
ನೆ ಗಳು</w>
ಎ ಂ
ಉತ್ತ ಮ</w>
ಗಾಯ ಗೊಂಡ
ಆರೋ ಪಿ
ವಿ ಧಾನ
ಚಿ ತ್ರ</w>
ಗ್ರ ಾ
ಕ್ಷೇ ತ್ರ
ಯೋ ಗ
ಮತ್ತ ೆ</w>
ಪ ೋ
ನ ಗ
ಚಿಕಿತ್ ಸೆ</w>
ದ ್</w>
ಿದ್ದೇ ವೆ</w>
ಸ ಿದ್
ವ ್</w>
ಮಕ್ಕ ಳು</w>
ಟ್ ‌
ಅಧ್ಯ ಕ್ಷ</w>
ನಿ ಜ
ಜಿ ಲ್ಲ
ಡ್ ಡ
ಮ ಂ
ನಿಮ ಗೆ</w>
ಿರ ುವುದ
ಶ ್</w>
ಎಂಬ ುದ
ಅ ಭ
ಾ ಪ
ವರ್ ಷ
ರಿಸ್ ಥ
ಪ ರಿಸ್ಥ
ಮುಂದ ೆ</w>
ವ್ಯ ಕ್ತ
ವ ಣೆ</w>
ತೋ ರಿಸ
ಕುಟು ಂಬ
ಕಾ ಲ
ಅ ಮೆ
ಪ ರ್
ಕ ಲ
ಯೆಹೋವ ನ</w>
ಪಂದ ್ಯ
ಪ ರೀಕ್ಷ
ಕೋರ್ ಟ್</w>
ಬಿಡ ುಗ
ಆ ಫ
ಮಹಿ ಳೆಯ
ಲ್ ಯ
ಜ ್</w>
ಉತ್ತ ರ</w>
ಸೂ ಚ
ಇ ಷ್ಟ
ು ಕೊಂಡ
ಹ ಣ
ವಾ ಸ
ತ್ ಯಾ
ಸ ಾರ
ದೇ ಶ</w>
ತ ಿರ
ರ ಸ್
ಕಾರ ್
ಅವ ರ
ರ್ ‌
ಯಾರ ೂ</w>
ಪ ತ್ತ
ಅ ಂದ
ಸಚಿ ವ</w>
ಸಿನಿಮ ಾ</w>
ಯ ುವ
ಯ ಿತು</w>
ಾ ಂ
ಮು ಖ</w>
ಪ ೆ
ಕು ಮಾರ
ಮಾಡ ಿಕೊಳ್ಳ
ರ ವ
ಿಕ ್</w>
ಸ್ ವಾ
ಕ್ಷ ಿ
ಲಿ ನ</w>
ಬಾರ ದು</w>
ನ ಂದ
ಇದ ರಲ್ಲಿ</w>
ೆಯ ಲ್ಲ
ನ ಮ್ಮ
ಲಾಗ ಿತ್ತು</w>
ಬಿಜೆ ಪ
ಂಡ ್</w>
ವ ರಿಗೆ</w>
ಬಹ ುದ
ಕ್ ತ</w>
ಉ ಂಟ
ವಿ ರೋ
ವೈ ದ್ಯ
ರಿ ನ</w>
ಒ ಬ್ಬ</w>
ಗ ಂಭ
ವ ಯ
ಮು ಂಬ
ಂದ ಾಗಿ</w>
ಬ ಯ
ವ ನ್ನ
ಪರಿ ಣಾ
ನ್ ಯ</w>
ೆ ಗಳು</w>
ಸ ಮಾ
ನ ದ</w>
ಕೇ ವಲ</w>
ಆರೋ ಪ
ಪಡೆ ದ
ವೇ ಶ
ಮ ಿತ
ಮ ಧ್ಯ
ಮುಖ್ಯ ಮಂತ್ರಿ</w>
ಬಿ ಟ್ಟ
ನಾ ಟ
ಣ ಿ</w>
ವಾಗ ಿತ್ತು</w>
ಬ ು
ೂ ಡ
ಸ್ವ ಲ್
ವ ೇಳ
ಟ ರ್</w>
್ರ ೆ</w>
ವಾಗ ಿರ
ನಾಯ ಕ</w>
ವಿ ಶೇ
ವರೆ ಗೆ</w>
ಮ ೈ
ಗಂಭ ೀ
ಗಳ ಾಗ
ಅತ್ಯ ಂತ</w>
ಮ ಟ್ಟ
ಿದ ನು</w>
ಹೆ ೕ
ಮುಂದ ಿನ</w>
ಪ ದ
ಗ್ ಗ
ಆ ಡ
ರಿ ಕೆ</w>
ಮಾ ಜಿ</w>
ಚ ೀ
ಗಳ ಿ
ಶ ೋ
ಮ್ಮ ೆ</w>
ಒ ಬ್ಬ
ರೆ ದ
ತೀ ರ್
ತ ಮಿ
ಆಗ ಿದೆ</w>
ಸ್ ಟ್</w>
ಸಾಧ್ಯ ವಿಲ್ಲ</w>
ದಿ ನ</w>
ಣ್ ಣ</w>
ೆ ವು</w>
ುತ್ತ ಾನೆ</w>
ಂ ಗ</w>
ಪ ೌ
ಿದ್ದ ೆ</w>
ಮಾತ ನಾಡ
ುತ್ತ ಾ</w>
ಬೇ ಕೆ
ಕ್ ‌</w>
ಏ ಕೆ</w>
ಿಸ ಿಕೊಳ್ಳ
ದಲ್ಲ ೇ</w>
ೇ ನು</w>
ಸಿ ಂಗ್</w>
ತ ನ</w>
ಗ ಾರ
ೆಯ ಾಗಿದೆ</w>
ಮಾಡ ಿದ್ದಾರೆ</w>
ಪ್ರ ಯಾ
ತಿ ಕ</w>
ಆದ ್ದ
ುವ ು</w>
ನೀ ರು</w>
ಬಾರ ಿ</w>
ಕುರಿ ತು</w>
ುತ್ತೇ ನೆ</w>
ಸಂ ಭವ
ಲಾಗ ುತ್ತದೆ</w>
ಲ ಿದ್ದಾರೆ</w>
ಮ ತ
1 9
ಸಾಕ ಷ್ಟು</w>
ಸಹ ಾಯ
ನ್ ನಿ
ನಿರ್ದ ೇಶ
ದ ಯ
ಹೆ ೂ
ಯೇ ಸು</w>
ಮಿ ಕ</w>
ಬ ಿ</w>
ಸ್ಥ ಾನ</w>
ಬಾ ಲ
ಘ ೋಷ
ಗ ೌ
ಿಸ ಿಕೊಂಡ
ಹ ೈ
ಆ ಟ
ಸಿ ಕ್ಕ
ವೃ ದ್ಧ
ಲ್ ಪಟ್ಟ
ಕ್ರ ೈ
ಕ ಂಪ
ಿ ಲ್ಲ
ಸಿದ್ ಧ
ಸ ಾಗ
ರೂ ಪ
ಬಳ ಸ
ಹ ೌ
ಬೇಕ ಾಗ
ಬೆ ಳ
ನಿ ರೀಕ್ಷ
ನ ಟ
ೆ ಂದು</w>
ಸಾ ವು</w>
ಮಾರ ು</w>
ಪ್ರಯತ್ ನ
ಕಾ ನೂ
ಸಂ ಸ್ಥ
ಮ ಲ
ತಾ ನ</w>
ೀ ಯ
ಿಸ ಿದ್ದರು</w>
ಹಾಗ ೆ</w>
ಷ್ ಠ
ಪೂರ್ ಣ
ಕ ಣ್ಣ
ಒ ತ್ತ
ಆ ತ್ಮ
ಮನ ಸ್
ಚರ್ ಚ
ವಿ ಧ</w>
ುತ್ತ ಿರುವ</w>
ಿದ್ದ ವು</w>
ಾರ ಂಭ
ಆದ್ದ ರಿಂದ</w>
— ⁠</w>
ಸಾಧ್ಯ ವಾಗ
ವ ರನ್ನು</w>
ನೆ ರ
ಈ ಗಾಗ
ಅ ರ್ಥ
ಸು ಮಾರು</w>
ತಿಯ ನ್ನು</w>
ಕೆ ಟ್</w>
ಆದ ರೂ</w>
ಸು ಪ್ರೀ
ಸಮಸ್ಯ ೆ</w>
ತ್ರ ಿ</w>
ಇ ಂತಹ</w>
1 0</w>
ಲ ೈ
ಪ್ರಶ್ ನ
ನಿ ರಾ
ಜ ಾಗ
ಉ ತ್
ಿಸ ಬೇಕು</w>
ಾ ಯ</w>
ಪ್ರ ಮುಖ</w>
ಜ ೋ
ವಾರ ು</w>
ಕ್ ತಿ</w>
ಿದ್ದ ರೆ</w>
ನ್ನ ೆ
ದೆ ಹ
ಸಭ ೆ</w>
ಯೆಹೋವ ನು</w>
ಮಾಡ ುವ</w>
ನ್ ಸ್</w>
ದೂ ರು</w>
ಎ ಚ್ಚ
ವ್ಯವ ಸ್ಥ
ರಾಷ್ಟ್ರ ೀಯ</w>
ಗಳ ಲ್ಲ
ಅ ನ್ನು</w>
ಪ ತ್
ಡ ು</w>
ಗ ಮನ
ಸ್ವಲ್ ಪ</w>
ಶಾ ಂತ
ಮಾಡ ಿದ</w>
ುದ್ ಧ
ಬೇ ಡಿ</w>
ಕ ರೆ
ಂ ಗಳ
ು ಕೊಳ್ಳ
ಾರ ು</w>
ಹಲ ವಾರು</w>
ಸಾಮಾ ಜ
ರಾಜ ಕೀಯ</w>
ಬದ ಲಾ
ಕೈ ಗೊಳ್ಳ
ಿರ ುವುದು</w>
ಸ ಹಾ
ಮೃತ ಪಟ್ಟ
ಬಂದ ಿದೆ</w>
ಕಾ ಶ್
ಿಸ ಿತು</w>
ವೇಳ ೆ</w>
ಲ್ ಪ
ರ ಚ
ಸಹಾ ಯ</w>
ಶ್ರ ೀ
ಸಾಮಾಜ ಿಕ</w>
ಪೊಲೀಸ ರಿಗೆ</w>
ಕೊ ಟ್ಟ
ಎಂಬ ುದು</w>
2 0</w>
ುತ್ತೇ ವೆ</w>
ಸ ಹೋದ
ಮ ರ
ಪ್ರ ತಿಯ
ಸ್ ತ್ರ
ರಾ ದ</w>
ಪಾ ತ್ರ
ನೀ ವು</w>
ನ ವ
ಭ ು
ತ್ ವ</w>
ಅದ ೇ</w>
ುತ್ತ ಿದ್ದರು</w>
ದ ಾರ
ಅಧ್ಯ ಕ್ಷ
ೆ ೕ</w>
ಿಸ ಿ
ಾ ಳೆ</w>
ವಿ ವಿಧ</w>
ಚಾ ಲ
ಏ ನ
ಆಯ್ ಕೆ</w>
ಸ್ಟ ್ರ
ಲಾ ಖ
ಬೆ ಂಬ
ು ವಿ
ಹ ೃ
ಸ್ಪ ರ್
ಸ್ ತು
ಬೆ ಲೆ</w>
ರ್ ಭ
ಟ ಾ
ಲಾಗ ುವುದು</w>
ಮನ ುಷ
ಬ ದು
ನನ್ನ ನ್ನು</w>
ಅಭ ್ಯ
5 0</w>
ಚಿತ್ರ ದ</w>
ಹೀ ಗಾಗಿ</w>
ಬ ೋ
ಗ ಿನ</w>
ಅನು ಭವ
ರಿ ಯಾ
ರ ದಲ್ಲಿ</w>
ಫ ್
ಜ್ಞ ಾನ
ಕ ಡ
ಏ ನೂ</w>
ಆರೋಗ ್ಯ</w>
ಿದ ು</w>
ಮಾ ತು
ಇ ಲಾಖ
ಳ್ಳ ಿ</w>
ನ್ಯಾ ಯ
ನ್ನ ೇ</w>
ನಾಲ್ ಕು</w>
ಕೆ ಯ</w>
ಕರ್ ನಾಟ
ಇ ಡ
ವ ನ್ನೂ</w>
ನೀಡ ಿದ್ದಾರೆ</w>
ಅ ಂತ</w>
ಹತ್ಯ ೆ</w>
ಸೇ ರಿದ
ಬೆ ಂಕ
ನೋ ಡಿ</w>
ನ ೆಯಲ್ಲಿ</w>
ಡ ಾ
ಗು ಣ
ಈಗಾಗ ಲೇ</w>
ಹು ಡು
ಸ ಲ
ಲ್ ‌
ಬೈಬ ಲ್‌</w>
ಗಳ ೂ</w>
ವಾ ಯಿತು</w>
ಪು ನ
ತೀವ ್ರ</w>
ಖ ಂಡ
ಕಾಶ್ ಮೀ
ಹೇ ಗೆ</w>
ಲ ಕ್ಷ</w>
ಬ ಂ
ಪೂರ್ ಣ</w>
ಲಾಗ ುತ್ತಿದೆ</w>
ಲ ಯ</w>
ಮ ೌ
ತು ಂಬ</w>
ಕಡಿ ಮೆ</w>
ಇಂಡ ಿಯಾ</w>
ಅಭ್ಯ ರ್ಥ
ಬಯ ಸ
ಕುಮಾರ ್</w>
ಉ ಳಿದ
ಇರ ಲಿಲ್ಲ</w>
ಸ್ಪರ್ ಧ
ರ ದ</w>
ಹಾರ ಾ
ಪ್ರ ಶಸ್
ಪ್ರ ದೇಶ
ಜ ೆ</w>
ಸಭ ಾ</w>
ವಿದ್ಯಾರ್ಥ ಿ
ರಿ ಯ</w>
ಭ ದ್ರ
ಪಾಕಿಸ್ ತಾನ
ಪಾ ಲ
ತಿ ಹಾ
ಚ ರ
ಇ ವರು</w>
ಸದ ಸ್ಯ
ಪ್ಪ ು</w>
ತ ನ
ಇ ಸ
ಿಯ ಾಗಿ</w>
ಹೌ ದು</w>
ರ ವಾಗಿ</w>
ಮಾಡ ಿದೆ</w>
ಗು ರು
ಕ ಷ್ಟ
ಉ ದಾ
ಅ ಂಗ
ಸಂ ಪರ್
ಸ ುದ್ದ
ಶ ಾ</w>
ವಿ ಯ
ಎ ಷ್ಟು</w>
ಇ ವೆ</w>
ಸಮ ಸ್
ವಿಚಾರ ಣೆ</w>
ನಡೆದ ಿದೆ</w>
ಸಭ ೆಯಲ್ಲಿ</w>
ಠ ಾ
ಕ ಟ
ಂ ಟ್</w>
ರಿ ಕ</w>
ಮಾಡ ಲಾಗಿದೆ</w>
ಕಾರ್ಯ ಕ್ರಮ
ಎಲ್ಲ ರೂ</w>
ಬ ್ದ
ದೇ ಹ
ಚೆನ್ನ ಾಗಿ</w>
ೂ ರು</w>
ಸ್ಥ ಿತ
ಬ ಲ್ಲ
ನಿ ಧ
ನಡೆ ದ</w>
ದ ರೂ</w>
ಡ ಗ
ಉ ದ್ಯ
ೆ ಗಳನ್ನು</w>
ಹಾಕ ಿ</w>
ಮ ಾ</w>
ತ ೆಯನ್ನು</w>
ತ ಂಡ</w>
ಶಾ ಸ
ಪ್ರ ವಾ
ಪಾಕಿಸ್ ತಾನ</w>
ಇ ಂಗ್
ಅದ ರಲ್ಲಿ</w>
ೇ ಲ
ಮಾಡ ುವ
ಬಂ ಧ</w>
ತ ೂ
ಎರಡ ನೇ</w>
ಉ ದ್ದ
ಅಧಿಕಾರ ಿಗಳು</w>
ಮೂ ವರು</w>
ುತ್ತ ಿತ್ತು</w>
ವಶ ಕ್ಕೆ</w>
ಮೊದ ಲು</w>
ಪರಿಸ್ಥ ಿತಿ</w>
ತಿಳಿಸ ಿದರು</w>
ಣ ದಲ್ಲಿ</w>
ಆ ರ್ಥ
ಹು ಟ್ಟ
ಸಮಸ್ ಯೆ
ನ್ಯಾಯಾ ಲಯ
ದೆಹ ಲಿ</w>
ಕೆ ಳ
ಆರೋಗ ್ಯ
ಅವ ಳು</w>
ಪ್ರ ಮಾಣ
ಉದಾ ಹ
ಸ ತ್ಯ
ನಿ ಲ್ಲ
ತ ೃ
ಡ ೆಯ
ಸಾ ಕ್ಷ
ವಿಶೇ ಷ</w>
ಲಭ ್ಯ
ಮಾಡ ಿಕೊಂಡ
ನ ದಲ್ಲಿ</w>
ತಿ ಳಿಯ
ಗ ೇ
ಕಾರ ಿ</w>
ಹೋ ರಾ
ರಾಜ ೀ
ಮಾರ್ ಗ
ಫೋ ಟ
ಪ್ ಪ</w>
ಂದ ಲೂ</w>
ು ಗಳು</w>
ಿಸ ುವುದು</w>
ಸ ಾರ್
ತ ೇ
ಅ ತಿ</w>
ಹಿ ಂ
ಮ ನೆ</w>
ಪ್ರತಿ ಕ್ರಿಯ
ನ ೆಯ
ಧ ಾನ</w>
ತ್ತ ಿ
ಂಕ ್</w>
ಸ್ಪ ಷ್ಟ
ತೆ ಯ</w>
ತ ಾಯಿ</w>
ಕ ಥ
: 1
ಿಯ ು</w>
ಿಕೆ ೂ
ಭೇ ಟಿ</w>
ತಿಯ ಲ್ಲಿ</w>
ಣ ಾ</w>
ಜ ೈ
ಸಿ ನಿ
ಪ್ರಯಾ ಣ
ಪ್ರ ೇ
ದೇ ವರು</w>
ವಾಹ ನ
ಮಾ ದ
ನಡ ುವೆ</w>
ನ ಂತ
ತ ೊಂದ
ಮಾಡ ಬೇಕು</w>
ಪ್ರತಿಭಟ ನೆ</w>
ತ್ವ ದ</w>
ಚ್ ಛ
ಗು ಂಡ
ಿರ ು
ಮಾಡ ಿದ
ಕಾಂಗ್ರೆ ಸ್‌</w>
ಅ ನ್ನ
ಬೇ ಡ</w>
ಕ ತ್ತ
ೀ ರಿ</w>
ಪ ೇ
ದ ಂತೆ</w>
ಕ್ ಸ್</w>
ಕಾ ಲ</w>
ೋ ಣ</w>
ವಾಗ ುತ್ತದೆ</w>
ಯ ಶಸ್
ಭಾಗ ವಹಿಸ
ತ ೆಯ
ವಿಷ ಯ</w>
ಮಾರ ು
ನಿ ನ್ನ</w>
ಘಾ ತ
ಿರ ುತ್ತದೆ</w>
ಮಹಿ ಳ
ಮ ಹಾರಾ
ಪ ಾರ
ನಿ ಮ್ಮ
ಜ ಗ
ಎರಡ ೂ</w>
ಆ ರ್</w>
ವಯ ಸ್
ವ ಹ
ವ ಜ
ಮನುಷ ್ಯ
ಿಸ ುವುದ
ಸೇರಿದ ಂತೆ</w>
ಮದ ುವ
ಫ ್</w>
ನಿ ಗ
ನಾ ದ</w>
1 0
ಶಿ ವ
ರ್ ತ
ದೂ ರ
ಡ ೇ
ಜೊ ತೆ</w>
ಚ ೇ
ೃ ಷ್ಟ
ಿಕ ವಾಗಿ</w>
ಾಯ ಿತು</w>
ಹೊ ಂದ
ಮಾಡ ುತ್ತದೆ</w>
ಪರಿ ಶೀ
ನೀ ನು</w>
ಎಲ್ಲ ವೂ</w>
ಾದ ರೂ</w>
ಸ್ಥಳ ಕ್ಕೆ</w>
ಷ್ಟ ೇ</w>
ಶ ್ಯ
ಫ ೈ
ಅವಕಾ ಶ</w>
ಅಭಿ ವೃದ್ಧ
ಅಗ ತ್ಯ</w>
ರ್ ಜ
ರಾ ಮ
ಮ ಂಡ
ಂ ಥ
ಸ್ ನೇ
ವಿರೋ ಧ
ರ ಷ್ಟು</w>
ಧ ರಿಸ
ಖಾ ಸ
ಒ ಟ್ಟು</w>
ಆತ ನು</w>
ಂದ ಲೇ</w>
ರ ಾಗಿ</w>
ಬ ್</w>
ಪ್ರ ತಿ</w>
ಪಕ್ಷ ದ</w>
ಪ ೈ
ಚುನಾ ವಣೆ</w>
ಗೆ ದ್ದ
ುವ ಂತ
ೀ ಕರಿಸ
ಸಿ ಬ್ಬ
ಷ್ ಠ</w>
ಪ ತಿ</w>
ಕ್ ಕ</w>
ಹಿಂದ ೆ</w>
ಸಿಬ್ಬ ಂದ
ಸಂಖ್ಯ ೆ</w>
ಳ ಿದ</w>
ಯಾ ಕೆ</w>
ಒ ದ
್ರ ಾ
ರೀ ತಿಯ</w>
ಯೋ ಚ
ಯ ್ಯ
ಪ ೀ
ನಿ ಕ</w>
ನಿ ಂತ
ತ ಕ್ಷ
ಜ ು
ಕಳೆ ದ</w>
ಅವ ನಿಗೆ</w>
ಸಂದ ರ್ಭ
ಶ ೇ</w>
ಪರಿ ಗಣ
ತ್ ರಿಯ
ಿಸುತ್ತ ೇ
ಸಾ ಂ
ವಾಗ ಿಲ್ಲ</w>
ರ ನ್</w>
ಬ ಿದ್ದ
ನೆ ಗಳನ್ನು</w>
ತ ಯಾರ
ಎಂಬುದ ನ್ನು</w>
ಿಯ ಿಂದ</w>
ಲ ಿಗೆ</w>
ಪ್ರೀ ತ
ಪ್ರ ಾಯ
ಜನ ರಿಗೆ</w>
ಕಾ ಲೇ
ಇದ ೊಂದು</w>
ಹ ಂತ
ವನ್ನ ಪ್ಪ
ದ ರು</w>
ತೆಗೆ ದುಕೊಳ್ಳ
ತ ಾರ
ಗೊ ಂಡ</w>
ಕೆ ಂದರೆ</w>
ಇಸ ್ರ
ಇ ತಿಹಾ
ೊ ಳ
ಹಾಗ ಾಗಿ</w>
ಸರ್ಕಾರ ದ</w>
ರ ೇ</w>
ಮಾ ಧ್ಯ
ಬೆ ಂಗಳ
ಬ ಂದ</w>
ಪು ಸ್ತ
ಕ ನ
ರಾ ಧ
ರ ೊಂದಿಗೆ</w>
ದಾಖಲಿಸ ಲಾಗಿದೆ</w>
ಚ ಿತ
ಎ ಸ್‌
ಹೀ ಗ
ಹಾ ಜ
ಸಿನಿ ಮಾ
ಸಂ ಬಂಧ</w>
ಸ ೊ
ಮಕ್ಕ ಳ</w>
ಪ ಕ್ಷ</w>
ಓ ದ
ಸ್ ತ</w>
ಲ ೆಯಲ್ಲಿ</w>
ಬೇ ಕು</w>
ಜ ು</w>
ಕ ಳು
ಒದ ಗ
ಿಸುತ್ತ ಾರೆ</w>
ಸಾ ವನ್ನಪ್ಪ
ಸಂಗ ೀ
ಮೋ ದ
ಪ್ರ ಾರ್ಥ
ಪ್ರ ದೇಶ</w>
ಕೆಲ ವರು</w>
ಆದ ್ರೆ</w>
ಧ ರ್ಮ
ಟ ು</w>
ಎದು ರಿಸ
್ಯ ೂ
ುತ್ತ ಿದ್ದ</w>
ಿಯ ಲ್ಲ
ಾ ಡ
ಾ ಂತ
ಮು ಗ
ಭಾರತ ದಲ್ಲಿ</w>
ೊ ಬ್ಬ</w>
ಸೇ ರ
ಸು ರಕ್ಷ
ಸಾ ಮ
ನಡೆಯ ುತ್ತಿದೆ</w>
ನ ಟಿ</w>
ಣ ಿ
ಖಾಸ ಗಿ</w>
ಇಬ್ಬ ರೂ</w>
ಮಾ ತಾ
ಭ ರವ
ನೀಡ ಿದ</w>
ತ್ ‌</w>
ಚುನಾವಣ ೆಯಲ್ಲಿ</w>
ಕ ತೆ</w>
ಒ ಟ್ಟ
ಎ ಸ್
ಆ ಹಾರ</w>
ಅ ಮಿತ
ಿಯ ಾ
ಸು ಳ್ಳ
ಸ ುವ
ದಾ ಳಿ</w>
ತ ಂತ್ರ
ವಾಗ ಿಯೂ</w>
ಮೂ ರ
ಬೆಂಕ ಿ</w>
ಬೆ ಳೆ
ಪಾ ಲ್
ಂಗ ಾ
ಬಂದ ಿಲ್ಲ</w>
ತೆ ಲ
ಡ್ ‌</w>
ಕ್ಕಿ ಂತ</w>
ಜೊ ತೆಗೆ</w>
ಅಮೆ ರಿಕ
ೊ ಮ್ಮೆ</w>
ುತ್ತ ಿವೆ</w>
ಿಸ ಿತ್ತು</w>
ಿದ್ದ ರೂ</w>
ಿತ ಾಂ
ಸದ ್ಯ</w>
ನೆ ನ
ನಾ ಥ
ದೃ ಷ್ಟ
ತಿ ಗೆ</w>
ಡ ಾ</w>
ಆತ ನನ್ನು</w>
ಅವು ಗಳನ್ನು</w>
ಮಾಡ ಬಹುದು</w>
ಮಾ ಣ</w>
ಬೇಕೆ ಂದು</w>
ಜ ೇ
ಾಗ ಿದ್ದಾರೆ</w>
ಾಗ ಿತ್ತು</w>
ವಿ ಗೆ</w>
ವಾ ಸ್ತ
ರಾಜ್ಯ ದ</w>
ಯೋ ಜನ
ಫ ೇ
ಜಾ ಲ
ಅವಕಾ ಶ
ಅಲ್ಲ ದೆ</w>
ಹಿ ಡ
ಮ ನೆಗೆ</w>
ತಂದ ೆ</w>
ಕಾನೂ ನು</w>
ಕ ೌ
ಐ ದು</w>
ಹ ೂ
ಸಂತ ೋಷ
ವೃ ತ್ತ
ಲ್ ಯಾ
ರಾಜೀ ನಾ
ನ ೈ
ದಾ ಳ
ಕ್ ರಿಸ್
ಉ ಗ್ರ
ಆ ಕೆ</w>
ೇ ಶ</w>
ಸ ುತ್ತ
ಮು ನ್ನ
ದ ಕ್ಷಿ
ಕ್ ಯ
ಕೂಡ ಲೇ</w>
ಕ ಡೆ
ಒಂದ ೇ</w>
1 5</w>
ಿ ಗಳನ್ನು</w>
ಷ್ಟ ್ರ</w>
ರೆ ೂೕ
ಮೆ ೂ
ಮಾ ತ್ರ
ನೀಡ ಿದೆ</w>
ಚ ್</w>
ಕ್ಕ ಿ</w>
ಉದಾಹ ರಣ
ಾದ ರೆ</w>
ಸ ರಿಯ
ವಿ ಜಯ
ಲ್ ಪಡ
ಯಾರ ಿಗೂ</w>
ಪ್ರ ಕಟ
ಕೊ ಲೆ</w>
ಇ ತ್ತು</w>
ಿಸುತ್ತ ಿದ್ದಾರೆ</w>
ಸೆ ೕ
ಲಿ ವು
ರಿ ಬ್ಬ
ಮ ಳೆ</w>
ಬೇಕಾ ದ</w>
ಪ್ರಶ್ ನೆ</w>
ತೊ ಡಗ
ಕೊ ಹ್
ಅ ರ
2 5</w>
ಷ ೇ
ಮ ್ಯಾ
ಬ ಣ್ಣ
ಫಲ ಿತಾಂ
ದಲ್ಲ ಿರುವ</w>
ುವುದ ನ್ನು</w>
ಲಕ್ಷ ಣ
ರಾ ಯ
ನಿಯ ಂತ್ರ
ಡ ುಗ
ಟ್ರ ೋ
ಕೇ ಂದ್ರ
ಆ ಸ್ಟ್ರ
ಂಗ್ ‌</w>
ಿಕ ಾ</w>
ಿ ೕ
ಸಮ ುದ
ರ ಕ್ತ
ಮು ಚ್ಚ
ಪರಿಣಾ ಮ</w>
ತ ಾಯ
ಗ ೃ
ೋ ದ
ಸಿ ನ</w>
ಮಾಡ ುವುದು</w>
ಭ ಯ
ಬೇ ಡ
ಬಂಧ ಿಸಿದ್ದಾರೆ</w>
ಣ ೆ
ಗೆ ಲ
ಕ ನ್ನ
ಿಸಿದ ಂತೆ</w>
ಸರ ಕಾರ
ವ್ಯಕ್ತ ಪಡಿಸ
ವ ಾರ್
ಭಾರತ ಕ್ಕೆ</w>
ಭಾರ ೀ</w>
ಕಂಡ ು
ಮ ಗಳು</w>
ಬ ರೆದ
ಪ್ರೀ ತಿ</w>
ಗಳ ೆ
ಕ್ರೈ ಸ್ತ
ಅಂತ ಿ
ಅಂ ಶ
ಅ ಂದರೆ</w>
್ ‌
ಿಕೊಂಡ ಿದ್ದಾರೆ</w>
ಸ್ ಲಿ
ಸಿ ದ</w>
ಸಾಮಾ ನ್ಯ</w>
ಸರ ಕಾರ</w>
ವಿರುದ್ ಧ
ವಿದ್ಯಾರ್ಥ ಿಗಳು</w>
ಲ್ಲ ದೆ</w>
ರಾಗ ಿದ್ದಾರೆ</w>
ಮಾಡ ಿದರು</w>
ನೇ ಮ
ತ್ತ ೀ
ಗ ಂಡ
ಉ ದ್
ಿ ಗಳ</w>
ಹೆಸ ರು</w>
ಸಾಧ ್ಯ</w>
ವೈ ರ
ಜ ಾರ
ಕುಟು ಂಬ</w>
ಕಳು ಹಿಸ
ಇವ ು
ಹ ತ್ತ
ಸಾರ್ ವಜ
ಸ ೃಷ್ಟ
ಸ ಣ್ಣ</w>
ರಿ ನಲ್ಲಿ</w>
ಬ್ಯಾ ಂಕ್</w>
ಬಿಜೆಪ ಿಗೆ</w>
ಇ ಂಥ</w>
ಾ ರ</w>
ಸ ಿಯ
ಮಾತಾ ಡ
ಪೊಲೀಸ ರ</w>
ದಲ್ಲ ಿದೆ</w>
ಜ್ಞ ಾನ</w>
ಅರ್ ಜಿ</w>
ಹೊಂದ ಿದೆ</w>
ಸಿ ಬಿ
ಲ ೂ
ಫ ಿ
ಜನ ರನ್ನು</w>
ಚ ಲ
ಓ ದಿ</w>
ಾಗ ಿ
ಹೃ ದಯ
ಷ ್ಯ
ಮ ರಣ
ಪ್ರ ಾರಂಭ
ಪ್ರ ಧಾನ</w>
ಪ ೋಷ
ಕಾರ ್ಯಾ
ಒಳ್ಳ ೆಯ</w>
ೆ ಗಳಲ್ಲಿ</w>
ಸಂಬಂಧ ಿಸಿದಂತೆ</w>
ಶೀ ಘ
ವರ ದ
ರೋ ಗ
ಮುಂಬ ೈ</w>
ಮನ ೆಯಲ್ಲಿ</w>
ಭ ್ರ
ನ ಯ
ಕಾಯ ್ದ
ಿಸ ಿಲ್ಲ</w>
ಿಯ ನ್</w>
ಿದ್ದ ಾಳೆ</w>
ವರ ದಿ</w>
ರಿ ದ</w>
ನಿರಾ ಕರಿಸ
ದ ರ
ಕು ಡಿಯ
ಇದ ುವ
ಅತ್ಯ ುತ್ತ
ಿಕೊಂಡ ು</w>
ಸ ರಿ</w>
ವಿ ಡಿಯ
ನ ಲ್</w>
ಜ ವಾ
ಕಾರ ು</w>
ಎಂದ ಿದ್ದಾರೆ</w>
ಆಸ್ಪತ್ರ ೆಯಲ್ಲಿ</w>
ಆರ್ಥ ಿಕ</w>
ಅಮಿತ ್</w>
ಸ್ಥ ಿತಿ</w>
ಳ ಿತ
ರಾಜ್ಯ ದಲ್ಲಿ</w>
ರಾಜೀನಾ ಮೆ</w>
ಆಗ ಿತ್ತು</w>
ಆ ರು</w>
್ರ ು</w>
ಿಸ ು</w>
ಶ್ರ ೀ</w>
ತಮಿ ಳು</w>
ಗ ೀ
ಕೆಲ ವ
ಇರ ುತ್ತದೆ</w>
ಅಧ್ಯ ಯ
ುವ ದ
ಸ್ಥ ಾಪ
ಮಿ ಶ್ರ
ಬಿಡುಗ ಡೆ</w>
ನ್ಯ ೂ
ಕ್ ‌
ಕ ವಾಗಿ</w>
ಇಲಾಖ ೆ</w>
ೆ ೂ
ಿಸ ಬಹುದು</w>
ಸ್ ಕೃ
ಸುಪ್ರೀ ಂ</w>
ತ ಡೆ
ಗೊಂಡ ಿದೆ</w>
ಗಾಯಗೊಂಡ ಿದ್ದಾರೆ</w>
ೋ ಗ
ಾ ಟ
ಸಮಯ ದಲ್ಲಿ</w>
ವಾಹ ನ</w>
ರ ೊ
ಮಾರು ಕಟ್ಟ
ಬದು ಕ
ಪ್ರಶಸ್ ತಿ</w>
ದ್ಯ ಂತ</w>
ದಲ್ಲ ೂ</w>
ದ ವ
ಣ ೆಗೆ</w>
ಎಲ್ಲ ರಿಗೂ</w>
1 2</w>
ುವ ಾಗ</w>
ವರೆ ಗೂ</w>
ನಿರ್ ಣ
ಅಗತ್ಯ ವಿದೆ</w>
ಂಟ ು</w>
ಿಯ ಾಗಿದೆ</w>
ರು ಷ
ರ ಂಗ
ಬಾ ಲಿವು
ನ ಕ್ಕೆ</w>
ಧ ಿಕ
ದಕ್ಷಿ ಣ</w>
ಕೇ ರಳ
ವ್ಯಕ್ ತಿ</w>
ಮು ಸ್ಲಿ
ನ ವನ್ನು</w>
ಚಿ ಂತ
ಕೊಹ್ ಲಿ</w>
ಏ ಕೆಂದರೆ</w>
ಈ ಗ
ಇದ್ದ ಾರೆ</w>
ಇಡ ೀ</w>
ಸೇ ರಿಸ
ವಿ ವರ
ವ ರಿಸ
ಪ ು</w>
ತ ಿದ
ಣ್ಣ ು</w>
ಏ ಕ
ಉ ಲ್ಲ
ಇಸ್ರ ಾಯ
ಅವ ಳ
ಅ ನ್
ಂ ಕ</w>
0 00</w>
ಿಸ ್</w>
ಹಣ ಕಾ
ಹ ಕ್ಕ
ವಿದ ್ಯಾ
ಳಿ ತ</w>
ಮ ನೆ
ಬಿ ಟ್ಟು</w>
ಫ ೆ
ಪೂರ್ ವ
ಪುಸ್ತ ಕ
ಪ ತ್ರ
ನಿ ಜ</w>
ಗು ಜ
ಗಳ ನ್ನೂ</w>
ಇನ್ನ ೊಂದು</w>
ತ್ಮ ಕ</w>
ಕ ನ</w>
ಆ ಧಾರ
ಅ ಳ
ುತ್ತ ೆ</w>
ಿಸ ಿದ್ದ
ಹೊ ಡೆ
ಸು ಲಭ
ವೇ ನು</w>
ಮ್ಮ ು</w>
ಪು ಟ</w>
ನ ೆಯನ್ನು</w>
ಗೆ ಲ್ಲ
ಇ ತರ
ಅಪ ಾಯ
ಂ ಜ
ೆ ಲ್ಲ</w>
ಹಾಗ ೆಯೇ</w>
ಸ್ನೇ ಹಿತ
ಲ ೆಗೆ</w>
ಮದ ುವೆ</w>
ಬಂಧ ನ</w>
ಪ್ರ ತ್ಯ
ಗೊ ಂಡ
ಆ ರ್
ೆ ಲ್ಲ
ಲಾ ದ</w>
ಕ್ರಿ ಕೆಟ್</w>
ಕಾರ್ಯ ದರ್ಶ
ಎ ತ್ತ
ಆಸ್ಟ್ರ ೇಲ
ಆರೋ ಪಿ</w>
ಆ ಸ
ಂ ಬಿ
ಸಾಮಾ ನ್ಯ
ಯೇ ಸು
ಮಾಡ ಿಲ್ಲ</w>
ಬದ ಲಾಗ
ನೆ ೕ
ನಿರ್ ಮ
ಕಾರ ್ಯ</w>
ಇರ ುವ</w>
ಿಸ ಿದ್ದು</w>
ಹಿ ರಿಯ</w>
ವಿ ರಾ
ಮಹಿಳೆಯ ರು</w>
ಪ್ ತ
ಪಡ ಿಸಿದ್ದಾರೆ</w>
ಠ ಿ
ಗುಜ ರಾ
ಇದ ರಿ
ೆಯ ಿ
ಿರ ಬೇಕು</w>
ಿರ ಬಹುದು</w>
ಹ ಚ್ಚ
ಯಾ ವಾಗ
ಮಾ ತು</w>
ಫೋ ನ್</w>
ದ ವರು</w>
ಚಿ ತ</w>
ಗ ಟ್ಟ
ಇದುವ ರೆ
ಾನ ಿ</w>
ಹೋಗ ಿ</w>
ಸ ದ್ಯ
ಶ ಕ್
ಪ್ರ ದರ್ಶ
ಪ್ ‌</w>
ಪರೀಕ್ಷ ೆ</w>
ಪರಿಶೀ ಲ
ಧಾ ರ</w>
ತಿ ಂ
ತ ಲೆ
ತ ಂ
ಚುನಾವಣ ಾ</w>
ಕರ ಣ</w>
ಇಸ್ರಾಯ ೇ
ಅತ್ಯುತ್ತ ಮ</w>
ಅ ನಿ
್ಯ ದ</w>
ಸೋ ಂಕ
ಸೇ ನೆ</w>
ಸಂಪರ್ ಕ
ಮಕ್ಕಳ ಿಗೆ</w>
ಮ ಗು
ಪತ್ ನಿ</w>
ನ ೋ</w>
ತೀವ ್ರ
ಗೆಲ ುವು</w>
ಕಾರ್ಯ ಕರ್ತ
ಅ ತ್ಯಾ
್ಟ ್</w>
ವಿ ಮಾನ</w>
ರೇ ನು</w>
ರ ಳ</w>
ಯಾವ ುದು</w>
ಮ ಳ
ಬಹ ಳ
ತಪ್ಪ ು</w>
ಜಿ ಲ್ಲಾ</w>
ಜಾಲ ತಾ
ಉತ್ತ ರ
ಅಮೆ ರಿಕ</w>
ಅ ಗ್
1 1</w>
ಿಸಿದ ನು</w>
ಹ ಂಚ
ರಸ್ ತೆ</w>
ರಕ್ಷ ಣಾ</w>
ರ ಿದ್ದರು</w>
ಪಾ ಡ
ನಮ್ಮ ನ್ನು</w>
ಗಂಭೀ ರ</w>
ಕ ರಿಗೆ</w>
ಅಷ್ಟ ೇ</w>
ಿ ಗ
ಲ್ ಯ</w>
ಲೆ ಂಡ್</w>
ಯೋ ಗ</w>
ಮಹಿ ಳೆ</w>
ಮ ಹಾ
ಮ ರು
ಬೇಕ ಿದೆ</w>
ತೆಗೆ ದುಕೊಂಡ
ಟ ರ್
ಕೆ ಲ</w>
ಉಪ ಯೋಗ
ಇ ವೆ
ಆಗ ಮ
ಸಾ ಯ
ಸಂ ಪೂರ್ಣ</w>
ವಿದ್ಯ ು
ವ ನು</w>
ಮನ ವಿ</w>
ಭಿ ನ್ನ
ಪ್ರಕರಣ ದ</w>
ತ ಲು
ಕ್ರಿ ಕೆ
ಕ ಪ್</w>
ಎ ಲ್ಲಿ</w>
ಇ ಂದ
ಅಪ ಘಾತ
ಸಾ ವಿ
ವರ್ ತ
ವ ಳ
ಯಾ ರ</w>
ಪ್ರಯಾಣ ಿಕ
ಪರಿಣಾ ಮ
ಪರಿ ಹಾರ</w>
ನೆ ಂದು</w>
ತೆ ಗಳು</w>
ಣ ್</w>
ಚರ ಣೆ</w>
ಒಳ್ಳ ೆಯ
1 4</w>
್ ತು</w>
ಸಹೋದ ರ
ಸ ತ್ಯ</w>
ವೆ ಂದು</w>
ವ ಿಸ್
ಮನ ೋ
ಪ್ರ ಕ್ರಿಯ
ಪು ರ</w>
ತ್ ರಾ
ಣ ದ</w>
ಜೀವ ನ</w>
ಜವಾ ಬ್ದ
ಓ ರ್
ಆಫ ್</w>
ಅಂತ ಹ</w>
ವಾಸ್ತ ವ
ಮಾಹ ಿತ
ದೇಶ ದಲ್ಲಿ</w>
ದಿ ನಾ
ತಂಡ ದ</w>
ಕೇ ರಳ</w>
ಅದ ್
ೆ ಲ್ಲಾ</w>
ಾರ ್</w>
ಸ ರ್</w>
ವೈದ್ಯ ಕೀಯ</w>
ಬ ಂದು</w>
ಪ್ರ ವೇಶ
ಪರಿಸ್ಥ ಿತ
ಪ ಂ
ತಮಿ ಳ
ಜ ಮ್ಮು</w>
ಗೊತ್ತ ಿಲ್ಲ</w>
ಕ್ರ ೀ
ಕ್ಯಾ ಮೆ
ಕ ಲ್ಪ
ಎ ನ್‌
1 9</w>
ವಾ ಗ</w>
ರ್ ಯ</w>
ತಿರ ುಗ
ಗಳಾಗ ಿವೆ</w>
ಇ ತ್ತೀ
ಆ ಹಾರ
ಂತ ು</w>
ಂ ಭ</w>
ಹು ಡುಗ
ಸ್ ನಾ
ಸಂಗೀ ತ</w>
ಶ ರ್ಮ
ವಾ ನ
ಪೌ ಲ
ಘಟ ನೆಯಲ್ಲಿ</w>
ಉ ಪ್ಪು</w>
ಅವ ನನ್ನು</w>
ಅದ ಕ್ಕಾಗಿ</w>
ೀ ರಾ</w>
ಶಾ ಸ್ತ್ರ
ವ್ಯಕ್ ತಿ
ರಿಯಾ ದ</w>
ಮುಖ್ಯ ಮಂ
ಬ ೌ
ದ ೋ
ತೆಲ ುಗ
ಉತ್ ಪಾದ
ಅ ಲ
ೋ ದು</w>
ಹ ಸಿ
ಹ ಲ್ಲ
ಸ್ ತಾ
ಸಿಬ್ಬಂದ ಿ</w>
ಶರ್ಮ ಾ</w>
ವರ ಾಗ
ಮೂರ ನೇ</w>
ಭ ವಿಷ
ಬದಲಾ ವಣ
ಪೆ ಟ್ರೋ
ಪರ ಸ್ಪ
ನವ ದೆಹಲಿ</w>
ದೆ ೂ
ದ ೈ
ತ ರಿಸ
ಕೆ ೕ
ಕ ೆಯನ್ನು</w>
1 8</w>
ುತ್ತ ಲೇ</w>
ಶ ತ
ವ ರ್</w>
ನಡೆಸ ಿದ್ದಾರೆ</w>
ತಿ ನ್ನ
ತಕ್ಷ ಣ</w>
ಕ ರ್</w>
ಉತ್ತ ಮ
ುದ್ ಧ</w>
ಿಸ ಿರುವ</w>
ಾರ ಾ
ಸಿ ಕ</w>
ಷ ನ್</w>
ವಿ ವೇ
ರಾ ತ್ರಿ</w>
ಮೆ ಣ
ಮಹಿಳ ಾ</w>
ಬಾಲ ಕ
ನಡೆ ಸಿದ</w>
ಕೂಡ ಾ</w>
ಕರ್ನಾಟ ಕ
ಕ ಠಿ
ಅವ ು</w>
ಿದ ರೆ</w>
ವಾಗ ಲಿದೆ</w>
ವ ಂತ
ಲ್ಲ ರೂ</w>
ತೆಗೆ ದು
ತಿಳಿದ ು
ತ ಿದ್ದ
ಗಿ ಂತ</w>
ಗಳ ಾದ</w>
ಇದ ಕ್ಕಾಗಿ</w>
ಆಯ್ ಕೆ
3 0</w>
ೆ ೂೕ
ಸುಪ್ರೀ ಂ
ವೈ ಯ
ವಿರೋ ಧ</w>
ಪ್ರ ಕಾರ</w>
ಪಾ ರ</w>
ಚೀ ನಾ</w>
1 2
ಿಸ ಲಾಯಿತು</w>
ಹಿಂದ ಿ</w>
ಶೀಘ ್ರ
ಮೂ ಡ
ಮ ದ</w>
ಪಾ ವ
ನೀಡ ಲಾಗಿದೆ</w>
ಧ ು
ತಮಿಳ ುನಾ
ತನಿ ಗೆ</w>
ಕೈ ಗೊಂಡ
ಕಾ ಪಾಡ
ಹ ಮ್ಮ
ಸು ಂದ
ಸಿ ಎಂ</w>
ಸಾಮ ರ್ಥ
ಶಿಕ್ಷ ಣ</w>
ವಿಧ ಾನ</w>
ಮಾ ನಿ
ಬದ ಲಾಯ
ಬ ಗೆ
ಪ್ರ ಭು
ನಿಯ ಾ</w>
ನಿಮ್ಮ ನ್ನು</w>
ಧ ರ್
ತಲು ಪ
ಇನ್ನ ಷ್ಟು</w>
ಅಲ್ಲ ದೇ</w>
ಾಗ ುತ್ತದೆ</w>
ಸ ಕ್ಕ
ವ ೋ</w>
ಲ ಾರ
ಯಾವಾಗ ಲೂ</w>
ಬೆಂಬ ಲ</w>
ಬಿಜೆ ಪಿ
ಬಹು ತೇ
ಪ್ರ ಯೋಜನ
ನಾಥ ್</w>
ನಂಬ ಿಕ
ಡ್ ‌
ಟ ೇ
ಖ ಾನ್</w>
ಕಲ ಿಯ
ಕರ ೆಯ
ಇ ರಾ
ಆ ನಂದ
ೇ ನೂ</w>
ುತ್ತ ಿರಲಿಲ್ಲ</w>
ಸ್ವ ೀಕರಿಸ
ಸಮ ೀ
ಸಂ ಘಟ
ವ್ಯವಸ್ಥ ೆ</w>
ವಿಷಯ ದಲ್ಲಿ</w>
ರ ್ಯ
ಮಗ ು</w>
ಬಹಳ ಷ್ಟು</w>
ತ್ ಮಿಕ</w>
ಟ ್ಯಾ
ಕ ಡೆ</w>
ಎಂದ ೂ</w>
ಇದರಿ ಂದಾಗಿ</w>
ಆ ಕ್
ಿಯ ಾದ</w>
ಿಕೊ ಂಡ</w>
ಿ ನ
ಸೇ ರಿಸಿ</w>
ಸು ಧಾರ
ವ ಸ್ತು
ಲೋಕ ಸಭಾ</w>
ಮೂ ರ್
ಬದಲಾ ವಣೆ</w>
ಪು ರುಷ
ಪಾಕಿಸ್ತಾನ ದ</w>
ಪಟ್ಟ ಿ</w>
ನ್ ‍
ನಾ ಶ
ತ ಡೆಯ
ಟ ೈ
ಖ ರೀ
ಕರ್ನಾಟ ಕ</w>
ಎ ಲ್</w>
ಆರೋ ಪ</w>
ಆ ಮೇಲೆ</w>
1 7</w>
1 6</w>
್ ವ
ಹ ರಿಸ
ಸ್ವಾ ಮಿ</w>
ಸ ವಾ
ವಿಶ್ ವ</w>
ವಿ ಕೆಟ್</w>
ಯೋ ತ್
ಬಳ ಿ</w>
ಪ್ರ ಿಯ
ಪ ತ್ರ</w>
ನ್ಯಾಯಾ ಲಯ</w>
ನಿರ್ ಧಾರ
ನ ಲ್ಲ</w>
ತಾ ನು</w>
ತ ವಾಗಿ</w>
ಟ್ಟ ಿ
ಜೆ ಡಿ
ಗುರು ತ
ಆ ಕೆಯ</w>
ಅಭಿವೃದ್ಧ ಿ</w>
1 00</w>
ಸ್ಥಳ ೀಯ
ಸಿಬಿ ಐ</w>
ಸಿನಿಮ ಾಗ
ಸ ರಿಯಾದ</w>
ಯೋಜ ನೆ</w>
ಬೋ ಧ
ಪ ್ಯಾ
ನಿ ಷೇ
ನಾಯ ಕ
ದ ೊಂದಿಗೆ</w>
ಟೀ ಂ</w>
ಚ ು
ಚ ಂದ್ರ
ಕ್ರೈ ಸ್ತ</w>
ಕಾ ಡ
1 3</w>
ಿಸುತ್ತ ಿದೆ</w>
ಿದ ೆಯ
ಹೆ ಂಡ
ಹಿ ಡಿಯ
ಸೂ ಕ್ತ</w>
ಸುದ್ದ ಿ</w>
ಮೌ ಲ್ಯ
ಬೇಕ ಾಗಿದೆ</w>
ಬಹ ಿರ
ಬರ ೆಯ
ಪ್ರ ಗ
ನಿರ್ ಧಾರ</w>
ಧ ೋ
ಟಿ ಂಗ್</w>
ಚಿತ್ರ ದಲ್ಲಿ</w>
ಕ ರೆ</w>
ಉದ್ದ ೇಶ
ಅಂತಿ ಮ</w>
ಸಾಧ್ಯ ತೆ</w>
ವಾಗ ಿವೆ</w>
ರ ುವ
ಮ ್ಯ
ಪಡೆ ದುಕೊಂಡ
ನಿ ನ
ದೊ ಡ್ಡ
ದೃ ಢ
ತೆ ರೆ
ಚ ರಣ
ಆರೋಪಿ ಗಳನ್ನು</w>
ಂಕ ಾ</w>
ೕ ವ
್ಯ ೂ</w>
ೆ ಗಳ</w>
ಸಂ ಚಾರ</w>
ಮಾಡ ುತ್ತ
ಪ್ರತಿಕ್ರಿಯ ೆ</w>
ಪ್ರ ಜಾ
ಪೂರ್ಣ ವಾಗಿ</w>
ಗಾ ರ</w>
ಕೂ ಟ
ಉ ಳಿಸ
ಇತಿಹಾ ಸ
ಿದ್ದ ಳು</w>
ಸ ತ್ತ
ಶೋ ಧ
ವಿ ಮಾನ
ಮತ್ತ ೊಂದು</w>
ನ್ ನಾ
ಗಾ ಯಾ
ಕಳೆ ದುಕೊಂಡ
ಎ ನ್</w>
ಅಭಿ ಮಾನಿ
ಂತ ಲೂ</w>
ಸಂದರ್ಭ ದಲ್ಲಿ</w>
ವೇ ಶ</w>
ವಿರಾ ಟ್</w>
ವಿದ ೇಶ
ವಿ ಫಲ
ಲೇ ಖ
ರೀ ತಿಯಲ್ಲಿ</w>
ಮಾನ ವ</w>
ಮಾಡ ್
ಪ ಾಯ
ನೇ ತೃ
ತೆಲುಗ ು</w>
ಗೃ ಹ</w>
ಆ ್ಯ
1 4
ಸುಳ್ಳ ು</w>
ಶ ಂಕ
ಲಿ ವೆ</w>
ರಲ್ಲ ೂ</w>
ಮಾಡ ುವುದ
ಭಾರ ಿ</w>
ಭ ಯೋತ್
ಬೇಕಾ ದ
ನಡೆಯ ಿತು</w>
ದ ಾಯ
ಗಳ ೊಂದಿಗೆ</w>
ಖ ುಷ
ಕ್ ಲ
ಇ ತ
ೀ ಗ</w>
ಿಸಲಾಗ ಿತ್ತು</w>
ಿಕೊ ಳ್ಳ
ಹಿ ತ</w>
ಹ ರ
ವಾ ಪ
ರ್ ಷ
ರಿ ಗಾಗಿ</w>
ಯಾ ವಾಗ</w>
ಭಯೋತ್ ಪಾದ
ಬ ಾಗಿ
ಬ ರ್
ದು ರ
ತ್ ರೆ</w>
ತಿಳಿದ ು</w>
ಚ ರಿಸ
ಕಾರ್ಯದರ್ಶ ಿ</w>
20 0
ೋ ತ್
ೆ ನು</w>
ುವ ರು</w>
ುವ ನ್ನು</w>
ು ಗಳ</w>
ಿಸ ುವುದಿಲ್ಲ</w>
ಹ ೂಡ
ವೇ ಗ
ರೀ ತಿ</w>
ಪ ಂಚ
ನೆ ೂೕ
ನೀಡ ಿದರು</w>
ನಿರ್ ಮಾಣ
ನಿರ್ ಧರಿಸ
ತೆ ರಳ
ಜ್ಞ ಾ
ಚ್ ಚ</w>
ಗಳಿ ಗಾಗಿ</w>
ಕೀ ರ್ತ
ಕ ಿರು
ಎಂ ಜಿ
ಅ ಂಕ
ೊಬ್ಬ ರು</w>
ಹಿ ನ್ನೆ
ಹ ಳ
ಸಾ ವಿನ</w>
ವರ ೇ</w>
ಲ ದ</w>
ರಾಜ ್</w>
ರ ದ್ದ
ಯಾವುದ ೇ</w>
ಬ ಸ್</w>
ಪರಸ್ಪ ರ</w>
ನೀಡ ಿ</w>
ನಿ ಶ್
ಡ ೀ
ಟ ಿಕೆ
ಚಿ ಕ್ಕ
ಚರ್ಚ ೆ</w>
ಗ ಿತ
ಇದ್ದ ರು</w>
ಅ ಸ್
1 8
ಿದ ಾಗ</w>
ಹೊಂದ ಿದೆ</w>
ಹೆ ೂೕ
ಸಿ ಗೆ</w>
ವೆ ೖ
ಯೋ ಧ
ಮೇ ಲ
ಬಿಡುಗ ಡೆ
ಬಂಧ ಿಸಲಾಗಿದೆ</w>
ಪ ವಿ
ನೋ ವು</w>
ನಾಲ್ ವರು</w>
ಟ ಾ</w>
ಕ್ಕ ಾಗ
ಕನ್ನ ಡ</w>
ಕ ಣ
ಅಧ ಿಕ</w>
ು ಗಳನ್ನು</w>
ಿಸುತ್ತೇ ನೆ</w>
ವಿ ಭಾಗ
ಮ್ ‌</w>
ಮತ್ತ ಷ್ಟು</w>
ಭೂ ಮ
ಬ ್ಯ
ಪ್ರತಿಭಟ ನಾ
ಪ್ ಲ
ನ್ನ ನ್ನು</w>
ನೀ ರಿನ</w>
ನ ೌ
ಧ ಿ</w>
ತೊಂದ ರೆ</w>
ತೆ ಗ
ಕಾ ಶ
ಕಥ ೆ</w>
ಓರ್ ವ</w>
ಎನ್ನ ಲಾಗಿದೆ</w>
ಈಗ ಲೂ</w>
ಇ ಂಟ
ಆದ ೇಶ
ಂಪ ು</w>
ಹ ಬ್ಬ
ಸಾ ಹ
ಶ ಯ
ಯ ೂ
ಮೇ ಲಿನ</w>
ಬೆಂಗಳ ೂರು</w>
ಪ್ರ ದೇಶದ</w>
ನಿರ್ ವಹ
ಧ್ಯ ಾ
ತ ಕ್ಕ
ಗಳ ೇ</w>
ಆಡ ಳಿತ</w>
ಅವು ಗಳಲ್ಲಿ</w>
ಅವ ರಲ್ಲಿ</w>
ಅಂ ಥ</w>
ಹೊರ ಗೆ</w>
ಹೊ ತ್ತ
ಹೇಳ ಿದೆ</w>
ಹೇ ಗ
ಸು ಲ
ವಿಶ್ವ ದ</w>
ಲೆ ಂಡ
ಮ್ ಮಿ
ಪಾ ಕ್</w>
ಡ ್ರ
ಕೆ ಗೆ</w>
ಕ ೈ</w>
ಕ ಾ</w>
ಎ ಷ್ಟ
ಇ ಟ್ಟ
ಿರ ುಗ
ಿದ್ದ ನು</w>
ಿಕೊಳ್ಳ ಲು</w>
ಹಣಕಾ ಸು</w>
ಸೇ ವೆ</w>
ಸ ಾ</w>
ಸ ನ್</w>
ಲಿ ಯ</w>
ಲ ೆಯ</w>
ರಿ ತ</w>
ರ ಂ</w>
ಮೃತಪಟ್ಟ ಿದ್ದಾರೆ</w>
ಬರ ುತ್ತದೆ</w>
ಬ ಂತು</w>
ಪೌ ರ
ಪ ಶ್
ನಡೆಸ ುತ್ತಿದ್ದಾರೆ</w>
ದಿನ ಗಳಲ್ಲಿ</w>
ದಾ ನ</w>
ಡ್ ಡಿ</w>
ಡ ಿಕ
ಗೊ ಳಿಸ
ಕ ಷ್ಟ</w>
ಆಸ್ಟ್ರೇಲ ಿಯಾ</w>
ಅಲ್ಲ ಿಂದ</w>
ಅದ್ ಭು
ಅದ ರಿಂದ</w>
0 0
ಿದ್ದ ಾರ
ಸಿ ಪಿ
ಸಕ್ಕ ರೆ</w>
ಶ ೆ
ವ್ಯಾ ಪ
ವಿ ವರಿಸ
ಲ ಿಯ
ರೆ ಸ
ಯೇಸು ವಿನ</w>
ಯಾ ದ
ಮೇ ಲ್
ಮುಖ ಂಡ
ಮುಂಬ ೈ
ಭ ೀ
ಬಾಲಿವು ಡ್</w>
ಧ ನ್ಯ
ತರ ಬೇ
ಜಾ ಮೀ
ಕಡಿ ಮ
ಇ ಂದು</w>
ಅರ್ ಥ</w>
4 0</w>
1 5
ುವ ಲ್ಲಿ</w>
ಾ ಮ
ಹೇಳ ಿದ್ದು</w>
ಹೆ ತ್ತ
ಸ್ಥ ಗಿತ
ವಿಶ್ವ ವಿದ್ಯಾ
ಬಾ ದ್</w>
ಬಾ ಂಗ್
ದ್ ವಿ
ದು ರ್
ದಿನ ಗಳ</w>
ದಲ್ಲ ಿಯೇ</w>
ಟ್ ವೀ
ಕಠಿ ಣ</w>
ಉತ್ತ ರಿಸ
ಇರ ುವುದಿಲ್ಲ</w>
ಆಫ ್ರ
ಅವ ಶ್ಯ
‌ ನಲ್ಲಿ</w>
ಹೇಳ ಿಕೆ</w>
ಶ ೈ
ಶ ೂ
ಶ ಕ್ತಿ</w>
ವಿಡಿಯ ೋ</w>
ರಲ್ಲ ಿರುವ</w>
ಯ ುದ್ಧ
ಮಾಡ ುತ್ತಿದ್ದಾರೆ</w>
ಮ ರೆಯ
ಬರ ುವ</w>
ಪಾಲ್ ಗೊಂಡ
ದಾ ಗ</w>
ತ ಪ್
ಚಲ ನ
ಕ್ ತಿಕ</w>
ಕೀ ಯ
ಕರ ಣ
ಕ ಲ್ಲ
ಒತ್ತ ಾಯ
ಉ ಳಿದ</w>
ಇತ ರೆ</w>
ಿಕೊಳ್ಳ ಿ</w>
ಸಾ ವಿರ
ಸಾ ಕ್ಷಿ
ವಿದ್ಯು ತ್</w>
ವಾ ಕ್ಯ
ಲಿ ನಲ್ಲಿ</w>
ಮುಂದುವ ರಿಸ
ಭೇ ಟ
ಪೈ ಕಿ</w>
ದಲ್ಲ ಿನ</w>
ತಿರ ಸ್
ತಿಯ ು</w>
ಡ ಿಸ
ಜ ತೆಗೆ</w>
ಕೇಳ ಿ</w>
ಕರ ನ್ನು</w>
ಇ ನ್ನಿ
ಆ ಧ್ಯಾ
ಅಧ ಿ
‍ ನಲ್ಲಿ</w>
ು ವಿನ</w>
ಿ ನಲ್ಲಿ</w>
ಹುಡು ಕ
ಸ್ಟ ೇ
ಸೆ ಲ್</w>
ವೈದ್ಯ ರು</w>
ವೀ ಕ್ಷ
ಮೋ ಹ
ಮೂ ಲ</w>
ಮಾಧ್ಯ ಮ
ಮಹಾರಾ ಷ್ಟ್ರ</w>
ಫಲಿತಾಂ ಶ
ಪ್ರತಿಭಟನಾ ಕಾರ
ಪ್ರಜಾ ಪ್ರಭು
ದೆ ೕ
ದಿ ತ್ತು</w>
ತೀರ್ ಪು</w>
ಟಿ ವಿ</w>
ಜ ಾ</w>
ಚ ಟ
ಘಾ ತ</w>
ಗೌ ರವ
ಕಾಂಗ್ರೆ ಸ್
ಎಚ್ಚ ರಿಕೆ</w>
ಎಂದ ಿಗೂ</w>
ಆದ ಾಗ
ಆಗ ್ರ
ಆ ರ್‌
ಅಭಿ ನಯ
ೇ ಯ
ಸೇ ವೆ
ವೆ ೕ
ವಿಶ್ ವಾ
ವಿ ತ್ತು</w>
ಲಕ್ಷಣ ಗಳು</w>
ರೂಪ ಾಯಿ</w>
ಮೊ ದ
ಮೆ ೕ
ಮು ಂಚ
ಬೆಳೆ ಸ
ಪೆಟ್ರೋ ಲ್</w>
ಪಡೆದ ಿದ್ದಾರೆ</w>
ನೂ ತನ</w>
ನಿ ಲ್
ಕು ಸ
ಆಯ ಿತು</w>
ಿಸುತ್ತ ಾನೆ</w>
ಹೆಚ್ಚ ಾಗ
ಸಂಸ್ಥ ೆ</w>
ಸ ರು</w>
ವ್ಯ ತ್ಯಾ
ವಿಶೇ ಷ
ಮಕ್ಕಳ ನ್ನು</w>
ಭದ್ರ ತಾ</w>
ಭ ವ</w>
ಬ್ರ ಿ
ಬೇಕಾಗ ುತ್ತದೆ</w>
ಪ್ರಕರಣ ಕ್ಕೆ</w>
ನನ ಗ
ನ ೊಂದಿಗೆ</w>
ಧ ಾರ್
ಡ ಲು</w>
ಟೆ ಸ್ಟ್</w>
ಘಾ ಟ
ಗಂಭೀ ರವಾಗಿ</w>
ಕೆ ಟ್ಟ
ಕೃ ತ್ಯ
ಕ ಲಿಸ
ಕ ನಿ
ಇಲ್ಲ ದ
ಅದ ೊಂದು</w>
ಅ ಕ್ಷ
, 000</w>
ುವುದ ಕ್ಕೆ</w>
ಾದ ರು</w>
ಸ್ಥಾನ ಕ್ಕೆ</w>
ಸಲ ಹ
ಸಂಪರ್ ಕ</w>
ವಿರ ುವ</w>
ರೋ ಗ
ಬೆ ಳ್ಳ
ಪತ್ತ ೆ</w>
ನಡೆಯ ಲಿದೆ</w>
ನ ಿದ
ದಾಖ ಲಾಗ
ತ ಮ್ಮ
ಗ್ರ ಹ
ಕೂ ಲ
ಆದಾಗ ್ಯೂ</w>
ಆ ಶ್
ಅತ್ಯಾ ಚಾರ</w>
ೂ ರ್
ುವುದ ೇ</w>
ಸಮಾ ಜ
ಶಾಂತ ಿ</w>
ವಿ ಚಾರ</w>
ವರ್ಷ ದ</w>
ಲೋ ಚ
ರಿ ಗ
ಮೊ ಬೈ
ಮಹಾರಾ ಷ್ಟ್ರ
ಮನ ೆಯ
ಭಾ ಗ</w>
ಬಹುತೇ ಕ</w>
ಫ ು
ಪೂರ್ ವ</w>
ದ್ ದ</w>
ದಾ ವೀ
ತ ರ</w>
ಚ ಮ
ಕಾಯ ಿ
ಉಂಟ ಾಗ
ಇಬ್ಬ ರ</w>
ಆತ್ಮ ಹತ್ಯೆ</w>
ಅವು ಗಳ</w>
ಅ ರಿ
ವೇ ದ
ವಿದ ೇ
ವಾ ಲಯ
ಮಾ ಂ
ಮ ಿಕ
ಪ್ರಧಾನ ಮಂತ್ರಿ</w>
ನಿಲ್ ದಾ
ಧ್ಯ ಕ್ಷ</w>
ಣ್ ಣೆ</w>
ಡ ಿಗೆ</w>
ಗಳ ಿಲ್ಲ</w>
ಕುರಿ ತ
ಎ ಫ್
ಉದ್ ಘಾಟ
ಇ ನ್
ಆರೋಪಿ ಗಳ</w>
ಅಧಿಕ ೃ
ಿಯಾಗ ಿದ್ದಾರೆ</w>
ಹಿಂ ಸಾ
ಹತ್ತ ಿರ
ಸಿ ಲು
ಸ ದ</w>
ಶೋ ಧ</w>
ವಿ ವಾಹ
ಲೈ ಂಗ
ಮ ತಿ</w>
ಬ್ಯಾ ಂ
ಬ ೂ
ಪ್ರದೇಶ ದಲ್ಲಿ</w>
ಪಂದ್ಯ ದಲ್ಲಿ</w>
ನೀಡ ಿಲ್ಲ</w>
ನಿರ್ದೇಶ ಕ</w>
ನಿಜ ವಾಗಿಯೂ</w>
ನ ಂತೆ</w>
ದ ೌ
ತ್ತ ರ</w>
ತೆ ರ
ಟ್ಟ ೆ</w>
ಟ್ ವಿ
ಎ ಸ್‌</w>
ಎ ಕ್
ು ಪಡ
ಿಸ ಿದ್ದ</w>
ಾ ಟ</w>
ಹೋರಾ ಟ</w>
ಹೈ ಕೋರ್ಟ್</w>
ಹೆಚ್ಚ ಾಗಿ</w>
ಸ್ ಮಾರ
ಸೇ ರಿ</w>
ಸರ್ಕಾರ ಿ</w>
ಸ ಿದ್ದ
ವೈಯ ಕ್ತಿಕ</w>
ಲ ೆಯ
ರಾಷ್ಟ್ರ ಪತಿ</w>
ಭರವ ಸ
ಬ ಂಗಾ
ಪೌರ ತ್ವ</w>
ಪು ಟ
ನೇ ಕ</w>
ನಂಬ ಿಕೆ</w>
ಗೌ ರ
ಗಳ ಾಗಿ</w>
ಖರೀ ದ
ಕ ಳ
ಕ ಲಾ
ಏ ರ್
ಇಲ್ಲ ಿದೆ</w>
ಅ ನೇಕ</w>
ಂಪ ್</w>
ಂತ ೂ</w>
5 00</w>
ೋ ಗ</w>
ುವ ನು</w>
ಸೋ ನಿಯಾ</w>
ಸಂ ಸ್ಕೃ
ಸಂ ಪೂರ್ಣವಾಗಿ</w>
ಸ ಿರ
ಮೆ ಚ್ಚ
ಬೀ ಳ
ಪ್ರಯತ್ ನ</w>
ಪ್ರ ಸ್ತು
ಪತ್ತ ೆಯಾಗ
ಪಡೆ ದ</w>
ಪ ಾರ್
ನಿರ್ ವಹಿಸ
ಏ ರಿಕೆ</w>
ಎಂದ ರೇನು</w>
ಇದ ೀಗ</w>
ಾ ಂತರ</w>
ಹೊಂದ ಿರುವ</w>
ವಿದೇ ಶಾ
ವಿ ಲ್ಲ
ವಾಗಿರ ುತ್ತದೆ</w>
ಯ ್ಯ</w>
ಬು ಕ್</w>
ಬಿಜೆಪಿ ಯ</w>
ಪ್ರ ಮಾಣ</w>
ಪ್ರ ಥ
ಪು ಟ್ಟ</w>
ಪಂದ ್ಯ</w>
ಪಂ ಜಾ
ನಿ ಯ</w>
ಧೋ ನಿ</w>
ದ ನು</w>
ತ ೈ
ಜಿಲ್ಲ ೆಯ</w>
ಚಟ ುವ
ಕೂ ದ
ಕ ಚೇ
ಎಂದ ರೆ</w>
ಇವ ರಿಗೆ</w>
ಅನೇ ಕರು</w>
: 2
2 00</w>
ೆ ಂಬ
ಿಸ ಲ್ಪಟ್ಟ
ಹೇಳ ಿದ
ಸ್ ಥ</w>
ಸ ಿಸಿ</w>
ಸ ಮ್ಮ
ಶೀ ರ್
ವಾಗ ್ದ
ವ ್
ರೈ ಲು</w>
ಯಾದ ವ್</w>
ಯಶಸ್ ವಿಯ
ಮುಂದುವ ರಿದ
ಬ ಡ
ಪ ರ್</w>
ನೀಡ ಿದ್ದರು</w>
ನಿನ ಗೆ</w>
ಧ ೀ
ತಿರಸ್ ಕರಿಸ
ಚ ೌ
ಕುಟುಂಬ ದ</w>
ಉದಾಹರಣ ೆಗೆ</w>
ಇ ಳ
ಅವ ರೆ
ುದ ರಿಂದ</w>
ಿರುವುದ ಾಗಿ</w>
ಿರ ುತ್ತಾರೆ</w>
ಹಿತ ್</w>
ಸ್ ಯ</w>
ವೆ ಚ್ಚ
ವಿಷಯ ಗಳನ್ನು</w>
ಲ ಿರುವ</w>
ರ ೋ</w>
ಮಾಡ ುವುದಿಲ್ಲ</w>
ಮಟ್ಟ ದ</w>
ಬ ಿಸ
ಪಡ ೆ</w>
ನಿ ನ</w>
ತಿದ್ದ ುಪಡ
ತ ಿದೆ</w>
ಡಿಯ ಲ್ಲಿ</w>
ಟ್ ಸ್</w>
ಘೋಷ ಣೆ</w>
ಗುಜರಾ ತ್</w>
ಗಾಯಾ ಳು
ಎ ಲೆ
ಅ ಷ್ಟು</w>
ಂ ಘ
್ರ ಿ
ೊಳ ಗೆ</w>
ೆ ಡೆ</w>
ಿಸ ುವಂತೆ</w>
ಹೊ ಸ
ಹಾಗ ಾದರೆ</w>
ಹ ರಿದ
ಸ್ಥಳ ೀಯ</w>
ಸಾಧ್ಯ ವಿದೆ</w>
ಸಚಿ ವೆ</w>
ಸ ನ್ನಿ
ವಿದೇಶಾ ಂಗ</w>
ಮದುವ ೆಯಾಗ
ಮ ಣ
ಬೆಂಗಳ ೂ
ಬ ುದ್ಧ
ಬ ದ್ಧ
ಪ್ರತಿ ನಿಧ
ಪ ್ಟ
ಧ ್ವ
ದಲ್ಲ ಿದ್ದ</w>
ತಿಯ ಿಂದ</w>
ತನಿಖ ೆಗೆ</w>
ಖ ಚಿತ
ಕಟ್ಟ ಡ
ಏ ಳು</w>
ಇಂಗ್ ಲೆಂಡ್</w>
ಆ ಶೀರ್
ಅಧಿ ವೇಶ
1 6
ಿಸುತ್ತ ವೆ</w>
ಿಸ ್ಟ
ಹಿಂದ ೂ</w>
ಸ್ ಟ್‌</w>
ಸಾಮಾನ್ಯ ವಾಗಿ</w>
ವಶ ಪಡಿಸ
ರೋ ಹಿತ್</w>
ರ ಿದ್ದಾರೆ</w>
ರ ಿದೆ</w>
ಯೆ ೂೕ
ಮಾದ ರಿಯ
ಮ ್ರ
ಪೌಲ ನು</w>
ಪಶ್ ಚಿ
ನಿಯ ಮ
ನಾ ದರೂ</w>
ಧಾರ್ ಮಿಕ</w>
ಜ್ಞಾನ ೋ
ಜವಾಬ್ದ ಾರ
ಕಾಂಗ್ರೆ ಸ್‌
ಕಾ ಳ
ಎನ್ನ ುವುದು</w>
ಅ ತಿ
1 7
ಸಾರ್ವಜ ನಿಕ</w>
ಸರ ಣ
ವಿ ಕೆ
ವಾ ಯ
ಮೋದ ಿಯ
ಮ ಸೂ
ಭಾರತೀ ಯ
ಪ್ರ ೊ
ತ ಿರುವ
ಣ ೆಯಲ್ಲಿ</w>
ಜೆಡಿ ಎಸ್</w>
ಘಟ ನೆಯ</w>
ಗ್ರಾ ಂ</w>
ಗಳ ಿಗೂ</w>
ಕೃ ಷ್
ಕೃ ತ
ಆಯ್ ಕ
ಅಧಿಕ ಾರ</w>
ಂ ಶ
ೂ ಷ
ಿರ ುತ್ತವೆ</w>
ಿಕೊ ಡ
ಿ ಗಳಿಗೆ</w>
ಸ್ವ ಂತ</w>
ಸ್ ಯಾ
ಸುವ ಾರ್
ಸಾವಿ ರ</w>
ಸಾವನ್ನಪ್ಪ ಿದ್ದಾರೆ</w>
ಸ ರಿ
ಶಿಕ್ಷ ೆ</w>
ಶಾ ಮ
ಶ ಃ</w>
ಲಿ ಕ್ಕಾಗಿ</w>
ಬಹಿರ ಂಗ
ನೀಡ ಲು</w>
ನಿರ್ ಮಾಣ</w>
ನಾ ಮ
ನಾ ನೂ</w>
ತೆ ರಿಗೆ</w>
ತಾ ವು</w>
ಣ ೆಯ</w>
ಡ ೌ
ಚ ೆಗೆ</w>
ಗೊಳಿಸ ಲು</w>
ಗ ಂಟ
ಕಾರ್ಯಾ ಚರಣೆ</w>
ಕಂಡ ು</w>
ಉತ್ ಪ
ಇ ವು</w>
ಆಗ ಿಲ್ಲ</w>
ಅಭಿ ನಂದ
ಿಸಲಾಗ ುತ್ತದೆ</w>
ಿಸ ಲಿಲ್ಲ</w>
ಸ್ಥಳ ದಲ್ಲಿ</w>
ಸೇ ರಿಸಿ</w>
ರಿ ೕ
ರಾಜ ಕೀಯ
ಬೇ ರೆಯ
ಬೆ ಳೆಯ
ಪ ಕ್ಕ
ನಾ ವೆ
ತ ಲೆ</w>
ಕೋ ವಿ
ಕು ಲ
ಕಾಶ್ಮೀ ರ</w>
ಕ ವನ್ನು</w>
ಅನ್ ವಯ
ಅಧ್ಯಯ ನ</w>
ಅಂತ ಾರಾ
1 3
ೆಯ ಾಗಿ</w>
ುಗ ಾರ
ಿದ ೆ
ಿಕೊ ಂಡ
ಿಕ ೆಯ</w>
ಹೃ ದ
ಹ ುದ್ದ
ಸೇ ರಿ
ಲೈಂಗ ಿಕ</w>
ರಾ ವ
ಮುಂದುವ ರಿಯ
ಮಾತ್ರ ವಲ್ಲ</w>
ಮಗು ವಿನ</w>
ಫ ಾರ
ಪ್ರತಿಯ ೊಬ್ಬ
ಪೂ ರೈ
ನಡೆಸ ಿ</w>
ದೇವ ರಿಗೆ</w>
ಜ್ಞಾನೋ ಕ್ತಿ</w>
ಕಾ ಮಗ
ಕಲ ಿತ
ಉ ಳಿಯ
ಅಭಿ ಪ್ರಾಯ
ೂ ಪ
ಿಸಲಾಗ ುವುದು</w>
ಿಕ ೆಯನ್ನು</w>
ಿಕ ೆಗೆ</w>
ಹೇಳ ಿ</w>
ಹೆ ಣ್ಣು</w>
ಹಮ್ಮ ದ್</w>
ಸುಲ ಭ</w>
ಸಾವಿರ ಾರು</w>
ಸಾ ಹಿ
ಸಲ ಹೆ
ಸರ ಳ
ಶು ಲ್
ವೇ ಷ
ರಾ ದರು</w>
ಮೊದ ಲ
ಮಾಡ ಿದ್ದರು</w>
ಪರ ಾರ
ನೂ ರ
ತಿದ್ದುಪಡ ಿ</w>
ತಾ ತ್
ಠ ಿ</w>
ಚುನಾವಣ ೆಗೆ</w>
ಚಿಕಿತ್ ಸ
ಗೊತ್ತ ಾಗ
ಗುಂಡ ಿನ</w>
ಗಂಭೀ ರ
ಗ ೈ
ಕ್ಷೇತ್ರ ಗಳಲ್ಲಿ</w>
ಕ್ ಸ
ಕೀರ್ತ ನೆ</w>
ಎಲ್ಲ ವನ್ನೂ</w>
ಉ ನ್ನ
ಇಂಗ್ ಲಿ
ಅವರ ೇ</w>
ಅಗತ್ಯ ವಿಲ್ಲ</w>
​ ​</w>
ೇ ದ
ುವುದ ಾಗಿ</w>
ುತ್ತಿದ್ದ ೆ</w>
ಹೊ ರಡ
ಹಿಡ ಿದ
ಸ್ ತಿ</w>
ಸಮ ಿತಿ</w>
ಸ ರಿಸ
ಷ ಿ</w>
ವಾಗ ಿರುವ</w>
ವಾಗ ಿದ್ದು</w>
ವಾ ಲ್</w>
ಳ್ ಳ</w>
ಲ ೊ
ರಾಗ ಿದ್ದರು</w>
ರ ುವ</w>
ಯಾ ಳ
ಮಿಶ್ರ ಣ</w>
ಮಂದ ಿಯನ್ನು</w>
ಮ ುದ
ಭ್ರ ಷ್ಟ
ಭದ್ರ ತೆ</w>
ಬಾಗಿ ಲು</w>
ಬ ಾಯ
ಬ ಣ್ಣ</w>
ಪ್ರಸ್ತು ತ</w>
ಪಕ್ಷ ಗಳು</w>
ನ ೊ
ನ ಂಬಿ
ದ್ ‌</w>
ತಿಯ ಲ್ಲ
ತ ಮ
ಜಿ ೕವ
ಚಾಲ ಕ</w>
ಚ ಯ
ಖ ್ಯಾ
ಕ್ಷ ಮ
ಕ್ ಟ
ಕೋರ್ ಟ್‌</w>
ಕೋರ್ ಟ್‌
ಕಾರ್ಯ ಕ್ರಮ</w>
ಕರ್ ಷ
ಏ ನಾಗ
ಇ ಸ್
ಆ ಳ
ಆ ತನಿಗೆ</w>
ಅಂತಾರಾ ಷ್ಟ್ರ
ಿದ್ದ ೀರಿ</w>
ಹೋರಾ ಟ
ಹಾ ಡ
ಸ್ ವಾಗ
ಸಾ ರ</w>
ಷ್ಯ ಾ</w>
ವಿದ್ಯಾರ್ಥ ಿ</w>
ವರ್ಷ ಗಳ</w>
ವ ಸ
ಲ್ ಸ್</w>
ರ ಣೆ</w>
ಯೆಹೋವ ನಿಗೆ</w>
ಮಾ ಪ
ಮ ನೆಯ</w>
ಬಿಟ್ಟ ು
ಫ ೀ
ಪ್ರ ಧಾ
ಪಡೆ ದು</w>
ನ್ಯಾ ಯ</w>
ತೆ ಗಳನ್ನು</w>
ತ ಃ</w>
ಟ್ರ ಂಪ್</w>
ಚಮ ಚ</w>
ಕರೆ ದೊ
ಉಲ್ಲ ಂಘ
ುವಿ ರಿ</w>
ಿರುವುದ ರಿಂದ</w>
ಹಿಂದ ಿನ</w>
ಹಲ್ಲ ೆ</w>
ಸ್ಥಳೀಯ ರು</w>
ಸಾರ್ವಜ ನಿ
ಸ ವ
ಮಾತು ಕತೆ</w>
ಮಾಡ ುತ್ತಾರೆ</w>
ಮಹ ತ್ವದ</w>
ಮಧ್ಯ ೆ</w>
ಮ ಳೆಯ
ಪಾ ತ್ರ</w>
ಪರಿಶೀಲ ನೆ</w>
ನ್ಯಾಯ ಮೂರ್
ನೀಡ ುವ</w>
ನಂಬಿ ಗ
ತಿಯ ಾಗ
ತ ಲಾ</w>
ಣ ವನ್ನು</w>
ಟ್ಟ ಿ</w>
ಜಗ ತ್ತ
ಗ ರಿ
ಕೇ ವಲ</w>
ಈ ವರೆಗೆ</w>
ಇತಿಹಾ ಸ</w>
ಆರ ಂಭ</w>
ಆಟ ಗಾರ
ಅಪ ರಾಧ
ಅನು ಭವ</w>
ುವಂತ ಿಲ್ಲ</w>
ಿದ್ದ ಾಗ</w>
ಹೇಳ ುವುದು</w>
ಹ ್ಯಾ
ಸ್ವ ರ್
ಸಭ ೆಯ</w>
ಸದಸ್ಯ ರು</w>
ಶ್ರ ೇ
ಶ್ರ ಮ
ವಿಜಯ ್</w>
ರ್ ಟ್</w>
ರಡ ು</w>
ರ ಂದು</w>
ಮಹ ಾ</w>
ಮನಸ್ ಸಿ
ಪ್ರ ವೇಶ</w>
ಪರಿ ಹಾರ
ಪಡೆ ದುಕೊಳ್ಳ
ಪ ರಿಸ
ನೋ ಟ
ಧರ್ ಮ</w>
ದ ಂಡ
ತೆ ೂ
ಜ್ ಜ
ಜ ನಾ
ಚಿ ನ</w>
ಗೊ ಳ
ಗಳಲ್ಲ ೂ</w>
ಖ ಿ
ಕ ಿರ
ಎ ಡ
ಉಪ ಸ್ಥಿತ
ಉ ಪಾ
ಇವ ರಿಬ್ಬ
ಇಲ್ಲ ಿನ</w>
ಆಸ್ಪ ತ್ರೆ</w>
ಅ ಪ್ಪ
‘ ‘
ೊ ಂದು</w>
ೃ ಹ
ಹಿ ಕ</w>
ಹ ವಾ
ಸೇ ನಾ</w>
ಸಂ ಚಾರ
ಶು ರುವ
ವ್ಯಕ್ತ ಪಡಿಸಿದ್ದಾರೆ</w>
ವಾಹನ ಗಳು</w>
ಲ ಿಸಿ</w>
ರಕ್ಷ ಣೆ</w>
ರ ನ್ನೂ</w>
ಯ ುವ</w>
ಮ್ ಮೆ
ಮೆ ಂಟ್</w>
ಬಾಂಗ್ ಲಾ
ಬಹುದ ಾಗಿದೆ</w>
ಬ ಂಡ
ಪಶ್ಚಿ ಮ</w>
ನಾಯ ಕರು</w>
ನಡ ುವಿನ</w>
ಧ ೈ
ತೆ ರೆಯ
ಜಾಮೀ ನು</w>
ಜ ತೆ</w>
ಕೊ ರ
ಕೆಲವ ೊಮ್ಮೆ</w>
ಕಾಯ ಿ</w>
ಕ ಮ
ಏಕ ದಿನ</w>
ಎ ನ್
ಆಧ್ಯಾ ತ್ಮಿಕ</w>
ಆದ ೇಶ</w>
ಆ ಲೋಚ
ಆ ಂಧ
ಅನ ಂತರ</w>
ಅ ಮ್ಮ</w>
1 ,
್ಯ ವನ್ನು</w>
ೆ ಂದ
ಿಸ ಿರಿ</w>
ಿ ರ</w>
ಸ್ಪ ೀ
ಸು ಮ್ಮ
ಷ ್</w>
ವ್ಯವ ಹಾರ
ವೃತ್ತ ಿ</w>
ಲ ರ್</w>
ರು ಗ
ಭಿ ನ್ನ</w>
ಬೈ ಕ್</w>
ನೆರ ವು</w>
ನಿರ್ಣ ಯ
ನಿಜ ವಾದ</w>
ನಿಜ ಕ್ಕೂ</w>
ನ ಷ್ಟ
ನ ವರು</w>
ದೊ ಡ್ಡ</w>
ದೀ ಕ್ಷ
ತ ರು</w>
ಣ ೆಯನ್ನು</w>
ಣ ಗಳಲ್ಲಿ</w>
ಜೀವ ನದಲ್ಲಿ</w>
ಚ ಾರ್
ಕ್ ಟರ್</w>
ಕೆ ೂೕ
ಕಾ ಲಿ
ಕರ ು
ಆರೋಪ ಿಯನ್ನು</w>
ಆದ ುದರಿಂದ</w>
ಅಲ್ಲ ಿನ</w>
ಅರ್ ಜ
ಅಭ್ಯರ್ಥ ಿ</w>
ಅನು ಮತಿ</w>
2 5
ೂ ನ್</w>
ಸ್ಪ ಷ್ಟ</w>
ಸು ರಿಯ
ಸಮ ಾರಂಭ
ಸ ನ್ನು</w>
ವ ದ
ಲೋಕ ಸಭೆ</w>
ರಾ ಷ್ಟ್ರ</w>
ಮಲ ಗ
ಬಿಡುಗ ಡ
ಬಾಲ ಕಿ</w>
ಪ್ರಥ ಮ</w>
ಪ್ರ ತಿದ
ದೀ ರ್
ತ್ರಿ ಕ</w>
ತಿ ಗಳು</w>
ಟ್ ​</w>
ಟೆ ಡ್</w>
ಟ ಾರ್
ಚಿತ್ರ ವನ್ನು</w>
ಗೌರ ವ</w>
ಕ್ಯಾಮೆ ರಾ</w>
ಕಡೆ ಗೆ</w>
ಔ ಷ
ಇದುವರೆ ಗೂ</w>
ಆಕ್ ರೋ
ಅವ ಧ
ಅ ರು
ಂದ ್</w>
2 1</w>
ುತ್ತ ೀರಿ</w>
ಿಸುತ್ತ ಿದ್ದರು</w>
ಿರ ಲಿ</w>
ಹೋಗ ಿದೆ</w>
ಹಾ ನಿಯ
ಸರಿಯ ಾಗಿ</w>
ಶ ುದ್ಧ
ವ ಡ
ವ ಂಚ
ಲಿ ಲ್ಲ
ಯ ್ದ
ಯ ಲ್ಲಿ</w>
ಮು ನ್ನ</w>
ಮು ಂತ
ಮಾನ ವ
ಮಹಿಳೆಯ ರ</w>
ಮಲ ಯಾಳ
ಮ ರು</w>
ಭರವ ಸೆ</w>
ಬಳ ಕೆ</w>
ಫ ಿ</w>
ಪ್ರ ಸ್ತಾ
ಪು ಡಿ</w>
ನೇತೃ ತ್ವದ</w>
ನೆರ ವೇ
ನಡೆಸ ಿದರು</w>
ನ ಗಳು</w>
ದೀ ಪ
ದಾಖಲಿಸ ಿದ್ದಾರೆ</w>
ತ ದ
ಡಿ ಕ್ಕಿ</w>
ಚ್ಚ ಿ</w>
ಘಟ ನೆಗೆ</w>
ಖ ರ್
ಕೊ ನೆಯ</w>
ಕರ್ತ ನು</w>
ಕ ಪ್ಪು</w>
ಎ ಫ್</w>
ಆ ರಾಧ
ಅಲ್ಲ ಿಗೆ</w>
ಅನು ಕೂಲ
ಅ ನಾ
ುಕೊಂಡ ು</w>
ಿತ ವಾಗಿ</w>
ಹ ಾನಿ</w>
ಸೋ ಲು</w>
ಸೈ ತಾನ
ಸಿನಿಮಾಗ ಳ
ಸರಕಾರ ದ</w>
ಶ್ ವ
ವಿಧಾನ ಸಭೆ</w>
ವಿ ವಾ
ಲ ಂಬ
ರ ಕ
ಮೊಬೈ ಲ್</w>
ಮೃತ ದೇಹ
ಮುನ್ನ ಡೆ</w>
ಮಾಡ ಲಾಗಿತ್ತು</w>
ಮಟ್ಟ ಿಗೆ</w>
ಬೆಳ ವಣ
ಬೆ ನ್ನ
ಬಾರ ಿಗೆ</w>
ಬಳ ಕೆ
ಬ ಸ್
ಫಲಿತಾಂ ಶ</w>
ಪ್ರತಿಯ ೊಂದು</w>
ಪ್ ತ</w>
ನ್ನ ಿ</w>
ನ್ನ ಾಗಿ</w>
ನಿ ತ್ಯ
ದು ಃ
ದಲ್ಲ ಿದ್ದಾರೆ</w>
ತ ೆಯಲ್ಲಿ</w>
ಜ ್ಯ</w>
ಗೆ ದ್ದ</w>
ಗು ಪ್ತ
ಕ್ರಮ ವಾಗಿ</w>
ಕಾರ್ಯಕ್ರಮ ದಲ್ಲಿ</w>
ಕಾ ಶ</w>
ಎನ್ನ ುವ</w>
ಇಲ್ಲ ವೆ</w>
ಅಂತ ರ
3 0
ುದ ನ್ನು</w>
ಿಸುತ್ತೇ ವೆ</w>
ಿದ ಳು</w>
ಿ ಡ
ಿ ಂಗ್</w>
ಸೇ ರ್
ಸೆ ಲ್
ವಿಧಾನ ಸಭಾ</w>
ಲೆ ಗಳು</w>
ರ್ ಜಿ</w>
ರೈ ಲ್
ರಾಹು ಲ್‌</w>
ರ ನ್‌
ಮತ ದಾನ</w>
ಭಾಗವಹಿಸ ಿದ್ದರು</w>
ಬೆಂಬ ಲ
ಫ ಾ
ಪ್ರಕರಣ ಗಳು</w>
ಪಾ ಂಡ
ಪಡೆದ ರು</w>
ಪ ್ಯ
ನ್ಯೂ ಜಿ
ನ್ಯಾಯಾಲಯ ಕ್ಕೆ</w>
ದ್ದ ೇ</w>
ದೊ ರೆ
ತರಬೇ ತಿ</w>
ಡು ಗೆ</w>
ಜೀವ ನ
ಜ ನ್
ಗೊಳಿಸ ಲಾಗಿದೆ</w>
ಗಾಯ ಗಳಾಗಿವೆ</w>
ಕೀ ರ್
ಕಾರ್ ಮಿಕ
ಕರ ಾಗ
ಐ ವರು</w>
ಏನ ಿದು</w>
ಈ ರು
ಅಂ ತ್ಯ
ಅ ಪೊ
7 0</w>
್ ದ</w>
ುವ ರಿ</w>
ಿರುವ ಾಗ</w>
ಿಕ ಾ
ಹೇಳ ಿದ</w>
ಹುಡು ಕಾ
ಸ್ಥಾನ ದಲ್ಲಿ</w>
ಸ್ ವರ
ಸುಲಭ ವಾಗಿ</w>
ಸಿನಿಮಾ ದ</w>
ಸಮ ಿತ
ಸದ ಾ</w>
ಷ ್ಯಾ
ಶಿವ ಸೇನೆ</w>
ವ್ಯತ್ಯಾ ಸ
ವಿಶ್ ವಾಸ
ರ ಂತೆ</w>
ಮಾ ನ್</w>
ಭ ಾಯ
ಭ ರ್ಜ
ಫೋಟ ೋ
ಪ್ರಶ್ ನೆ
ಪ್ರಕರಣ ದಲ್ಲಿ</w>
ಪಾ ಪ
ನೀ ಯ
ನಿಷೇ ಧ
ಟ್ರ ಾ
ಗ ೂಡ
ಕೊ ಂಡ</w>
ಕೊ ಳ್ಳ
ಕೊ ಂಡ
ಅ ಲ್
2 2</w>
ುವ ದು</w>
ಿಕ ೆಯಲ್ಲಿ</w>
ಸ್ವ ಚ್ಛ
ಸಿಲು ಕ
ಸಮಸ್ಯೆ ಗಳು</w>
ಷ್ ‌</w>
ಷ ಿ
ವಾಗ ುತ್ತಿದೆ</w>
ಳ ಾಗ
ಯೆ ಹೂ
ಮೆಣ ಸು</w>
ಮೃ ತ</w>
ಮಿ ಯ</w>
ಪ್ರಾ ಣ
ಪ್ರ ೋತ್
ಪ್ರ ಮುಖ
ನೆ ಲ
ದಾ ದ್ಯಂತ</w>
ದ ಾರಿ</w>
ದ ಾಗಿ</w>
ತಿಂ ಗಳು</w>
ತಿ ಂಗಳ
ಟ ೆ</w>
ಚ್ ‌</w>
ಚಿತ್ರ ೀ
ಗ ೂ
ಕೆಲ ವೆ
ಕಾಲೇ ಜು</w>
ಕಾರಣ ಗಳು</w>
ಕ ುದ
ಏ ನನ್ನು</w>
ಇಸ್ ಲಾ
ಇಲ್ಲ ಿಗೆ</w>
ಇ ಷ್ಟ</w>
ಆ ಹ್
ಅವ ರಿಬ್ಬ
ಅಂತಾರಾಷ್ಟ್ರ ೀಯ</w>
ೇ ನೆ</w>
ಿಸ ಲ್ಪಡ
ಿ ಟ್ಟ
ಹಾಗ ೇ</w>
ಸಾ ಲ
ಶ್ರೀ ಲ
ಶತ ಮಾನ
ವ ರಲ್ಲಿ</w>
ರ್ ಪ
ರ ಹ
ಯಾವುದ ೂ</w>
ಮಾನ ಸಿಕ</w>
ಫೈ ನ
ಪ್ರತ್ಯ ೇ
ಪ್ ‌
ನೂರ ಾರು</w>
ದ ಂಪ
ಜಿಲ್ಲ ೆಯಲ್ಲಿ</w>
ಜಾಗ ತಿಕ</w>
ಚಿ ಕ್ಕ</w>
ಘಟ ನೆಗಳು</w>
ಗ್ರಾ ಹ
ಗಾಯ ಗೊಂಡ</w>
ಕ್ಷ ಣ
ಕಾಣ ಿಸಿಕೊಂಡ
ಒಳ್ಳ ೇ</w>
ಏ ರಿಕ
ಉತ್ಪ ನ್ನ
ಈರು ಳ್ಳಿ</w>
ಆತ್ಮ ಹತ್ಯ
ಅಧ್ಯಕ್ಷ ತೆ</w>
ಅಗ್ ನಿ
ಂಬ ಾ
1 .
ೆಯ ಾ
ುವುದ ರಿಂದ</w>
ುವ ಾ
ಿರ ುವುದಿಲ್ಲ</w>
ಿತ ್</w>
ಿ ಂದಾಗಿ</w>
ಹೋದ ರು</w>
ಹಿನ್ನೆ ಲೆಯಲ್ಲಿ</w>
ಹ ಿ</w>
ಹ ಣ್ಣ
ಸುಪ್ರೀಂ ಕೋರ್ಟ್</w>
ಸರ ಣಿ</w>
ಸಂ ಶೋಧ
ಶ ವ
ವಿರುದ್ಧ ದ</w>
ವಾದ ಗಳು</w>
ವ ಚ
ಲೇ ಬೇಕು</w>
ಲಿ ತ</w>
ರಿ ಂದಲೇ</w>
ರ ವಾನ
ಮೀ ಡಿಯ
ಮಾರುಕಟ್ಟ ೆಯಲ್ಲಿ</w>
ಬ ಿದ್ದು</w>
ಪುನ ಃ</w>
ಪು ರಾ
ಪಡೆಯ ಲು</w>
ನೆ ಲೆ
ನಿ ತ್ಯ</w>
ನಗ ರ
ದ ಾನ
ತೀರ್ ಮಾನ
ಚಾ ಂಪ
ಗು ರಿಯ
ಗಾ ಯ</w>
ಕೊ ರೋ
ಕೆಲಸ ವನ್ನು</w>
ಒಟ್ಟ ಿಗೆ</w>
ಏ ನೆ
ಉನ್ನ ತ</w>
ಉತ್ತ ೇ
ಆ ಜ್ಞ
ಆ ಕರ್ಷ
ಅದ ೂ</w>
ಅಂ ಥ
ಅ ರಣ
ಅ ಮ್ಮ
ಂಟ ಿ</w>
ಂ ು
‍ ನ</w>
ೕ ಯ</w>
ೆಯಾಗ ಿತ್ತು</w>
ಿಕೊಂಡ ಿರುವ</w>
ಹೋ ಯಿತು</w>
ಹೇಳ ಿದನು</w>
ಹೆಸ ರನ್ನು</w>
ಸಲಹ ೆ</w>
ಸಂದ ೇಶ
ಸ ಣ್ಣ
ಶ್ ‌</w>
ಶಿ ಷ್ಟ
ರ ಂಜ
ಮುಖ್ಯ ಸ್ಥ</w>
ಮಾರ ಾಟ
ಮಹಾರಾಷ್ಟ್ರ ದಲ್ಲಿ</w>
ಭ್ರಷ್ಟ ಾ
ಬ ಾ</w>
ಬ ರೆ
ಪವಿ ತ್ರಾ
ಪಡಿಸ ಲಾಗಿದೆ</w>
ಪ ಟ್ಟ</w>
ನಿ ವಾ
ನಾಲ್ ಕ
ಧಿಕ ಾರ
ದೇ ಹ</w>
ದಿನಾ ಂಕ</w>
ದಿ ಂದ
ದಲ್ಲ ಿಯೂ</w>
ದ ೋಷ
ತು ರ್
ತಿಳಿದು ಬಂದಿದೆ</w>
ತಾ ಂ
ತ ೀ</w>
ಚರ ್ಯ
ಕ್ಲ ಿಕ್</w>
ಕನ ಸು</w>
ಇ ಂಥ
ಇ ಂತ
ಆಡ ಳಿತ
ಆಗ ಿದ್ದಾರೆ</w>
ಅಪೊ ಸ್ತ
5 0
ೆಯಾಗ ಲಿದೆ</w>
ುವ ವರು</w>
ಿಸ ಲಿದೆ</w>
ಿಯ ಲ್</w>
ಿದ್ದ ರಿಂದ</w>
ಿಕೊಳ್ಳ ಬೇಕು</w>
ಸ್ಥಳ ದಲ್ಲೇ</w>
ಸಾಧ್ಯವಾಗ ಲಿಲ್ಲ</w>
ಸಹ ಜ
ಸಂ ವಿಧಾನ
ವೆ ಚ್ಚ</w>
ಲ್ಪ ಟ್ಟ</w>
ರದ್ದ ು
ಮೈ ತ್ರಿ</w>
ಮು ಟ್ಟ
ಮಾ ಯ
ಬಿಜೆಪ ಿಯ
ಫ ್ರ
ಪ್ರ ಚ
ಪೊಲೀ ಸ್‌</w>
ಪಡ ಿಸಿ</w>
ನಿ ಭಾಯ
ದಿ ಂದಲೂ</w>
ಟ ರಿ</w>
ಜಿಲ್ಲ ಾ
ಜನ ರ
ಚ ಿ</w>
ಗೊ ತ್ತು</w>
ಕ್ಷ ನ್</w>
ಕ್ಯಾ ನ್
ಕೊ ನೆ
ಕೇರಳ ದಲ್ಲಿ</w>
ಐ ಪಿ
ಎ ನ
ಇಸ್ರಾಯೇ ಲ್ಯ
ಇ ರಿಸ
ಆದ ಿ
ಅ ಬ್ದ
ಅ ಪ್ಪ</w>
m e</w>
3 5</w>
್ಯ ು
ೆಯ ಾದ</w>
ೀ ಸ್</w>
ಿರ ಲು</w>
ಾ ಸ್ನಾ
ಹಿ ನ್ನ
ಹಾಗ ಂತ</w>
ಹ ರಡ
ಸ್ವಾಗ ತ
ಸ್ಟ ೋ
ಸ್ ಫೋಟ
ಸರ್ ವ
ಸ ಗ
ಶೇ ಖ
ವಿಧ ೇಯ
ವಾಗ ಿಯೇ</w>
ವಹಿಸ ಿದ್ದರು</w>
ರಿ ನಿಂದ</w>
ಮಾಡ ಿರುವ</w>
ಭಾ ವ</w>
ಬಳ ಲ
ಬರ ಲಿದೆ</w>
ಬ ು</w>
ಬ ಿಸಿ</w>
ಬ ಿರು
ಪ್ರಯಾ ಣ</w>
ನಿರ್ದ ಿ
ನ ುಗಾರ
ದೀಕ್ಷ ಾಸ್ನಾ
ದಿ ಯ</w>
ದಾಖ ಲೆ</w>
ತಿಳಿಸ ಿದೆ</w>
ತಿ ನ</w>
ತಿ ಗಳನ್ನು</w>
ಡೀ ಸೆಲ್</w>
ಟಾ ಟಾ</w>
ಟ ೊ
ಟ ೂರ್
ಚ್ಚ ು</w>
ಚಿತ್ರ ಗಳು</w>
ಖಂಡ ಿತ</w>
ಕೆ ಟ್ಟ</w>
ಕನಿ ಷ್ಠ</w>
ಕಡ ತ
ಕ ಂ
ಇದ ರೊಂದಿಗೆ</w>
ಇ ಂ
ಅಮೆರಿಕ ದ</w>
ಅಬ್ದ ು
ಅಧಿಕೃ ತ</w>
ಅ ಶ್
ಅ ಚ್ಚ
ಂತ ೆಯೇ</w>
ುವಿ ಕೆ</w>
ಿ ನಿಂದ</w>
ಾ ವ
ಹೇಳ ುತ್ತಾರೆ</w>
ಸಿ ಂಗ್‌</w>
ಸಾಧ್ಯವಾಗ ಿಲ್ಲ</w>
ಸಮೀ ಪ
ಸಮಸ್ಯೆ ಗಳನ್ನು</w>
ಸಂಗ ತಿ</w>
ವೈರ ಲ್</w>
ವಿ ಕ</w>
ವ ರೂ</w>
ಳ ದ</w>
ರು ಗಳು</w>
ರಿಸ ಿದ</w>
ಮೇ ಶ್</w>
ಮುಂದುವರಿದ ಿದೆ</w>
ಮು ಂ
ಮಿ ೕ
ಮಾರ ಾಟ</w>
ಮ ರೆ
ಬ್ಬ ರು</w>
ಬೆಳ್ಳ ು
ಪ್ರಕ್ರಿಯ ೆ</w>
ಪಾ ಲಿಸ
ನ ಕ್ಕ
ದ್ ಧ</w>
ದಿನ ದ</w>
ದಾಖ ಲು</w>
ತ್ತ ೂ</w>
ಟ್ವೀ ಟ್</w>
ಗು ಂ
ಗ ್</w>
ಗ ು</w>
ಒಬ್ಬ ರು</w>
ಉಂಟ ು
ಇದ ್ದ</w>
ಇತ್ತೀ ಚೆಗೆ</w>
ಅವರ ೊಂದಿಗೆ</w>
ಅಳ ವಡ
ಅದ ಕ್ಕ
​ ನಲ್ಲಿ</w>
ೇ ಕೆ</w>
ೂ ರ
ಿತ ಾ</w>
ಿಕೊಂಡ ಿದೆ</w>
ಹೊ ತ್ತು</w>
ಹೈ ದ
ಹಾ ಲು</w>
ಸ್ಪ ೂನ್</w>
ಸಭ ೆಗೆ</w>
ಲಿ ಕ್ಕ
ರು ಪ
ಯೆಹೋವ ನನ್ನು</w>
ಯಾವ ುವು</w>
ಯ ುದ್ಧ</w>
ಮೊದ ಲ</w>
ಮಾಡ ಿದ್ದು</w>
ಮ ರಳ
ಭಾಷ ೆ</w>
ಬಿ ಡಿ</w>
ಬಂಧ ಿಸಿ</w>
ಪರಿಶೀ ಲಿಸ
ಪಕ್ಷ ಗಳ</w>
ಪ ಯ
ನ್ಯಾಯಾ ಂಗ</w>
ನಡೆಸ ಲು</w>
ನ ಾರ
ನ ಾಗಿ</w>
ದೊ ರೆಯ
ದಾಳ ಿಯಲ್ಲಿ</w>
ತೀ ರಾ</w>
ಣ ವೇ</w>
ಣ ಕ್ಕೆ</w>
ಜೀವ ನದ</w>
ಗ್ರಾ ಮ
ಗು ರಿ</w>
ಕ್ಕಿ ಂತಲೂ</w>
ಕೆಳ ಗೆ</w>
ಕು ಮಾರ್
ಒತ್ತ ಡ
ಒ ಡ
ಉಗ್ರ ರ</w>
ಉ ಚಿತ</w>
ಆ ಯೋಗ</w>
ಅಗ್ನಿ ಶಾಮ
ಅ ಪಾರ</w>
ೆ ಗಳಿಗೆ</w>
ಿಸುತ್ತ ಿರುವ</w>
ಹೆ ಜ್
ಹಿ ರಿಯ
ಹವಾ ಮಾನ</w>
ಸ್ಥಾನ ದಲ್ಲಿದೆ</w>
ಸೂಚ ನೆ</w>
ಸರ್ಕಾರ ಕ್ಕೆ</w>
ಸಮ ಯ</w>
ಸ ಿಸಿ
ಸ ಲ್
ಶಾ ಲಾ</w>
ವಿ ನ್ಯಾ
ವಾ ರ</w>
ವ ್ಯ</w>
ಲಾ ಭ
ರ ದ್ದು</w>
ಮುಖ್ಯಮಂ ತ್ರಿಯ
ಮುಖ್ಯಮಂ ತ್ರಿ
ಮುಖ ಂಡ</w>
ಮು ಳ
ಮಾಡ ಬೇಕು</w>
ಮಂದ ಿರ
ಬಳ ಸಿ</w>
ಬರ ಲಿಲ್ಲ</w>
ಪ್ರ ಿಯ</w>
ಪಾಲ್ ಗೊಳ್ಳ
ಪಟ್ಟ ಿಯಲ್ಲಿ</w>
ದೂ ರ</w>
ದುಕೊಂಡ ು</w>
ತೃ ಪ್
ತದ ನಂತರ</w>
ತಂಡ ಗಳು</w>
ಡ ೊ
ಜೀ ವಿ
ಜಾಲತಾ ಣದಲ್ಲಿ</w>
ಜ ರುಗ
ಗ ರ್
ಕ್ಷೇತ್ರ ದಲ್ಲಿ</w>
ಕ್ರಿಸ್ ತ
ಕಿರು ಕು
ಕರ್ನಾಟಕ ದಲ್ಲಿ</w>
ಕ ದ</w>
ಎಲ್ಲ ರ</w>
ಎ ಣ್ಣೆ</w>
ಉಪಸ್ಥಿತ ರಿದ್ದರು</w>
ಉದ್ಯ ೋಗ</w>
ಇವ ರಲ್ಲಿ</w>
ಇದ ಕ್ಕೂ</w>
ಇಂಟ ರ್
ಆದ ಾಯ</w>
ಆಗ ುವುದಿಲ್ಲ</w>
ಆಗ ುತ್ತದೆ</w>
ಅಪ ಘಾತ</w>
ಅ ಡ್
ೆ ಗಾಗಿ</w>
ಿಸುತ್ತ ಾ</w>
ಿ ತ್ತ
ಹೋ ದ</w>
ಹೊ ರ</w>
ಹೈದ ರಾ
ಹ ಾ</w>
ಸ್ವಾ ತಂ
ಸ್ವ ತಃ</w>
ಸ್ ಕರ</w>
ಸುಂದ ರ</w>
ಸಮುದ ಾಯ
ಸನ್ನಿ ವೇಶ
ಶ ೇ
ಶ ಾರ
ಶ ಕ್ತ
ಶ ಂ
ವಿಶ್ವಾ ಸ</w>
ವಿ ಳ
ಲ್ ​</w>
ರೆ ಗೆ</w>
ಮೀ ನುಗಾರ
ಭವಿಷ ್ಯ
ಭರ್ಜ ರಿ</w>
ಬೇಕ ಿತ್ತು</w>
ಬೆಳ ಕ
ಬಾ ಂಬ
ಪ್ರಾ ಯ</w>
ಪ್ರಶ್ ನೆಗಳು</w>
ಪ್ರಯಾಣಿಕ ರು</w>
ನೆನ ಪ
ನೀಡ ಬೇಕು</w>
ನಿ ಷ್
ನಿ ಖ
ನಿ ಕ
ನಗ ರ</w>
ತೂ ಕ</w>
ಜ ಲ
ಚಿತ್ರ ರಂಗ
ಚಿತ್ರ ಗಳಲ್ಲಿ</w>
ಗಳ ನ್ನ</w>
ಕೊ ಲ್ಲ
ಕೊ ಟ್ಟ</w>
ಕರ್ತ ನ</w>
ಏ ನೇ
ಎಂಜಿ ನ್</w>
ಅರ್ ಹ
a me</w>
2 4</w>
ು ಗೆ</w>
ಸ್ವ ಯ
ಸದ್ಯ ಕ್ಕೆ</w>
ಶ್ರ ೂಷ
ಶಾಸ ಕ</w>
ವೈರ ಸ್</w>
ವಾ ಡ
ವರ್ ಷ</w>
ವ ಲ
ಲಾ ಭ</w>
ರ ುತ್ತದೆ</w>
ಯಾರ ನ್ನೂ</w>
ಮೋ ಶ
ಮು ಕ್ತ
ಮಾರ್ಗ ದರ್ಶ
ಮಾಡ ಬೇಡಿ</w>
ಬೆ ದ
ಬ ೊ
ಪ್ರವಾ ಸಿಗ
ಪೋಷ ಕರು</w>
ಪಾಲ್ಗೊಂಡ ಿದ್ದರು</w>
ಪಟ್ಟ ು</w>
ನೀಡ ುತ್ತದೆ</w>
ನೀ ರನ್ನು</w>
ದ್ ವೇಷ
ದೇವ ರನ್ನು</w>
ಡ ಿನ</w>
ಜೀ ವ</w>
ಚಾಲ ನೆ</w>
ಗರಿ ಷ್ಠ</w>
ಕ್ರೈಸ್ತ ರು</w>
ಕೃ ಷಿ</w>
ಕಿ ವಿ
ಒಪ್ಪ ಂದ
ಎ ಂಟು</w>
ಆದ ್ಯ
ಆತ ಂಕ</w>
ಆತ ಂಕ
ಅಷ್ಟ ೆ</w>
ಅರ ಸ
ಂತ ್</w>
6 0</w>
2 3</w>
ಿಕ ೋ
ಹೋಗ ಲು</w>
ಹೆ ಣ್ಣ
ಸ್ಮಾರ ್ಟ
ಸಾಹಿ ತ್ಯ</w>
ಸಾ ಲ</w>
ಸಮುದ ್ರ
ಸಂ ಪ
ಸಂ ಜೆ</w>
ಶುಲ್ ಕ</w>
ಶಾ ಸ್
ಯತ್ ನ
ಮನಸ್ ಸು</w>
ಪು ತ್ರ
ಪಾ ಲ್</w>
ಪದ ಾರ್ಥ
ಪದ ವಿ</w>
ನಿ ಧಾನ
ನಾ ನೇ</w>
ನಮ ಗ
ನನ ಗೂ</w>
ಧಿಕ ಾರಿ</w>
ದ್ರ ಾ
ದೇ ವಾಲಯ
ದಾಖ ಲಾಗಿದೆ</w>
ತಾ ವರ
ಠಾ ಣೆಗೆ</w>
ಚಿ ನ್ನ
ಗ್ರ ೀ
ಗೊ ಂದ
ಕೆಳ ಗಿನ</w>
ಕೆಲವ ೊಂದು</w>
ಕಾಣ ಿಸಿಕೊಳ್ಳ
ಐ ಸಿಸಿ</w>
ಎನ್ನ ುತ್ತಾರೆ</w>
ಉ ಡು
ಇಷ್ಟ ಪಡ
ಆಶ್ ಚರ್ಯ
ಆಫ್ರ ಿಕಾ</w>
ಅನ ಾರ
ಅದ ರಲ್ಲೂ</w>
ಂ ಶ</w>
3 00</w>
2 8</w>
್ ​</w>
ೊ ಡ್ಡ</w>
ಿಸುತ್ತ ಿದ್ದ</w>
ಿಸ ಿವೆ</w>
ಿದ ೆಯೇ</w>
ಸ್ತ ು</w>
ಸೌ ಲಭ್ಯ
ಸಿನಿಮಾ ದಲ್ಲಿ</w>
ಸಿಕ್ಕ ಿಲ್ಲ</w>
ಸಹ ಕಾರ</w>
ಸಂದ ರ್ಶ
ಶು ಶ್ರೂಷ
ವಿಶ್ವ ಕಪ್</w>
ವಿ ಟ
ವಿ ಜ್ಞಾನ</w>
ವಾ ತಾವರ
ರೋ ಗ</w>
ಮ್ ಮನ
ಮುಸ್ಲಿ ಂ</w>
ಮಾಡ ುವಂತೆ</w>
ಮಗ ುವನ್ನು</w>
ಮಂ ಗಳ
ಬಹುದ ಾದ</w>
ಫ ್ರಾ
ಪ್ರ ಚಾರ</w>
ಪಡೆಯ ುತ್ತಿದ್ದಾರೆ</w>
ನ್ ​</w>
ಧ ೂ
ತ್ವ ದಲ್ಲಿ</w>
ತೆಗ ೆಯ
ತಿಳಿದ ಿಲ್ಲ</w>
ತಾ ಳ್
ತಂಡ ಕ್ಕೆ</w>
ತ ಾರೆ</w>
ಚೆನ್ನ ೈ</w>
ಕೋ ರ
ಕೆ ಂಪು</w>
ಕು ತೂ
ಕಾರ್ ಡ್</w>
ಕಣ್ಣ ು</w>
ಔಷ ಧ
ಎಲೆ ಕ್
ಇದುವರೆ ಗೆ</w>
ಅ ಂದು</w>
ಂಗ್ ಸ್</w>
ೋ ತ್ತರ</w>
ುವುದ ರಲ್ಲಿ</w>
ುತ್ತ ಾಳೆ</w>
ಿದ್ದ ೆವು</w>
ಹೆ ದರ
ಹಾ ಡು
ಹಕ್ಕ ು</w>
ಸ್ಪ ಂದ
ಸಮ ರ್ಪ
ಸಂ ಘ
ವಿದೇಶ ಿ</w>
ವಿ ಭಿನ್ನ</w>
ವಾದ ದ್ದು</w>
ವಾ ಲಯ</w>
ವ ೊಂದ
ಲೀ ಸ್</w>
ಲ ೀ</w>
ರ್ ಸ್</w>
ರಸ್ ತೆ
ರ ಸ್ತ
ಮೊ ಹಮ್ಮದ್</w>
ಮುಳ ುಗ
ಮಾಡ ುತ್ತಿದ್ದ
ಮಾಡ ಲಾಗುತ್ತದೆ</w>
ಮಲಯಾಳ ಂ</w>
ಮ ಧು
ಬುದ್ಧ ಿ
ಪ್ರೀ ತಿಯ</w>
ನಿ ಲ
ನಿ ನ್ನನ್ನು</w>
ನ ಂ
ದು ಷ್
ದ ಂಡ</w>
ತೀರ್ ಮಾನ</w>
ತಾ ಪ
ಡಿ ಗ್ರ
ಗೆ ಲು
ಕೊ ರಿ
ಕೇ ಜ
ಕಾಯ್ದ ೆ</w>
ಕ ಳಿಸ
ಕ ಂಡ</w>
ಎ ಸೆ
ಉಂಟ ಾಗಿದೆ</w>
ಉ ರು
: 3
‌ ಗೆ</w>
ುತ್ತ ಿದ್ದೇನೆ</w>
ಿಸಿದ ಾಗ</w>
ಿಕೊಳ್ಳ ಲಾಗಿದೆ</w>
ಾ ಹ್
ಹೆಚ್ಚ ುವರಿ</w>
ಹಲ ವರು</w>
ಸ್ಥ ಿರ
ಸೋಂಕ ು</w>
ಸಚಿ ವರು</w>
ಸಂಗೀ ತ
ಸಂ ಸದ
ಶಾಂತ ್</w>
ಶ ುದ್ಧ</w>
ವ್ಯಾ ಪಾರ</w>
ವಿದ್ಯಾರ್ಥಿ ಗಳ</w>
ವಾಗ ಲಿಲ್ಲ</w>
ವನ್ನ ೇ</w>
ರಾಜ ಕಾರಣ
ರಾ ಮ್</w>
ರ ಕ್ಕೆ</w>
ಯಶಸ್ ಸು</w>
ಯ ು</w>
ಮಿ ತ</w>
ಮ ವಾಗಿ</w>
ಭಾಗ ದಲ್ಲಿ</w>
ಬ್ ಬಿ
ಬೇ ಗ
ಬ ಟ್ಟ
ಬ ಜೆ
ಪ್ರ ಚಾರ
ನೋಡ ಲು</w>
ನಿಯ ಲ್ಲಿ</w>
ನಲ್ಲ ಿರುವ</w>
ನ ದ
ದಿನ ಕ್ಕೆ</w>
ತ್ತಿ ನಲ್ಲಿ</w>
ತ್ ರ್ಯ</w>
ಟ ನ್</w>
ಖಾ ತೆ</w>
ಕ್ರಿಸ್ ತನ</w>
ಕೊರೋ ನಾ</w>
ಕೆಲ ವೇ</w>
ಕ ವಾಗಿದೆ</w>
ಕ ದ
ಓ ಡಾ
ಏ ನಾಯ
ಎ ಂದ</w>
ಆರಂಭ ಿಕ</w>
ಆಯ ು
ಅ ಮೇ
ಅ ಡುಗೆ</w>
ಅ ಜ
ೆಲ್ಲ ವೂ</w>
ುತ್ತ ಿದ್ದು</w>
ಿ ಂದಲೂ</w>
ಹಿಂದ ಿರುಗ
ಹಾ ನಿ
ಹ ರಿ
ಸ್ಥಾನ ಗಳಲ್ಲಿ</w>
ಸ್ಟ ಿ
ಸಿದ್ ಧ</w>
ಸಾಧ ನೆ</w>
ವೆ ಂಬ
ವೆ ಂದರೆ</w>
ವಿದ್ಯಾರ್ಥಿ ಗಳಿಗೆ</w>
ವಿಟ ಮಿ
ವಾಸ್ತವ ವಾಗಿ</w>
ವಾಪ ಸ್</w>
ಲಕ್ಷ ಾಂತರ</w>
ರಿಯ ಾ</w>
ರಾಜ್ಯ ಪಾಲ
ರ ವಾದ</w>
ಯೆಹೋ ವ</w>
ಯುವ ತಿ</w>
ಮೋಹ ನ್</w>
ಮೇ ಲೂ</w>
ಮೂಲ ಭೂ
ಮಾಡ ಿದ್ದ
ಮತ್ತ ೊಮ್ಮೆ</w>
ಮ ುತ್ತ
ಫೋಟ ೋ</w>
ಫ ್ರೆ
ಪ್ರಮಾಣ ದಲ್ಲಿ</w>
ಪ್ರಚ ೋದ
ಪ್ ಲಾ
ನ್ಯಾಯಾಲಯ ದ</w>
ನೆ ಟ್</w>
ನ ಷ್ಟ</w>
ಧ ರಿಸಿ</w>
ದೌ ರ್ಜ
ದೊ ಳ
ದೂ ರಿನ</w>
ದೀ ಪ್</w>
ದಿ ಗಳು</w>
ತಿಳಿದ ುಕೊಳ್ಳ
ತರ ಕಾರ
ತಂತ್ರ ಜ್ಞಾನ</w>
ಚಿತ್ರ ಕ್ಕೆ</w>
ಗೊ ಂದು</w>
ಗ ಡಿ</w>
ಕೊಂಡ ು</w>
ಕಾಶ್ಮೀ ರದ</w>
ಕಾರ್ಯಕರ್ತ ರು</w>
ಒಪ್ಪ ಿಕೊಂಡ
ಇವೆ ಲ್ಲ
ಇವ ರನ್ನು</w>
ಇರ ಬೇಕು</w>
ಆಗ ್
ಆ ಕೆಯನ್ನು</w>
ಅನು ಸರಿಸ
ಅದ ನ್ನೇ</w>
ುವದ ಿಲ್ಲ</w>
ಿಸಿಕೊಂಡ ು</w>
ಾನ ಿಸ್
ಹುಡುಕಾ ಟ</w>
ಹಿ ಂತ
ಹಸಿ ರು</w>
ಸೀ ತಾರ
ಸಾಂ ಸ್ಕೃ
ಸಂಬಂಧ ಿಸಿದ</w>
ಶಿ ಫಾರ
ವ್ಯಾ ಯಾ
ವಾ ಟ್
ಲೈ ನ್</w>
ಲೆ ಗಳನ್ನು</w>
ಯಾರ ಿಗೆ</w>
ಯಾ ಕ
ಮಾಡ ು</w>
ಮ ಮ
ಬ್ಯಾ ಟಿಂಗ್</w>
ಬ್ಯ ಾನ
ಬರ ಲು</w>
ಬ ಲಿ</w>
ಬ ಲ</w>
ಪ್ರ ಿ
ಪುನ ರು
ಪಾ ಸ
ಪತ್ ರಿಕ
ನಿರ್ಣ ಯ</w>
ದೇ ಶ
ದುಃ ಖ
ದ ಾಗ
ದ ರ್
ತೊ ಳೆಯ
ತಾಂ ತ್ರಿಕ</w>
ತಂಡ ವನ್ನು</w>
ತ ೆಯಿಂದ</w>
ಗ್ ರ</w>
ಕೃತ ಜ್ಞ
ಕುಮಾರ ಸ್ವಾಮಿ</w>
ಕಿ ತ್ತ
ಕಾಲ ದಲ್ಲಿ</w>
ಕಾ ದ
ಕರ ಾಗಿ</w>
ಕ ಡ್ಡ
ಒಳ್ಳೆಯ ದು</w>
ಐ ದ
ಏ ಳ
ಎದು ರು</w>
ಉತ್ತೇ ಜ
ಇದ ಲ್ಲದೆ</w>
ಆ ಕೆಗೆ</w>
ಅಭ ್ಯಾ
ಅ ರೆ
ಅ ತೀ</w>
ಅ ಡ
ೊ ೕ
ೇಶ ್</w>
ೆ ಂದರೆ</w>
ಿಸುವ ಲ್ಲಿ</w>
ಿದ ್ರು</w>
ಿಕೊ ಟ್ಟ
ಿಕ ೆಯ
ಿ ಗೆ
ಿ ಗಳ
ಾಯ ್
ಾಗ ್
ಹೇ ಳ
ಹಾಗ ು</w>
ಸ್‌ ನಲ್ಲಿ</w>
ಸ್ವ ಸ್ಥ
ಸ್ ಕೂ
ಸೂ ಪರ್</w>
ಸಹೋದ ರ</w>
ಸಂಬಂಧ ಿಸಿ</w>
ಸಂಬಂಧ ಿಕ
ಸಂಗ ತಿಯ
ಸಂಖ್ಯ ೆಯಲ್ಲಿ</w>
ಸಂ ಭ್ರ
ಷ್ಟ ೆ</w>
ಶ್ ವರ
ವ್ಯಕ್ತಪಡಿಸ ಿದರು</w>
ವೆ ಂದ
ವಿಷಯ ಗಳ</w>
ವಿ ಶೇ
ವರ್ ಗ
ರ್ ಡ್</w>
ಯಾವ ತ್ತೂ</w>
ಮುದ ್ರ
ಮಾಹಿತ ಿಯನ್ನು</w>
ಮಾಡ ಲಿಲ್ಲ</w>
ಭೂ ಮಿಯ</w>
ಬೇ ಗ</w>
ಬೆಳ್ಳು ಳ್ಳಿ</w>
ಬಿ ಎ
ಬಾ ಲ್</w>
ಫೈ ನಲ್</w>
ಫ ್ಯಾ
ಪ್ರಮಾಣ ದ</w>
ಪ್ರ ಸಾ
ಪ ತ್ರಿ
ನ್ ಸ್‌</w>
ನೋ ಂದ
ನೆ ೕ</w>
ನಿಯ ು</w>
ನಾ ವಿ
ದಿನ ಗಳು</w>
ದಿ ಂದಾಗಿ</w>
ತ ಳ್ಳ
ತ ಪಾಸ
ಚೆನ್ನ ಾಗ
ಚ ೂ
ಕ್ಕ ಾ
ಕಾರಣ ವಾಗಿದೆ</w>
ಇ ಬ್ರ
ಆರೋಪಿ ಗಳು</w>
ಆ ಚರಿಸ
ಆ ಂತ
ಅಸ್ ತಿ
ಅವಳ ಿಗೆ</w>
ಅನಾರ ೋಗ
​ ​
ೋ ಬ
ುವುದ ರ</w>
ಾನ ು
ಹೇಳ ಲು</w>
ಹ ರಿಯ
ಸ್ವಾತಂ ತ್ರ್ಯ</w>
ಸೂ ಕ್ತ
ಸುದ್ದ ಿ
ಸಿ ಂ
ಸಾ ಬೀ
ಸಮಾ ಧಾನ</w>
ಸಮ ರ್ಥ
ಸಂಭವ ಿಸಿದೆ</w>
ಶ ನ್</w>
ವಿಶ್ವವಿದ್ಯಾ ಲಯ
ವಾಗ ುವ</w>
ವಾ ಣಿ
ವ ನ</w>
ಮುಂದ ೂಡ
ಮಿ ಷ
ಮಾತನಾಡ ಿದ</w>
ಮರಣ ೋತ್ತರ</w>
ಮ ನ್</w>
ಮ ನೆಗಳು</w>
ಬೇಕಾಗ ಿಲ್ಲ</w>
ಬೇ ರ
ಬಳಕೆ ದಾರ
ಪ್ರೋತ್ ಸಾ
ಪ್ರಾ ಥ
ಪಾರ ್ಟ
ಪಾಯ ಿ
ಪವಿತ್ರಾ ತ್ಮ
ಪ ಿಸ
ನ್ಯಾಯಮೂರ್ ತಿ</w>
ನೋಡ ೋಣ</w>
ನಿರೀಕ್ಷ ೆ</w>
ನಿಯಂತ್ರ ಣ</w>
ನಿ ಷ್ಠ
ನಿ ಗಳು</w>
ನ ೆಯಿಂದ</w>
ನ ಿದ್ದೆ</w>
ಧನ್ಯ ವಾದಗಳು</w>
ದೆ ಹಲ
ತ್ವ ವನ್ನು</w>
ತೈ ಲ</w>
ತುರ್ ತು</w>
ಜೆ ೂ
ಜನಾ ಂಗ
ಜ ಯ</w>
ಚ ು</w>
ಗೊಳಿಸ ಿದೆ</w>
ಕ್ಷ ್
ಕ್ರಮ ಗಳನ್ನು</w>
ಕೆಳ ಗಿ
ಕೃಷ್ ಣ</w>
ಕು ಳಿತ
ಕಾರ್ಯಾ ಚರಣ
ಕಾಮಗ ಾರಿ</w>
ಒ ಮ್ಮೆ</w>
ಆಸ ಕ್ತಿ</w>
ಆ ಕ್ಷೇ
ಅವಳ ನ್ನು</w>
ಅ ಹ
ಂದ್ರ ೆ</w>
ಂಗ ಳ</w>
N ame</w>
್ರ ಿ</w>
ೇ ಖ
ುವ ಂಥ</w>
ಿತ ರ</w>
ಾ ಳಿ</w>
ಾ ದಲ್ಲಿ</w>
ಸ್ಥಾನ ಗಳನ್ನು</w>
ಸ್ಥ ರು</w>
ಸ್ತ್ರ ೀಯ
ಸ್ಟ ರ್</w>
ಸಮ ೃ
ಸಂಖ ್ಯಾ
ಸಂ ಪಾದ
ಸ ಕ್ಕೆ</w>
ಶ್ರೀಲ ಂಕಾ</w>
ಶಿ ಷ್ಯ
ಶ ರಣ
ವಿಶೇಷ ವಾಗಿ</w>
ವಾಸ್ತವ ದಲ್ಲಿ</w>
ವ ಲ್ಲ
ವ ರಿ
ಲು ಗಳು</w>
ಲಾ ಕ್</w>
ಲಭ ್ಯ</w>
ಲ ನ್ನು</w>
ರ ಜ
ರ ಕ್ತ</w>
ಮ್ ಸ್</w>
ಮುಂಚ ೆ</w>
ಮೀ ಸ
ಮಾಡ ುತ್ತೇನೆ</w>
ಮ ನ್ನ
ಬೆ ರೆ
ಬಿಸ ಿಸಿ
ಬಿ ಕ್ಕ
ಬಹ ು</w>
ಬದು ಕು</w>
ಬ ಲ್</w>
ಬ ಗ್ಗ
ಪ್ರವಾ ಸ</w>
ನೆ ಗಳ</w>
ನಿಗ ದಿ
ನಿ ವಾರ
ನಾ ನೇ
ನಲ್ಲ ಿದ್ದ</w>
ದೇ ವರ
ದ ಿದ್ದಾರೆ</w>
ತಮಿಳುನಾ ಡು</w>
ತಂದ ೆಯ</w>
ತಂ ತ್ರ</w>
ಟ ್ಯೂ
ಜಾರ ಿಗೆ</w>
ಚಿ ತ್ತ
ಗೊ ಳ್ಳ
ಗಣ ್ಯ
ಕ್ಕ ು</w>
ಕ್ ರಾ
ಕೇಜ ್ರಿ
ಕಾ ನ್
ಕಟ್ಟ ಡ</w>
ಕ ಾಗ
ಒಳ ಗೆ</w>
ಏನ ೋ</w>
ಏ ನಾದರೂ</w>
ಇಲ್ಲ ವೇ</w>
ಆ ಕ
ಅಭ್ಯರ್ಥ ಿಗಳು</w>
ಅಂದ ಾ
ಂದ ಿ
ಂತ ಿ</w>
2 6</w>
“ ನಾನು</w>
ು ’</w>
ಿಸ ಲ
ಿರ ಾ</w>
ಾ ಣ
ಹೇಳ ಿದ್ದರು</w>
ಹೇ ಳ್
ಹಾಜ ರು
ಹಣ ವನ್ನು</w>
ಹ ಗ
ಸ್ಪರ್ಧ ೆ</w>
ಸೆ ರೆ
ಸು ಷ್
ಸಿ ತ</w>
ಸಾಂಸ್ಕೃ ತಿಕ</w>
ಸ ರ</w>
ಶು ರು</w>
ಶಾ ಲೆಗೆ</w>
ಶಾ ಯ</w>
ವಿ ವಾದ
ವಿ ಜೇ
ವರ್ ಧ
ರಿಸ ಲು</w>
ಯೆ ಶಾಯ</w>
ಮುಂದುವ ರೆದ
ಮಾತು ಗಳು</w>
ಮಾಡ ುತ್ತಿದೆ</w>
ಮಾಡ ಿತು</w>
ಮ ತ</w>
ಭೂ ಮಿ</w>
ಬಹು ಶಃ</w>
ಬಳ ಿಗೆ</w>
ಬ ಿದ್ದ</w>
ಪ್ರಾಥ ಮಿಕ</w>
ಪ್ರ ಿಯಾ
ಪೋ ಸ್ಟ್</w>
ಪಿ ಕ್
ಪಾತ್ರ ದಲ್ಲಿ</w>
ಪಂದ್ಯ ಗಳಲ್ಲಿ</w>
ನ್ಯಾಯಾ ಧೀ
ನೀಡ ಲಾಗುತ್ತಿದೆ</w>
ನಿರ್ದಿ ಷ್ಟ</w>
ನಗ ರದಲ್ಲಿ</w>
ನ ಗಳನ್ನು</w>
ದೊ ರಕ
ದೇಶ ಗಳ</w>
ದೆಹ ಲಿಯ</w>
ದಾ ಟ
ತಮ ಗೆ</w>
ತಕ್ಷ ಣವೇ</w>
ತ ಡೆ</w>
ತ ಗ್ಗ
ಜೋ ಡ
ಚಟುವ ಟಿಕೆ
ಗೋ ಷ್ಠ
ಗಾಯಾಳು ಗಳನ್ನು</w>
ಕ್ಷ ೆ</w>
ಕೋ ಪ
ಕೋ ಟ
ಕೆಲಸ ದ</w>
ಕಿರುಕು ಳ</w>
ಕಿ ಂಗ್</w>
ಕಾಶ್ಮೀ ರದಲ್ಲಿ</w>
ಕ ನನ್ನು</w>
ಒಳ ಗಾಗ
ಒತ್ತ ಡ</w>
ಇರ ುವುದು</w>
ಆ ಸ್
ಆ ಲ
ಅವ ರಿಂದ</w>
ಅವ ರಿ
ಅಭಿಮಾನಿ ಗಳು</w>
ಅಪಘಾತ ದಲ್ಲಿ</w>
ಅಧಿಕಾರ ಕ್ಕೆ</w>
ಅದ್ಭು ತ</w>
ಅಗ್ನಿಶಾಮ ಕ</w>
ಅಂತ ಾ</w>
N W</w>
‌ ನ</w>
್ಯಾ ವ
ೇ ಟು</w>
ಿಸ್ ‌</w>
ಾಗ ಿದ್ದರು</w>
ಾಗ ಲೇ</w>
ಹೇಳ ುತ್ತದೆ</w>
ಸಿಗ ುತ್ತದೆ</w>
ಸಿ ನಲ್ಲಿ</w>
ಸಾರ ಿಗೆ</w>
ಸಾಮರ್ಥ ್ಯ</w>
ಸಾಧ್ಯ ವೇ</w>
ಸಹ ಕಾರ
ಸಂಸ್ಥ ೆಯ</w>
ಷ್ ಣ
ವ್ಯಕ್ ತಿಯ
ವಿಸ್ ತರಿಸ
ವಿಷಯ ಗಳು</w>
ವಾ ಯು
ವಶ ್ಯ
ವ ೊ
ರಾಜ ಸ್ಥಾನ</w>
ಯಾ ಕೋ
ಯ ್</w>
ಯ ನ್ನು</w>
ಮಾತು ಕ
ಮದ ್</w>
ಮತ್ತ ಾಯ</w>
ಭಾಗ ಿಯಾಗ
ಭ ೌ
ಬೀ ಸ
ಬಾ ಕಿ</w>
ಬಂದ ರು</w>
ಬ ರೋ
ಪ್ರದರ್ಶ ನ</w>
ಪ್ರ ದಾಯ
ಪ್ ಪು
ಪಾ ಲು</w>
ನಿರ ಂತರ</w>
ನಗ ದು</w>
ನ ಂ</w>
ಧ ಿ
ತೀ ಯ</w>
ತಪ್ ಪು
ತಡೆ ಗಟ್ಟ
ಡೊ ನಾಲ್
ಜ ್ಯ
ಜ ಿನ</w>
ಘ ಾನಿಸ್
ಗೋ ಸ್ಕರ</w>
ಗ ಡ
ಕುಡಿಯ ುವ</w>
ಕ ಳ್ಳ
ಕ ಲೆ</w>
ಒಳ ಗೊಂಡ
ಒಳ ಗೂಡ
ಆಂತ ರಿಕ</w>
ಅ ಪ್ಲ
ಂಡ ು</w>
ಂಡ ಿ</w>
ಂಡ ರ್</w>
4 00</w>
ೇ ನ
ುತ್ತ ದ
ು …</w>
ಿಯ ರು</w>
ಾಗ ಲಿ</w>
ಹೆಂಡ ತಿ</w>
ಹಾರ ್ದ
ಸೇವ ೆಯನ್ನು</w>
ಸುಷ್ ಮಾ</w>
ಸಂ ಗ್ರ
ಶು ಭಾ
ಶಸ್ ತ್ರ
ಶ ಮಿ</w>
ವಿರ ುತ್ತದೆ</w>
ವಿ ಮ
ವಿ ಂಡ
ವರದ ಿಯಾಗಿದೆ</w>
ವ ನಾಗ
ಲ ಂಡ
ರೈಲ್ ವೆ</w>
ರಿ ಂಗ್</w>
ರ ಭ
ಯುವ ಕ</w>
ಮುಖಂಡ ರು</w>
ಮು ಂಗ
ಮಾಡ ಿದನು</w>
ಮಾ ಲಿ
ಮಹಿಳೆಯ ರಿಗೆ</w>
ಮಂದ ಿಗೆ</w>
ಭಾರತ ವು</w>
ಬೇಕಾದ ರೆ</w>
ಬಿ ಳಿ</w>
ಪ್ರಶ್ ನೆಗಳನ್ನು</w>
ಪ್ರ ಭಾವ
ಪರಾರ ಿಯಾಗ
ಪ ದೇ</w>
ನಾ ತ್ಮಕ</w>
ನಮ್ಮ ಲ್ಲಿ</w>
ತೆಯ ಿದೆ</w>
ತೀರ್ ಪ
ತಿರುವ ನಂತ
ತಾನ ೇ</w>
ಜಯ ್</w>
ಜಗತ್ತ ಿನ</w>
ಜ ಾರಿ</w>
ಗುಂಡ ು</w>
ಗಂಡ ು</w>
ಕ್ಕ ೆ
ಕೊ ರೊ
ಕಾಲ ದ</w>
ಎಚ್ಚ ರಿಕ
ಉಲ್ಲ ೇಖ
ಇತರ ರು</w>
ಆಟ ೋ
ಆ ಯೋಜ
ಅರ್ಥ ಮಾಡಿಕೊಳ್ಳ
ಅತಿ ಥ
ಅ ಮಾನ
ಅ ಪರಿ
2 .
19 9
ಾ ಸ
ಹೋಗ ುವ</w>
ಹೆ ದ್ದ
ಹಾಕ ಲು</w>
ಹ ಾನ
ಸ್ಥ ಳ</w>
ಸೈ ನಿ
ಸಿ ಂಧ
ಸಂ ಸ
ವಿವೇ ಕ
ಮುಗ ಿಯ
ಮಾಡ ಿತ್ತು</w>
ಮಟ್ಟ ದಲ್ಲಿ</w>
ಮಕ್ಕಳ ಿದ್ದಾರೆ</w>
ಭಾರತ ವನ್ನು</w>
ಬೈಬ ಲಿನ</w>
ಬೇಕಾ ದರೂ</w>
ಪ್ರಿಯಾ ಂಕಾ</w>
ಪ್ರಾ ಮುಖ್ಯ
ಪ್ರಶ್ನ ಿಸಿದರು</w>
ಪ್ರಶ್ನ ಿಸಿ</w>
ಪೀ ಠ
ಪಾ ಠ
ಪಡಿಸ ಲು</w>
ನೌ ಕರ
ನಾ ನ
ನಡೆಯ ುತ್ತದೆ</w>
ನಡೆ ದಿತ್ತು</w>
ನ ರ್</w>
ದೇಹ ದ</w>
ದೀರ್ ಘ
ದಿ ಂದಲೇ</w>
ದ ಿದ್ದರೆ</w>
ತಾ ಳ
ತಾ ರ</w>
ತ ೆಯು</w>
ತ ನ್ನನ್ನು</w>
ಜ್ಞ ಾಪ
ಜಾಲತಾ ಣಗಳಲ್ಲಿ</w>
ಜಾಗ ್ರ
ಜವಾಬ್ದ ಾರಿ</w>
ಚಿನ್ನ ದ</w>
ಚಿತ್ರೀ ಕರಣ</w>
ಗೊ ತ್ತ
ಗೆ ದ್ದು</w>
ಕೆ ಡ
ಕು ಸಿತ</w>
ಕಾರ ಿನ</w>
ಕಾ ದ</w>
ಕ ದಲ್ಲಿ</w>
ಒಂದ ೊಂದು</w>
ಏ ರ್</w>
ಎಸ್ ‍
ಎಲ್ಲ ಿಗೆ</w>
ಉದಾಹ ರಣೆ</w>
ಇವು ಗಳನ್ನು</w>
ಇಲ್ಲ ಿಯ
ಇ ಚ್ಛ
ಆಂಧ ್ರ
ಅರ ವಿ
ಅಧಿಕಾರ ಿಗಳ</w>
3 7
ೋ ಕೆ</w>
ೇ ಶ
ಿಯಾಗ ಿಲ್ಲ</w>
ಹಿಡ ಿದು</w>
ಹಿಂದ ೂ
ಹ ದ</w>
ಸ್ಪೀ ಡ್</w>
ಸ್ಪಷ್ಟ ವಾಗಿ</w>
ಸಿಪಿ ಎಂ</w>
ಸಿನಿಮಾಗಳ ಲ್ಲಿ</w>
ಸಾಕ್ಷ ಿಗಳು</w>
ಸಂವಿಧಾನ ದ</w>
ಸಂ ರಕ್ಷ
ಶಾ ಶ್ವ
ವ್ಯಾ ಪಾರ
ವೀ ಡಿಯ
ವಿ ಶ್ರ
ವಾದ ದ್ದ
ಳ ನ್ನು</w>
ಲ್ಲ ೂ</w>
ಲೀ ಸರು</w>
ಲಿ ಮಿ
ರೆ ಂದು</w>
ರಿ ಗಳು</w>
ಯೋಧ ರು</w>
ಯೋ ಗಿ</w>
ಮ್ ‌
ಮಿ ತ್ರ
ಮಾರ್ ಗ</w>
ಮಾಡ ಿದ್ದ</w>
ಮಾ ನ್ಯ
ಮರ ುದ
ಮಮ ತಾ</w>
ಮನುಷ ್ಯ</w>
ಮ ಧ
ಬಲ್ಲ ದು</w>
ಬ ೃಹ
ಬ ಲಿ
ಫೇ ಸ್‌
ಪ್ರಧಾ ನಿಯ
ಪ್ರ ವಾದ
ಪರಿ ಣ
ಪ ಾನ
ನ್ ನಿಂದ</w>
ನೀ ತಿ</w>
ನಿ ನ್ನ
ನಾಲ್ಕ ನೇ</w>
ನಲ್ಲ ೇ</w>
ನಟ ಿಸಿದ್ದಾರೆ</w>
ನ ೆಯು</w>
ದಾವೀ ದನು</w>
ದ ಿರಿ</w>
ತೊ ಳೆ
ತಿ ಗಳ</w>
ತ ನ್ನ
ತ ತ್
ತ ಡ
ತ ಕ್ಕ</w>
ಟ್‌ ನಲ್ಲಿ</w>
ಚ್ ‌
ಚ ೋ
ಗಿ ಂತಲೂ</w>
ಗಾ ಳಿ</w>
ಕ್ಷೇ ತ್ರ</w>
ಕ್ರಿಕೆ ಟಿ
ಕ್ ಯಾರ
ಕೊ ಲೆ
ಕೇರಳ ದ</w>
ಕು ರು
ಕಡ ಿತ
ಕಂಡ ಿದೆ</w>
ಕ ದ್ದ
ಓ ವರ್
ಒ ಡೆ
ಎ ಚ್</w>
ಇಲ್ಲದ ಿದ್ದರೆ</w>
ಇಲ್ಲ ದೆ</w>
ಇರ ಲಿ</w>
ಇನ್ನ ು
ಇದ ಾದ</w>
ಆಗ ಿರಲಿಲ್ಲ</w>
ಆ ಪ
ಅಲ್ಲ ವೇ</w>
ಅನು ಕರಿಸ
ಅನ ುದ
ಅಂದ ನು</w>
ಂಭ ಾಗ
1 1
‍ ಗೆ</w>
ೊಂದ ಿ
ೆಯಾಗ ಿಲ್ಲ</w>
ೆ ರಡು</w>
ುವುದ ಿಲ್ಲ
ಿರುವುದ ನ್ನು</w>
ಿದ್ದ ೀರಾ</w>
ಿದ ವು</w>
ಿಕ ತೆ</w>
ಿ ಗಾಗಿ</w>
ಾಂತ ರ
ಹ ತ್ತಿ
ಸ್ ಮ
ಸೇರ ಿದ್ದಾರೆ</w>
ಸು ಖ
ಸಮಯ ವನ್ನು</w>
ಸ ಲೇ
ಶೀಘ್ರ ದಲ್ಲೇ</w>
ವ್ಯಾಪ ಕ</w>
ವಿಶ್ರ ಾಂತ
ವಿ ಟ್ಟು</w>
ವಾಗ ್
ವ ಯ</w>
ವ ಂದ
ಳ ಿಯ</w>
ಲ್‌ ಗೆ</w>
ಲ್ ಡ್</w>
ಲಿ ನಿಂದ</w>
ಲಾ ಲ್</w>
ಯು ಕ್ತ</w>
ಯ ್
ಮೊ ತ್ತ
ಮೂಲಭೂ ತ</w>
ಮುಂದ ಾಗ
ಮಾದ ರಿ</w>
ಮಾಂ ಸ</w>
ಮನ ೆಯಲ್ಲ
ಮ ೀ</w>
ಭ ಕ್ತ
ಬ್ಯಾನ ರ್ಜಿ</w>
ಬೇಕ ಿಲ್ಲ</w>
ಬಾಲಕ ಿಯ</w>
ಬಾ ಧ
ಪ್ರತಿಭಟನಾಕಾರ ರು</w>
ಪ್ರ ಯೋಜ
ಪೂ ರ್</w>
ನೀಡ ಲಾಗ
ನಿವಾ ಸಿ
ನಿ ಯೋಜ
ನಿ ಂದ
ದೇ ವೇ
ದಾಖಲಿಸ ಿಕೊಂಡಿದ್ದಾರೆ</w>
ದ ರ</w>
ತೀವ್ರ ವಾಗಿ</w>
ತಿರ ು
ತಿ ಂಗಳ</w>
ತಪ್ಪ ಿತ
ತ ಲ
ಡ ಿಸ್
ಡ ರ್</w>
ಟ್ರ ಿಕ್</w>
ಟ ೋ
ಟ ಲ್</w>
ಜ್ ‌</w>
ಗ ಲ್ಲ
ಕೊ ನೆಗೆ</w>
ಕೇಳ ಿದ</w>
ಕಾನೂ ನು
ಕ ಳೆಯ
ಕ ಪೂರ್</w>
ಒಳ ಗೊಂಡ
ಒಪ್ಪ ಿಗೆ</w>
ಐ ತಿಹಾ
ಉದ್ಯ ೋಗ
ಇ ಳಿಯ
ಆರಂಭ ಿಸಿದ್ದಾರೆ</w>
ಆರಂಭ ದಲ್ಲಿ</w>
ಆಗ ಲಿಲ್ಲ</w>
ಆಕ್ರೋ ಶ</w>
ಆ ಯೋಗ
ಅನು ಮೋದ
ಅದ್ಭು ತ
ಅದ ಕ್ಕೂ</w>
ಅಂಶ ಗಳನ್ನು</w>
ಅ ಶೋ
ಅ ಬ್ರ
ಅ ತಿಯ
ಅ ಂಬ
ಂತ ಾಗಿದೆ</w>
ಂಡ ು
ೆಯ ಲ್ಲ</w>
ಿಸುವುದ ಾಗಿ</w>
ಿಸುವ ಾಗ</w>
ಿಸ ಿರಲಿಲ್ಲ</w>
ಿಸ ಲಿದ್ದಾರೆ</w>
ಿಲ್ಲ ದ</w>
ಿಕೊಂಡ ರು</w>
ಿ …</w>
ಹೊರ ತು</w>
ಹೆಚ್ಚ ಳ
ಹಾಗ ಾಗ
ಸ್ವ ೀ
ಸುಮ್ಮ ನೆ</w>
ಸಿಕ್ಕ ಿದೆ</w>
ಸಮಾ ಧಾನ
ಸಂ ಸದ</w>
ಸಂ ತ್ರ
ಸ ಹಿಸ
ಶಾ ಲ
ವಿಟಮಿ ನ್</w>
ವಿ ನಿಂದ</w>
ವ ೋ
ಳ ಿಗೆ</w>
ಲೀ ಟರ್</w>
ರೂಪ ಾಯ
ರ ವೀ
ಮೊ ಥ
ಮೆ ಗಾ
ಮೂಲ ದ</w>
ಮಂ ತ್ರಿಯ
ಮಂ ಜ
ಬರ ೀ</w>
ಬದ ಲಿಗೆ</w>
ಬ ಾಗ
ಫ ್‌</w>
ಪ್ರಕರಣ ವನ್ನು</w>
ಪ್ರ ೀ
ಪ್ರ ವಾಸ
ಪ್ರ ಪಂಚ
ಪೂರೈ ಸ
ಪಾವ ತ
ಪಂಜಾ ಬ್</w>
ಪ ೆ</w>
ಪ ಠ
ನ್ನೆ ಲ್ಲಾ</w>
ನೇಮ ಕ</w>
ನೆನ ಪಿ
ನೀ ರಿನಲ್ಲಿ</w>
ಧರ್ಮ ದ</w>
ದು ಷ್ಟ
ದ ಷ್ಟು</w>
ಜ್ಞ ೆ</w>
ಜಾ ತಿ</w>
ಗ್ರಾ ಮೀ
ಗೊಳಿಸ ಿ</w>
ಗೊ ಡ
ಕೈ ಗಾರ
ಕೆಲಸ ದಲ್ಲಿ</w>
ಕೆಲ ವರಿಗೆ</w>
ಕುಮಾರ್ ‌</w>
ಕಾಯ ಿತು</w>
ಕತ್ತ ರಿಸಿ</w>
ಕಟ್ಟ ು
ಕಂಪ ನಿಯು</w>
ಒಪ್ಪ ಂದ</w>
ಒ ಣ
ಒ ಕ್ಕ
ಎ ಂಥ</w>
ಈ ಡೇ
ಇದ ಕ್ಕ
ಆಹಾರ ವನ್ನು</w>
ಆದಿ ತ್ಯ
ಆತ್ಮಹತ್ಯ ೆಗೆ</w>
ಆಗ ಿರುವ</w>
ಅರು ಣ್</w>
ಅರಣ ್ಯ</w>
ಅ ಲಿ</w>
ಅ ಯ್ಯ
ಅ ಯೋ
ಂದ ಿಗೆ</w>
ಂಡ ್ರ
ಂ ಚ</w>
​ ಗೆ</w>
ೋದ ಿಲ್ಲ</w>
ೆಯ ನ್ನೂ</w>
ುವ ೆನು</w>
ುತ್ತ ಾರ
ಿಯಾಗ ಿತ್ತು</w>
ಿಕೊಳ್ಳ ುವ</w>
ಿ ಬಿಟ್ಟ
ಾರ್ ಹ
ಹಿಂತ ಿರುಗ
ಹಳ ೆಯ</w>
ಹ ಳ್ಳ
ಹ ದ
ಸ್ಟ ಾರ್</w>
ಸ್ ವಿ
ಸು ಳಿ
ಸಮ್ಮ ೇಳ
ಸಂತ ೋ
ಸಂ ವಿಧಾನ</w>
ಶ್ರೇ ಷ್ಠ</w>
ಶಾಸ ಕರು</w>
ಶ ರ್
ಶ ರೀ
ವೇಗ ವಾಗಿ</w>
ವಿ ಚ್ಛ
ವಾಹನ ಗಳ</w>
ವಾಣಿ ಜ್ಯ</w>
ವಾಗ ಿರಲಿಲ್ಲ</w>
ವ ಶಾ
ಲಭ್ಯ ವಿದೆ</w>
ರಾಜ್ಯ ಗಳಲ್ಲಿ</w>
ರಚ ನೆ</w>
ರ ವಿ
ಯೋ ಜ
ಯ ಿಂದ</w>
ಯ ಜ್ಞ
ಮೆ ಟ್ಟಿ
ಮಾಧ್ಯ ಮ</w>
ಮಾಡಿಕೊಂಡ ು</w>
ಮರ ಳಿ</w>
ಮನೋ ಭಾವ
ಭ ಕ್
ಬೈ ಬಲ
ಬೆರೆ ಸಿ</w>
ಬಿಸಿಸಿ ಐ</w>
ಬಾ ಳ
ಬಣ್ಣ ದ</w>
ಪ್ರೇ ಕ್ಷ
ಪ್ರಾ ಣ</w>
ಪ್ರ ೆ
ಪುಸ್ತ ಕ</w>
ಪಾ ಠ</w>
ಪರಿಸ ರ</w>
ಪಯ ನೀಯ
ನಿರ್ದೇಶ ನ</w>
ಧೈ ರ್ಯ
ಧಾ ವ
ದೃ ಶ್ಯ
ದಾಳ ಿಗೆ</w>
ದ ನ್ನು</w>
ತೋ ರ
ತಿ ಮೊಥ
ಟ್ರ ಂ
ಟಾ ಸ್</w>
ಟ ಿಸಿ</w>
ಟ ರ್‌</w>
ಜ್ ವರ</w>
ಜನ ಪ್ರಿಯ</w>
ಜ ಾರ್
ಚೀ ನಾ
ಗೊತ್ತ ಿದೆ</w>
ಗೊಂಡ ಿತ್ತು</w>
ಗಳಲ್ಲ ಿಯೂ</w>
ಗ ೋ</w>
ಕೋ ಲ್
ಕೈಗೊಳ್ಳ ಬೇಕು</w>
ಕೆ ೖ
ಕರೆ ದುಕೊಂಡು</w>
ಕರ ವಾದ</w>
ಕಣ ಕ್ಕಿ
ಕಂಪ ೆ
ಕಂಡ ುಕೊಳ್ಳ
ಓ ಡ
ಐ ಸಿ
ಎ ಣ
ಇವು ಗಳಲ್ಲಿ</w>
ಇಂಗ್ ಲೆಂಡ
ಇ ಷ್ಟು</w>
ಇ ವರ
ಇ ತ್ತ</w>
ಆಗ್ರ ಹಿಸ
ಆಗ ುವ</w>
ಅವ ರೂ</w>
ಅಪೊಸ್ತ ಲ</w>
ಅಂದ ುಕೊಂಡ
ಅ ಹ್
ಂು ು
8 0</w>
3 2</w>
2 4
1 50</w>
ು ಂಟ
ಿಕೆ ಗಳನ್ನು</w>
ಾನ ದ</w>
ಹೊ ಟ್ಟ
ಹುಡುಗ ಿ</w>
ಹ ಣ್ಣು</w>
ಸೂ ಕ್ಷ್
ಸಿ ಡ
ಸಾಕ್ಷ ಿ</w>
ಸಂ ಸ್
ಸ ಮಾನ
ಷ ಾ</w>
ವೈ ದ್ಯ
ವಾರ್ ಷ
ವಾಗ ಿದ್ದಾರೆ</w>
ವ ನ್</w>
ಲ್ಲ ೇ</w>
ಲಿ ಂಗ
ರಲ್ಲ ೇ</w>
ಯಾ ಕೆಂದರೆ</w>
ಯ ಾ</w>
ಯ ಥ
ಮೊದ ಲೇ</w>
ಮುಂದುವರೆದ ಿದೆ</w>
ಮು ರಿದ
ಮಾಡ ಬಾರದು</w>
ಮಧ್ಯ ಪ್ರದೇಶ</w>
ಬೇಗ ನೆ</w>
ಬೇಕೆ ಂದ
ಬರ ುವುದಿಲ್ಲ</w>
ಪ್ರಶ್ನ ಿಸಿದ್ದಾರೆ</w>
ಪ್ರದೇಶ ಗಳಲ್ಲಿ</w>
ಪ್ರತಿದ ಿನ</w>
ಪ್ರಜಾಪ್ರಭು ತ್ವ</w>
ಪೋ ಲಿಸ
ಪಾ ಯ</w>
ಪರಿ ಚಯ
ನೆ ಂದರೆ</w>
ನೀಡ ುವಂತೆ</w>
ನಿರ್ಮ ಲಾ</w>
ನಿ ಟ್ಟ
ನಾವೆ ಲ್ಲರೂ</w>
ನ ವೀ
ನ ಮ್ಮಿ
ನ ಮೂ
ದೋ ಷ</w>
ದಯ ವಿಟ್ಟು</w>
ದ ರೆ</w>
ತ ದ</w>
ಡ ನೆ</w>
ಠಾ ಣೆಯಲ್ಲಿ</w>
ಟೀ ಮ್</w>
ಜಿ ತ</w>
ಗೀ ಡ
ಗಾಯ ಗಳಾಗ
ಖ್ಯಾ ತ</w>
ಕ್ಯಾನ್ ಸರ್</w>
ಕ ಚ್ಚ
ಐತಿಹಾ ಸಿಕ</w>
ಎದು ರಾ
ಇಂಡ ಿಯನ್</w>
ಇಂಗ್ಲಿ ಷ್‌</w>
ಆಧಾರ ದ</w>
ಆ ತ್ಮಿಕ</w>
ಅವ ರಿಗೂ</w>
ಅರ್ಜ ಿಯನ್ನು</w>
ಅಯೋ ಧ್ಯ
ಅಭಿ ಪ್ರಾಯ</w>
ಅಕ್ಷ ರ
ಅ ಗ್ರ
ಂಚ ್</w>
ಂ ಟ್‌</w>
0 ಕ್ಕೂ</w>
’ ’</w>
ೈ ಸ
ೆಯಾಗ ುತ್ತಿದೆ</w>
ುವುದ ೂ</w>
ುವ ಂತಹ</w>
ು ಳ್ಳ
ಿರ ುವಂತೆ</w>
ಾರ್ ಹ</w>
ಾರ್ ಥ</w>
ಹೋ ಗ್
ಹೃದ ಯಾ
ಹೀ ಗೆ
ಹಿಂಸಾ ಚಾರ
ಸ್ವಾ ತಂತ್ರ
ಸ್ನೇಹಿತ ರು</w>
ಸ್ಥಿತ ಿಯಲ್ಲ
ಸು ರೇ
ಸಿ ಕ್ಕಿ
ಸಹೋದ ರಿಯ
ಸರ ಕಾರಿ</w>
ಸಂದರ್ಭ ಗಳಲ್ಲಿ</w>
ಸಂ ಶಯ
ಶ ಿ</w>
ವಿರೋಧ ಿ</w>
ವಿರ ಲಿಲ್ಲ</w>
ವಿಧ ಿ</w>
ವಿ ಪ
ವಾದ ರೆ</w>
ಳ ುವ
ಲ್‌ ನಲ್ಲಿ</w>
ಲಿಮಿ ಟೆಡ್</w>
ಲಿ ಂಗ್</w>
ರಿ ಲೀಸ್</w>
ರಿ ಗಳನ್ನು</w>
ರಾ ಜ</w>
ರ ಲ್ಲ</w>
ಯೆ ರೂ
ಮೆ ಡಿಕ
ಮುಂದುವ ರೆಯ
ಮಾಡ ಲಾಯಿತು</w>
ಬೆ ಲ
ಬಿ ಹಾರ
ಬರೆದ ಿದ್ದಾರೆ</w>
ಬದ ಲಿಸ
ಪ್ರಸಾ ದ್</w>
ಪುರುಷ ರು</w>
ಪತ್ ನಿಯ
ಪಂಚ ಾಯ
ನ್ನ ೆ</w>
ನನ್ನ ಲ್ಲಿ</w>
ನಡೆದ ಿಲ್ಲ</w>
ದೇವ ರಾದ</w>
ತೆಲ ಂಗಾ
ತೀ ನಿ</w>
ತ ಣ್ಣ
ಡಿ ನಲ್ಲಿ</w>
ಜಿ ಬಿ</w>
ಗೊತ್ತ ಾ</w>
ಗೆ ಳೆಯ
ಗೃ ಹ
ಗಳ ೇನು</w>
ಗ ಲಾ
ಗ ಡ್
ಖುಷ ಿ</w>
ಕ್ ಟ್</w>
ಕೊಡ ುವ</w>
ಕೈಗೊಳ್ಳ ಲಾಗುವುದು</w>
ಕೂದ ಲು</w>
ಕಾ ಂಡ</w>
ಕಂಪ ್ಯೂ
ಎಂಬುದ ರ</w>
ಉ ಸಿರ
ಇಲ್ಲ ಿವೆ</w>
ಇರ ಬಹುದು</w>
ಆ ನ್‌
ಆ ತ್
ಅವ ಲಂಬ
ಅದ ೆ
ಅ ಸ್ವಸ್ಥ
ಅ ಮೂ
ಅ ಡಿಯಲ್ಲಿ</w>
ಂ ಗೆ</w>
4 .
2 50</w>
2 ,
ೆಯ ಿದೆ</w>
ಿಸುತ್ತ ಿಲ್ಲ</w>
ಿಕಾ ಂಡ</w>
ಾಗ ೆ</w>
ಾ ತ್ಮಕ</w>
ಹೋರಾ ಡ
ಹೆಸ ರಿನ</w>
ಹಿ ಟ್ಟು</w>
ಹಾಕ ಿದ್ದಾರೆ</w>
ಹಂತ ದ</w>
ಸುರಕ್ಷ ಿತ</w>
ಸೀತಾರ ಾಮ
ಸಿಸಿ ಟಿವಿ</w>
ಸಿಕ್ಕ ಿತು</w>
ಸಿ ಪಿ</w>
ಸಮೃ ದ್ಧ
ಸಂಖ್ಯ ೆಯ</w>
ಸಂ ಗಾ
ಸ ಹಿತ</w>
ಶ ಿಸ್
ವ್ಯಾ ಪ್
ವಿ ಭ
ವಿ ತರಿಸ
ವ ಲಯ
ವ ರಿ</w>
ಲ್ಲ ರ</w>
ಲ್ ‍
ಲ್ ವಾ
ಲ ಲ
ರ್ ಥ</w>
ರಿಸ ಿದರು</w>
ರಿಯ ಲ್ಲಿ</w>
ರಿ ಲ್ಲ</w>
ರಾಜ ್ಯಾ
ರಾ ತ್ರಿಯ
ಯೆರೂ ಸಲೇ
ಯಾ ನ</w>
ಮೇ ರೆಗೆ</w>
ಮಾತ ನ್ನು</w>
ಮಾಡುವ ಾಗ</w>
ಮಹ ತ್ವ
ಭ್ರಷ್ಟಾ ಚಾರ</w>
ಭಾಷ ೆಗಳಲ್ಲಿ</w>
ಭಯೋತ್ಪಾದ ನೆ</w>
ಬಿ ಐ</w>
ಬಾಂಗ್ಲಾ ದೇಶ</w>
ಬ ಿರ
ಪ್ರೀ ತಿಯ
ಪ್ರತಿಯ ೊಬ್ಬ</w>
ಪ್ರ ವಾಹ
ಪ ದ್
ಪ ಟೇ
ನ್ಯೂಜಿ ಲೆಂಡ್</w>
ನು ಸಾರ</w>
ನೀಡ ಿತ್ತು</w>
ನೀ ವೇ</w>
ನಿರ್ ಬಂಧ
ನಾ ಥ</w>
ನಂತ ರದ</w>
ನ ವು</w>
ದೇಶ ವನ್ನು</w>
ದಾವೀ ದ
ದಾಖ ಲಿಸಿ</w>
ತೆ ರೆ</w>
ತಯಾರ ಿ</w>
ತಂಡ ದಲ್ಲಿ</w>
ಚಿ ನ್ನ</w>
ಗುಂ ಪು
ಗಾಯಗೊಂಡ ಿದ್ದರು</w>
ಗಳೆ ಂದರೆ</w>
ಕ್ಷೇತ್ರ ದ</w>
ಕೊ ಚ್ಚಿ</w>
ಕೈಗೊಂಡ ಿಲ್ಲ</w>
ಕುರಿ ತ</w>
ಕಾಳ ಜಿ</w>
ಕರ್ನಾಟಕ ದ</w>
ಎ ಂಟ
ಇಬ್ಬ ರನ್ನು</w>
ಆರೋಗ್ಯ ಕ್ಕೆ</w>
ಆದ ಿಕಾಂಡ</w>
ಅರ್ ಪ
ಅಪಾಯ ಕಾರಿ</w>
ಅಧಿಕಾರ ಿ</w>
ಅದ ನ್ನ</w>
ಅಂತ ಹ
ಅ ಸ್ತ
ಅ ಂಟ
ೕ ರ್
್ರೆ ೕ
ೇ ಲ್</w>
ೆಯ ೋ</w>
ುತ್ತ ಿರುವುದು</w>
ುತ್ತ ಿದ್ದೇವೆ</w>
ಿದ ೆವು</w>
ಾ ಪ</w>
ಹು ತಾ
ಹುತಾ ತ್ಮ
ಹಿಂದ ು
ಹಿಂ ಸ
ಹಾ ಡು</w>
ಹತ್ತಿರ ದ</w>
ಹ ರಿಯಾ
ಸಿದ್ಧ ತೆ</w>
ಸಾಕ್ಷಿ ಗಳ</w>
ಸಾ ಕು</w>
ಸಲ್ಲ ಿಸಿದ್ದರು</w>
ಸಂದ ೇಶ</w>
ಸ ುದ
ಶ್ ವರ</w>
ಶಿಕ್ಷ ಕರು</w>
ವ್ಯಕ್ ತಿಯ</w>
ವಿಶ್ವ ಕ
ವಿರೋಧ ಿಸಿ</w>
ವಿ ಕೆ</w>
ವಾದ ವು</w>
ವಾಗ ಬಹುದು</w>
ವಶಾ ತ್</w>
ವಯಸ್ ಸು</w>
ವ ನ್ನ</w>
ಲಾಗ ಿ</w>
ರ್‌ ನಲ್ಲಿ</w>
ರ್ ​</w>
ರೆ ಯ</w>
ರ ೌ
ರ ರು</w>
ಯ ಿ</w>
ಯ ಾರ್
ಮೈ ತ್ರಿ
ಮೇ ಲೆ</w>
ಮಸೂ ದ
ಮಧು ಮೇ
ಮಂಡ ಳಿ</w>
ಮ ಹೇ
ಬೆಂಬ ಲಿಸ
ಬಿ ೕ
ಬಹು ಮಾನ</w>
ಬಲ ವಾದ</w>
ಬಗೆ ಹರಿಸ
ಪ್ರಾ ಣಿ
ಪ್ರಾ ಣಾ
ಪು ತ್ರಿ</w>
ಪೀ ಠ</w>
ಪಕ್ಷ ಕ್ಕೆ</w>
ನ್ಯಾ ಷ
ನು ಡ
ನಿರ ಂತ
ನಿಧಾನ ವಾಗಿ</w>
ನಿಧ ನ</w>
ನಾಯ ಕಿ</w>
ನಲ್ಲ ೂ</w>
ನಂಬಿಗ ಸ್ತ</w>
ತೆಗೆದುಕೊಂಡ ು</w>
ತಾಳ್ ಮ
ತ ಂಗ
ಡಿ ಗಳು</w>
ಜೀವ ನವನ್ನು</w>
ಜನರ ಲ್</w>
ಜಗ ತ್ತು</w>
ಜ ಿಯ
ಚಿತ್ರ ಗಳನ್ನು</w>
ಚಟುವ ಟ
ಚ ಿರ
ಚ ಿದ
ಗೊಳಿಸ ುವ</w>
ಖಂಡ ಿತ
ಕ್ರಿ ಮಿ
ಕ್ ವಾರ
ಕೌ ಶ
ಕೊ ನೆಯ
ಕೇಜ್ರಿ ವಾಲ್</w>
ಕೇ ಸ್</w>
ಕೃತ್ಯ ಗಳು</w>
ಕುಟುಂಬ ದಲ್ಲಿ</w>
ಕಿ ಟ
ಕಾರ್ಯಕ್ರಮ ದ</w>
ಕಾ ಂ
ಕಳೆ ದುಕೊಳ್ಳ
ಕರೆದೊ ಯ್ದ
ಎಷ್ಟ ೋ</w>
ಎಲ್ಲ ೂ</w>
ಊ ಟ
ಉದ್ದ ೇಶ</w>
ಇವ ರೆ
ಇರ ುತ್ತವೆ</w>
ಇದ ಾಗಿದೆ</w>
ಆರೋಗ್ಯ ದ</w>
ಆಗ ಲಿದೆ</w>
ಆ ಸೆ</w>
ಆ ರೋಗ
ಅಸ್ತಿ ತ್ವ
ಅಪ್ಲ ಿಕ
ಅದ ೃಷ್ಟ
ಅ ಫ್
ಅ ಜ್
ಂಡ ಾ</w>
2 7</w>
್ಯ ವ
ೊ ಳಿಸ
ೇಶ ನ್</w>
ು ತ್ತ</w>
ಿಸಿದ ರೆ</w>
ಿರುವ ಲ್ಲಿ</w>
ಿದ್ದ ೀ
ಿದೆ ’</w>
ಿಕೆ ಗಳು</w>
ಿ ಬಿಡ
ಾನ ೆಂದು</w>
ಾ ಳ
ಹೋ ಲಿಸ
ಹೊ ಗಳ
ಹಿ ಂಬಾ
ಹಾ ನ</w>
ಹಣಕಾ ಸಿನ</w>
ಸ್ ‍
ಸೇವ ನೆ</w>
ಸೇ ನೆಯ</w>
ಸುರಕ್ಷ ಿತ
ಸಿದ್ದ ರಾಮ
ಸಂತೋ ಷ</w>
ಶ್ ಯ</w>
ಶು ಭ
ಶಿಷ್ಟ ್ಯ
ಶಾ ಲೆಯ</w>
ಶಂಕ ರ್</w>
ವ್ಯಾಯಾ ಮ</w>
ವೇ ತನ</w>
ವೆ ನ
ವಿಷಯ ವನ್ನು</w>
ವಿಚಾರ ದಲ್ಲಿ</w>
ವಿ ಕ
ವಾಗ್ದ ಾಳಿ</w>
ವಾ ದಿ</w>
ವಸ ತಿ</w>
ವಯಸ್ ಸಿನ</w>
ವ ್‌</w>
ಲು ಗಳನ್ನು</w>
ಲ ಿಕ
ರೆ ೕ
ರಿಸ ಲಾಗಿದೆ</w>
ರ ಷ್ಯಾ</w>
ರ ವರೆಗೆ</w>
ರ ಜೆ</w>
ಮೋ ಚ
ಮಿ ಲಿ
ಮಾತನಾಡ ಿದರು</w>
ಮಾಡ ಲಾಗ
ಮರುದ ಿನ</w>
ಮಗು ವಿಗೆ</w>
ಮಕ್ಕ ಳಿ
ಬ್ಯಾಂ ಕ್‌</w>
ಬೈಬಲ ನ್ನು</w>
ಬಿದ್ದ ಿದೆ</w>
ಬಾ ಂಧ
ಬದುಕ ಿನ</w>
ಬಂಧ ಿತ
ಬಂಧ ನ
ಬಂದ ಾಗ</w>
ಬ ಿಸಿ
ಬ ರಿ
ಪ್ರಸ್ತಾ ಪ
ಪ್ರಯತ್ನ ಿಸಿ</w>
ಪ್ರ ಭಾ
ಪು ರಸ್
ಪ ದ್ಧ
ನ್ಯಾಯಾಧೀ ಶ
ನೀಡ ಿರುವ</w>
ನಿಯ ಮ</w>
ನಿ ಲ್ಲ</w>
ನಡೆಯ ುವ</w>
ನಂಬಿಗ ಸ್ತ
ದ್ ವೀ
ದ ಿಲ್ಲ</w>
ದ ರಿಂದ</w>
ತಿ ಳಿ
ಡೆ ಗೆ</w>
ಡಿಗ್ರ ಿ</w>
ಟ್ ಲಿ</w>
ಟೀ ಕ
ಟಿಕೆ ಟ್</w>
ಜಿಲ್ಲ ೆಗಳಲ್ಲಿ</w>
ಜ ಾಯ
ಚಿಕಿತ್ ಸೆ
ಚ ೈ
ಗೌ ಡ</w>
ಗೋ ವಾ</w>
ಖ ು
ಕ್ಕ ೇ
ಕೋವಿ ಡ್</w>
ಕೋ ಶ
ಕೊರೊ ನಾ</w>
ಕುರಿತ ಂತೆ</w>
ಕು ಡ
ಕಾ ಶ್</w>
ಎಲ್ಲ ಿಯೂ</w>
ಎ ಣ್ಣ
ಎ ಕ್ಸ್</w>
ಉಂಟ ು</w>
ಇದ ನ್ನೇ</w>
ಇಂದ ಿನ</w>
ಇ ನ್‌
ಆಗ ುತ್ತಿದೆ</w>
ಆ ಮ
ಅ ಳಿಸ
ಅ ತ್ತ
ಅ ಡಿ</w>
ಂಬ ರಿ</w>
8 .
ೇ ವೆ</w>
ೆಯಾಗ ುವ</w>
ೂ ಮ್ಮೆ</w>
ುವದ ಕ್ಕೆ</w>
ುವ ೇ
ುವ ಾಗಿ</w>
ಿಸಲಾಗ ುತ್ತಿದೆ</w>
ಿದ ಿದೆ</w>
ಿದ ರೂ</w>
ಾಯ ಕ</w>
ಹೆತ್ತ ವರು</w>
ಹಾ ದ
ಹ ತ್ತು</w>
ಸ್ಪ ಿ</w>
ಸೌ ಂದ
ಸೇವ ೆಯಲ್ಲಿ</w>
ಸೆ ಮಿ
ಸೃಷ್ಟ ಿಕ
ಸೀ ಟು
ಸಿಗ ಲಿದೆ</w>
ಸಹಜ ವಾಗಿ</w>
ಸಂ ಪುಟ</w>
ಸಂ ಪುಟ
ಸಂ ಕಷ್ಟ
ಶು ಭ</w>
ವ್ಯವ ಹಾರ</w>
ವಿ ಮೋಚ
ವಿ ಭಿನ್ನ
ವರ್ ಣ
ವ ಕೀ
ಲೋ ಡ್</w>
ಲಿ ೕ
ರೆ ಡ್ಡಿ</w>
ರು ಚ
ರ ಷ್ಯಾ
ರ ನ್ನ
ಯೋ ಹಾನ</w>
ಯತ್ ನ</w>
ಮ್ ಯ</w>
ಮೌಲ್ಯ ದ</w>
ಮೊ ಕದ್ದ
ಮೆ ೂೕ
ಮೂಲ ಗಳು</w>
ಮುಖ್ಯ ಸ್ಥ
ಮುಖ್ಯ ವಾಗಿ</w>
ಮುಂಬ ರುವ</w>
ಮಾಡಿದ ರೆ</w>
ಮಳೆಯ ಿಂದಾಗಿ</w>
ಮಂದ ಿರ</w>
ಭಾಷ ೆಯಲ್ಲಿ</w>
ಭಾಷ ಣ</w>
ಭಾವ ನೆ</w>
ಬ್ಬ ರೂ</w>
ಬ್ಬ ರ</w>
ಬೇ ಕಾಯಿತು</w>
ಬೆಳವಣ ಿಗೆ</w>
ಬೃಹ ತ್</w>
ಬಾ ಣ
ಬರ ುವುದು</w>
ಬಂದ ಿತ್ತು</w>
ಪ್ರಯೋಜ ನ</w>
ಪ್ರಗ ತಿ</w>
ಪರ ವಾಗಿ</w>
ಪಡಿಸ ಿಲ್ಲ</w>
ನ್ ಸ
ನೋಡ ಿದೆ</w>
ನೀ ಡ
ನಿಶ್ ಚಿತ
ನಿ ಯಾ
ನಾಗ ರಿ
ದ್ರಾ ಕ್ಷ
ದ್ದ ನ್ನು</w>
ದೆ ವು</w>
ದಾ ಡ
ದ ತ್ತ
ತೊಂದ ರೆಯ
ತ ಿಲ್ಲ</w>
ತ ರಿಗೆ</w>
ಡೊನಾಲ್ ಡ್</w>
ಡಿ ಜಿ
ಡಿ ಂಗ್</w>
ಜನ ತೆ</w>
ಚೆನ್ನ ೈ
ಚಿದ ಂಬ
ಚರ್ ಮ
ಚ ಯ</w>
ಗಂಭೀರ ವಾಗಿದೆ</w>
ಗ ಂಗ
ಖಂಡಿತ ವಾಗಿಯೂ</w>
ಕೇಳ ಿದರು</w>
ಕು ಂಬ
ಒಟ್ಟ ಾರೆ</w>
ಒ ಗ್ಗ
ಎಚ್ಚ ರ
ಉಳಿದ ಂತೆ</w>
ಉಪಾ ಧ್ಯಕ್ಷ</w>
ಇಳ ಿಕೆ</w>
ಇಲಾಖ ೆಯ</w>
ಇರಾ ನ್</w>
ಇರ ುತ್ತಾರೆ</w>
ಇಂಡ ಿಯ
ಇ ಳಿಸ
ಇ ಂಧ
ಆದ ಾಯ
ಆ ಕ್ರಮ
ಅದ ೇ
ಅದ ೇ</w>
ಅದ ೃ
ಅದ ರಂತೆ</w>
ಅಂತರ ರಾಷ್ಟ್ರೀಯ</w>
ಅ ಲ್ಪ
ಅ ಮಿ
ಅ ಕ್ಕ
4 5</w>
ಹೋಗ ಿದ್ದರು</w>
ಹೊ ಸದ
ಹೆ ಸರ
ಹೃದ ಯ</w>
ಹಾಜರು ಪಡಿಸ
ಹ ಂತ</w>
ಸ್ಟ ಾ
ಸೋ ಲಿಸ
ಸೆ ೂೕ
ಸಿ ಂಗ
ಸಲ್ಲ ಿಸಿದ್ದಾರೆ</w>
ಸರ್ಕಾರ ವನ್ನು</w>
ಸರ ಗೋ
ಸ ವ</w>
ಶೀಘ ್ರ</w>
ಶಕ್ ತಿಯನ್ನು</w>
ವಿಮ ರ್ಶ
ವಾಗಿರ ುವುದು</w>
ವಾಗ ುವುದು</w>
ವಾ ಣಿ</w>
ವ ಹಿ
ವ ಲ್ಲದೆ</w>
ವ ಂತೆ</w>
ಲ ೋ</w>
ಲ ಾರಿ</w>
ಲ ಾರಂಭ
ರಾಜ ನಾಥ್</w>
ಮು ನ್ನೆ
ಮಾಡ ುತ್ತಿದ್ದರು</w>
ಮಧ್ಯ ಾಹ್
ಮ ಿತಿ</w>
ಮ ಳೆ
ಮ ಯ
ಮ ದ್ಯ
ಬೇ ಸರ
ಫ ್ಟ
ಫ ಾರ್
ಪು ಲ್ವಾ
ಪು ರ್</w>
ಪಾ ನ</w>
ಪರಿಣಾಮ ವಾಗಿ</w>
ಪಡಿಸ ಿದರು</w>
ನ್ನೆ ಲ್ಲ</w>
ನೀ ರಿನ</w>
ನಿ ವೃತ್ತಿ</w>
ನಡೆಯ ುತ್ತಿವೆ</w>
ದೇಶ ಗಳಲ್ಲಿ</w>
ದಿನ ದಲ್ಲಿ</w>
ದಾಳ ಿಯ</w>
ದ ಾ</w>
ತ್ ಥ
ತೊಂದ ರೆ
ತೆಗೆದು ಹಾಕ
ತೀ ಶ್</w>
ತಿರುಗ ೇಟು</w>
ತ ುತ್ತ
ತ ಿಕ
ಡ್ರ ೈ
ಟ್‌ ಗೆ</w>
ಟಿ ಯ</w>
ಜೊ ತೆಯ
ಜಾ ಲ</w>
ಜ ಲಾ
ಚುನಾವಣ ೆಯ</w>
ಚಾಂಪ ಿಯನ್</w>
ಗೊಂಡ ಿತು</w>
ಗುರು ತು</w>
ಗಿ ಡ
ಗಾ ದ</w>
ಖ ್</w>
ಕ್ಯಾ ಮ
ಕ್ ಸ್‌</w>
ಕೌ ಂಟ
ಕೋ ಚ್</w>
ಕೆಲಸ ಕ್ಕೆ</w>
ಕಾರ್ಯ ನಿರ್ವಹ
ಕಾರಣ ಕ್ಕೆ</w>
ಕಾಣ ಿಸ
ಕಾ ಸರಗೋ
ಕಳೆ ದು
ಕರೆದೊ ಯ್ಯ
ಕಡಿಮ ೆಯಾಗ
ಕ ೋ</w>
ಕ ವಾದ</w>
ಕ ಣ್
ಕ ಗಳು</w>
ಒಳ ಗೊಂಡಿದೆ</w>
ಎಸೆ ತ
ಎಂದ ೇ</w>
ಇಂಡ ಿಯಾದ</w>
ಇಂಟರ್ ನೆಟ್</w>
ಇ ಳಿದ
ಆಸ್ಪತ್ರ ೆಯ</w>
ಆಟ ಗಾರ</w>
ಆ ಲ್
ಆ ರಿಸ
ಆ ಯಾ
ಅಷ್ಟ ೊಂದು</w>
ಅರೆ ಸ್ಟ್</w>
ಅನ್ನ ೋದು</w>
ಅಗ್ ನಿ</w>
ಅಂ ಶ</w>
ಅ ಲೆ
ಅ ತಿದ
ಅ ಡ್ಡ
ಂಟ ಿ
ೇ ಟ್</w>
ುವ ವ
ುತ್ತಿದ್ದ ಂತೆ</w>
ಿಯ ು
ಿಕೊಂಡ ಿದ್ದರು</w>
ಹೈದರಾ ಬಾದ್</w>
ಹೆಚ್ಚಿ ನವರು</w>
ಹುಟ್ಟ ು
ಹಾಗ ಿದ್ದರೂ</w>
ಹ ರ್ಷ
ಸ್ವಲ್ ಪ
ಸ್ಮಾರ್ಟ ್‌
ಸ್ಟೇ ಟ್</w>
ಸ್ಟ ೆ
ಸ್ ​</w>
ಸೇ ವಾ</w>
ಸೆ ರೆ</w>
ಸುರಕ್ಷ ತೆ</w>
ಸೀ ಮಿತ
ಸಹಾಯ ಕ</w>
ಸಮಾರಂಭ ದಲ್ಲಿ</w>
ಸದ ಸ್ಯ</w>
ಸಂಸ್ಕೃ ತಿ</w>
ಸಂಬಂಧ ವನ್ನು</w>
ಸಂಪ ನ್
ಸ ವನ್ನು</w>
ಸ ಕ್ರಿಯ
ಶಕ್ ತಿಯ
ವು ಗಳು</w>
ವಿಕೆ ಟ್‌</w>
ವಾದ ರೂ</w>
ವ ೊಂದು</w>
ವ ನ
ಲ್ಲ ವೇ</w>
ಲಿ ನ
ಲ ವ್</w>
ರಿ ತ
ರ ಷ್ಟ
ಯಾರ ನ್ನು</w>
ಮ್ರ ಾ</w>
ಮೌ ಲ್ಯ</w>
ಮೋದ ಿಗೆ</w>
ಮೃತ ದೇಹ</w>
ಮಾಡ ುತ್ತಾನೆ</w>
ಮತ ದಾರ
ಮ ಸೀ
ಮ ರೆಸ
ಭೇಟ ಿಯಾಗ
ಭ ೂ</w>
ಬ್ಬ ು</w>
ಬ್ ‌</w>
ಬೆಳಕ ಿಗೆ</w>
ಬೆ ಳಿ
ಬಹು ಮತ</w>
ಬದಲಾಗ ಿ</w>
ಬಗೆ ಯ</w>
ಬಂದ ್</w>
ಬ ಲ್
ಬ ರಿ</w>
ಫು ಟ್
ಪ್ರಾರ್ಥ ನೆ</w>
ಪ್ರಾ ಮಾಣ
ಪರಿಸ್ಥಿತ ಿಯನ್ನು</w>
ನ್ ಸಿ
ನು ಗ್ಗ
ನಿಷೇ ಧ</w>
ನಿರ್ಧಾರ ವನ್ನು</w>
ನ ರ
ದೇಶ ಕ್ಕೆ</w>
ದೆ ಂದು</w>
ದ ಶ
ದ ವರ</w>
ದ ಟ್ಟ
ತರ ುವ
ತಮ್ಮ ನ್ನು</w>
ತ ಿದ್ದಾರೆ</w>
ಣ ು
ಟ್ಟ ಿಗೆ</w>
ಟೀ ಸ್ಪೂನ್</w>
ಜಾರ ಿ
ಜಾಗ ರೂ
ಗು ಂಪು</w>
ಗಾಂಧ ಿಯ
ಗ ಂಡ</w>
ಕ್ಷ ಣ</w>
ಕ್ರಿಕೆ ಟ್‌</w>
ಕ್ಯಾಮೆ ರಾ
ಕ್ ಸಿ</w>
ಕಾಲಿ ಕ</w>
ಕ ಲ್ಯಾ
ಕ ರೆದ
ಎದು ರಾಗ
ಉಗ್ರ ರು</w>
ಈ ವರೆಗೂ</w>
ಇವು ಗಳ</w>
ಇಂ ಜಿ
ಆಗಮ ಿಸಿದ</w>
ಆಗ ಿದ್ದು</w>
ಆ ಳ್
ಆ ಧು
ಅಸ್ತ ವ್ಯ
ಅಬ್ರ ಹಾ
ಅಂತ ರ್
ಂ ಟ್
7 5</w>
ೆಯಾಗ ಿದ್ದಾರೆ</w>
ೆ ಗೈ
ುವುದ ಾದರೆ</w>
ುವ ವರಿಗೆ</w>
ುದ ಾರ
ುಕೊಂಡ ಿದೆ</w>
ಿಕೊಳ್ಳ ುವುದು</w>
ಾರ ಂಭ</w>
ಾಂ ಶ</w>
ಹೋಗ ುತ್ತದೆ</w>
ಹೋ ದೆ</w>
ಹೊರ ತ
ಹೇಳ ಲಾಗಿದೆ</w>
ಹೆಣ್ಣ ು
ಹೆಚ್ಚ ಳ</w>
ಹಾಜ ರಾಗ
ಹಾಕ ಿದೆ</w>
ಹಬ್ಬ ದ</w>
ಹ ಸ್ತ
ಹ ಣ</w>
ಸ್‌ ಗೆ</w>
ಸೌ ದಿ</w>
ಸೇರಿಸ ಲಾಗಿದೆ</w>
ಸಮಿತ ಿಯ</w>
ಸಚಿ ನ್</w>
ಸಂತ ಾಪ</w>
ಷ್ ಕಾ</w>
ಶೇ ರ್</w>
ವೈದ್ಯ ರ</w>
ವೈ ಫ
ವಿಯ ಲ್ಲಿ</w>
ವಿದ ು</w>
ವಿಡಿಯ ೋ
ವಿ ವಾದ</w>
ವಿ ಯ</w>
ವಾದ ುದು</w>
ವಾತಾವರ ಣ</w>
ವಹಿ ವಾ
ವಸ್ತು ಗಳ</w>
ವ ರು
ಲು ಗಳ</w>
ರಾಷ್ಟ್ರ ಗಳ</w>
ರಾಜ್ಯ ಗಳ</w>
ರಕ್ತ ದ</w>
ರ ಹಿತ</w>
ರ ನ್‌</w>
ರ ಣ</w>
ಯೋಚ ನೆ</w>
ಯೇ ಸುವ
ಯಾರ ೊಬ್ಬ
ಯಾರ ಾದರೂ</w>
ಯ ಡಿಯ
ಯಡಿಯ ೂರ
ಮೊ ರೆ</w>
ಮುಚ್ಚ ಿ</w>
ಮುಂದುವ ರೆಸ
ಮು ಚ್ಚಿ
ಮೀಡಿಯ ಾದಲ್ಲಿ</w>
ಮಾಡಿಕೊಂಡ ಿದ್ದಾರೆ</w>
ಮಾಡ ಿದ್ದೇನೆ</w>
ಮಳ ೆಯ</w>
ಮಧ ್ಯ</w>
ಮ ಹೀ
ಮ ರ್</w>
ಭೂ ಕಂಪ
ಭ ೋ
ಬೆ ಟ್ಟ
ಬೀ ರ
ಬಿ ಎಸ್</w>
ಬರ ುತ್ತಿದೆ</w>
ಬಂಧ ನಕ್ಕೆ</w>
ಬಂದ ಿದ್ದಾರೆ</w>
ಫೇ ಸ್</w>
ಪ್ರ ೋ
ಪುನರು ತ್ಥ
ಪುನ ರಾ
ಪು ತ್ರ</w>
ಪಂದ್ಯ ದ</w>
ಪಂದ್ಯ ಗಳ</w>
ಪ ರಾ
ಪ ತಿಯ
ನೆಲೆ ಸ
ನೀ ತಿ
ನಿರ್ ಲಕ್ಷ
ನಿರ್ ಮಾಪ
ನಿಧ ನ
ನಿದ ್ರೆ</w>
ನಡೆಸ ುತ್ತಿದೆ</w>
ನಂ ತ್ರ</w>
ಧೂ ಮ
ದುಷ್ ಕರ್
ದು ಬಾರಿ</w>
ದೀಕ್ಷಾಸ್ನಾ ನ</w>
ದಿನಾ ಂಕ
ದಿ ವೆ</w>
ತೆ ಂಗ
ತೀ ರ</w>
ತ ರಾ
ತ ನನ್ನು</w>
ಡೌ ನ್</w>
ಜೇ ಟ್ಲಿ</w>
ಜಾ ಸ್ತಿ</w>
ಜ ೂ
ಜ ರ್
ಚೀ ನಾದ</w>
ಚ ಲಾಯ
ಗೆ ಗೆ</w>
ಗ ಮ
ಕ್ಷ ಮೆ</w>
ಕ್ಕಾಗ ಿಯೇ</w>
ಕೊರಿ ಂಥ</w>
ಕೈಗೊಂಡ ಿದ್ದಾರೆ</w>
ಕೈ ಗೆ
ಕೆ ರ
ಕೂ ಗ
ಕುಸ ಿದು</w>
ಕಾಯಿ ಲೆ</w>
ಕಾ ಮ
ಕಾ ಡೆ
ಕನ್ನ ಡ
ಕ ಲ್
ಕ ಟ</w>
ಒ ಲಿ
ಎಲೆಕ್ ಟ್ರಿಕ್</w>
ಉ ಚಿತ
ಇತರ ರಿಗೆ</w>
ಆಟ ೋ</w>
ಆಗ ಾಗ</w>
ಆಗ ಲೇ</w>
ಆ ಘಾತ
ಅವಧ ಿಯಲ್ಲಿ</w>
ಅನು ಮಾನ</w>
ಅಧ್ಯಕ್ಷ ೆ</w>
ಅಂಗ ಡಿ</w>
ಅ ನ್ಯ
ಂ ಜ್</w>
6 :
ೊಂದಿ ಗಿನ</w>
ೆ ಂಬ</w>
ಿಸಿಕೊಳ್ಳ ಲು</w>
ಿಸ ಿದ್ದಾನೆ</w>
ಹೋ ಟೆ
ಹೊರ ಟ
ಹೊಂದ ಿದ್ದಾರೆ</w>
ಹೆದ್ದ ಾರ
ಹು ರು
ಹೀ ಗಾಗ
ಹ ದಿ
ಸು ನೀ
ಸೀತಾರಾಮ ನ್</w>
ಸಿ ನ
ಸಿ ಡಿ
ಸವಾ ಲು</w>
ಸಲ್ ಮಾನ್</w>
ಶಾ ಲೆ
ವೇ ಕೆ</w>
ವಿಚ್ಛ ೇದ
ವಿ ಧ್ಯ
ವಾದ ವನ್ನು</w>
ಲಿ ಖ
ಲಾಗ ಲಿಲ್ಲ</w>
ಲ ಾರೆ</w>
ರ್ ಭ</w>
ರಿ ತು</w>
ರಾಯ ಿ</w>
ರಾಜೀ ವ್</w>
ರ ವರು</w>
ರ ಮೇಶ್</w>
ಯು ಕ್ತ
ಯಾ ಜ
ಯ ಶ
ಯ ಲ್ಲ
ಮೆಡಿಕ ಲ್</w>
ಮೃತದೇಹ ವನ್ನು</w>
ಮಾಡ ಿಕೊಡ
ಮಾಡ ಲಾಗುವುದು</w>
ಮಹಿಳ ೆಯ</w>
ಮ ಸಾ
ಭೀ ಕರ</w>
ಭಾಷ ೆಯ</w>
ಬೇ ಯ
ಬೆ ಳ್ಳಿ</w>
ಬೆ ರ
ಬಾಂಬ ್</w>
ಬರ ುತ್ತವೆ</w>
ಬದ ಲಾಗಿದೆ</w>
ಬಜೆ ಟ್</w>
ಬಂದ ೆ</w>
ಬ ನು</w>
ಫ ಾ</w>
ಪ್ರೀ ತಿಯನ್ನು</w>
ಪ್ರೀ ತಿ
ಪ್ರಾ ಂ
ಪ್ರವಾ ಹ</w>
ಪ್ರತಿಭಟ ನೆಯಲ್ಲಿ</w>
ಪ್ರ ಕಾಶ್</w>
ಪಾಕಿಸ್ತಾನ ಕ್ಕೆ</w>
ಪಡೆಯ ುವ</w>
ಪಟೇ ಲ್</w>
ನ್ಯ ೂ</w>
ನೆನ ಸ
ನಿಶ್ ಚಯ
ನ ೃ
ದ್ರ ೋ
ದೌರ್ಜ ನ್ಯ</w>
ದೃಷ್ಟ ಿಕೋ
ದುರ ಂತ
ದೀ ನ
ದಿನ ಗಳಿಂದ</w>
ದಲ್ಲ ಿವೆ</w>
ದ ಾಗಿದೆ</w>
ದ ವರಿಗೆ</w>
ದ ತ್ತ</w>
ತಿಳಿದ ಿದೆ</w>
ತಾ ದ</w>
ತಾ ಣ
ತನಿಖ ೆಯನ್ನು</w>
ತನ ಗೆ</w>
ಠಾ ಣೆ</w>
ಟ್ರ ಿ
ಜಿ ಯ</w>
ಜಯ ಗಳ
ಜನ ಪ್ರಿಯ
ಜ ಡೇ
ಚಿ ಂತೆ</w>
ಘೋಷ ಣ
ಗ್ರಾಮೀ ಣ</w>
ಗ್ ನ
ಗೊಂಡ ು</w>
ಗು ಲಾ
ಗಾ ತ್ರ
ಖಾ ಲಿ</w>
ಕ್ರಿಮಿ ನಲ್</w>
ಕ್ರಿಕೆಟಿ ಗ</w>
ಕೊಟ್ಟ ನು</w>
ಕೊಂಡ ೊ
ಕೊ ಠ
ಕೈ ಕ</w>
ಕುರಿತ ಾಗಿ</w>
ಕಿವಿ ಗೊಡ
ಕಾರ ಿಯಾಗ
ಕಂಪ ನಿ</w>
ಕ ಿನ</w>
ಕ ಗಳನ್ನು</w>
ಐಪಿ ಎಲ್</w>
ಐ ಗೆ</w>
ಏ ಕೈಕ</w>
ಎದುರಿಸ ಲು</w>
ಇಸ ವಿ</w>
ಇದ ನ್ನ</w>
ಇ ನ್</w>
ಆಮ ದು</w>
ಆ ಂಡ್ರ
ಅವಶ್ಯ ಕ
ಅಪ ರಾ
ಅನುಮೋದ ನೆ</w>
ಅನು ಷ್ಕಾ</w>
ಅನು ಮತ
ಅನಾರೋಗ ್ಯ
ಅಧ ೀ
ಅತಿದ ೊಡ್ಡ</w>
ಅಗತ್ಯ ವ
ಅ ಣ
ಅ ಖಿ
ಂಗ ಡ
8 ,
4 0
4 ,
2 9
ೆಯ ಾ</w>
ುವ ವು</w>
ು ಗಳಿಗೆ</w>
ೀ ನ್</w>
ಿಸಿದ ರೂ</w>
ಿಸ ಿದ್ದೇನೆ</w>
ಿರುವ ವರು</w>
ಿಯ ಲ್ಲ</w>
ಿದ್ದ ವರು</w>
ಿ ಕ್ಕ
ಿ ಂದ
ಾನ ೇ</w>
ಹೊ ಡೆಯ
ಹೇಳ ುವ</w>
ಹಿಂಸಾ ಚಾರ</w>
ಹಿಂ ಜ
ಸ್ಪ ೋ
ಸ್ಪ ತ್ರ
ಸ್ಥಾನ ದ</w>
ಸೋ ಷ
ಸೆ ನ್
ಸಿಯ ಂ</w>
ಸಿಗ ಲಿಲ್ಲ</w>
ಸಿಂಧ ು</w>
ಸಾವಿ ಗೀಡ
ಸಾಂ ತ್ವ
ಸರ್ಕಾರ ವು</w>
ಸರ್ ಗ
ಸಮಸ್ಯ ೆಯನ್ನು</w>
ಸಂ ಚರಿಸ
ಸಂ ಘಟನೆ</w>
ಸಂ ಗ್ರಹ
ಸಂ ಕಟ
ಸ ೆಯ
ಶೀ ಲ
ಶಾ ಲೆಯಲ್ಲಿ</w>
ಶಾ ಲೆ</w>
ಶ ೃ
ಶ ಯ</w>
ವೃ ತ್ತಿ
ವಿರುದ್ ದ</w>
ವಿ ವರ</w>
ವಹ ಿಸಿ</w>
ಲ್ ವಾ</w>
ಲೋಕ ದ</w>
ಲಾಗ ದು</w>
ಲಾ ಠಿ</w>
ಲ ಿಯನ್</w>
ಲ ದಲ್ಲಿ</w>
ರಾಜ ಕಾರಣ</w>
ರಭ ಸಕ್ಕೆ</w>
ಮುನ್ನೆ ಚ್ಚ
ಮಿ ಂಚ
ಮಾರ್ಗ ವನ್ನು</w>
ಮಾತ್ರ ವಲ್ಲದೆ</w>
ಮಾಡಿಕೊಳ್ಳ ಿ</w>
ಮ ಂಗ
ಭ ುವ
ಬೇಕೆ ಂಬ</w>
ಬೆಳಿ ಗ್ಗೆ</w>
ಬಾ ದ್
ಬಲ್ಲ ೆವು</w>
ಬದಲಾವಣ ೆಗಳನ್ನು</w>
ಬಗ್ಗ ೆಯೂ</w>
ಫೋ ನ್‌</w>
ಪ್ರ ಾ</w>
ಪ್ರ ಸಿದ್ಧ</w>
ಪ್ರ ತೀ
ಪ್ರ ಕೃ
ಪ್ರ ಕಾಶ
ಪೋ ಲೀಸರು</w>
ಪೂರ್ವ ಕವಾಗಿ</w>
ಪು ರದಲ್ಲಿ</w>
ಪು ರ
ಪಾರ ಾಗಿದ್ದಾರೆ</w>
ಪರ್ ವ
ಪರಿಣ ಮ
ನ್ಯಾಯಾಲಯ ದಲ್ಲಿ</w>
ನೆ ಗಳಿಗೆ</w>
ನೀಡ ಿದ್ದ</w>
ನಿರ್ ವ
ನಿಯಮ ಗಳನ್ನು</w>
ನಿಯ ಮಗಳು</w>
ನಡೆಸ ುವ</w>
ನಂತ ರದಲ್ಲಿ</w>
ನ ಿಸ
ನ ವಾ
ಧಾರ ಾ
ಧನ್ಯ ವಾದ</w>
ದೇ ಶಾ
ದೇ ವಿ</w>
ದಿ ಲ್ಲಿ</w>
ದ ಂದು</w>
ತೆ ೂೕ
ತಿಳಿಸ ಿವೆ</w>
ತಿಳಿದು ಬಂದಿಲ್ಲ</w>
ತಮಿಳುನಾ ಡಿನ</w>
ತನಿಖ ಾ</w>
ಡೇ ವಿ
ಡಿಯ ನ್ನು</w>
ಡ ುವ</w>
ಟೆ ಸ್ಟ್‌</w>
ಚಿದಂಬ ರಂ</w>
ಚಿ ಹ್
ಚರ್ ಚೆ
ಘ ನ
ಗ್ರ ಂಥ
ಗುಣ ಮುಖ
ಕ್ಷೇತ್ರ ದಿಂದ</w>
ಕ್ ​</w>
ಕ್ ರೆ
ಕೊ ಂಚ</w>
ಕೆ ಗಳು</w>
ಕಾರ್ಯ ನಿರ್ವಹಿಸ
ಕಾರ ಿನಲ್ಲಿ</w>
ಕಾರ ನ್ನು</w>
ಕಟ್ಟು ನಿಟ್ಟ
ಕ ಲೆ
ಒಳಗೊಂಡ ಿದೆ</w>
ಎಫ್ ‌
ಎ ಸಗ
ಎ ದ್ದು</w>
ಉತ್ತಮ ವಾಗಿ</w>
ಇದ ೆಲ್ಲ</w>
ಇ ರೋ
ಆಹ್ ವಾನ
ಆರೋಗ್ಯ ಕರ</w>
ಆಗ್ರ ಹ
ಆ ವರಿಸ
ಆ ರ್‌</w>
ಅಭಿನಯ ಿಸಿದ್ದಾರೆ</w>
ಅಪರಾ ಧ</w>
ಅನ ಿಸ
ಅ ವಿ
ಂಟ ್ರ
6 ,
್ರ ೂ</w>
್ಯ ಾ</w>
ೆಯ ೆ</w>
ೆಯ ಿಲ್ಲ</w>
ುವ ವರ</w>
ುವ ವನು</w>
ುದ ್ಯ
ಿಸ ಲಾದ</w>
ಿಸ ಬೇಕ
ಿಸ ಬಾರದು</w>
ಿದ್ದ ೇ</w>
ಾಯ ್ತು</w>
ಾಗ ಿಯೇ</w>
ಹೊ ಣೆ</w>
ಹೇಳ ುತ್ತಾನೆ</w>
ಹೆಜ್ ಜೆ</w>
ಹೀಗ ಿದೆ</w>
ಹಲ ವೆ
ಹರಿದ ಾಡ
ಹ ್ಯ
ಸ್ವ ರಾಜ್</w>
ಸ್ತ ುವ
ಸ್ಟ ೀ
ಸೈತಾನ ನು</w>
ಸು ಬ್ರ
ಸಿದ್ದರಾಮ ಯ್ಯ</w>
ಸಿ ನೆ
ಸಾಮರ್ಥ ್ಯ
ಸಾ ದ</w>
ಸಮೀಪ ದ</w>
ಸಮಾಜ ದ</w>
ಸಣ್ಣ ಪುಟ್ಟ</w>
ಸಚಿ ವ
ಸಂಸ್ಥ ೆಗಳು</w>
ಸಂಚಾರ ಕ್ಕೆ</w>
ಸಂ ಕೇ
ಸ ಾಗಿದೆ</w>
ಸ ಭಾ
ಶ್ ವರ್</w>
ಶುಭಾ ಶಯ
ಶೀಘ್ರ ವೇ</w>
ವಾ ಳ</w>
ವಶಪಡಿಸ ಿಕೊಳ್ಳಲಾಗಿದೆ</w>
ವರದ ಿಯನ್ನು</w>
ವ ಸ್ತು</w>
ವ ಧಿ</w>
ವ ಕ್
ಲ್ಯಾ ಂಡ್</w>
ಲೆ ೕ
ಲಾಗ ಿದ್ದು</w>
ರಿ ರ
ರಾಜ ು</w>
ಯೋ ಹಾನ
ಯಾ ದವ
ಮೋ ಟಾರ್
ಮೀ ಟರ್</w>
ಮಾರುಕಟ್ಟ ೆ</w>
ಮಾ ತಿ
ಮರ ಗಳು</w>
ಮದ ್ಯ</w>
ಮ ಲ್ಲ
ಮ ಣ್ಣ
ಭ ೇ
ಬ್ರ ಾ
ಬೆಳ ಗ್ಗೆ</w>
ಬೆದ ರಿಕೆ</w>
ಬೆ ಚ್ಚ
ಬಿ ಗಿ</w>
ಬಾ ಲ್ಯ
ಬಲ ಪಡಿಸ
ಬ ಲೆ</w>
ಫಿ ಲಿ
ಫ ್ಟ್</w>
ಪ್ರವಾಸಿಗ ರು</w>
ಪ್ರತ್ಯೇ ಕ</w>
ಪೈ ಪೋ
ಪತ್ತ ೆಯಾಗಿದೆ</w>
ಪಟ್ಟ ಣ
ನೇ ರವಾಗಿ</w>
ನೆ ರೆ
ನೀಡ ಲಾಯಿತು</w>
ನೀ ಯ</w>
ನಿರ್ವ ಹಣ
ನಿರ ೂಪ
ನಿಮ ಗ
ನ ೊ</w>
ನ ನ್ನಿಂದ</w>
ನ ಟ</w>
ದೆಹಲ ಿಯಲ್ಲಿ</w>
ದ ೂ</w>
ತೆಗೆದುಕೊಂಡ ಿದ್ದಾರೆ</w>
ತರಕಾರ ಿಗಳು</w>
ತರ ಗ
ತಪ್ಪಿತ ಸ್ಥ
ತ ಲೆಗೆ</w>
ತ ಕ್ಕೆ</w>
ಡಿ ಪಿ</w>
ಡಿ ತ</w>
ಡ ನ್</w>
ಟ ೊ</w>
ಜಯ ಲಲ
ಜನ್ ಮ</w>
ಜ ಖ
ಘಟ ನಾ</w>
ಗೆ ಯ</w>
ಗಳ ಿದ್ದವು</w>
ಗ ಡೆ</w>
ಕ್ರಿ ೕ
ಕ್ಕ ೇ</w>
ಕೇಳ ಿದೆ</w>
ಕೇ ಶ್</w>
ಕೆಲವೆ ೂಮ್ಮೆ</w>
ಕುತೂ ಹಲ
ಕಾರ್ ಪೊ
ಕಾನೂ ನಿನ</w>
ಕಾಣ ಬಹುದು</w>
ಕತ್ತ ರಿಸಿದ</w>
ಕ ಬ
ಇದ ೆಲ್ಲಾ</w>
ಆಸ ಕ್
ಆಫ ್‌</w>
ಆಫ ೀ
ಆಗ ಿದ್ದರು</w>
ಆ ಧರಿಸಿ</w>
ಆ ಕಾಶ
ಅಲ್ಲ ೇ</w>
ಅಪ ್</w>
ಅಂಶ ಗಳು</w>
ಂಡ ್‌</w>
3 1</w>
್ರ ಾ</w>
ೋ ಪ
ೆ ’</w>
ೆ ಗೂ</w>
ು ಂಟು</w>
ಿಸುವ ನು</w>
ಿಸುವ ಂತ
ಿಸ ೋಣ</w>
ಿಸ ಿದ್ದೇವೆ</w>
ಿಸ ಬೇಡಿ</w>
ಿಸ ಬೇಕಾದ</w>
ಿದ್ದ ಂತೆ</w>
ಿಕ ೆಯಿಂದ</w>
ಹೆ ಮ್ಮೆ</w>
ಹೆ ದ
ಹೆ ಚ್
ಹೃದಯಾ ಘಾತ
ಹಾ ಳ
ಹಳ ದಿ</w>
ಹ ರ್</w>
ಸ್ವ ಿ</w>
ಸೌ ಲಭ್ಯ</w>
ಸೆ ಪ್ಟ
ಸು ನಿ
ಸಿಪಿ ಐ</w>
ಸಿ ವೆ</w>
ಸಾರ್ವಜನಿ ಕರು</w>
ಸಾರ ುವ</w>
ಸಾಧ್ಯವಾಗ ುತ್ತಿಲ್ಲ</w>
ಸಾ ವಿಗೆ</w>
ಸಹೋದರ ರು</w>
ಸಲಹೆ ಗಳು</w>
ಸದ್ಯ ದಲ್ಲೇ</w>
ಸಚಿ ವಾಲಯ</w>
ಸಚಿ ವಾಲಯ
ಸ ಸ್ಯ
ಸ ಮಾನ</w>
ಶ್ರೀ ಮ
ಶಿ ಷ್ಟ</w>
ಶಿ ಬಿರ
ಶರ್ ಮ</w>
ಶ ೌ
ಶ ಿಯ
ವೃ ದ್ದ
ವು ಗಳನ್ನು</w>
ವಿಶ್ರಾಂತ ಿ</w>
ವಿಯ ನ್ನು</w>
ವಿಪ ರೀ
ವಿಚಾರ ಣೆ
ವಿ ಜ್ಞಾ
ವಾಗ ಿದ್ದ</w>
ವರ್ ‌</w>
ಲ ಂ
ರೋ ಗ</w>
ರಿ ಕೆಯ</w>
ರಾ ಮ</w>
ರ ವಿ</w>
ಯೋ ಧ</w>
ಯೋ ಜಿತ</w>
ಯ ಲ್</w>
ಮೊಕದ್ದ ಮೆ</w>
ಮೊ ಟ್ಟ
ಮೈ ಸೂ
ಮೆಟ್ಟಿ ಲೇ
ಮೂಲ ಕ
ಮೂ ವರನ್ನು</w>
ಮುಂಬೈ ನಲ್ಲಿ</w>
ಮುಂಬೈ ನ</w>
ಮಾಡ ುತ್ತಿಲ್ಲ</w>
ಮಾ ವ
ಮಾ ತಿನ</w>
ಮಸೂ ದೆ</w>
ಮನ ೆಯಿಂದ</w>
ಮತ್ತ ೊಬ್ಬ</w>
ಮಕ್ಕಳ ಲ್ಲಿ</w>
ಮ ಟ್ಟ</w>
ಭವಿಷ ್ಯ</w>
ಬೇ ರೆ
ಬೇ ಯ
ಬೇ ಡಿ</w>
ಬಿಡ ುವುದಿಲ್ಲ</w>
ಬಿಜೆಪ ಿಯನ್ನು</w>
ಬಿ ತ್ತ
ಬಿ ಂಬ
ಬಹಿರ ಂಗ</w>
ಬಂದ ಿದ್ದರು</w>
ಬ ಾಯಿ</w>
ಬ ರ್</w>
ಪ್ರ ಸಂ
ಪ್ರ ಣ
ಪ್ ಲೇ</w>
ಪಿ ಣ
ಪಾ ಕ್‌</w>
ಪ ಂ</w>
ನ್‌ ನಲ್ಲಿ</w>
ನೋಂದ ಣಿ</w>
ನೀಡ ುವುದಿಲ್ಲ</w>
ನೀಡ ಲಾಗಿತ್ತು</w>
ನಿಲ್ದಾ ಣ
ನಿರಂತ ರವಾಗಿ</w>
ನಿರ ುದ್ಯ
ನಾಗ ಿದ್ದಾನೆ</w>
ನಾ ವ
ನಾ ನಾ</w>
ನಡೆಯ ುತ್ತಿರುವ</w>
ನ ಿಸ್
ಧ ಕ</w>
ದೇಶಾ ದ್ಯಂತ</w>
ದೇವ ದೂ
ದೀಪ ಿಕಾ</w>
ದ ಂತ
ತ್ ​</w>
ತೆಗೆದು ಕೊಳ್ಳ
ತಿಯಲ್ಲ ಿದೆ</w>
ತಾಯ ಿಯ</w>
ತರ ಾಗ
ತಡೆಯ ಲು</w>
ತಂತ್ರ ಜ್ಞಾನ
ಜಾಗ ೃ
ಚಾಲ ಕನ</w>
ಚಾಂಪ ಿಯ
ಚ ದು
ಚ ಕ್ರ
ಗ್ರ ಹಿಸ
ಗು ಪ್
ಗಮನ ಿಸಿ</w>
ಗ ಾರ್
ಗ ಲಭ
ಖ ಚಿತ</w>
ಕೌ ಟು
ಕೋ ಣೆ</w>
ಕೊ ಂದ
ಕೈ ಗಳನ್ನು</w>
ಕೇಂದ್ರ ದ</w>
ಕಾರ್ಯಕ್ರಮ ಗಳು</w>
ಕಾರ್ಪೊ ರೇ
ಕಾರ ಿ
ಕಾ ಂತ್</w>
ಕರ ಗ
ಕಡ್ಡ ಾಯ
ಒಳ್ಳ ೇದ
ಒಂದ ಾಗಿದೆ</w>
ಎಲ್ಲ ಿದೆ</w>
ಎಚ್ಚರಿಕ ೆಯಿಂದ</w>
ಎಂಜಿ ನಿಯ
ಎ ದ್ದ
ಇಷ್ಟ ೇ</w>
ಇವೆ ರಡ
ಇದ ಕ್ಕಿಂತ</w>
ಇಂಡ ಿಯಾ
ಇ ಗೋ</w>
ಆರಂಭ ಿಸಿದರು</w>
ಆದ ಷ್ಟು</w>
ಆಗ ಿರ
ಆಕ್ಷೇ ಪ</w>
ಅವ ನ
ಅರ್ಥ ವಾಗ
ಅನು ಷ್ಠ
ಅನು ಮಾನ
ಅನಾ ಹು
ಅನ ೈ
ಅದ ಾದ</w>
ಅಂಗ ೀಕರಿಸ
ಅ ಸಹ
3 :1
1 25</w>
1 /
ುತ್ತಿದ್ದ ಳು</w>
ಾಂ ಶ
ಹೋಗ ಿದ್ದಾರೆ</w>
ಹೇಳ ುವುದಿಲ್ಲ</w>
ಹೆ ಂಗ
ಹುಡು ಗ</w>
ಹಾಕ ಿದರು</w>
ಹಲವೆ ಡೆ</w>
ಹ ಸ್ತಾ
ಸ್ವರ ೂಪ
ಸ್ವಯ ಂ
ಸ್ವ ತಂತ್ರ</w>
ಸ್ಥಿತ ಿಯಲ್ಲಿ</w>
ಸ್ಥಾನ ಗಳು</w>
ಸೋ ಲ
ಸೇವ ಿಸಿ</w>
ಸೇ ತ
ಸೂಚ ಿಸುತ್ತದೆ</w>
ಸು ಗಳು</w>
ಸಾಧ್ಯ ತೆಯಿದೆ</w>
ಸಾಧ ಾರ
ಸಹಾಯ ಮಾಡ
ಸರ್ ‌</w>
ಸಭ ೆಯಲ್ಲ
ಸಂದ ರ್ಭ</w>
ಸ ರಾ
ಶಾಸ್ ತ್ರ</w>
ವೇಗ ದ</w>
ವೇ ನೂ</w>
ವಿಭಾಗ ದಲ್ಲಿ</w>
ವಿ ನಲ್ಲಿ</w>
ವಾಗಿರ ಬೇಕು</w>
ವಾ ನ</w>
ವಹಿಸ ಬೇಕು</w>
ವ ರುಷ
ವ ನನ್ನು</w>
ಲೇ ಜ್</w>
ಲೆ ೂೕ
ಲಿಖ ಿತ</w>
ಲಿ ಗ
ಲಕ್ಷ ್
ಲ ಿದ್ದು</w>
ರಿ ಕ್ಷ
ರಾಜ್ಯ ಕ್ಕೆ</w>
ರವೀ ಂದ್ರ</w>
ರ ್ಯಾ
ರ ೈ</w>
ಯೋಚ ಿಸಿ</w>
ಯೋಗ ್ಯ
ಯೆಹೋವ ನಲ್ಲಿ</w>
ಯೆಹೂ ದ್ಯ
ಮೋ ನ
ಮೃತ ರ</w>
ಮುಸ್ಲಿ ಮ
ಮುನ್ನ ಡೆ
ಮುಂತ ಾದ</w>
ಮುಂ ಜಾಗ್ರ
ಮಾದರಿಯ ನ್ನು</w>
ಮಾಡ ಲಿದ್ದಾರೆ</w>
ಮನುಷ್ಯ ರು</w>
ಮ ುದ್ದ
ಭುವ ನೇ
ಭಾಷ ಣ
ಭಯ ಪಡ
ಬ್ರ ಾಂ
ಬ್ಯಾ ಟರಿ</w>
ಬೇಕಾಗ ಿತ್ತು</w>
ಬಂದ ೋಬ
ಬಂದ ಿತು</w>
ಬಂಗಾ ಳ</w>
ಬ ಸ್‌</w>
ಬ ಟ್ಟೆ</w>
ಪ್ರಶ್ನೆ ಗಳಿಗೆ</w>
ಪ್ರಶ್ ನೆಗೆ</w>
ಪ್ ತಿ</w>
ಪೂರ್ಣ ಗೊಳಿಸ
ಪು ರಂ</w>
ಪರೀಕ್ಷ ೆಗೆ</w>
ಪರಿ ವರ್ತ
ಪಡಿಸ ಿದೆ</w>
ಪ ಿಸಿ</w>
ಪ ವರ್</w>
ನೇತೃ ತ್ವದಲ್ಲಿ</w>
ನೆ ಮ್ಮ
ನೆ ನೆ
ನಿಂತ ು</w>
ನಾರ ಾಯ
ನಾಗ ರಿಕ
ನಾ ವೇ</w>
ನಡೆ ದುಕೊಳ್ಳ
ನ ೆಯೇ</w>
ಧ್ವ ನಿ</w>
ದ್ವಿ ತೀಯ</w>
ದೈ ಹಿಕ</w>
ದಾ ರ</w>
ದ ಕ್ಕೂ</w>
ತೋ ಟ
ತೊಳೆಯ ಿರಿ</w>
ತಾ ಲೂ
ತಲೆ ಮರೆಸ
ತರುವ ಾಯ</w>
ತರ ಕಾರಿ</w>
ತತ್ ತ್ವ
ಡಿ ಯ</w>
ಟೀ ಕೆ</w>
ಟ ಿಕ್</w>
ಝ ್</w>
ಜನ ತೆಗೆ</w>
ಜ ಿಗೆ</w>
ಜ ರ್ಮ
ಚು ರು
ಚಿಕಿತ್ಸೆ ಗಾಗಿ</w>
ಚಾರ್ ಜ್</w>
ಚಲನ ಚಿತ್ರ</w>
ಚ ಕಮ
ಗೊಂಡ ಿವೆ</w>
ಗ ್ಯಾ
ಗ ದ
ಕ್ವಾರ ್ಟ
ಕ್ಕ ೊಳ
ಕ್ ರ</w>
ಕೋರ್ಟ್‌ ಗೆ</w>
ಕೊ ಲೆಗೆ</w>
ಕೊ ಟ್ಟು</w>
ಕೃಷ್ ಣ
ಕುರಿ ತಾದ</w>
ಕುಟುಂಬ ಕ್ಕೆ</w>
ಕಾರ ್</w>
ಕಾಮಗ ಾರ
ಕರ ್ಯ
ಕ ರಿ
ಕ ರಾ
ಕ ನು</w>
ಓಡಾ ಡ
ಓ ಪ
ಒಳ್ಳ ೆ</w>
ಒಡೆ ದು</w>
ಒಕ್ಕ ೂ
ಐದ ನೇ</w>
ಎಸ್‌ ಪಿ</w>
ಎರಡ ನೆಯ</w>
ಎನ್ನ ುವುದನ್ನು</w>
ಇದ್ದ ೇ
ಆಸ ಕ್ತ
ಆಯ್ಕೆ ಗಳನ್ನು</w>
ಆಫ್ರ ಿಕ
ಆದ್ಯ ತೆ</w>
ಆಗ ಲ್ಲ</w>
ಆಗ ಲಿ</w>
ಆಂಡ್ರ ಾಯ್
ಆ ವಶ್ಯ
ಆ ನಂತರ</w>
ಅವಕಾಶ ಗಳು</w>
ಅಭಿ ಷಿ
ಅನ್ ವಯ</w>
ಅನಿ ಲ್</w>
ಅಂತಿ ಮವಾಗಿ</w>
ಅಂ ತ್ಯ</w>
ಅ ಸಮಾಧಾನ</w>
ಅ ಸ
ಅ ಪಾಯ</w>
ಂಬಿ ಕ</w>
ಂದ ೂ</w>
e n
19 5
​ ನ</w>
ೇ ರಿ</w>
ೇ ಯ</w>
ೆಯಿ ಂದ
ೆಯ ವರು</w>
ುವ ಿ</w>
ಿರುವುದ ಕ್ಕೆ</w>
ಿಯ ಾದ
ಾಗ ್ರ
ಾಗ ಿಲ್ಲ</w>
ಹೋಗ ುವುದಿಲ್ಲ</w>
ಹೋಗ ಿತ್ತು</w>
ಹೊ ರ
ಹೆಸ ರಿ
ಹಿಂದ ಕ್ಕೆ</w>
ಹಿ ೕ
ಹಾಜ ರಿದ್ದರು</w>
ಹ ಾರ್
ಹ ನ</w>
ಸ್ವರ್ ಗಿ
ಸ್ವರ್ಗಿ ೕಯ</w>
ಸ್ವಯ ಂ</w>
ಸ್ಥಳ ಾಂತ
ಸೊ ಲೊ
ಸೂ ರ್ಯ
ಸುದ್ದಿ ಗೋಷ್ಠ
ಸುತ್ತ ಲೂ</w>
ಸು ಟ್ಟು</w>
ಸಿ ಹಿ</w>
ಸಹ ಕರಿಸ
ಸರಣ ಿಯಲ್ಲಿ</w>
ಸಮುದ ್ರ</w>
ಸಮ ಗ್ರ
ಸಂಭವ ಿಸುತ್ತದೆ</w>
ಸಂದೇಶ ವನ್ನು</w>
ಸ ಹ</w>
ಸ ವಾರ
ಶ್ರ ದ್ಧ
ಶ್ ರ</w>
ಶ ರ
ವ್ಯವಹಾರ ಗಳ</w>
ವೈಯ ಕ್ತ
ವಿವರ ಣೆ</w>
ವಿರ ಾ</w>
ವಿಧಾನ ಸಭೆಯಲ್ಲಿ</w>
ವಿ ೕ
ವಿ ನ್</w>
ವಾಹನ ಗಳನ್ನು</w>
ವಾರ್ಷ ಿಕ</w>
ವ ತ್ತ
ಲೆ ಕ್ಕ
ಲ ಿಯಲ್ಲಿ</w>
ಲ ನ</w>
ರ್ ‍
ರೋ ಗಿ
ರಿಯ ಾಗಿ</w>
ರಾಯ ್</w>
ರಸ್ ತೆಗಳು</w>
ಯಾವುದ ೆ</w>
ಯಾದವ ್‌</w>
ಮ್ಯ ಾನ
ಮೆಚ್ಚ ುಗೆ</w>
ಮಾರು ತಿ</w>
ಮಾತ ನಾ
ಮಾಡ ುತ್ತೇವೆ</w>
ಮಾಡ ಲಾಗುತ್ತಿದೆ</w>
ಮನಸ್ ಸನ್ನು</w>
ಮ ್ಯೂ
ಬ್ಯಾ ಂಕ
ಬೇಡ ಿಕೆ</w>
ಬೆಳ ಕು</w>
ಬಿ ಹಾರ</w>
ಬರ ುತ್ತಿಲ್ಲ</w>
ಬಂಧ ಿಸಿದ್ದರು</w>
ಫ ರ್
ಪ್ರಾಣಾ ಪಾಯ
ಪ್ರ ಬಲ</w>
ಪೊಲೀಸ ರನ್ನು</w>
ಪುನರಾ ವರ್ತ
ಪಾಂಡ ೆ</w>
ಪವಿ ತ್ರ</w>
ಪಡೆದ ಿದೆ</w>
ಪ ಿತ
ನ್‌ ನ</w>
ನ್ಯಾಷ ನಲ್</w>
ನೇ ರ</w>
ನೀಡ ಲಿದೆ</w>
ನೀಡ ಲಾಗುವುದು</w>
ನೀಡ ಲಾಗುತ್ತದೆ</w>
ನಿರ್ವಹ ಣೆ</w>
ನಿರ್ದ ೇಶ
ನಿಗ ಾ</w>
ನಿ ಗೂ</w>
ನಿ ಕ್</w>
ನಾಯ ್
ನಾಟ ಕ</w>
ನಡೆ ದು</w>
ದ್ವೀ ಪ
ದ್ದ ಾಗಿದೆ</w>
ದೇಹ ವನ್ನು</w>
ದಿನ ದಿಂದ</w>
ದಾಖ ಲೆಗಳನ್ನು</w>
ದ ಕ್ಕೆ</w>
ದ ಂಗ
ತೊ ರೆ
ತೆಗೆ ದು</w>
ತ ಾನೆ</w>
ತ ಳ
ತ ತ್ವ
ತ ಜ್ಞ
ಟ್ವಿ ಟ್ಟ
ಟಾರ್ ಕ್</w>
ಜೊ ತೆಗ
ಜಯಲಲ ಿತಾ</w>
ಜ ಿಸ್ಟ
ಜ ಾನ್</w>
ಛ ತ್ತೀ
ಚೋ ಪ್ರಾ</w>
ಚಾರ ದ</w>
ಚ ಲಿಸ
ಗ್ರಾ ಮ</w>
ಗೊಳಿಸ ಿದ್ದಾರೆ</w>
ಗೊಂದ ಲ</w>
ಗಾ ದರೂ</w>
ಗಳ ಿದ್ದಾರೆ</w>
ಗಳ ಷ್ಟು</w>
ಕ್ರಿಸ್ತ ನು</w>
ಕೌಟು ಂಬಿಕ</w>
ಕೊನೆ ಗೂ</w>
ಕೇ ಸು</w>
ಕುಸ ಿತ
ಕಾಸರಗೋ ಡು</w>
ಕಾರ್ಯ ಗಳು</w>
ಕಾರ್ಮಿಕ ರು</w>
ಕಾರ ದ</w>
ಕಾಂಗ್ರೆಸ್‌ ನ</w>
ಕಾಂಗ್ರೆಸ್‌ ಗೆ</w>
ಕಾಂಗ್ರೆಸ್ ​</w>
ಕರ ಲ್ಲಿ</w>
ಕಚೇ ರಿ</w>
ಓದ ಲು</w>
ಒಪ್ಪ ಿಕೊಳ್ಳ
ಒ ಮ್ಮ
ಒ ಂಬ
ಐ ಆರ್</w>
ಎ ಫೆ
ಉದ್ಯ ೋ
ಉತ್ಪಾದ ನೆ</w>
ಉ ಗ್ರ</w>
ಈ ಶಾ
ಇವೆಲ್ಲ ವೂ</w>
ಇವ ನು</w>
ಇರ ಬೇಕು</w>
ಇನ್ನ ೇನು</w>
ಇದ್ದ ೆ</w>
ಇಂಜಿ ನಿಯ
ಇ ನಿ
ಆಧು ನಿಕ</w>
ಆಂಧ ್ರ</w>
ಆ ಪ್</w>
ಆ ಚರಣ
ಅವಶ್ಯ ಕತೆ</w>
ಅರವಿ ಂದ್</w>
ಅಮೆರಿಕ ಾ</w>
ಅಮೂ ಲ್ಯ
ಅಭ್ಯಾ ಸ
ಅಭಿನಂದ ನೆ</w>
ಅಬ್ದು ಲ್</w>
ಅಪ ೇ
ಅನುದ ಾನ</w>
ಅದ ಕ್ಕಿಂತ</w>
ಅಂತ ೆಯೇ</w>
ಅಂಗ ೀ
ಅ ಜಿ
ಅ ಕ್ರಮ</w>
ಅ ಕಾಡೆ
ಂಡ ್
2 :
1 :
್ಯವ ಸ್ಥ
ೊಂದ ರಲ್ಲಿ</w>
ೂ ಂದಿಗೆ</w>
ುವಿ ಕೆಯ</w>
ುದ ೇ</w>
ುತ್ತಿದ್ದ ವು</w>
ುತ್ತ ೀರಾ</w>
ುತ್ತ ೀ
ುತ್ತ ಿರ
ು ಳ್ಳ</w>
ಿಸಿಕೊಂಡ ಿದ್ದಾರೆ</w>
ಿಲ್ಲ ’</w>
ಿದ್ದೇ ನು</w>
ಿದ್ದ ಲ್ಲಿ</w>
ಿದ್ದ ನ್ನು</w>
ಾಗ್ ಗೆ</w>
ಾಗ ್ರಾ
ಾಗ ೃಹ
ಾಗ ಿದ್ದು</w>
ಹೊಂದ ಾಣ
ಹೊ ಸ</w>
ಹೆಸ ರಿನಲ್ಲಿ</w>
ಹೆಂಡ ತಿಯ
ಹೂಡ ಿಕೆ</w>
ಹೀ ನ
ಹಾಗ ೆಂದು</w>
ಹತ್ತಿ ರ</w>
ಹಂತ ದಲ್ಲಿ</w>
ಹ ಲ</w>
ಹ ಂಗ
ಸ್ಥಾನ ವನ್ನು</w>
ಸೈ ನ್ಯ
ಸು ಜು
ಸಿ ಟಿ</w>
ಸಾಧ ಿಸಿದೆ</w>
ಸಾಧ ನ
ಸಲ್ಲ ಿಸಲು</w>
ಸರಳ ವಾಗಿದೆ</w>
ಸಮಾ ಜ</w>
ಸಂ ಜಯ್</w>
ಸ ಿಕ
ಸ ಡಿ
ಷ ವಾಗಿ</w>
ಶಿ ೕ
ಶಂ ಕೆ</w>
ಶ ಬ್ದ
ಶ ತ್ರ
ವ್ಯಕ್ತಿ ಗಳು</w>
ವ್ಯಕ್ತ ವಾಗಿದೆ</w>
ವಿವಾ ಹ</w>
ವಿವರ ಗಳು</w>
ವಿಫಲ ವಾಗಿದೆ</w>
ವಿನ್ಯಾ ಸ
ವಿಚಾರ ಣೆಗೆ</w>
ವಿ ಲೇಜ್</w>
ವಿ ತರ
ವಿ ಕಾ
ವಾರ ್ಯ
ವಾಗ್ದ ಾನ
ವಸ್ತು ಗಳನ್ನು</w>
ವರ್ ಮಾ</w>
ವಂಚ ನೆ</w>
ವ ೊ</w>
ವ ಿಸ
ವ ಜಾಗ
ಲ್ ಕರ್</w>
ಲೋಕ ಸಭೆಯಲ್ಲಿ</w>
ಲೆ ನ್ಸ್</w>
ಲಾಗ ುವುದಿಲ್ಲ</w>
ಲಾಗ ಿಲ್ಲ</w>
ರ್ ಣ
ರೈ ತರ</w>
ರೆ ೖ
ರಿ ಗಿಂತ</w>
ರ ಂ
ಯಡಿಯೂರ ಪ್ಪ</w>
ಮೋದಿಯ ವರ</w>
ಮೋ ಸ</w>
ಮೆ ಟ್ರ
ಮೃ ತ್ಯ
ಮೂ ವರ</w>
ಮಾಡ ುತ್ತಿರುವ</w>
ಮಾಡ ುತ್ತಾ</w>
ಮಂದ ಿಯ</w>
ಮ ರಾ
ಮ ನ್‌</w>
ಭಾಗ ಗಳಲ್ಲಿ</w>
ಭವಿಷ ್ಯದ</w>
ಭ ರಿತ</w>
ಬ್ರ ೇ
ಬೇ ಸರ</w>
ಬಿಡುಗಡ ೆಯಾಗ
ಬಾಲಕ ಿಯನ್ನು</w>
ಬಾ ಬು</w>
ಬಹುದ ೆಂದು</w>
ಬಲ ಿಯಾಗಿದ್ದಾರೆ</w>
ಬದ ಲು</w>
ಬಂದ ಿರುವ</w>
ಬ ್ರೆ
ಬ ನ್ನಿ</w>
ಫೇ ಸ್
ಪ್ರೋತ್ಸಾ ಹ</w>
ಪ್ರೀ ತಿಯಿಂದ</w>
ಪ್ರವಾ ಸಿ</w>
ಪ್ರಧಾನ ಮಂತ್ರಿಯ
ಪ್ರ ೌ
ಪ್ರ ಸ
ಪ್ ಪಿ</w>
ಪೋ ರ್
ಪಯನೀಯ ರ್‌</w>
ಪಡೆಯ ಲಾಗಿದೆ</w>
ಪಂದ್ಯ ಗಳು</w>
ನೋಡ ಿದ</w>
ನೋಡ ಿಕೊಳ್ಳ
ನೀ ಲಿ</w>
ನೀ ರಿನಿಂದ</w>
ನಿಂತ ಿದೆ</w>
ನಿ ಮಿ
ನಮ್ಮ ದು</w>
ನ ಕಾರ
ನ ಕ
ಧೈ ರ್ಯ</w>
ಧರ್ಮ ಶಾಸ್ತ್ರ
ದುಷ್ಕರ್ ಮಿ
ದಾಖಲಿಸ ಿಕೊಂಡಿರುವ</w>
ದಾಖಲಿಸ ಲಾಗಿತ್ತು</w>
ದಾ ಂಪ
ದ ಲ್ಲ</w>
ದ ರದಲ್ಲಿ</w>
ತೊಂದ ರ
ತೆ ರೆದ
ತರ ುವ</w>
ತಪ್ಪ ಿಸಿ</w>
ತಕ್ಕ ಂತೆ</w>
ತಂಡ ವು</w>
ತ ವಾದ</w>
ತ ನು</w>
ಣ ಿಯ
ಡಿ ಎಂ
ಡಿ ಎ</w>
ಡ ೋ
ಟ್ರಂ ಪ್‌</w>
ಟಿ ಪ್ಪ
ಟ ೂ
ಜೀವ ನದ</w>
ಜನ್ ಮ
ಜನ ರಲ್ಲಿ</w>
ಚಲನ ಚಿತ್ರ
ಚ ೊ
ಚ ಂದ್ರ</w>
ಚ ಂದ
ಚ ಂಡ
ಘ ರ್ಷ
ಗಾಯಗೊಂಡ ಿರುವ</w>
ಖಿ ನ್ನ
ಕ್ರಮ ವನ್ನು</w>
ಕ್ಯಾರ ೆ
ಕ್ ಯ</w>
ಕೊರ ತೆ</w>
ಕೊಡ ುತ್ತದೆ</w>
ಕೊಡ ಲು</w>
ಕೊಟ್ಟ ರು</w>
ಕೈಗೆ ತ್ತ
ಕಾಲೇ ಜು
ಕಾರಣ ವೇನು</w>
ಕಾರ ುಗಳು</w>
ಕಾ ವ
ಕಳೆದುಕೊಂಡ ಿದ್ದಾರೆ</w>
ಕಲ್ಲ ು</w>
ಕತ್ತ ರಿಸ
ಕಡೆ ಗಳಲ್ಲಿ</w>
ಕ ವಿ
ಕ ರಾದ</w>
ಏರಿಕ ೆಯಾಗಿದೆ</w>
ಏನ ನ್ನೂ</w>
ಎರಡ ನೇ</w>
ಎನ್ ಎಂ</w>
ಎಂಬುದ ಾಗಿ</w>
ಎ ಂತಹ</w>
ಇಸ್ರಾಯೇ ಲ್‌</w>
ಇಸ್ರಾಯೇ ಲಿನ</w>
ಇವೆ ಲ್ಲ</w>
ಇಂದ ಿರಾ</w>
ಆಗ ಿವೆ</w>
ಆಗ ಬಹುದು</w>
ಆಕ್ರೋ ಶ
ಆ ರ್ಭ
ಆ ರಿಸಿ</w>
ಆ ತು
ಅಸ್ತವ್ಯ ಸ್ತ
ಅಶೋ ಕ್</w>
ಅವ ರಿಗ
ಅಬ್ರಹಾ ಮ
ಅನಿ ವಾರ್ಯ
ಅಧಿವೇಶ ನ</w>
ಅತಿಯ ಾದ</w>
ಅ ಪ್
ಅ ತ್ತ</w>
ಅ ಂದ್ರೆ</w>
ಂತ ರ
ಂಗ ್ಟ
4 8</w>
4 2</w>
3 4</w>
3 ,
2 9</w>
2 7
ೊಂದ ನ್ನು</w>
ೆಯ ಾಯಿತು</w>
ುತ್ತಿದ್ದ ನು</w>
ುಕೊಳ್ಳ ಿ</w>
ಿಲ್ಲ ದೆ</w>
ಿಯ ೊಂದಿಗೆ</w>
ಿದ್ದಾರ ೆಂದು</w>
ಾನ ಾ</w>
ಾದ ವು</w>
ಾಡ ಳಿತ</w>
ಾಗ ಲೂ</w>
ಹೋಗ ುತ್ತಾರೆ</w>
ಹೊಡೆ ದ</w>
ಹೊಂದ ಿದ್ದು</w>
ಹೊ ಮ್ಮ
ಹುದ್ದ ೆಗೆ</w>
ಹಿಂ ಸೆ</w>
ಹರಿಯಾ ಣ</w>
ಹಂತ ಗಳಲ್ಲಿ</w>
ಸ್ನೇ ಹ
ಸ್ ಮೃ
ಸೆಪ್ಟ ೆಂಬ
ಸೂಚ ಿಸಿದ್ದಾರೆ</w>
ಸುವಾರ್ ತೆ</w>
ಸುದ ೀ
ಸಿ ಕ್
ಸಾರ್ ವ
ಸರ್ಕಾರ ದಿಂದ</w>
ಸತ್ಯ ವನ್ನು</w>
ಸಚಿ ವರ</w>
ಸಂ ಘ</w>
ಷ ರ
ಶೆ ಟ್ಟಿ</w>
ಶಿ ಖ
ಶತಮಾನ ದ</w>
ಶ ಿಯಲ್</w>
ವ್ಯವಸ್ಥ ೆಯನ್ನು</w>
ವ್ಯಕ್ತ ಪಡ
ವ್ಯಕ್ ತಿಯು</w>
ವ್ಯ ರ್ಥ
ವೆ ನ್ನ
ವಿಶ್ವವಿದ್ಯಾ ಲಯ</w>
ವಿಶೇ ಷ</w>
ವಿದ್ಯಾರ್ಥಿ ಗಳನ್ನು</w>
ವಿಕೆ ಟ್‌
ವಿ ಜ್ಞಾನ
ವಿ ಂಗಡ
ವಾರ ್</w>
ವಾಯ ್ತು</w>
ವರ್ಷ ಗಳಿಂದ</w>
ವರ್ ಗಾ
ವ ಳು</w>
ಳುವ ಳ
ಳ ೇ</w>
ಲ್ಲ ದ</w>
ರೋ ಹಿ
ರೋ ಮಾ
ರು ಗಳನ್ನು</w>
ಯೋಜ ನೆಗಳನ್ನು</w>
ಯುವ ಕರು</w>
ಯಾವುದ ಕ್ಕೂ</w>
ಯಾಕ ಂದರೆ</w>
ಯ ೊ
ಮ್ರ ಾನ್</w>
ಮೇಲ್ ಮನವಿ</w>
ಮೆಗಾ ಪಿಕ್
ಮೆ ಸ್
ಮಾ ಲೀ
ಮಳ ೆಗೆ</w>
ಮನ ಿ</w>
ಮಟ್ಟ ವನ್ನು</w>
ಮಂ ತ್ರಿ
ಮ ಣಿ
ಭ ್ಯಾ
ಬ್ಯಾ ಟ್
ಬೆ ಲೆಯಲ್ಲಿ</w>
ಬೆ ಣ್ಣೆ</w>
ಬಿಜೆಪ ಿಯಿಂದ</w>
ಬಿ ಟ್ಟ</w>
ಬಲ್ಲ ೆ</w>
ಬದಲಾಯ ಿಸಲು</w>
ಬಂಧ ಿತ</w>
ಬಂದ ಿವೆ</w>
ಬಂದ ರೆ</w>
ಫ್ರಾ ನ್ಸ್</w>
ಫ ೆ</w>
ಪ್ರಯತ್ನ ಗಳು</w>
ಪ್ರಜಾಪ್ರಭು ತ್ವದ</w>
ಪ್ರ ಜೆ
ಪಿಣ ರಾಯಿ</w>
ಪಾವ ತಿ</w>
ಪಾಂಡ ್ಯ</w>
ಪ ರ</w>
ನ್ಯೂ ಸ್</w>
ನ್ನಾ ದರೂ</w>
ನ್ ನಾಡ
ನೇಮ ಕ
ನಿಲ್ದಾ ಣದಲ್ಲಿ</w>
ನಿಯಂತ್ರ ಿಸಲು</w>
ನಿದ ್ರ
ನಿತ್ಯ ಜೀವ
ನಿ ವೃ
ನಿ ಂದಲೂ</w>
ನಾಗ ರಿಕ</w>
ನಾ ನೆ
ನಡ ುವ
ನ ೀ</w>
ನ ಷ್ಟು</w>
ಧ್ಯ ಕ್ಷ
ದೊಳ ಗೆ</w>
ದೈ ವಿಕ</w>
ದುರ್ ಬಲ
ದು ಡ್ಡ
ದ ಿರುವ</w>
ತೊಡಗ ಿತು</w>
ತೆಲಂಗಾ ಣ</w>
ತಿ ತ್ತು</w>
ತರ ಲು</w>
ತಪ್ ಪಿ</w>
ತ ರ್
ಡ ೈ
ಟೆ ಸ್
ಟ ೀ</w>
ಟ ದ</w>
ಜೊ ತೆ
ಜೈ ಲಿಗೆ</w>
ಜಿಲ್ಲಾ ಸ್ಪತ್ರ
ಜ ಂಟಿ</w>
ಚ್ ಛ</w>
ಚಿ ೕ
ಚ ೆ</w>
ಚ ಕ್ರ</w>
ಘೋಷ ಿಸಲಾಗಿದೆ</w>
ಗ್ರ ಹ</w>
ಗ್ ಗಿ</w>
ಗೋ ಲು</w>
ಗುಣ ವಾಗಿ</w>
ಗುಂಡ ಿ
ಗಿ ನಿಂದ</w>
ಗಾ ವ
ಗರ್ ಭಿ
ಗ ದ್ದ
ಕ್ರಮ ಕ್ಕೆ</w>
ಕ್ಯಾಮ ರಾ</w>
ಕ್ಯಾ ಲ್
ಕೋರ್ಟ್‌ ನಲ್ಲಿ</w>
ಕೋರ್ ಟ್
ಕೋ ರಿ</w>
ಕೊಟ್ಟ ಿಲ್ಲ</w>
ಕೊಂಡೊ ಯ್ಯ
ಕೈಗೊಳ್ಳ ಲಾಗಿದೆ</w>
ಕೈ ಗೊಳ್ಳ
ಕುದ ಿಯ
ಕು ಸಿಯ
ಕು ಳ
ಕಾಲ ಿಕವಾಗಿ</w>
ಕಾಣಿಸಿಕೊಂಡ ಿದ್ದಾರೆ</w>
ಕಾ ಲು</w>
ಕಾ ದು</w>
ಕರ ಾಗಿದ್ದಾರೆ</w>
ಕಡೆ ಗಣ
ಕಂಪ್ಯೂ ಟರ್</w>
ಕ ಂಬ
ಕ ಂದ
ಒಂದ ಿ
ಐ ಶ್ವರ
ಏ ನ್</w>
ಎ ಲ್
ಉಗ್ರ ರನ್ನು</w>
ಇಷ್ಟ ೊಂದು</w>
ಇಲ್ಲಿಯ ವರೆಗೆ</w>
ಇಬ್ಬ ರಿಗೂ</w>
ಇನ್ನು ಳಿದ</w>
ಇನ್ನ ೊಬ್ಬ
ಇದ ೇನು</w>
ಇದ ನ್ನೂ</w>
ಇತ್ತೀ ಚಿನ</w>
ಇಂಧ ನ</w>
ಇಂದ ಿಗೂ</w>
ಆರ್ಥ ಿಕ
ಆರೋಪ ಿಸಿದ್ದಾರೆ</w>
ಆರೋಗ ್ಯ</w>
ಆರ ೈ
ಆಗ ಲೂ</w>
ಆ ಶ್ರ
ಆ ಘಾತ</w>
ಅಷ್ಟ ರಲ್ಲಿ</w>
ಅವ ನ್ನು</w>
ಅರ್ ಧ</w>
ಅರ್ ಧ
ಅಪಘಾತ ದ</w>
ಅ ಮ
ಂಗ ಿ</w>
9 9</w>
6 5</w>
3 7</w>
1 20</w>
ೋ ರ್
ೆಯಲ್ಲ ೇ</w>
ೆಯಲ್ಲ ೂ</w>
ುವ ೆ
ೀ ಡ
ಿಸುತ್ತ ಿವೆ</w>
ಿದೆಯ ೋ</w>
ಿದೆಯ ಾ</w>
ಿದ ್ರೆ</w>
ಿದ ಾರ
ಿತ ರಾಗ
ಿ ನ್</w>
ಾಗ ಿವೆ</w>
ಾ ಧಿಕಾರಿ</w>
ಹೋಗ ಿವೆ</w>
ಹೈ ಕೋರ್ಟ್‌</w>
ಹೇಳಿದ ಂತೆ</w>
ಹೆ ಗ್
ಹೃದಯ ವನ್ನು</w>
ಹು ತಾತ್
ಹಾನಿಯ ಾಗಿದೆ</w>
ಹಾಕ ಿದ</w>
ಹರ ್ಯಾ
ಹದ ಗೆ
ಸ್ವರ್ ಗ
ಸ್ಮೃ ತಿ</w>
ಸ್ಟ್ರ ಾ
ಸ್ ಸು</w>
ಸ್ ಫೋ
ಸ್ಫೋ ಟ</w>
ಸೋಷ ಿಯಲ್</w>
ಸೇ ರಿದ</w>
ಸುಜು ಕಿ</w>
ಸು ಮ್ಮನ
ಸು ಗಳನ್ನು</w>
ಸಾಧ್ಯ ವಾದ
ಸಹೋದ ರಿ</w>
ಸಲ್ಲ ಿಸಿದ</w>
ಸರಿ ಪಡಿಸ
ಸಂಶೋಧ ನೆ</w>
ಸ ಮೂ
ಶಿಫಾರ ಸು</w>
ವ್ಯತ್ಯಾ ಸ</w>
ವೈಯಕ್ತ ಿಕವಾಗಿ</w>
ವೇಳ ೆಗೆ</w>
ವೆ ೕ</w>
ವಿವೇ ಚ
ವಿ ನಿಮ
ವಾಹ ಕ</w>
ವಾಸ ನೆ</w>
ವಾಗ ಲಿ</w>
ವಾ ದಲ್ಲಿ</w>
ವರ ಾಗಿದ್ದಾರೆ</w>
ವಜಾಗ ೊಳಿಸ
ವಕೀ ಲ
ವ ೈ</w>
ಳ ದಲ್ಲಿ</w>
ಲಕ್ಷಣ ಗಳನ್ನು</w>
ರ್‌ ಗೆ</w>
ರಾಜ ್‌</w>
ಯೋಜ ನೆಗಳು</w>
ಯೇಸುವ ನ್ನು</w>
ಯುವ ಕನ</w>
ಯು ನೈ
ಮೃತ್ಯ ು</w>
ಮುಂದ ಕ್ಕೆ</w>
ಮಿಶ್ರ ಾ</w>
ಮಾಧ್ಯಮ ಗಳಲ್ಲಿ</w>
ಮಾಡಿಕೊಳ್ಳ ಲು</w>
ಮಾಡ ಿದ್ದಾನೆ</w>
ಮಾ ಸ್
ಮಾ ರ</w>
ಮನೆ ಗಳಿಗೆ</w>
ಮತ ದಾನ
ಮಂಗಳ ೂ
ಮ ದಾ
ಭಾಷ ೆಯನ್ನು</w>
ಭಾವ ನಾತ್ಮಕ</w>
ಭಾರತೀಯ ರ</w>
ಬ್ ‌
ಬೇಕೆ ಂಬ
ಬೆಂಗಳೂ ರಿನಲ್ಲಿ</w>
ಬಿ ನ್</w>
ಬ ಾರ್
ಬ ಸ್‌
ಬ ಚ್ಚ
ಫುಟ್ ಬಾಲ್</w>
ಪ್ರೇ ರಿತ</w>
ಪ್ರತಿನಿಧ ಿಗಳು</w>
ಪ್ಯ ಾರ
ಪೇ ತ್ರ
ಪುಸ್ತಕ ದ</w>
ಪಿ ಎ</w>
ಪರಿ ಶುದ್ಧ
ಪರಿ ಪೂರ್ಣ</w>
ಪತ್ತ ೆ
ಪಡೆದುಕೊಂಡ ಿದೆ</w>
ಪಟ್ಟ ಿದೆ</w>
ಪಟ್ಟ ರು</w>
ಪಂದ್ಯ ವನ್ನು</w>
ಪ ರ್‌</w>
ನ್ಯ ಾ</w>
ನೈ ಸರ್ಗ
ನೇ ಶ್</w>
ನೀಡ ಲಿಲ್ಲ</w>
ನಿವೃ ತ್ತ</w>
ನಿ ಗಾಗಿ</w>
ನಾಥ ್‌</w>
ನಾ ವೇನು</w>
ನಾ ವೂ</w>
ನಾ ಯ</w>
ನಮೂ ದ
ನನ್ನ ದು</w>
ನಡೆದ ಿದ್ದು</w>
ನ ಿದ್ದ
ಧ ವನ್</w>
ದುರ ಂತ</w>
ದು ರಸ್
ದಿ ವಸ
ದಾರ ಿಯಲ್ಲಿ</w>
ತೊ ರೆಯ
ತೀ ರಿ
ತಿರುಗ ಿ</w>
ತಿಮೊಥ ೆಯ</w>
ತಿ ೕವ
ತಾಪ ಮಾನ</w>
ತಳ್ಳ ಿ
ತ ೆಯೂ</w>
ತ ತ್ತ
ತ ಂದು</w>
ಡೇ ಟ್</w>
ಡಿಯ ೋ</w>
ಠಾ ಕೂ
ಟಿ ವ್</w>
ಟ ್ರೆ
ಜ ಾನ
ಚಿತ್ರರಂಗ ದ</w>
ಚರ್ ಮದ</w>
ಚ ಲ</w>
ಗಣ್ಯ ರು</w>
ಗ ತ
ಗ ಡಿಯ
ಖರ್ ಚು</w>
ಕ್ರೀ ಡಾ
ಕ್ ರೋ
ಕೃ ಪೆ</w>
ಕೂ ಟ</w>
ಕುತೂ ಹಲ</w>
ಕಾರಣ ಗಳಿವೆ</w>
ಕಣ್ಣ ುಗಳು</w>
ಕ ಸ
ಕ ಬ್ಬಿ
ಒಟ್ಟ ಾಗಿ</w>
ಏ ನೇ</w>
ಎ ಳೆ
ಉ ಮೇಶ್</w>
ಈಶಾ ನ್ಯ</w>
ಇಸ್ಲಾ ಂ</w>
ಇಸ್ರಾಯೇಲ್ಯ ರು</w>
ಇದ್ದ ವು</w>
ಇಂತ ಹ
ಆಶೀರ್ ವಾದ
ಆಳ ವಾದ</w>
ಆಗ್ರಹಿಸ ಿದರು</w>
ಆಗ ಬೇಕು</w>
ಆಂಧ್ರ ಪ್ರದೇಶ</w>
ಆ ಸ್ತಿ</w>
ಆ ಶಾ
ಆ ಲೂ
ಅವರೆ ಲ್ಲರೂ</w>
ಅಲ್ಲ ಲ್ಲಿ</w>
ಅಮಾನ ತು</w>
ಅಪ್ಲಿಕ ೇಶನ್</w>
ಅನು ಸ್ಥಾಪ
ಅದೃ ಷ್ಟ</w>
ಅಜ ಿತ್</w>
ಅ ಪ್ರಾ
ಂ ಟ್‌
9 0</w>
3 9</w>
‘ ನಾನು</w>
‘ ಇದು</w>
ೊ ಡನೆ</w>
ೊ ಂಡ
ೆಯ ೊಂದಿಗೆ</w>
ೆಂದ ೂ</w>
ೆ ಳೆ
ುತ್ತ ಿರುವ
ುಗ ೋ
ು ಸಿರ
ುಸಿರ ೆಳೆ
ು ಗಳಲ್ಲಿ</w>
ೀ ಯ</w>
ಿಸುವುದ ನ್ನು</w>
ಿಸುವ ರು</w>
ಿಸಿದ ವು</w>
ಿಸ ಬೇಕೆಂದು</w>
ಿಸ ದೆ</w>
ಿದ ವರು</w>
ಿಕ ಲ್</w>
ಿ ವ
ಿ ಗಳಾಗ
ಾಗ ುವ</w>
ಾಗ ಿಯೂ</w>
ಾಂ ಕ</w>
ಹೋಗ ಬೇಕು</w>
ಹೋ ಯ
ಹೊರ ತು
ಹೊರ ಟು</w>
ಹೇಳ ಬಹುದು</w>
ಹೋ ಗ
ಹೃದಯ ದ</w>
ಹು ಳಿ</w>
ಹಾರ್ದ ಿಕ್</w>
ಹ ್</w>
ಹ ಾಯ
ಸ್ಥಳ ಗಳಲ್ಲಿ</w>
ಸ್ಟಿ ಟ್ಯೂ
ಸೊಲೊ ಮೋನ
ಸೇರಿ ವೆ</w>
ಸೂಕ್ಷ್ ಮ</w>
ಸಿದ್ಧ ರಾಗ
ಸಿ ಎ
ಸಿ ಂಗ್
ಸರಣ ಿಯ</w>
ಸದಸ್ಯ ರ</w>
ಸಂಗ ಡ</w>
ಸಂ ಪ್ರದಾಯ
ಸ ನ್
ಸ ತ್ತು</w>
ಸ ಕಾರ
ಶ್ರೀ ನಗರ</w>
ಶಾಸ ಕರ</w>
ಶಸ್ ತ್ರಾ
ಶ ಬರಿ
ವ್ಯಕ್ ತಿಯನ್ನು</w>
ವು ಂಟ
ವಿಷಯ ಗಳಲ್ಲಿ</w>
ವಿಭ ಜ
ವಾರ್ ಯ</w>
ವಾಯ ು</w>
ವರ ಾಗಿ</w>
ವ ಳಿ</w>
ವ ಧ
ಲ್ಲ ಿಯೂ</w>
ಲ್ಪಡ ುವ</w>
ಲ್ಪಟ್ಟ ಿರುವ</w>
ಲೋಕ ದಲ್ಲಿ</w>
ಲೂ ಕ</w>
ಲಿಕ್ಕ ಿಲ್ಲ</w>
ಲಿ ನಲ್ಲ
ಲಾರ ದು</w>
ರೈ ತರು</w>
ರಿಯ ನ್ನು</w>
ರನ್‌ ಗಳ</w>
ರಕ್ತ ದೊ
ರಕ್ತದೊ ತ್ತ
ರ ್ದ
ರ ೊ</w>
ರ ಸ</w>
ಯೋ ಸೇ
ಯೆ ರೆ
ಯಾವ ತಿ</w>
ಯಾರ ಿಂದಲೂ</w>
ಯಶಸ್ವಿಯ ಾಗಿ</w>
ಯಶ ಸ್ವಿ</w>
ಮೌ ನ
ಮೋಟಾರ್ ಸ್</w>
ಮೋ ಸ
ಮುಸ್ಲಿ ಮರು</w>
ಮುಂದ ೆಯೂ</w>
ಮು ನ್
ಮೀ ನು</w>
ಮಿಲಿ ಟರಿ</w>
ಮಾತ್ರ ವೇ</w>
ಮಾಡ ಿರಲಿಲ್ಲ</w>
ಮಾಡ ಲಿ</w>
ಮಲ ೆಯಾ
ಮನಸ್ ಸಿಗೆ</w>
ಮತ್ತ ೊಂದು</w>
ಮಗ ನನ್ನು</w>
ಬೌ ಲಿಂಗ್</w>
ಬೆ ರಳ
ಬು ರು
ಬು ಡ
ಬೀ ಜ
ಬಿಡುಗಡೆ ಗೊಳಿಸ
ಬಾಲಿವು ಡ್‌
ಬಾ ದ್‌</w>
ಬಾ ಡಿಗೆ</w>
ಬಹುದ ೇ</w>
ಬರ ಬಹುದು</w>
ಪ್ರೇ ಮ
ಪ್ರೀ ತ್</w>
ಪ್ರತ್ಯ ುತ್ತ
ಪ್ರತಿಭಟನಾಕಾರ ರನ್ನು</w>
ಪ್ರತಿಭಟ ನೆಗಳು</w>
ಪ್ರಕಟ ನೆ</w>
ಪ್ರ ಭಾವ</w>
ಪೋಲಿಸ ರು</w>
ಪೇ ತ್ರ</w>
ಪೂ ಜೆ</w>
ಪಿಸ ಿಸಿ</w>
ಪಾ ಲ</w>
ಪರಿ ಷ
ಪತ್ರ ಕರ್
ಪಡಿಸ ುವ</w>
ಪಡಿಸ ಿದ</w>
ಪಡ ು
ಪಕ್ಷ ೇ
ನ್‌ ಗೆ</w>
ನೈ ತಿಕ</w>
ನೆ ಂಬ
ನಿವಾಸಿ ಗಳು</w>
ನಿರೀಕ್ಷ ಿತ</w>
ನಿರಾಕರಿಸ ಿದ್ದಾರೆ</w>
ನಿ ಯೋಜಿತ</w>
ನಿ ತೀಶ್</w>
ನಾನೇ ನು</w>
ನಾ ಶ</w>
ನಾ ಪತ್ತೆಯಾಗ
ನಡೆಸ ಿದ್ದರು</w>
ನಡೆಸ ಲಾಗುತ್ತಿದೆ</w>
ನಡೆಸ ಲಾಗಿದೆ</w>
ನಡೆಯ ಬೇಕು</w>
ನಂಬಿಕ ೆಯ</w>
ನ ದಿ</w>
ದೃ ಶ್ಯ</w>
ದಿ ನೇ</w>
ದಾಖಲಿಸ ಿಕೊಂಡ
ದಲ್ಲ ಿ
ದರ್ಶ ನ</w>
ದಂಪ ತಿ</w>
ದ ಳ
ತ್ಯಾ ಗ</w>
ತೋರಿಸ ುವ</w>
ತೋರಿಸ ುತ್ತದೆ</w>
ತೆಗೆದುಕೊಳ್ಳ ಿ</w>
ತಿಂ ಗಳಿ
ತಿ ಳುವಳ
ತ ೆಯೇ</w>
ತ ುದ
ತ ಗು
ಣ್ ‌</w>
ಣ ೆಗಳು</w>
ಡ ್ಯಾ
ಟ್ಟ ು
ಟೊ ಮೆ
ಜೊ ತೆಗೆ</w>
ಜೀವ ನಕ್ಕೆ</w>
ಜಗ ತ್ತಿನಲ್ಲಿ</w>
ಜಗ ತ್ತಿ
ಛ ಾಯ
ಚೀನಾ ದಲ್ಲಿ</w>
ಚಿಕಿತ್ಸ ೆಯ</w>
ಚಿಂತ ಾ
ಗೊಳಿಸ ುತ್ತದೆ</w>
ಗೇ ನೂ</w>
ಗೊತ್ತ ಿಲ್ಲ</w>
ಗಾಯಗೊಂಡ ಿದ್ದು</w>
ಗಾಯಗೊಂಡ ಿದ್ದ</w>
ಗಾಯ ಗೊಂಡ
ಗಾಗ ಿರುವ</w>
ಗ ಿರುವ</w>
ಗ ಿದೆ</w>
ಗ ಿಂದ</w>
ಗ ತ್ಯ</w>
ಗ ಡಿ
ಖರೀ ದಿ</w>
ಕ್‌ ನಲ್ಲಿ</w>
ಕ್ಷೇತ್ರ ಗಳ</w>
ಕ್ ‍
ಕ್ ರಿಸ
ಕೋ ಟಿ
ಕೆ ನಡ
ಕಾಲ ಕ್ಕೆ</w>
ಕಾರಣ ವಾಗಿತ್ತು</w>
ಕರೆಯ ಲಾಗುತ್ತದೆ</w>
ಕನ ಾಗಿ</w>
ಕಣ್ಣ ೀ
ಕಡಿಮ ೆಯಾಗಿದೆ</w>
ಕಂಡು ಹಿಡಿಯ
ಕ ಸ್ಟ
ಕ ನಿಗೆ</w>
ಓ ಡಿ</w>
ಒತ್ತಾಯ ಿಸಿದರು</w>
ಏ ರ್‌
ಏ ರ
ಏ ನೆಂದು</w>
ಎಲ್ಲ ಿಂದ</w>
ಎ ನ್‌</w>
ಎ ಚ್‌
ಇವರಿಬ್ಬ ರು</w>
ಇರಾ ನಿ</w>
ಇಬ್ರ ಿಯ</w>
ಇದ ್ರ
ಇತಿಹಾಸ ದಲ್ಲಿ</w>
ಇಂಡ ೀಸ್</w>
ಆಯ್ಕ ೆಯಾಗ
ಆಯ ್ದ
ಆಪ ಲ್</w>
ಆಗ ುತ್ತಿಲ್ಲ</w>
ಆ ಶ
ಆ ವೃತ್ತ
ಆ ಪ್ತ</w>
ಆ ತನಿ
ಅವಕಾಶ ವಿದೆ</w>
ಅವ ಘ
ಅಮೆರಿಕ ದಲ್ಲಿ</w>
ಅಮೆ ರಿ
ಅಫ್ ಘಾನಿಸ್
ಅಪೇ ಕ್ಷ
ಅನುಷ್ಠ ಾನ
ಅನಿ ವಾರ್ಯ</w>
ಅಧ್ಯಕ್ಷ ರಾಗಿ</w>
ಅತ್ಯಾ ಚಾರ
ಅಗ್ ರ</w>
ಅಗತ್ಯ ವಿರ
ಂಬ ು
ಂದ್ರ ಾ</w>
6 0
5 5</w>
3 :
2 :1
2 8
2 1
್ ತಿದೆ</w>
ೇ ನೋ</w>
ೆ ಗಳ
ುವ ೇ</w>
ುತ್ತಿದ್ದ ೆವು</w>
ುತ್ತಿದ್ದ ಾನೆ</w>
ಿಸಿಕೊಂಡ ರು</w>
ಿಸಲಾಗ ಿದ್ದು</w>
ಿತ ರು</w>
ಿ ಂದಲೇ</w>
ಾಪ ಕ</w>
ಾಗ ಿರುವ</w>
ಾಗ ಬೇಕು</w>
ಹೊರ ಹೊಮ್ಮ
ಹೊಡೆ ದು</w>
ಹೇಳ ಲಾಗುತ್ತಿದೆ</w>
ಹೇ ರ
ಹೆಚ್ಚ ಾಗಿದೆ</w>
ಹೀ ನಾಯ</w>
ಹಾ ಳಾಗ
ಹಣ್ಣ ುಗಳು</w>
ಹ ಿಸಿ</w>
ಸುಳಿ ವು</w>
ಸುತ್ತ ಮುತ್ತ
ಸು ಗ
ಸಿಬಿ ಐಗೆ</w>
ಸಾರ ್</w>
ಸಾಮರ್ಥ ್ಯವನ್ನು</w>
ಸಾಂ ಪ್ರದಾಯ
ಸರಿಯ ಲ್ಲ</w>
ಸರಕಾರ ಕ್ಕೆ</w>
ಸರ ಕು</w>
ಸಮ ಗ್ರ</w>
ಸದ್ಯ ದ</w>
ಸಂತ ೃ
ಸಂ ಕೀರ್
ಶುಭಾಶಯ ಗಳು</w>
ಶಸ್ತ್ರ ಚಿಕಿತ್ಸೆ</w>
ಶ ಬ್
ವೇ ನಲ್ಲ</w>
ವೇ ಣ
ವೇ ಳೆ</w>
ವೆ ಸ್ಟ್</w>
ವೆ ಂಕ
ವು ಳ್ಳ</w>
ವಿಷಯ ದ</w>
ವಿಷ ಾದ
ವಿಶೇ ಷವಾಗಿ</w>
ವಿರುದ್ಧ ವಾಗಿ</w>
ವಿಪರೀ ತ</w>
ವಿಧಾನ ಗಳು</w>
ವಾಗ ಿರುವ
ವಾಕ್ಯ ವನ್ನು</w>
ವಾ ಸ</w>
ವರದ ಿಯಾಗಿಲ್ಲ</w>
ವರ ೊಂದಿಗೆ</w>
ವರ ದಿ
ವಕ್ ತಾರ</w>
ಲೋ ಕ</w>
ಲ ಕ್
ರೂ ಢ
ರಿಯ ಲ್</w>
ರಾ ವ್</w>
ರ ಸ
ರ ಂಗ</w>
ಯೆರೂಸಲೇ ಮಿ
ಯುದ್ಧ ದ</w>
ಮೆಣ ಸಿನ
ಮು ಂಭಾಗ
ಮಿ ಾ
ಮಾತಾಡ ಲು</w>
ಮಾಡ ೋಣ</w>
ಮಾಡ ಲಿದೆ</w>
ಮಾ ಯಾವತಿ</w>
ಮಹಿಳ ೆಯನ್ನು</w>
ಮನೆಯ ವರು</w>
ಮನಸ್ಸಿ ನಲ್ಲಿ</w>
ಮನಸ್ ಸ
ಮ ಿಯ
ಮ ಲ್ಯ</w>
ಭೇ ರಿ</w>
ಭೂ ಷ
ಬ್ರಿ ಟ
ಬ್ಯಾ ಡ್
ಬೇಕ ಾ</w>
ಬೆನ್ನ ಟ್ಟ
ಬಿಟ್ಟ ರು</w>
ಬಿಜೆಪಿಯ ವರು</w>
ಬಾಲ ಕ</w>
ಬಳ ಿಕ
ಬಳ ಕ
ಬರ ುತ್ತಾರೆ</w>
ಬಂದೋಬ ಸ್ತ
ಬಂಡ ವಾಳ</w>
ಬ ನ</w>
ಬ ಂಗ
ಫೇಸ್‌ ಬು
ಫ ರೆ
ಪ್ರೋತ್ಸಾ ಹಿಸ
ಪ್ರಿಯ ಾಂಕ</w>
ಪ್ರಾ ಮುಖ್ಯ</w>
ಪ್ರಾ ದೇಶ
ಪ್ರಸಂ ಗಿ</w>
ಪ್ರತಿಯೊಬ್ಬ ರೂ</w>
ಪ್ರ ತಿರ
ಪ್ರ ಜ್ಞ
ಪ್ ಲೇ
ಪು ರು
ಪಿ ನಲ್ಲಿ</w>
ಪಾರ್ಟ ಿ</w>
ಪಾತ್ರ ವನ್ನು</w>
ಪಾಕಿಸ್ತಾನ ದಲ್ಲಿ</w>
ಪಾ ದ</w>
ಪಾ ತ
ಪರೀಕ್ಷ ಾ</w>
ಪರಿಣಾ ಮಗಳು</w>
ಪರಾರಿಯಾಗ ಿದ್ದಾನೆ</w>
ಪದಾರ್ಥ ಗಳನ್ನು</w>
ಪತ್ತೆಯಾಗ ಿಲ್ಲ</w>
ಪಡೆದ ಿರುವ</w>
ಪ ಲ್
ನೋಡ ು</w>
ನೋಟ ಿಸ್</w>
ನೆರ ವಾಗುತ್ತದೆ</w>
ನೆರ ವಾಗ
ನಿರಾ ಶ
ನಿಗದಿ ತ</w>
ನಿಖ ರವಾಗಿ</w>
ನಿ ಂದಾಗಿ</w>
ನಾಲ್ ವರ</w>
ನಾಗ ಿದ್ದ</w>
ನಾ ನಿ
ನಡ ೆ</w>
ನಂಬ ುವುದಿಲ್ಲ</w>
ನಂತ ರ
ನ ಂದ</w>
ಧ್ಯ ಾನ
ಧಿಕಾರ ಿಗಳು</w>
ಧ ರಣ
ದ್ಯ ಮ</w>
ದೊಡ್ಡ ದು</w>
ದೇ ವಾಲಯ</w>
ದೃಷ್ಟ ಿಯಿಂದ</w>
ದೂರ ವಿರ
ದುರ ದೃಷ್ಟ
ದು ರಾ
ದಿ ವ
ದಾಯ ಕ</w>
ದಾಖಲಿಸ ಿಕೊಂಡ</w>
ದ ಿದೆ</w>
ದ ವು</w>
ತ್ತ ಂಬರಿ</w>
ತೆ ೂಡ
ತೀರ್ಪ ನ್ನು</w>
ತರ ುತ್ತದೆ</w>
ತಪ್ಪ ಿಸಿಕೊಳ್ಳ
ತಂದ ೆಗೆ</w>
ತ ಿಕವಾಗಿ</w>
ಡಿ ಟ್</w>
ಡಿ ಕ್ಕ
ಟಿ ೕ
ಟಿ ನಲ್ಲಿ</w>
ಜ್ ಞ</w>
ಜಾ ಗ</w>
ಜಯ ಭೇರಿ</w>
ಜಖ ಂಗ
ಜ ುಗ
ಚ್ಚಿ ದ</w>
ಚೀ ನ</w>
ಚರ್ಚ ೆಗೆ</w>
ಚ ರ್</w>
ಚ ರಿ
ಗೊತ್ತ ೇ</w>
ಗೆ ೂೕ
ಗಾರ ರು</w>
ಗಳ ನ್ನ
ಗಡ್ ಡೆ</w>
ಗ ಾ</w>
ಗ ರ</w>
ಖಾ ನ್‌</w>
ಕ್ರ ೂ
ಕ್ರ ಮೇ
ಕೊನೆಯ ುಸಿರೆಳೆ
ಕೊಡ ುತ್ತಾನೆ</w>
ಕೊ ಳ
ಕೈ ಗೆ</w>
ಕೇಳ ಲು</w>
ಕುಡಿಯ ಲು</w>
ಕಾಶ್ಮೀ ರಕ್ಕೆ</w>
ಕಾರ್ಯ ವನ್ನು</w>
ಕಾರ್ಯ ದಲ್ಲಿ</w>
ಕರ ವಾಗಿ</w>
ಕರ ಣದ</w>
ಕ ರಿಂದ</w>
ಕ ರಾವ
ಕ ಮಾ
ಕ ಂಗ
ಓವರ್ ‌
ಒಡ ಂಬ
ಒಂಬ ತ್ತು</w>
ಒ ಡ್ಡ
ಏನೇ ನು</w>
ಏ ಷ್ಯಾ</w>
ಎಂ ಎಂ</w>
ಎ ನ್‍
ಎ ಎ
ಉಪ ಕರಣ
ಉತ್ತಮ ವಾದ</w>
ಉ ದ್ಧ
ಇಲ್ಲ ಿಂದ</w>
ಇದ ೂ</w>
ಇಟ್ಟ ುಕೊಳ್ಳ
ಇಂಗ್ಲಿ ಷ್</w>
ಆಹ್ ವಾನ</w>
ಆರೋಪಿ ಯ</w>
ಆಯ್ಕೆ ಗಳು</w>
ಆಯ್ ತು</w>
ಆಯ್ ಕೆಯನ್ನು</w>
ಆದಿತ್ಯ ನಾಥ್</w>
ಆಗಮ ಿಸಿ</w>
ಅವರ ನ್ನ</w>
ಅಳವಡ ಿಸಲಾಗಿದೆ</w>
ಅಲ್ಪ ಸಂಖ್ಯಾ
ಅಲ ರ್ಟ್</w>
ಅಭ್ಯರ್ಥ ಿಗಳ</w>
ಅಭಿವೃದ್ಧ ಿಗೆ</w>
ಅಭ ಿಯ
ಅಬ್ದು ಲ್ಲಾ</w>
ಅಧಿಕೃ ತವಾಗಿ</w>
ಅದ ರ
ಅಡ ಚ
ಅಂಬ ಾನಿ</w>
ಅಂದಾ ಜು</w>
ಅಂ ಕ</w>
ಅ ರೇ
ಅ ಬ್ಬ
ಂಡ ರಿ</w>
ಂ ನಲ್ಲಿ</w>
6 .
37 0
3 70</w>
ೋ ನೇ
ೇ ಂದ್ರ</w>
ೆಯ ಾದ
ೆ ನ
ುವ ಂಥ
ೀಯ ಾ</w>
ಿಸಲಾಗ ಿಲ್ಲ</w>
ಿಯಾಗ ಿರುವ</w>
ಿದ್ದ ಾನೆಂದು</w>
ಿದ್ದ ಕ್ಕೆ</w>
ಿದ ಂತೆ</w>
ಿಕೊಂಡ ಿಲ್ಲ</w>
ಿಕೊಂಡ ನು</w>
ಿಕ ೆಯಾಗಿದೆ</w>
ಾರ ದ</w>
ಹೋ ಲ
ಹೊಂದ ಿವೆ</w>
ಹೊ ಣೆ
ಹೇಗ ಿದೆ</w>
ಹಿರಿಯ ರು</w>
ಹಿ ಟ್ಟ
ಹಾಡು ಗಳು</w>
ಹಾಕ ುವ</w>
ಹಾ ದಿ</w>
ಹಂಚ ಿಕೊಂಡಿದ್ದಾರೆ</w>
ಹ ಳೆ</w>
ಹ ಬ್ಬ</w>
ಸ್ವ ಭಾವ
ಸ್ಪ ೆ
ಸ್ನಾ ನ</w>
ಸ್ಥಗಿತ ಗೊಳಿಸ
ಸ್ ಫ
ಸೋ ಲಿನ</w>
ಸೊ ಪ್ಪು</w>
ಸೆ ಕ್ಷನ್</w>
ಸೆ ಕೆ
ಸುವಾರ್ ತೆಯನ್ನು</w>
ಸುನಿ ಲ್</w>
ಸಾಗ ುತ್ತಿದೆ</w>
ಸಲಹೆ ಗಾರ</w>
ಸಮೀ ಕ್ಷ
ಸಮಾ ವೇಶ
ಸಂತ ಸ</w>
ಸಂಘಟ ನೆಯ</w>
ಸಂ ಕಷ್ಟ</w>
ಸ ಿಸ್ಟ
ಸ ತ್ಯಾ
ಸ ಜ್
ಶೇ ಷ
ಶೃ ಂಗ
ಶೂ ಟಿಂಗ್</w>
ಶು ಂ
ಶಿ ಶು
ಶಾಶ್ವ ತ</w>
ವೈ ಜ್ಞಾ
ವು ಳ್ಳ
ವಿವರ ಗಳನ್ನು</w>
ವಿಲ್ಲ ದ</w>
ವಿಜಯ ನ್</w>
ವಾರ ದ</w>
ವಾಗಿರ ುತ್ತವೆ</w>
ವಾಗ ುವುದಿಲ್ಲ</w>
ವರ ದಿಗಳು</w>
ವಯಸ್ ಸಿನಲ್ಲಿ</w>
ವಣ ಿ</w>
ವ ್ವ
ವ ಯೋ
ಳ ೆಯ</w>
ಲಾಗ ುವ</w>
ಲಾ ಸ್</w>
ಲಂಡ ನ್</w>
ರಿಸ ಿದ್ದಾರೆ</w>
ರಿ ಗೆ
ರಾಗ ಿರುವ</w>
ರಚ ಿಸಲು</w>
ರ ನ್ನಾಗಿ</w>
ಯೋಗ ್ಯ</w>
ಯು ಪಿಎ</w>
ಯು ತ</w>
ಮೆಣ ಸಿನ</w>
ಮೂಲ ತತ್ತ್ವ
ಮು ರಿಯ
ಮಿ ಂಟ
ಮಹೀ ಂದ್ರಾ</w>
ಮರು ಕಳಿಸ
ಮರಣ ದಂಡ
ಮನುಷ್ಯ ನು</w>
ಮನುಷ್ಯ ನ</w>
ಮಧ್ಯ ಮ</w>
ಮಕ್ಕಳ ೇ</w>
ಮ ೈ</w>
ಭೂಮ ಿಯಲ್ಲಿ</w>
ಭೀ ತಿ</w>
ಭಿ ನ್ನಾ
ಭಿನ್ನಾ ಭಿ
ಭ ಗ
ಬ್ರಿ ಟಿ
ಬ್ಬ ರಿ</w>
ಬೈಬ ಲಿನಲ್ಲಿ</w>
ಬಹುದ ೊಡ್ಡ</w>
ಬಹು ಮಾನ
ಬಲ್ಲ ಿರಿ</w>
ಬಚ್ಚ ನ್</w>
ಬ ದ್ಧ</w>
ಪ್ರೀತ ಿಸುತ್ತ
ಪ್ರೀ ತಿಯು</w>
ಪ್ರಾದೇಶ ಿಕ</w>
ಪ್ರ ಸಿದ್ಧ
ಪೈಪೋ ಟಿ</w>
ಪಾಯಿ ಂಟ್</w>
ಪರಿಣಾಮ ಗಳನ್ನು</w>
ಪರಿಗಣ ಿಸಿ</w>
ಪರಾರ ಿಯಾಗಿದ್ದಾರೆ</w>
ಪತ್ರ ವನ್ನು</w>
ಪಡೆದುಕೊಂಡ ಿದ್ದಾರೆ</w>
ಪಟ್ಟ ಣದಲ್ಲಿ</w>
ಪ ದ</w>
ನೇ ಪಾ
ನಿರ್ಧಾರ ಕ್ಕೆ</w>
ನಿರಾ ಶ್ರ
ನಿ ಲಯ
ನಾವಿ ಬ್ಬರೂ</w>
ನಾಟ ಕ
ನಾ ಲ
ನಡೆದ ಿರುವುದು</w>
ನಂದ ಿನ</w>
ನ ೆಯಾಗಿದೆ</w>
ನ ರ್
ನ ಕ್ಷ
ದೇವೇ ಂದ್ರ</w>
ದು ರ್ಮ
ದು ರು
ದಿನ ದಂದು</w>
ದಾಖ ಲೆ
ದ ೋ</w>
ಥ ೆ
ತ್ ವಾ
ತ್ ನ</w>
ತೆರ ವು
ತೃಪ್ ತಿ</w>
ತು ಸು</w>
ತಿಳಿಸ ಿದ್ದರು</w>
ತಿ ರಿ
ತಲ ಪ
ಡಿಜಿ ಟಲ್</w>
ಡಿಎಂ ಕೆ</w>
ಟ್ವಿ ಟರ್</w>
ಟ ಿಗೆ</w>
ಜೋ ರಾಗಿ</w>
ಚೇ ತರಿಸ
ಚ ಳಿ
ಘ ೋ
ಗೆಲ್ಲ ಲು</w>
ಗೆಲು ವಿಗೆ</w>
ಗೆದ್ದ ುಕೊಂಡ
ಗುಜರಾ ತ್
ಗು ಡ
ಗು ಂಪ
ಗೀ ತೆಗಳು</w>
ಗಾಂಧ ೀ
ಗಾ ಡ
ಗಳ ಂತೆ</w>
ಖಚಿತ ಪಡಿಸ
ಕ್ಷಣ ಿಕ</w>
ಕ್ರಮೇ ಣ</w>
ಕ್ಯಾಲ್ ಸಿಯಂ</w>
ಕ್ಯ ೂ
ಕ್ ಲಿ
ಕೌ ನ್ಸಿ
ಕೆ ರೆ</w>
ಕೆ ಪಿಸಿಸಿ</w>
ಕೂಡ ಲೆ</w>
ಕಾಲೇ ಜ್</w>
ಕಾರ್ಯಕರ್ತ ರ</w>
ಕಾಣ ುತ್ತದೆ</w>
ಕಲ್ಯಾ ಣ</w>
ಕಬ ಳಿಸ
ಕಡಿ ಮೆ
ಕ ಿಯ
ಕ ರೋ
ಕ ಟ್ಟು</w>
ಓ ಡಿ
ಒಣ ಗ
ಒಂದ ೆರಡು</w>
ಏ ಕಾ
ಎಂಬುದ ಕ್ಕೆ</w>
ಎ ಸ್ಯ
ಎ ಲೀ
ಉಚಿತ ವಾಗಿ</w>
ಉ ಷ್
ಉ ಪ್ಪ
ಇನ್ನಿ ತರ</w>
ಇದ ೆಯೇ</w>
ಇಂಡ ೋನೇ
ಇ ರ್
ಇ ತ್ಯ
ಆರೋಪಿ ಗಳಿಗೆ</w>
ಆರಂಭ ವಾಯಿತು</w>
ಆರಂಭ ವಾಗಿದೆ</w>
ಆದ ದರಿಂದ</w>
ಆ ಪ್ತ
ಅಹ್ ಮದ್</w>
ಅವು ಗಳಿಗೆ</w>
ಅವಕಾಶ ವನ್ನು</w>
ಅವ ಧಿ</w>
ಅರ್ಹ ತೆ</w>
ಅರಿ ವು</w>
ಅಮಿತ ಾ
ಅಪೊಸ್ತ ಲ
ಅಪ ರೂಪ
ಅನುಭವ ಿಸ
ಅನು ಗುಣವಾಗಿ</w>
ಅಧಿಕಾರ ಿಗಳಿಗೆ</w>
ಅ ರಿಯ
ಅ ಡಗ
ಅ ಟ್ಟ
ಂದ ರ್</w>
7 .
5 :1
5 .
4 :
3 6</w>
3 3</w>
00 ಕ್ಕೂ</w>
“ ನನ್ನ</w>
ೊಂದ ಿಗ
ೆಯಿ ಂದಲೇ</w>
ೆಯ ಂತೆ</w>
ೆ ಗೆ
ೂ ೕ</w>
ುವುದ ಾದರೂ</w>
ುವ ಷ್ಟು</w>
ುದ್ದ ೀನ್</w>
ುತ್ತ ೇನೆ</w>
ು ಕೊಂಡ
ಿರ ೋ</w>
ಿಯ ೆ</w>
ಿಯ ನ್ನೂ</w>
ಿದೆಯ ೆಂದು</w>
ಿದ ು
ಿಕೊಂಡ ಿತ್ತು</w>
ಿ ಗಳಲ್ಲಿ</w>
ಾರ ೂ</w>
ಾಗ ್</w>
ಾಗ ಿದ್ದ</w>
ಾಗ ಲಿದೆ</w>
ಹೊತ್ತ ಿಗೆ</w>
ಹೊಂದ ಿದ</w>
ಹೆಚ್ಚ ುತ್ತಿದೆ</w>
ಹುತಾತ್ ಮ</w>
ಹೀಗ ೇ</w>
ಹಿ ರ</w>
ಹಿ ಗ್ಗ
ಹಿ ಂಭಾಗ
ಹಸ್ತಾ ಂತ
ಹರಿದ ು</w>
ಹಕ್ಕ ುಗಳ</w>
ಹಂಚ ಿಕೊಳ್ಳ
ಸ್ವಾ ಭಾ
ಸ್ಪ ಿ
ಸ್ಥಾನ ದಲ್ಲಿದ್ದಾರೆ</w>
ಸ್ಥಳ ದಲ್ಲಿಯೇ</w>
ಸ್ಥ ಿರ</w>
ಸ್ ಟ್
ಸ್ ಕ್ರೀ
ಸೌ ಕರ್ಯ
ಸೈತಾನ ನ</w>
ಸೇರ್ ಪಡೆ</w>
ಸೀ ಟು</w>
ಸಿನಿಮಾ ವನ್ನು</w>
ಸಿಗ ುತ್ತಿಲ್ಲ</w>
ಸಿ ಪ್ಪ
ಸಾಧ್ಯವಾದ ಷ್ಟು</w>
ಸಾಧ್ಯವಾಗ ುತ್ತದೆ</w>
ಸಹಾಯ ಮಾಡುತ್ತದೆ</w>
ಸಹ ಕಾರಿ</w>
ಸತ್ಯ ದ</w>
ಸಂಭವ ಿಸಿಲ್ಲ</w>
ಸಂಪರ್ಕ ಿಸಿ</w>
ಸಂ ವಹ
ಸಂ ಭಾಷ
ಸ ಜ್ಜ
ಷಿ ಂಗ್ಟ
ಶಾ ಕ್</w>
ಶತಮಾನ ದಲ್ಲಿ</w>
ವ್ಯವಸ್ಥ ೆಯ</w>
ವೀ ಸಾ</w>
ವಿಸ್ ತರ
ವಿಷಯ ವಾಗಿ</w>
ವಿರುದ್ಧ ವೂ</w>
ವಿಭಾಗ ದ</w>
ವಿದ್ಯಾರ್ಥಿ ನಿಯ
ವಿದ್ಯಾರ್ಥಿ ನಿ</w>
ವಿಂಡ ೋ
ವಿ ಶಾ
ವಾಕ್ಯ ದ</w>
ವಾ ಹಿ
ವಾ ಷಿಂಗ್ಟ
ವಾ ಡ</w>
ವಸ್ತು ಗಳು</w>
ವಶಪಡಿಸ ಿಕೊಂಡಿದ್ದಾರೆ</w>
ವರ್ಷ ಗಳಲ್ಲಿ</w>
ವರಿ ಷ್ಠ
ವ ಿದರು</w>
ವ ಸ್ತ್ರ
ಳಿಯ ಿಂದ</w>
ಳ ಿನ</w>
ಲಕ್ಷ ಕ್ಕೂ</w>
ಲ ವನ್ನು</w>
ರು ಚಿ</w>
ರೀ ತಿಯ</w>
ರಿಯ ಿಂದ</w>
ರಾಜಕೀಯ ಕ್ಕೆ</w>
ರಾಜ ಧಾ
ರಸ್ತ ೆಯಲ್ಲಿ</w>
ರಷ್ಯಾ ದ</w>
ರ ೊಬ್ಬರು</w>
ರ ಾಗಿದೆ</w>
ಯೋಸೇ ಫ
ಯ ುಗ
ಮೆ ಹ
ಮೆ ರ
ಮೆ ಮೊ
ಮೃತಪಟ್ಟ ಿದ್ದರು</w>
ಮುನ್ನಡೆ ಸ
ಮುಕ್ತ ಾಯ
ಮು ಹಮ್ಮದ್</w>
ಮು ಗ್ಗ
ಮೀ ಯ
ಮಿತ ವಾಗಿ</w>
ಮಿ ಷನ್</w>
ಮಾಲಿ ನ್ಯ</w>
ಮಾಡಿಕೊಳ್ಳ ಬೇಕು</w>
ಮಾಡ ುವುದನ್ನು</w>
ಮಾಡ ಿರಿ</w>
ಮಾಡ ಿಕೊಳ್ಳ
ಮಹ ಾನ್</w>
ಮನ ಮೋಹನ್</w>
ಮತ ಗಳು</w>
ಮ ಿಕ್</w>
ಮ ಗ</w>
ಭೂಮ ಿಯನ್ನು</w>
ಭವಿಷ್ಯ ದಲ್ಲಿ</w>
ಭ ರ್
ಭ ಂಗ</w>
ಬೇಕ ೇ</w>
ಬೇಕ ೆ</w>
ಬೆಂಗಳೂ ರಿನ</w>
ಬೆ ಳೆ</w>
ಬಿಟ್ಟು ಬಿಡ
ಬಿಟ್ಟ ರೆ</w>
ಬಿಕ್ಕ ಟ್ಟು</w>
ಬಾಂಗ್ ಲಾ</w>
ಬಾ ಹಿರ</w>
ಬಳಸ ಲು</w>
ಬಲ್ಲ ವು</w>
ಬರೆ ದ</w>
ಬಂದೋಬಸ್ತ ್</w>
ಬಂದ ಿರಲಿಲ್ಲ</w>
ಬ ಿಯಾ</w>
ಬ ಡ್ಡಿ</w>
ಫೈನ ಲ್‌ಗೆ</w>
ಫೇಸ್ ಬುಕ್</w>
ಫ ‌
ಪ್ರೋ ಟೀ
ಪ್ರತ್ಯ ಕ್ಷ
ಪ್ರತಿ ಷ್ಠ
ಪ್ರಗ ತಿಯಲ್ಲಿದೆ</w>
ಪ್ಯಾ ಕೇ
ಪೌಲ ನ</w>
ಪೆ Ç
ಪೂ ರ
ಪುರುಷ ರ</w>
ಪುನ ರ್
ಪು ತ್ರಿಯ
ಪಾಕಿಸ್ ಥ
ಪಾ ದಿ</w>
ಪಾ ತ</w>
ಪರಿಶೀಲ ಿಸಿ</w>
ಪರಿಗಣ ಿಸಿರಿ</w>
ಪರ ಂಪ
ಪಡು ಕೋಣೆ</w>
ಪಡಿಸ ಬೇಕು</w>
ಪಟ್ಟ ೆ</w>
ಪ ತನ
ನ್‍ ನ</w>
ನ್ ಸ್‌
ನೋ ಡ
ನೆಯ ದು</w>
ನೀಡ ಿದ್ದು</w>
ನಿಲ ುವು</w>
ನಿಧನ ರಾದರು</w>
ನಿಧ ಿ</w>
ನಿಜ ವಾಗಿ</w>
ನಿ ಷ
ನಿ ವಾಸ
ನಿ ರೋ
ನಿ ಮ್ಮಿ
ನಾವೆ ಲ್ಲ</w>
ನಾಗ ಿದ್ದನು</w>
ನಲ್ಲ ಿಯೇ</w>
ನಲ್ಲ ಿದೆ</w>
ನಂಬಿಕ ೆಯನ್ನು</w>
ನ ಮ್ಮೆ
ಧಾ ನ್ಯ
ದ್ವಿ ಚಕ್ರ</w>
ದೇವ ಸ್ಥಾನ</w>
ದೃಷ್ಟ ಿಯಲ್ಲಿ</w>
ದೂರ ವಿ
ದೂ ಷ
ದು ರುಪ
ದಿ ಲ್ಲ
ದಿ ಗ್
ಥ ಿಯ
ಥ ಾಮ
ತ್ಯ ದ</w>
ತ್ ಮ</w>
ತೊ ಡ
ತೂ ರಾ
ತು ಪ್ಪ</w>
ತು ಂಬಿ
ತೀ ರಿಸ
ತಿಳಿ ವಳ
ತಿಯ ೂ</w>
ತಿಯ ಾಗಿ</w>
ತಾರ ತ
ತಮಿಳುನಾ ಡಿನಲ್ಲಿ</w>
ತಪಾಸ ಣೆ</w>
ತಂದ ೆ
ತಂದ ಿದೆ</w>
ತ ಯಾರು</w>
ಣೆ ಗಾಗಿ</w>
ಠಾಕೂ ರ್</w>
ಠ ೇ
ಟ್ರ ೈ
ಟಿ ಂಗ್‌</w>
ಟ ದಲ್ಲಿ</w>
ಜ್ಯ ೋ
ಜಿಸ್ಟ ್ರ
ಜ ನ</w>
ಚೊ ಚ್ಚ
ಚೇ ತ
ಚೆ ಗ
ಚಿಂತಾ ಜನ
ಚಿಂತ ನೆ</w>
ಗೊಳಿಸ ು</w>
ಗೊಂಡ ಿದ್ದಾರೆ</w>
ಗೆದ್ದ ಿದೆ</w>
ಗು ಣ</w>
ಗು ಡುಗ
ಗು ಟ್ಟ
ಗಾಯಗೊಂಡ ವರನ್ನು</w>
ಗಳಿ ಂದಾಗಿ</w>
ಗಳಲ್ಲ ೇ</w>
ಗಂಟ ೆಗೆ</w>
ಗ ೇ</w>
ಗ ಿರಿ</w>
ಗ ರ್ಭ
ಕ್ರಿ ಯಾ
ಕ್ಯಾ ಪ್ಟ
ಕೋವಿ ಂದ್</w>
ಕೋಲ್ ಕ
ಕೋ ಶ</w>
ಕೊ ನೆ</w>
ಕೊ ಡಿ</w>
ಕೊ ಠ
ಕೆಲವೆ ಡೆ</w>
ಕೂ ಲಿ</w>
ಕು ಗಳು</w>
ಕೀರ್ ತ</w>
ಕಿ ನಲ್ಲಿ</w>
ಕಾಶ್ಮೀ ರ
ಕಾರ್ಯಕರ್ತ ರನ್ನು</w>
ಕಾರ್ಯ ಕರ್
ಕಾರಣ ವಾಗಬಹುದು</w>
ಕಾರಣ ಕ್ಕೂ</w>
ಕಲಾ ವಿದರು</w>
ಕರ್ತ ವ್ಯ</w>
ಕಡ್ಡ ಾಯ</w>
ಕಟ್ಟ ಿ</w>
ಕಂಡು ಬಂದಿದೆ</w>
ಕಂ ಪ</w>
ಕ ವು</w>
ಐ ವರನ್ನು</w>
ಎಲ್ಲ ೆಡೆ</w>
ಎತ್ತ ರ
ಎಂದ ಿದ್ದರು</w>
ಎಂ ಸಿ</w>
ಎಂ ಪಿ</w>
ಎ ಲ್‌
ಎ ಐಸಿಸಿ</w>
ಊ ಹಿಸ
ಉಳಿದ ವರು</w>
ಈ ತನನ್ನು</w>
ಇವರಿಬ್ಬ ರೂ</w>
ಇದ್ದ ು</w>
ಇದ್ದ ಾನೆ</w>
ಇತಿಹಾಸ ವನ್ನು</w>
ಇ ಮ್ರಾನ್</w>
ಆಶೀರ್ ವದ
ಆರಂಭ ವಾಗಲಿದೆ</w>
ಆಟಗಾರ ರು</w>
ಆಗ ಾಗ್ಗೆ</w>
ಆಂಡ್ರಾಯ್ ಡ್</w>
ಆ ಲಿಸ
ಅವರ ೊಬ್ಬ</w>
ಅವ ಳಿ
ಅರ್ ಜು
ಅಮ್ಮ ನ</w>
ಅಭ್ಯರ್ಥ ಿಯಾಗಿ</w>
ಅಭಿ ವೃದ್ದ
ಅನ್ನ ೋ</w>
ಅಧಿಕಾರ ಿ
ಅದ ೇನು</w>
ಅದ ರಲ್ಲ
ಅ ಸಾಧ್ಯ</w>
ಅ ನ್ಯಾಯ
ಅ ಕ್ಟ
ಂದಿ ರು</w>
5 ,
4 9
4 4</w>
‘ ನನ್ನ</w>
ೌ ಟ್</w>
ೊ ಡ್ಡ
ೆಯ ಡಿ</w>
ೂ ರ್</w>
ುವೇ ಲ</w>
ುವಂತ ಾಗಿದೆ</w>
ುದ ೂ</w>
ುತ್ತ ಿಗೆ</w>
ುಗ ೂಡ
ೀ ನಿ</w>
ಿಸುವ ಂಥ</w>
ಿಸಿದ ಳು</w>
ಿಸ ಬೇಕಾಗಿದೆ</w>
ಿರ ುತ್ತಾನೆ</w>
ಿಯಾಗ ಿದ್ದರು</w>
ಿಯ ಾದರು</w>
ಿಕೊಂಡ ೆ</w>
ಿ ಳಿಸ
ಾನ ೋ</w>
ಹೋಗ ಿಲ್ಲ</w>
ಹೊಸದ ಾಗಿ</w>
ಹೇಳ ುವುದ
ಹೇಳ ು</w>
ಹೇ ರಳ
ಹೊಂದ ಿವೆ</w>
ಹೆದ್ದಾರ ಿಯಲ್ಲಿ</w>
ಹೆಚ್ಚಿ ನ
ಹೆಚ್ಚ ಿಸುತ್ತದೆ</w>
ಹೆಚ್ಚ ಿದೆ</w>
ಹುಡು ಕಿ</w>
ಹೀಗ ೆಯೇ</w>
ಹಿಂಬಾ ಲ
ಹಾಜ ರು</w>
ಹಾಗ ಲ್ಲ</w>
ಹಸಿ ವು</w>
ಹಚ್ಚ ಿ</w>
ಹ ಸ
ಹ ಳ್ಳಿ</w>
ಹ ರೆಯ
ಸ್ವ ತಂತ್ರ
ಸ್ಪರ್ಧ ೆಯಲ್ಲಿ</w>
ಸ್ಥಳ ದಿಂದ</w>
ಸ್ತು ತ
ಸ್ ತ್ರ</w>
ಸೌ ತೆ
ಸೇರ್ ಪಡ
ಸೂಕ್ತ ವಾದ</w>
ಸುವ ್ಯವಸ್ಥ
ಸುಬ್ರ ಮಣ
ಸಿದ್ ಧಾ
ಸಿಗ ುವುದಿಲ್ಲ</w>
ಸಿಗ ುವ</w>
ಸಾಹ ಸ</w>
ಸಾಧ ಿಸಿತು</w>
ಸಾಕ್ಷ ್ಯ
ಸಾಕ ಾಗ
ಸಾಂಪ್ರದಾಯ ಿಕ</w>
ಸಾ ಸಿವೆ</w>
ಸರಾ ಸರಿ</w>
ಸದ ೃ
ಸಚಿ ವರಾಗ
ಸಂಭ್ರ ಮ
ಸಂಭವ ಿಸ
ಸಂಬಂಧ ಪಟ್ಟ</w>
ಸಂ ವಾದ</w>
ಸ ಾರಿ</w>
ಷ ೆ</w>
ಷ ನ್‌</w>
ಶಿಕ್ಷ ಕ</w>
ಶವ ವನ್ನು</w>
ಶ ಿರ
ವಿಳ ಾ
ವಿದ್ಯು ತ್‌</w>
ವಿ ಲ್ಲದೆ</w>
ವರ್ಗಾ ವಣೆ</w>
ವ ಷ್ಟೇ</w>
ವ ರಿಗೂ</w>
ವ ರಿಗಾಗಿ</w>
ವ ಂತ</w>
ಲ್ಲ ರು</w>
ಲ್ ಟ್</w>
ಲೀ ನ</w>
ಲಿನ ಬುರು
ಲಭ್ಯ ವಾಗಿಲ್ಲ</w>
ಲ ಿಕ್</w>
ರೋಗ ಿಗಳು</w>
ರುಚ ಿಗೆ</w>
ರು ಬ್ಬ
ರಿಯಾ ಯ
ರಾಜ್ಯ ಸಭಾ</w>
ರವಾನ ಿಸಲಾಗಿದೆ</w>
ರಚ ನೆಗೆ</w>
ಯಶಸ್ ವಿ
ಮ್ಮ ಿ</w>
ಮೋದಿಯ ವರು</w>
ಮೊ ಳ
ಮೊ ಮ್ಮ
ಮೊ ತ್ತ</w>
ಮೇಲ್ ವಿಚಾರ
ಮೇಲ ೆಯೂ</w>
ಮೇ ಲ್</w>
ಮೂಲಕ ವೇ</w>
ಮುರಿದ ು</w>
ಮುಖ್ಯಮಂತ್ರಿಯ ಾಗಿ</w>
ಮುಂದ ಾಗಿದೆ</w>
ಮುಂಜಾಗ್ರ ತಾ</w>
ಮು ಫ್
ಮು ಕ್ತ</w>
ಮಿ ಲಿ</w>
ಮಾಧ್ಯ ಮಗಳು</w>
ಮಾಡ ಿವೆ</w>
ಮಾಡ ಬೇಕೆಂದು</w>
ಮಹಾರಾಷ್ಟ್ರ ದ</w>
ಮರಾ ಠಿ</w>
ಮಧ್ಯಾಹ್ ನ</w>
ಮಧುಮೇ ಹ</w>
ಮಗ ನಾದ</w>
ಮ ರ್
ಮ ಗಳ
ಭಾರತೀಯ ರು</w>
ಭರವಸ ೆಯನ್ನು</w>
ಭ ಕ್ಷ
ಬ್ರಿ ಟನ್</w>
ಬ್ಯಾಡ್ ಮಿಂಟ
ಬೌ ಲರ್</w>
ಬೈಬ ಲು</w>
ಬೇಕ ೋ</w>
ಬೇ ಕ
ಬಿರು ಕು</w>
ಬಿಜೆಪ ಿಯು</w>
ಬಾರ ್</w>
ಬಾ ಕ್ಸ್</w>
ಬಳಸ ಬಹುದು</w>
ಬರ ಹ
ಬಂಧ ಿಸಿಲ್ಲ</w>
ಬಂದ ಿದ್ದು</w>
ಬಂದ ವು</w>
ಬ ೈ</w>
ಬ ಗೆ</w>
ಫೋ ನ್‌
ಫಲಿತಾಂಶ ಗಳು</w>
ಫ ಡ್
ಪ್ರೇ ಮ</w>
ಪ್ರಾಯ ೋಗ
ಪ್ರಮಾಣ ವನ್ನು</w>
ಪ್ರತ್ಯೇ ಕ
ಪ್ರತಿ ಪಾದ
ಪ್ರ ಯೋಗ
ಪ್ ​</w>
ಪೈ ಸೆ</w>
ಪೂರ್ವ ನಿಯೋಜಿತ</w>
ಪು ರದ</w>
ಪು ಣ
ಪದ ವನ್ನು</w>
ಪಡೆ ದು
ಪಂದ್ಯ ಗಳನ್ನು</w>
ಪ ುದ
ಪ ರಾಮ
ನೆ ’</w>
ನೆ ಹ
ನೆ ರೆಯ
ನೀಡ ುತ್ತಾರೆ</w>
ನಿರ್ ವಾಹಕ</w>
ನಿರ್ ಗಮ
ನಿರೀಕ್ಷ ೆಯನ್ನು</w>
ನಿಯಾ ದ</w>
ನಿಯಂತ್ರ ಣ
ನಿಭಾಯ ಿಸಲು</w>
ನಿ ನಗ
ನಾಯ ಕರ</w>
ನಾಡ ು</w>
ನಡೆಸ ಿದೆ</w>
ನಡೆದ ವು</w>
ನಡೆ ದಿವೆ</w>
ನಂಬ ರ್</w>
ನ ದಿಂದ</w>
ದೌರ್ಜ ನ್ಯ
ದೂರ ವಾಣಿ</w>
ದು ಡಿಯ
ದಾಖ ಲ
ದಲ್ಲ ಿರ
ದಲ್ಲ ಿಟ್ಟ
ದ ಿರ
ತ್ಯ ಜ
ತೋರಿಸ ು</w>
ತೋರಿಸ ಿದ</w>
ತೊಡಗ ಿದರು</w>
ತು ಂಡು
ತೀವ್ರ ತೆ</w>
ತಿಳಿಯ ಲು</w>
ತಿನ್ನ ಲು</w>
ತಿ ಥ
ತಾತ್ ಕಾಲಿಕ</w>
ತಕ್ಕ ದ್ದು</w>
ತ ಮಾ
ತ ನದ</w>
ತ ಗ
ಡ್ ​</w>
ಡಾ ಕ್ಟ
ಡ ಾಯ
ಟ್ರ ೇಲ
ಟಿ ನ್</w>
ಟಿ 20</w>
ಜ್ ‌
ಜೈ ಲು</w>
ಜೀ ವಿ</w>
ಜಾ ಹೀ
ಜನ ಸಾಮಾನ್ಯ
ಜ ತೆ
ಚ್ಚಿ ನ</w>
ಗೊಳ್ಳ ಲಿದೆ</w>
ಗೊಳಿಸ ುವುದು</w>
ಗೊಂಡ ಿಲ್ಲ</w>
ಗೆಲು ವಿನ</w>
ಗೆದ್ದ ಿತ್ತು</w>
ಗಿ ೕ
ಗಾ ತ್ರ</w>
ಗಳ ಿಸಿದ</w>
ಗಮನ ವನ್ನು</w>
ಗಮನ ಕ್ಕೆ</w>
ಗ ರು</w>
ಖರ್ ಚ
ಖ ಂಡ್</w>
ಕ್ಷೇತ್ರ ಕ್ಕೆ</w>
ಕೊಡ ಲಿಲ್ಲ</w>
ಕೊಡ ಬೇಕು</w>
ಕೊ ತ್ತಂಬರಿ</w>
ಕೊ ಚ್ಚ
ಕೇಳ ಿಕೊಳ್ಳ
ಕೆಲಸ ಗಳನ್ನು</w>
ಕೆಲ ವರ</w>
ಕೆರ ಳಿಸ
ಕೃ ತ</w>
ಕು ಣ
ಕಿ ಡಿ</w>
ಕಾವ ಲಿನಬುರು
ಕಾಲೇ ಜಿನ</w>
ಕಾರ್ ಖ
ಕಾಪಾಡ ಿಕೊಳ್ಳ
ಕಾಣ ುತ್ತಿಲ್ಲ</w>
ಕಳುಹಿಸ ಲಾಗಿದೆ</w>
ಕರ್ತ ವ್ಯ
ಕರೆ ಸ
ಕರಾವ ಳಿ</w>
ಕತ್ತ ಾ</w>
ಕಟ್ಟಡ ದ</w>
ಕಟ್ಟಡ ಗಳು</w>
ಕಂಡು ಬಂದಿಲ್ಲ</w>
ಕ ಿಯ</w>
ಕ ಲ್</w>
ಕ ಕ್ಕೆ</w>
ಓ ವರ್</w>
ಒಬ್ಬ ನು</w>
ಐ ಗುಪ್ತ
ಏನಾಯ ಿತು</w>
ಎಚ್ಚ ರ</w>
ಎಕ್ ಸ್‌
ಎ ಲ್‌</w>
ಎ ಬ್ಬ
ಉಸಿರ ಾಟ
ಉಲ್ಲಂಘ ನೆ</w>
ಉಪ ನ್ಯಾ
ಉದ್ ಭವ
ಉ ಳ್ಳ
ಈಡೇ ರಿಸ
ಈ ಗಿನ</w>
ಈ ಕೆ</w>
ಇರ ುವಂತೆ</w>
ಇನ್ನ ೊಬ್ಬ</w>
ಇದ ೆಲ್ಲವೂ</w>
ಇತ್ಯ ರ್ಥ
ಇಂಟ ರ್‌
ಆರ್ ‍
ಆರಂಭ ವಾಗುತ್ತದೆ</w>
ಆರಂಭ ದ</w>
ಆಧಾರ ಿತ</w>
ಆಗ ಿರಬಹುದು</w>
ಅಸ್ ಸಾ
ಅವು ಗಳು</w>
ಅವ ಮಾನ
ಅಲ್ಲ ಿಯೇ</w>
ಅಮೇ ರಿಕ
ಅಮಿ ತ್‌</w>
ಅಭಿವೃದ್ಧ ಿ
ಅಧ್ಯಕ್ಷ ರು</w>
ಅಗತ್ಯವ ಿದ್ದರೆ</w>
ಅಗತ್ಯ ವಿರುವ</w>
ಅಕ್ಟ ೋಬ
ಅ ಶ್ರ
ಅ ಪ್‌
ಂಟ ಿಯಾಗಿ</w>
ಂ ಟ್ಸ್</w>
8 0
3 8</w>
3 .
20 20
⁠ ರಲ್ಲಿ</w>
ೋ ಪ</w>
ೊಬ್ಬ ನು</w>
ೊಂದ ೇ</w>
ೊಂದ ಿಗೂ</w>
ೋ ಷ
ೋ ಗ
ೆಯಿ ಂದಾಗಿ</w>
ೆಯಾಗ ಿವೆ</w>
ೆಯಾಗ ಬೇಕು</w>
ೂ ಢ</w>
ುವಿ ಕ
ುವ ೆವು</w>
ುತ್ತ ಿರುವಾಗ</w>
ುಂಟ ು
ು ಕೊಂಡ</w>
ೀ ತು</w>
ಿಸಿಕೊಳ್ಳ ಿ</w>
ಿಸ ಿದ್ದೆ</w>
ಿರುವುದ ೇ</w>
ಿದ್ದ ಾ
ಿಕೊಳ್ಳ ಲು</w>
ಿ ಲ
ಾಗ ಲೀ</w>
ಹೋ ದಾಗ</w>
ಹೋ ಂಡಾ</w>
ಹೊರತು ಪಡಿಸಿ</w>
ಹೊರ ಬಿದ್ದ
ಹೊಡೆ ದುರು
ಹೊಡೆದುರು ಳಿಸ
ಹೊ ಳೆಯ
ಹೇಳ ಬೇಕು</w>
ಹೋ ಗಿ</w>
ಹೆಜ್ ಜೆ
ಹೃದಯಾಘಾತ ದಿಂದ</w>
ಹಿ ಮಾ
ಹಾ ಸನ್</w>
ಹಾ ಲಿ</w>
ಹಸ್ತ ಕ್ಷೇ
ಹದಗೆ ಟ್ಟ
ಹತ್ಯ ೆಗೈ
ಸ್ವಚ್ಛ ಗೊಳಿಸ
ಸ್ಮಾರ್ಟ ್
ಸ್ಮಾರ ್ಟ್</w>
ಸ್ಫೋಟ ದ</w>
ಸ್ಪಷ್ಟ ನೆ</w>
ಸ್ಥಳ ಕ್ಕಾಗ
ಸ್ಥಳಕ್ಕಾಗ ಮ
ಸ್ಟ ್ಯಾ
ಸ್ಟ ಿಕ್</w>
ಸ್ ಟ್‌
ಸೋ ಸಿಯ
ಸೆ ಳೆಯ
ಸುಲ ಭವ
ಸುಲಭವ ಲ್ಲ</w>
ಸುರೇ ಶ್</w>
ಸಿ ನ್
ಸಾಮ ಗ್ರ
ಸಾಬೀ ತ
ಸಾಧಾರ ಣ</w>
ಸಾಧ ಿಸಲು</w>
ಸಹಾಯ ಕ್ಕಾಗಿ</w>
ಸಲ್ಲ ಿಸ
ಸರ್ಕಾರ ವೇ</w>
ಸಮ್ಮ ತ
ಸಮಾಜ ದಲ್ಲಿ</w>
ಸಮ ುವೇಲ</w>
ಸಂಭವ ಿಸಿದ</w>
ಸಂಬಂಧ ವಿಲ್ಲ</w>
ಸಂದ ೇ
ಸಂತೋಷ ದಿಂದ</w>
ಸಂಕೇ ತ</w>
ಸಂ ಯೋಜ
ಸ ಮ್ಮಿ
ಸ ಫಲ
ಸ ನ್ನ
ಸ ದ್ದು</w>
ಸ ತ್ತ</w>
ಸ ಕ್ರಿ
ಸಕ್ರಿ ಯ</w>
ಶ್ರ ಮ</w>
ಶ್ ವಾಸ
ಶೈ ಲಿ</w>
ಶೈ ಲ
ಶು ರು
ಶೀಘ್ರ ದಲ್ಲಿ</w>
ಶಿಕ್ಷ ಣ
ಶಿಕ್ಷ ಕರ</w>
ಶ ು</w>
ವ್ಯಾಪ್ ತಿಯಲ್ಲಿ</w>
ವ್ಯಕ್ತಿ ಗಳ</w>
ವ್ಯಕ್ ತಿಗೆ</w>
ವ್ಯ ಭಿ
ವ್ಯ ಂಗ
ವೈ ವಿಧ್ಯ
ವೇಣ ುಗೋ
ವೈ ಶಿಷ್ಟ್ಯ
ವಿಧ ಾ
ವಿ ನೋ
ವಿ ಚಿತ್ರ</w>
ವಾಹನ ಗಳಿಗೆ</w>
ವಾರ ದಲ್ಲಿ</w>
ವಾಟ್ ಸಾ
ವಾಗ ಿದ್ದವು</w>
ವರ ಲ್ಲ</w>
ವದ ಂತ
ವ ನೂ</w>
ಲ್ಲ ಿರುವ</w>
ಲ್ಪಟ್ಟ ಿದೆ</w>
ಲೈ ಟ್</w>
ಲೆ ಕ್ಕಾ
ಲ ರ್‌</w>
ರ್ ಷ</w>
ರುಪ ಾಯಿ</w>
ರು ಚಿಕ
ರಿ ತವಾಗಿ</w>
ರಾಜ್ಯ ಸಭೆಯಲ್ಲಿ</w>
ರಾಜ್ಯ ಗಳು</w>
ರಾ ತ್ರಿ
ರ ಫೇ
ಯೋಧ ರ</w>
ಯೆಹೋವ ನೇ</w>
ಯುವ ತಿಯ</w>
ಯಾರ ೋ</w>
ಯಾ ತ್ರ
ಯಶಸ್ವಿಯ ಾಗ
ಯಥ ಾರ್ಥ
ಮೊದಲ ನೇ</w>
ಮೆ ಕ್ಸ
ಮುಫ್ ತಿ</w>
ಮುನ್ನೆಚ್ಚ ರಿಕೆ</w>
ಮುಗ ಿದ</w>
ಮುಂತ ಿಳಿಸ
ಮುಂತ ಾದ
ಮುಂಗ ಟ್ಟ
ಮು ಜುಗ
ಮಿ ನ
ಮಾರ ಿ</w>
ಮಾಧ್ಯಮ ಗಳ</w>
ಮಾತನಾ ಡಿ</w>
ಮಾಡುವುದ ರಿಂದ</w>
ಮಾಡುತ್ತ ಿದ್ದೇವೆ</w>
ಮಾಡಿದ ಾಗ</w>
ಮಾಡಿಕೊಂಡ ರು</w>
ಮಾಡ ಲ್ಲ</w>
ಮಾ ಲ
ಮಸೀ ದಿ</w>
ಮನ ವಿಯನ್ನು</w>
ಮಧ್ಯ ಸ್ಥ
ಮದುವ ೆಯ</w>
ಮಂಗಳ ೂರು</w>
ಮ ೆಯನ್ನು</w>
ಮ ಸ್</w>
ಮ ಡ
ಮ ಗಳನ್ನು</w>
ಭೇ ಟಿ
ಭುವನೇ ಶ್ವರ್</w>
ಭಾವ ನೆಗಳನ್ನು</w>
ಭಾಗ ್ಯ</w>
ಭ ರ
ಭ ಯ</w>
ಬ್ ಲಾಕ್</w>
ಬೇಡ ಿರಿ</w>
ಬೇಕ ಿರುವ</w>
ಬೆಳವಣ ಿಗೆ
ಬೆನ್ನ ಲ್ಲೇ</w>
ಬೆ ಲ್</w>
ಬೀಸ ಿದ್ದಾರೆ</w>
ಬೀಳ ುವ</w>
ಬಾ ಕ್
ಬಹು ಪಾಲು</w>
ಬಳಸ ಲಾಗುತ್ತದೆ</w>
ಬಲ ವಂತ
ಬರ ುತ್ತಿತ್ತು</w>
ಬರ ಬೇಕು</w>
ಬ ್ಯೂ
ಬ ೆ</w>
ಬ ಲು</w>
ಫಲ ಕಾರಿಯಾಗ
ಫ ಲ</w>
ಪ್ರೀ ತಿ</w>
ಪ್ರಾಣಾಪಾಯ ದಿಂದ</w>
ಪ್ರವಾ ಸೋ
ಪ್ರಮಾಣ ಪತ್ರ</w>
ಪ್ರ ದೇಶ
ಪ್ಯ ಾನ್</w>
ಪೂರ್ವ ಕ</w>
ಪುರು ಷ</w>
ಪುನರುತ್ಥ ಾನ
ಪುತ್ರ ರು</w>
ಪಾಲ ುದಾರ
ಪಾತ್ರ ಗಳಲ್ಲಿ</w>
ಪರೀಕ್ಷ ೆಯಲ್ಲಿ</w>
ಪರಿಣಾಮ ಕಾರ
ಪಡೆದ ಿದ್ದರು</w>
ಪಡೆ ಗಳು</w>
ಪಕ್ಷ ೀಯ</w>
ಪಕ್ಕ ದ</w>
ಪಂಚಾಯ ತ್</w>
ಪ ಾನ್</w>
ಪ ದೇಶ
ಪ ಣ
ನ್ ​
ನ್ ಸಿ</w>
ನೋಡ ಬಹುದು</w>
ನೋ ಟು
ನೆ ಲದ</w>
ನೃ ತ್ಯ</w>
ನಿರ್ ಬಂಧ</w>
ನಿಮ ಗೂ</w>
ನಿ ಮ್ಮೆ
ನಾಯ್ ಡು</w>
ನಡೆಸ ಲಾಗುತ್ತದೆ</w>
ನಂಬ ಲು</w>
ನ ಾರ್
ದೇ ವರೇ</w>
ದೇ ಗು
ದೃಷ್ಟ ಿ</w>
ದೃಷ್ಟ ಾಂತ
ದೃ ಶ
ದಿನಾಂಕ ವನ್ನು</w>
ದಿ ನೇಶ್</w>
ದಾಖಲಿಸ ಿಕೊಂಡು</w>
ದರ್ ಶಿ
ದ ೆಯ</w>
ದ ಡಿ</w>
ದ ಂಥ</w>
ಥಾಮ ಸ್</w>
ಥ ಾ
ತೆರ ಳಿ</w>
ತೆ ಗಳ</w>
ತಿರುವನಂತ ಪುರ</w>
ತಿ ಳಿದ</w>
ತಾತ್ ಕಾಲಿಕವಾಗಿ</w>
ತನ ವನ್ನು</w>
ಣ ಿಗೆ</w>
ಡಿಯ ು</w>
ಡಾ ಲರ್</w>
ಡ ್ರಾ
ಡ ೇ</w>
ಟೆ ೂ
ಟಿ ವಿ
ಟ ೆಗೆ</w>
ಟ ಕ್ಕೆ</w>
ಜೀ ರಿಗೆ</w>
ಜಾ ತ</w>
ಜನ ಾ</w>
ಜಡೇ ಜಾ</w>
ಛ ಾ
ಚೆ ಲ್ಲ
ಚಿಕಿತ್ಸ ೆಗೆ</w>
ಗ್ರಾಮ ಸ್ಥರು</w>
ಗ್ ‌</w>
ಗೊಳಿಸ ಿದ</w>
ಗೀ ತೆ</w>
ಗಾಯ ವಾಗಿದೆ</w>
ಗಳೆ ಲ್ಲ</w>
ಗಳಲ್ಲ ಿರುವ</w>
ಗಳಲ್ಲ ಿನ</w>
ಗಳ ಿಸಿ</w>
ಗಮನ ಾರ್ಹ</w>
ಗಂಗ ೂ
ಖುಷ ಿಯಾಗ
ಖಂಡ ಿಸಿ</w>
ಖ ್ಯ
ಕ್‌ ಗೆ</w>
ಕ್ಯಾರೆ ಟ್</w>
ಕೈ ಯಲ್ಲ
ಕೈ ಬಿಡ
ಕೊ ಡ
ಕೃ ತ್ಯ</w>
ಕುಟುಂಬ ದವರು</w>
ಕಾರಣ ವಾಯಿತು</w>
ಕರ್ ‌</w>
ಕಚ್ಚ ಾ</w>
ಕ ೀ</w>
ಓಪ ನ್</w>
ಓ ದು
ಒಳ್ಳ ೇ
ಒಲಿ ಂ
ಒಪ್ಪಂದ ಕ್ಕೆ</w>
ಒತ್ತಾಯ ಿಸಿದ್ದಾರೆ</w>
ಒ ತ್ತು</w>
ಏನ ಿದೆ</w>
ಏ ರಿ
ಎಲ್ಲ ೆಲ್ಲ
ಎಲ್ಲ ವನ್ನು</w>
ಎಲ್ಲ ರನ್ನೂ</w>
ಎಕ್ ಸ್
ಎಂಬುದ ೇ</w>
ಎ ಸ್ಪಿ</w>
ಎ ಕರೆ</w>
ಊ ರಿಗೆ</w>
ಉಳಿದ ಿದೆ</w>
ಉಪ ಯುಕ್ತ
ಉತ್ತ ರಾ
ಉ ಲ್
ಉ ಜ್
ಇಲ್ಲ ದೇ</w>
ಇರ ಲಿದೆ</w>
ಇನ್ನ ೊಂದ
ಇಂಡಿಯ ನ್ಸ್</w>
ಇ ಶಾಂತ್</w>
ಇ ತ್ಯಾ
ಇ ಟ
ಆಲೂ ಗಡ್ಡೆ</w>
ಆರೋಪ ಗಳನ್ನು</w>
ಆನ್‌ ಲೈನ್</w>
ಆಧ್ಯಾ ತ್ಮ
ಆಧಾರ ದಲ್ಲಿ</w>
ಆದ ್
ಆಗ ುತ್ತೆ</w>
ಆಕರ್ಷ ಕ</w>
ಆ ನ್
ಅವಿ ಭಾ
ಅವರ ದು</w>
ಅವ ನೇ</w>
ಅಭಿ ಷೇ
ಅನ ಂತ
ಅದ ಕ್ಕಾಗಿಯೇ</w>
ಅಕಾಡೆ ಮಿ</w>
ಅಂದಾ ಜ
ಅಂಗ ವಾಗಿ</w>
ಅ ಡಿಗೆ</w>
ಂದ ಿ</w>
ಂಟ ೈ
ಂಚ ು</w>
ಂ ಕಾರ
r a
o r
m en
7 0
6 00</w>
5 :
5 2</w>
370 ನೇ</w>
2 2
19 8
19 6
‘ ಈ</w>
್‌ ಗೆ</w>
ೋತ್ ಸವ</w>
ೆಯಲ್ಲ ಿದೆ</w>
ೆಯ ಿತ್ತು</w>
ುವ ಷ್ಟ
ುತ್ತ ಿರುತ್ತದೆ</w>
ೀ ಕರಣ</w>
ಿಸಿದ ೆವು</w>
ಿಸಿಕೊಳ್ಳ ಬೇಕು</w>
ಿಸಲಾಗ ುವುದಿಲ್ಲ</w>
ಿಸ ೂ
ಿಸ ಲಿಕ್ಕಾಗಿ</w>
ಿಸ ಬೇಕು</w>
ಿಲ್ಲ ವೇ</w>
ಿಯಲ್ಲ ಿದೆ</w>
ಿಯ ನ್ನ</w>
ಿದ್ ಧ
ಿದ ವರ</w>
ಿ ರು</w>
ಾದ ್ರೆ</w>
ಹೋಯ ್ತು</w>
ಹೇಳ ಿದ್ದ
ಹೇಳ ಿಕೆಯನ್ನು</w>
ಹೆಗ್ ಗಳ
ಹಿತ ಕರ</w>
ಹಿ ಟ್</w>
ಹಾಕ ಿಕೊಳ್ಳ
ಹಂಚ ಿಕೆ</w>
ಸ್ನಾ ತ
ಸ್ನಾತ ಕೋ
ಸ್ನಾತಕೋ ತ್ತರ</w>
ಸೈನಿ ಕರು</w>
ಸೇವ ಕರು</w>
ಸೇರ ಿದೆ</w>
ಸೇ ರಿಸ
ಸೆ ಲ್‌</w>
ಸೃಷ್ಟಿಕ ರ್ತ
ಸೂಚ ಿಸಲಾಗಿದೆ</w>
ಸುಧಾರ ಣೆ</w>
ಸಿಲು ಕಿ</w>
ಸಿ ವಿ
ಸಿ ಲಿ
ಸಹಾಯ ವನ್ನು</w>
ಸಹ ಿ</w>
ಸಲ್ಲ ಿಸಿದ್ದ</w>
ಸರ ಬ
ಸಮುದ್ರ ದ</w>
ಸಮುದ ಾಯ</w>
ಸಂಬಂಧಿಕ ರು</w>
ಸಂಪುಟ ದ</w>
ಸಂಪನ್ ಮೂಲ</w>
ಸಂತ್ರ ಸ್ತ
ಸಂ ಚು</w>
ಸ ್ರಾ
ಸ ರಿಸಿ</w>
ಶ್ರೀಮ ಂತ</w>
ಶೈ ಕ್ಷಣಿಕ</w>
ಶೀ ರ್ಷ
ಶಾಸ ಕರನ್ನು</w>
ವ್ಯಾಪ ಕವಾಗಿ</w>
ವ್ಯವ ಹರಿಸ
ವ್ಯಕ್ತಪಡಿಸ ಿದೆ</w>
ವೈ ದ
ವೇ ಗ</w>
ವೆ ಂಬ</w>
ವಿರೋಧ ವಾಗಿ</w>
ವಿನ್ಯಾ ಸ</w>
ವಿನಿಮ ಯ</w>
ವಿದ್ಯ ಾರ್ಹ
ವಿ ವಿಧ
ವಾಗ ಲು</w>
ವಾಕ್ಯ ವು</w>
ವಲ ಸೆ</w>
ವರೆ ಗಿನ</w>
ವ ರೆ</w>
ವ ನ್‌</w>
ವ ನಲ್ಲ</w>
ಳ ಿದರು</w>
ಲೋ ಡ್‌</w>
ಲೆ ೖ
ಲೆ ಟ್</w>
ಲೆ ಕ್ಕ</w>
ಲೀ ಗ್</w>
ಲಿ ಕ್ಕೆ</w>
ಲಾರ ರು</w>
ಲ ಕ್ಕೆ</w>
ಲ ಕ್ಕಿ</w>
ರ್ ಗ
ರಿಕ್ಷ ಾ</w>
ರಾಷ್ಟ್ರ ದ</w>
ರಾಜ್ಯಾ ಧ್ಯಕ್ಷ</w>
ರಾಗ ಿರ
ರಾಗ ಿದ್ದ</w>
ರಹ ಾನೆ</w>
ರಹ ಸ್ಯ
ರಜ ನಿ
ರ ಗ
ಯೋಜನ ೆಯನ್ನು</w>
ಯೋ ಬ</w>
ಯಾವುದ ನ್ನು</w>
ಮ್ಯಾ ನ್
ಮೋಶ ೆಯ</w>
ಮೈ ದಾನ
ಮೊದ ಲು</w>
ಮೆರ ವಣ
ಮೆಟ್ರ ೋ</w>
ಮೃತದೇಹ ಗಳನ್ನು</w>
ಮುಗ ಿದ
ಮುಂ ಭಾಗ</w>
ಮು ರ
ಮೀಡಿಯ ಾ</w>
ಮಾರ ್ಟ
ಮಾಡ ುತ್ತಿದ್ದ</w>
ಮಾಡ ಿದ್ದೇವೆ</w>
ಮಹೇ ಂದ್ರ</w>
ಮಳೆ ಗಾ
ಮನೆ ಗಳ</w>
ಮದುವ ೆಯಾಗಿ</w>
ಮದ ್ರಾ
ಮತ್ತ ಿ
ಮತ್ತ ಾ</w>
ಮ ರಿಯ
ಭೂ ಕಂಪ</w>
ಭಾಗವಹಿಸ ಲಿದ್ದಾರೆ</w>
ಭರವಸ ೆಯಿ
ಬ್ ಲ್ಯ
ಬೇಕಾದ ಷ್ಟು</w>
ಬೇ ರೇ
ಬೆಳೆಸ ಿಕೊಳ್ಳ
ಬು ಮ್ರಾ</w>
ಬಿಟ್ಟ ಿದ್ದಾರೆ</w>
ಬಿ ತ್ತು</w>
ಬಾ ಹ್ಯಾ
ಬಾ ಹು
ಬರೋ ಬ್ಬರಿ</w>
ಬರೆಯ ಲು</w>
ಬಯಸ ುತ್ತೇನೆ</w>
ಬಣ್ಣ ಗಳಲ್ಲಿ</w>
ಬ ಲಾ
ಬ ರ್ತ
ಬ ಟನ್</w>
ಬ ಗ
ಫೋಟೋ ಗಳು</w>
ಫೇಸ್‌ ಬುಕ್</w>
ಫೀ ಲ್
ಪ್ರೊ ಫೆ
ಪ್ರಾ ಚೀನ</w>
ಪ್ರಯೋಜನ ಗಳು</w>
ಪ್ರಯಾಣಿಕ ರಿಗೆ</w>
ಪ್ರತಿ ನಿತ್ಯ</w>
ಪ್ರಕರಣ ಗಳನ್ನು</w>
ಪ್ರ ೇ
ಪ್ರ ಸಾರ
ಪ್ರ ವೃತ್ತ
ಪ್ರ ಣಾ
ಪ್ಪ ಾ</w>
ಪ್ ಯ</w>
ಪೆ ೂೕ
ಪುಸ್ತಕ ದಲ್ಲಿ</w>
ಪುಲ್ವಾ ಮಾ</w>
ಪೀ ಡ
ಪಿ ೕ
ಪರ ವಾಗಿಲ್ಲ</w>
ಪತ್ತ ೆಗೆ</w>
ಪಡೆಯ ುವುದು</w>
ಪಡೆ ಯ</w>
ಪಟ್ಟ ಣದ</w>
ಪಕ್ಷ ದಲ್ಲಿ</w>
ಪಂಜಾ ಬ್
ಪ ಬ್
ಪ ಟ
ನ್ಯೂ ಯಾರ್
ನೋಡ ುವ</w>
ನೀಡ ುವುದು</w>
ನೀಡ ಿರಲಿಲ್ಲ</w>
ನಿರ್ಮಾಣ ವಾಗಿದೆ</w>
ನಿರ್ಧರಿಸ ಿದೆ</w>
ನಿರ್ದೇಶ ಕರು</w>
ನಿರೋ ಧಕ</w>
ನಿಮ್ಮ ಲ್ಲಿ</w>
ನಿಮ ಗಾಗಿ</w>
ನಿಖ ರ</w>
ನಾಲ್ ವರನ್ನು</w>
ನಾಯಕ ಿಯಾಗಿ</w>
ನಾಮ ಪತ್ರ</w>
ನಾಗ ಾ
ನಾ ದನು</w>
ನಾ ಚಿಕ
ನಲ್ಲ ಿಯೂ</w>
ನಮ್ಮಿ ಂದ</w>
ನಮ ಗೂ</w>
ನಡೆಸ ಿರುವ</w>
ನಡೆಯ ಲಿರುವ</w>
ಧ್ವ ಂ
ಧೂಮ ಪಾನ</w>
ಧ ್
ಧ ವ್</w>
ದ್ದ ರಿಂದ</w>
ದೇಹ ಕ್ಕೆ</w>
ದೇಶ ಗಳು</w>
ದೇವ ್</w>
ದೇವ ರಿಂದ</w>
ದೂ ರನ್ನು</w>
ದುಡ್ಡ ು</w>
ದೀರ್ ಘ</w>
ದಿ ತ</w>
ದಾಯ ಕ
ದಾ ನಿಯ
ದ ಿರಲು</w>
ದ ದ್ದು</w>
ಥ ್</w>
ಥ ಳಿಸ
ತೊರೆ ದು</w>
ತೊಡಗ ಿದೆ</w>
ತೆ ೖ
ತುಂಬ ಾನೇ</w>
ತೀ ರಿ</w>
ತೀ ತ</w>
ತಿರುವನಂತ ಪುರಂ</w>
ತಿ ೕ
ತಾರ ಾ</w>
ತಲೆ ನೋವು</w>
ತರ ಾಗಿದ್ದಾರೆ</w>
ತಕ್ಕ ೊ
ತಂದ ೆಯು</w>
ಡೌ ನ್‌
ಡೇವಿ ಡ್</w>
ಡಿ ಗಳನ್ನು</w>
ಟ್ ಗಳು</w>
ಟೂರ್ ನಿಯಲ್ಲಿ</w>
ಟೀ ಸರ್</w>
ಜ್ಞಾನ ವನ್ನು</w>
ಜೊ ತೆ</w>
ಜೀ ವಾ
ಜೀ ರ್ಣ
ಜಾಹೀ ರಾ
ಜಾಲತಾ ಣ
ಜಾಗರೂ ಕ
ಜನ ಸಂಖ್ಯ
ಜಖಂಗ ೊಂಡ
ಚ್ಚ ು
ಚಿತ್ರ ವು</w>
ಚಿತ್ರ ಮಂದಿರ
ಚಿತ್ರ ತಂಡ</w>
ಚಾ ಲಿತ</w>
ಚಳಿ ಗಾ
ಚರ್ಚೆ ಗಳು</w>
ಚ ನೆ</w>
ಘ ಟ್ಟ
ಗ್ರೀ ಕ್‌</w>
ಗೋ ಳ
ಗೊತ್ತ ಿತ್ತು</w>
ಗೂ ಗ
ಗಾರ ಿಕೆ</w>
ಗಾಯ ಿತು</w>
ಗಾಂಧ ಿಗೆ</w>
ಗಳ ು
ಗ ತ್ಯ
ಗ ಗ
ಖಾ ತೆಯಲ್ಲಿ</w>
ಕ್ಷೇತ್ರ ಗಳನ್ನು</w>
ಕ್ರಮ ಗಳು</w>
ಕ್ರ ೇ
ಕ್ ಲೀ
ಕೋ ಮ
ಕೋ ಪ</w>
ಕೊ ನೆಯಲ್ಲಿ</w>
ಕೊ ಂದು</w>
ಕೊ ಂದ</w>
ಕೆಳಗಿ ನಂತೆ</w>
ಕು ಲ್
ಕು ಲದ</w>
ಕೀರ್ತ ನೆ
ಕೀ ಪರ್</w>
ಕಿ ೕಯ</w>
ಕಾರ್ಯಕ್ರಮ ವನ್ನು</w>
ಕಾರ್ ಮಿಕ</w>
ಕಾರಣ ವಾಗುತ್ತದೆ</w>
ಕಾಣ ುತ್ತಿದೆ</w>
ಕಾ ಲಾ
ಕಲಾ ವಿದ
ಕರಾಗ ಿದ್ದರು</w>
ಕರ ೇ</w>
ಕಣ್ಣ ೂರು</w>
ಕಂಪೆ ನಿ</w>
ಕ ತ್ತು</w>
ಔ ಟ್</w>
ಒಪ್ಪ ಿಸಿದ್ದಾರೆ</w>
ಒತ್ತ ಾಯ</w>
ಒಂದ ೂ</w>
ಒ ಡಿ
ಐ ಕ್ಯ
ಐ ಎಂ
ಏರ್ ಪಡಿಸ
ಎಸ್ ​
ಎದು ರು
ಎಚ್ಚ ರಿಸ
ಎಂ ಥ
ಉದ್ಯ ಮ</w>
ಉದ್ ದ</w>
ಉದಾಹರಣ ೆಗಳನ್ನು</w>
ಉತ್ ಸಾಹ
ಉಂಟ ಾಯಿತು</w>
ಉ ರಿಯ
ಇಲ್ಲ ವಾದರೆ</w>
ಇರ ಬಾರದು</w>
ಇತ್ತೀ ಚೆಗ
ಇತಿಹಾಸ ದ</w>
ಇ ಕ್ಕ
ಆರ್ಥ ಿಕವಾಗಿ</w>
ಆರಂಭ ಿಸಿದ</w>
ಆರಂಭ ಿಸಲು</w>
ಆನ್‌ ಲೈ
ಆಧಾರ ್</w>
ಆತ್ಮ ವಿಶ್ವಾಸ</w>
ಆಗ್ರಹ ಿಸಿದ್ದಾರೆ</w>
ಆಗ ುವುದು</w>
ಆಕ್ಷೇ ಪ
ಆಕ್ರಮ ಣ
ಆ ಲಿ
ಆ ರೆ
ಆ ನ್</w>
ಆ ತಿಥ
ಆ ಚರಣೆ</w>
ಅವಿಭಾ ಜ್ಯ</w>
ಅವಲಂಬ ಿಸ
ಅವರೆ ಲ್ಲ</w>
ಅಲ ಹಾ
ಅಯ್ಯ ೋ</w>
ಅಭ್ಯರ್ಥ ಿಗಳನ್ನು</w>
ಅಭಿಮಾನಿ ಗಳ</w>
ಅಭಿ ನ
ಅದೃಷ್ಟ ವಶಾತ್</w>
ಅದ ನ್ನೂ</w>
ಅಖಿ ಲ</w>
ಅ ಲ್</w>
ಅ ತ್
ಅ ಗಾ
ಅ ಂದ</w>
ಂಬ ೆ</w>
ಂಗ್ ‌
9 ,
ೋ ನ್</w>
ೇ ಷನ್</w>
ೇ ಲಿಯ</w>
ೆಯಾಗ ುತ್ತದೆ</w>
ೆಯಲ್ಲ ಿಯೂ</w>
ೆಯಲ್ಲ ಿನ</w>
ೆಯ ುಳ್ಳ
ೆ …</w>
ೆ ಗಳಿಂದ</w>
ುವ ಾದ</w>
ುವ ವರೆಗೂ</w>
ು ಬಿಡ
ೀ ರಿ</w>
ಿಸುವುದ ೇ</w>
ಿಸುತ್ತ ಿತ್ತು</w>
ಿಸ ಿಕೊಂಡ</w>
ಿಸ ಬೇಕಾಗುತ್ತದೆ</w>
ಿಯ ಿದೆ</w>
ಿಯ ದ</w>
ಿತ ಾದರೂ</w>
ಾರ ೋಪ</w>
ಾರ ಾ</w>
ಾಗ ೋ
ಹೋಗ ಿದ್ದೆ</w>
ಹೇಳ ುತ್ತಿಲ್ಲ</w>
ಹೇಳ ುತ್ತಿದ್ದಾರೆ</w>
ಹೇಳ ಿಲ್ಲ</w>
ಹೇಳ ಲಿಲ್ಲ</w>
ಹೃದಯ ದಲ್ಲಿ</w>
ಹಿನ್ನ ಡೆ</w>
ಹಿ ಂಬ
ಹಾ ಸ್ಯ
ಹಾ ಲ್</w>
ಹ ೈ</w>
ಸ್ಪೀ ಕರ್</w>
ಸ್ಪ ದ</w>
ಸ್ಥಗಿತ ಗೊಳಿಸಲಾಗಿದೆ</w>
ಸ್ ತಿ
ಸ್ ಗಳನ್ನು</w>
ಸೋ ಶಿಯಲ್</w>
ಸೆ ಲೆ
ಸುರಿಯ ಿರಿ</w>
ಸುರಕ್ಷ ತಾ</w>
ಸು ರಿದ
ಸು ಯೋಗ
ಸು ಡ
ಸಿನಿಮಾಗ ೆ</w>
ಸಿ ಡೆ
ಸಾವನ್ನಪ್ಪ ಿದ್ದಾನೆ</w>
ಸಾಬೀ ತು
ಸಾಧ್ಯವಾಗ ುವುದಿಲ್ಲ</w>
ಸಾ ಲು</w>
ಸಮುದಾಯ ದ</w>
ಸಮಾ ಜವಾ
ಸಮಾಜವಾ ದಿ</w>
ಸಂಸ್ಥ ೆಯು</w>
ಸಂಭವ ಿಸಬಹುದು</w>
ಸಂ ಹಿತ
ಸಂ ಭಾವ
ಸ ಮ್
ಶಾಸ್ತ್ರ ವಚ
ಶಾಂತ ಿಯನ್ನು</w>
ಶಸ್ತ್ರಾ ಸ್ತ್ರ
ಶತ ಕ</w>
ಶಕ್ ತಿ
ವೊಂದ ರಲ್ಲಿ</w>
ವೆ ಸಗ
ವೃದ್ಧ ಿ</w>
ವೀ ರ್</w>
ವಿಶ್ವ ದಲ್ಲೇ</w>
ವಿವಾ ಹಿತ</w>
ವಿವರಿಸ ಿದರು</w>
ವಿಮಾನ ಗಳ</w>
ವಿಧ ಿಸಲಾಗಿದೆ</w>
ವಿಧ ಗಳು</w>
ವಿದ್ಯಾ ಭ್ಯಾ
ವಿದ ೆಯೇ</w>
ವಿ ಶಿಷ್ಟ</w>
ವಿ ನಂತ
ವಿ ಜಯ</w>
ವಾಸ್ತ ವ</w>
ವಾಪ ಸ್‌</w>
ವಾದ ರು</w>
ವಾ ಟರ್</w>
ವಹಿವಾ ಟು</w>
ವಳ ಿಯಲ್ಲಿ</w>
ವಂದ ಿಸಿದರು</w>
ವ ಲ್</w>
ವ ಂ
ಳಿ ನಲ್ಲಿ</w>
ಳ ಯ
ಲ್ಲ ೆಡೆ</w>
ಲ್ಲ ು</w>
ಲ್ಲ ರಿಗೂ</w>
ಲ್ಪಟ್ಟ ಿತು</w>
ಲಿಯ ಂ</w>
ಲಾ ತಿ</w>
ಲಭ ಿಸಿದೆ</w>
ಲ ಸ
ಲ ವು</w>
ಲ ಲ್ಲಿ</w>
ರೆ ಲ್ಲರೂ</w>
ರೂ ಪ</w>
ರಿ ಂದಲೂ</w>
ರಾಷ್ಟ್ರ ಾ
ರಾಜ್ಯಪಾಲ ರ</w>
ರಾ ಂ</w>
ರಹ ಸ್ಯ</w>
ರಸ್ ತೆಯ</w>
ರಜನಿ ಕಾಂತ್</w>
ರಂಜ ನ್</w>
ರ ಫ್
ಯೇಸು ವಿಗೆ</w>
ಯುನೈ ಟೆಡ್</w>
ಯು ಎ
ಯ ರ್</w>
ಯ ಜ
ಮೋ ಟ
ಮೊದ ಲಿಗೆ</w>
ಮೊ ನ್ನೆ</w>
ಮೈತ್ರಿ ಕೂಟ
ಮೇ ಕ್</w>
ಮೋ ಪದೇಶ
ಮೃತಪಟ್ಟ ರು</w>
ಮೃತ ಪಟ್ಟ</w>
ಮುಖ್ಯಮಂತ್ರಿ ಗಳು</w>
ಮುಂಚ ೂ
ಮು ಳ್ಳ
ಮೀ ರ
ಮಾನ ವರು</w>
ಮಾದ ರಿಯ</w>
ಮಾತು ಗಳನ್ನು</w>
ಮಾತನಾಡ ಲು</w>
ಮಾಡುವ ನು</w>
ಮಳೆಯ ಿಂದ</w>
ಮನ ೆಯನ್ನು</w>
ಮಕ್ಕಳಿ ಗಾಗಿ</w>
ಮ ೊ</w>
ಮ ನೀ
ಮ ದ್ದು</w>
ಮ ಗ್ನ
ಭಾಷ ೆ
ಭಾಗ ದ</w>
ಭ ರಿಸ
ಬೇಕ ು’</w>
ಬೆಂಕ ಿಯ</w>
ಬಾಂಧ ವ್ಯ
ಬಾಂಗ್ಲಾ ದೇಶದ</w>
ಬಹುತೇ ಕರು</w>
ಬಳಸ ಿಕೊಳ್ಳ
ಬಯಸ ುವುದಿಲ್ಲ</w>
ಬಯಸ ುವ</w>
ಬಂದ ದ್ದು</w>
ಬಂಗಾ ಳದಲ್ಲಿ</w>
ಬ ಲ್ಲ</w>
ಫೆ ೂೕ
ಪ್ರಧಾನಮಂತ್ರಿಯ ವರು</w>
ಪ್ರತಿಭಟ ನಾ</w>
ಪ್ರಕರಣ ಗಳಲ್ಲಿ</w>
ಪ್ರ ಬಲ
ಪೋ ಸ್ಟರ್</w>
ಪೊಲೀಸ ರಿಂದ</w>
ಪೆ ಟ್ಟ
ಪುರಾ ತನ</w>
ಪಾಲ ಿಗೆ</w>
ಪಾದ ಚಾರ
ಪಾ ಪ</w>
ಪಾ ಟ್
ಪಾ ಟೀ
ಪರೀಕ್ಷ ೆಯ</w>
ಪರೀಕ್ಷ ೆಗಾಗಿ</w>
ಪರಿ ಹರಿಸ
ಪರಿ ಚಯ</w>
ಪರ ದಾಡ
ಪಡೆಯ ುತ್ತಿದ್ದರು</w>
ಪಕ್ಷ ವಾಗಿ</w>
ಪ ಲ್</w>
ಪ ತಿ
ನ್ಯೂಜಿ ಲೆಂಡ
ನ್ ವಿ
ನೌಕರ ರು</w>
ನೌ ಕಾ
ನೋಡ ಿಲ್ಲ</w>
ನೋಡ ಿದರೆ</w>
ನೋಡ ಬೇಕು</w>
ನೋ ಯ
ನೋ ಟ</w>
ನೈ ಜ</w>
ನೆ ಲೆ</w>
ನೆ ಗಾಗಿ</w>
ನೀತಿ ವಂತ
ನೀಡ ಿದ್ದಾಳೆ</w>
ನೀಡ ಿತು</w>
ನಿರ್ದೇಶ ಿಸಿದ್ದಾರೆ</w>
ನಿರ್ಣಯ ಗಳನ್ನು</w>
ನಿಯೋಜ ಿಸಲಾಗಿದೆ</w>
ನಿಯ ಮಿತವಾಗಿ</w>
ನಿ ನಲ್ಲಿ</w>
ನಿ ಂದಲೇ</w>
ನಾಗ ಿದ್ದೇನೆ</w>
ನಲ್ಲ ಿ
ನಡೆಸ ಲಾಗುವುದು</w>
ನಡೆಯ ುತ್ತಲೇ</w>
ನಡೆದ ದ್ದು</w>
ನ ೊಂದ
ನ ೆಯೂ</w>
ನ ರಳ
ಧರ್ ಮೋಪದೇಶ
ಧ ು</w>
ದ್ರ ೂ</w>
ದೊರೆ ತಿದೆ</w>
ದೇವ ರಲ್ಲಿ</w>
ದೂ ರದ</w>
ದುರ್ಮ ರಣ</w>
ದಯ ೆ</w>
ದ ಿರುವುದು</w>
ದ ದ</w>
ದ ಕ್ಕ
ಥ ಿ</w>
ತ್ತ ಿ</w>
ತೋರಿಸ ಿದನು</w>
ತೋ ಚ
ತೊ ಂದ
ತೆರೆ ಗೆ</w>
ತು ಕೊಳ್ಳ
ತೀ ರ
ತಿಳಿಸ ುತ್ತದೆ</w>
ತಿಳಿದ ುಕೊಂಡ
ತಿಯ ಾಗಿದೆ</w>
ತಿಂ ಗಳಲ್ಲಿ</w>
ತಾಯ ಿಯನ್ನು</w>
ತಪ್ಪು ಗಳನ್ನು</w>
ತಪ್ಪಿತಸ್ಥ ರ</w>
ತಂದ ೆಯನ್ನು</w>
ತಂದ ೆಯ
ತಂದ ು
ತ ದಲ್ಲಿ</w>
ಣ ು</w>
ಟ್ವಿಟ್ಟ ರ್</w>
ಟೆ ಕ್
ಟಾ ಪ್</w>
ಜೋ ಡಿ</w>
ಜೀವಾ ವಧಿ</w>
ಜಿಲ್ಲಾ ಧಿಕಾರಿ</w>
ಜಿ ನಲ್ಲಿ</w>
ಜಾಗೃ ತಿ</w>
ಜನ ಸಂಖ್ಯೆ</w>
ಚೌ ಕ</w>
ಚೇ ತನ
ಚಟುವಟ ಿಕೆ</w>
ಚಕಮ ಕಿ</w>
ಚಂದ್ರ ಶೇಖ
ಘಟ ನೆಯ
ಗ್ರ ೂ
ಗೆಲ್ಲ ುವ</w>
ಗುರಿಯ ನ್ನು</w>
ಗುಣ ಮಟ್ಟದ</w>
ಗಾಯ ಕ</w>
ಗಳಿ ಂದಲೂ</w>
ಗಳ ಿಸಿದೆ</w>
ಗಳ ಲ್ಲ</w>
ಗಳ ನ್ನೇ</w>
ಗಲ್ಲ ು</w>
ಗಂಭೀರ ವಾದ</w>
ಖಂಡ ಿತವಾಗಿ</w>
ಕ್ರೈಸ್ತ ರಿಗೆ</w>
ಕ್ರೆ ಡಿಟ್</w>
ಕ್ಕ ೀಡ
ಕೋ ರಿದ್ದಾರೆ</w>
ಕೊಟ್ಟ ಿದ್ದಾರೆ</w>
ಕೊ ಡ್
ಕೈಗಾರ ಿಕಾ</w>
ಕೇಂದ್ರ ಕ್ಕೆ</w>
ಕೊ ಳ್ಳಿ</w>
ಕೊ ರ
ಕೂಟ ಗಳಿಗೆ</w>
ಕೂ ರ
ಕೂ ಡಿ</w>
ಕುದ ಿಸಿ</w>
ಕುಡಿಯ ಿರಿ</w>
ಕು ಮಾರ</w>
ಕು ಂದ
ಕಿ ಂಗ್ಸ್</w>
ಕಾನ್ ಫರೆ
ಕಮ ಲ್</w>
ಕಠಿ ಣ
ಕಂಪ ನಿಗಳು</w>
ಒಳಗೂಡ ಿದೆ</w>
ಒಳ ಗೊಂಡ</w>
ಒಪ್ಪ ಲಿಲ್ಲ</w>
ಐಸಿ ಐಸಿ
ಏನೆ ಲ್ಲ</w>
ಏನಾಯ ್ತು</w>
ಏನಾಗ ುತ್ತದೆ</w>
ಏ ಷ್ಯಾ
ಏ ಕಾಂಗ
ಎಫೆ ಸ</w>
ಎದುರಿಸ ುತ್ತಿದೆ</w>
ಎತ್ತ ರದ</w>
ಎಂ ಜಾಯ
ಎ ದೆ
ಎ ಡೆ
ಊ ಟ</w>
ಉತ್ತರ ವನ್ನು</w>
ಈ ಜ
ಇರಿಸ ಲಾಗಿದೆ</w>
ಇಬ್ಬ ರನ್ನೂ</w>
ಇದ ರಲ್ಲ
ಇದ ರ
ಇ ರಿಸಿ</w>
ಇ ಪ್ಪ
ಇ ಂದ್ರ
ಆರ್ಥ ಿಕತೆ</w>
ಆರೋಪ ದ</w>
ಆಫ ್
ಆನಂದ ್</w>
ಆದ್ದ ರಿಂದಲೇ</w>
ಆಗ ುತ್ತಿರಲಿಲ್ಲ</w>
ಆಗ ಲು</w>
ಆ ಮ್</w>
ಆ ಮ್
ಆ ಮಂತ್ರ
ಅವರಿಬ್ಬ ರೂ</w>
ಅವರಿಬ್ಬ ರು</w>
ಅರ್ಥ ವಾಗಲಿಲ್ಲ</w>
ಅರ್ ಜಿ
ಅಭ್ಯಾ ಸ</w>
ಅಭಿಮಾನಿ ಗಳಿಗೆ</w>
ಅಪಘಾತ ಕ್ಕೆ</w>
ಅನೇ ಕ
ಅನಾ ವರ
ಅಧಿಕಾರ ದ</w>
ಅಡ್ ಡಿಯ
ಅಜಿ ಂ
ಅಂದ ರು</w>
ಅಂಕ ಗಳನ್ನು</w>
ಅ ಸೋಸಿಯ
ಅ ಸಾಮಾನ್ಯ</w>
ಅ ಮ್ಮನ
ಅ ಣ್ಣ
ಅ ಡ್ಡ</w>
ಂಬ ೆ
o m
G B</w>
5 ರಷ್ಟು</w>
200 ಕ್ಕೂ</w>
19 7
00 0
“ ನೀವು</w>
“ ನಿಮ್ಮ</w>
ೕ ಕರಿಸ
್‌ ನ</w>
್ ತ
ೊಬ್ಬ ರ</w>
ೊ ಟ್ಟಿಗೆ</w>
ೇನ ಿದೆ</w>
ೇ ನಿಲ್ಲ</w>
ೆಯಲ್ಲ ಿರುವ</w>
ೆಯಲ್ಲ ಿದ್ದಾರೆ</w>
ೆಯ ೆಂದು</w>
ೆ ಲ್</w>
ೆ ಂಟ್</w>
ೂ ರಿ</w>
ೂ ಪ</w>
ಿಸುವುದ ರಲ್ಲಿ</w>
ಿಸುತ್ತ ೆ</w>
ಿಸ ಲ್ಪಟ್ಟ</w>
ಿರುವ ವರ</w>
ಿಯಲ್ಲ ಿರುವ</w>
ಿಯ ಾಯಿತು</w>
ಿಯ ರ</w>
ಿದ ್</w>
ಿತ ವಾದ</w>
ಿಗ ೇ</w>
ಿಗ ೆಯಲ್ಲಿ</w>
ಿಕೊಂಡ ಳು</w>
ಿಕ ೋ</w>
ಿಕ ೆಯಾಗ
ಾನು ಭ
ಾಗ ುವುದು</w>
ಾ ಮುಖ
ಹೋಗ ು</w>
ಹೊಸ ದಿಲ್ಲಿ</w>
ಹೊಂದಾಣ ಿಕೆ</w>
ಹೇಳ ುತ್ತೇನೆ</w>
ಹೇಳ ಿಕೆಗೆ</w>
ಹೇ ಗೆ
ಹೆಚ್ಚ ಾಗುತ್ತದೆ</w>
ಹೆ ಮ್ಮೆ
ಹೂಡ ಿಕೆ
ಹೀಗೆ ಂದು</w>
ಹಿನ್ನೆ ಲೆ</w>
ಹಿಂತಿರುಗ ಿ</w>
ಹಿ ಂದು</w>
ಹಾಗ ಿದ್ದರೆ</w>
ಹಾಕ ಲಾಗಿದೆ</w>
ಹಸ್ತಕ್ಷೇ ಪ</w>
ಹತ್ಯ ೆಗೆ</w>
ಹ ೆ</w>
ಹ ು</w>
ಹ ನು</w>
ಹ ನ
ಸ್ಪಷ್ಟ ವಾಗಿಲ್ಲ</w>
ಸ್ಪಷ್ಟ ಪಡಿಸಿದ್ದಾರೆ</w>
ಸ್ಪಷ್ಟ ಪಡಿಸಿದರು</w>
ಸ್ಥಾನ ದಿಂದ</w>
ಸ್ಥಾನ ಗಳಿಗೆ</w>
ಸ್ಥಳಾಂತ ರಿಸ
ಸ್ಟಿಟ್ಯೂ ಟ್</w>
ಸ್ಟ ಾರ್
ಸೌ ಲ
ಸೌ ಮ್ಯ
ಸೋ ತು</w>
ಸೋ ತ
ಸೇರ್ಪಡ ೆಯಾಗ
ಸೆ ಷ
ಸೆ ರ
ಸುಧಾರ ಣ
ಸು ಶಾಂತ್</w>
ಸೀ ಯ
ಸಿಯ ಮ್</w>
ಸಿಪ್ಪ ೆ</w>
ಸಿನ್ ಹಾ</w>
ಸಿನಿಮಾಗ ಳು</w>
ಸಿದ್ಧಾ ಂತ
ಸಿಕ್ಕ ಿರಲಿಲ್ಲ</w>
ಸಿಕ್ಕ ಾ
ಸಿ ಕ್ಕ</w>
ಸಾರ ಾ</w>
ಸಾಧ್ಯ ವಿಲ್ಲ
ಸಲ್ಲ ಿಸಲಾಗಿದೆ</w>
ಸಲ್ಲ ಿಕೆ</w>
ಸಮೀ ಕ್ಷೆ</w>
ಸಮ ಾರಂಭ</w>
ಸಕಾರ ಾತ್ಮಕ</w>
ಸಂಸದ ೀಯ</w>
ಸಂತೋಷ ದ</w>
ಸಂಘಟ ನೆಗಳು</w>
ಸಂಘ ದ</w>
ಸಂಗ್ರ ಹಿಸ
ಸಂ ಜ
ಸಂ ಗೀ
ಸಂ ಕ್ಷಿ
ಸ ಿಸ್</w>
ಸ ಾಗಿ</w>
ಸ ಲು</w>
ಸ ಖ
ಷ ಾ
ಶುರುವ ಾಗಿದೆ</w>
ಶುಂ ಠಿ</w>
ಶಿಸ್ ತು</w>
ಶಿಖ ರ್</w>
ಶಾಂತ ಿಯು
ಶರೀ ರ
ಶ ್ರೇ
ವೈ ಶಿಷ್ಟ್ಯ
ವೇ ಗ
ವು ಗಳ</w>
ವಿಸ್ ತಾರ
ವಿಶ್ವವಿದ್ಯಾಲಯ ದ</w>
ವಿಳಾ ಸ</w>
ವಿಳ ಂಬ
ವಿಜ್ಞಾ ನಿಗಳು</w>
ವಿಚ್ಛೇದ ನ</w>
ವಿಚಾರ ವಾಗಿ</w>
ವಿ ತ್ತ</w>
ವಾಟ್ಸಾ ಪ್</w>
ವಾಗ ುತ್ತಿತ್ತು</w>
ವಾ ಚ
ವರ್ ಗಾಯ
ವ ುದು</w>
ವ ಕಾಶ</w>
ಳಿದ ಿದ್ದಾರೆ</w>
ಲ್ಲ ೂ
ಲೋ ಭ
ಲೇಖ ನದಲ್ಲಿ</w>
ಲಿ ಕ್ಕಾಗ
ಲಿ ಂಕ್</w>
ಲಕ್ಷ ಣ</w>
ರೈ ಲುಗಳ</w>
ರೆ ಡ್</w>
ರೂಪ ಕ್ಕೆ</w>
ರಿ ಕ್ಟರ್</w>
ರಾಜಕೀಯ ದಲ್ಲಿ</w>
ರಚ ಿಸಲಾಗಿದೆ</w>
ರ ‍
ರ ವ್</w>
ಯೋಹಾನ ನು</w>
ಯೋಜ ನೆಯ</w>
ಯೆಹೋ ಶ
ಯೆ ಶಾ</w>
ಯು ರೋ
ಯಾವ ಶ್ಯ
ಯಾರೊಬ್ಬ ರೂ</w>
ಯಶಸ್ ಸನ್ನು</w>
ಯ ಾಗ
ಮೈಸೂ ರು</w>
ಮೊ ಟ್ಟ
ಮೆಹ ಬೂ
ಮೆಣಸಿನ ಕಾಯಿ</w>
ಮೂ ಡಿ</w>
ಮುನ್ ಸೂಚನೆ</w>
ಮುಖ ್ಯಾ
ಮುಖ ಾಮುಖ
ಮುಂಚೂ ಣ
ಮೀನುಗಾರ ರು</w>
ಮೀ ರ್</w>
ಮಿಶ್ರ ಣವನ್ನು</w>
ಮಿ ಲಿಯನ್</w>
ಮಿ ಡ
ಮಾರ್ ಕೆ
ಮಾರುಕಟ್ಟ ೆಗೆ</w>
ಮಾನ ದ</w>
ಮಾಧ್ಯ ಮದ
ಮಾಡಿಕೊಳ್ಳ ಬಹುದು</w>
ಮಾಡ ಿ
ಮಹಿಳ ೆಗೆ</w>
ಮಹ ತ್ವ</w>
ಮರಣದಂಡ ನೆ</w>
ಮನೋ ಹರ್</w>
ಮಗ ುವ
ಮ ಣಿ</w>
ಭಾಗ ್ಯ
ಭಕ್ತ ರು</w>
ಭ ಂಗ
ಬ್ಯಾಟ್ ಸ್‌
ಬ್ಯಾಂ ಕ್‌
ಬ್ಯಾ ಕ್</w>
ಬ್ಯಾ ಕ್
ಬ್ ಲ್ಯಾ
ಬೋ ರ್ಡ್</w>
ಬೇಕಾದ ದ್ದು</w>
ಬೇಯ ಿಸಿದ</w>
ಬಿಡುಗಡೆ ಗೆ</w>
ಬಿಡುಗ ಡೆಯ
ಬಿ ಗಡ
ಬಿಗಡ ಾಯ
ಬಿ ಗ
ಬಾಹ್ಯಾ ಕಾಶ</w>
ಬಾಂಧ ವ್ಯ</w>
ಬಹುದ ಿತ್ತು</w>
ಬಳಕೆದಾರ ರು</w>
ಬಳ ಗ
ಬರ ುವಂತೆ</w>
ಬಣ್ಣ ವನ್ನು</w>
ಫಲ ಾನುಭ
ಪ್ರೋತ್ ಸಾಹ
ಪ್ರಾರಂಭ ಿಸಿ</w>
ಪ್ರಾ ಧ್ಯ
ಪ್ರಸ ಕ್ತ</w>
ಪ್ರಶಸ್ ತಿಗಳನ್ನು</w>
ಪ್ರಯತ್ನ ಿಸುತ್ತ
ಪ್ರದರ್ಶ ನ
ಪ್ರತ್ಯ ೇ
ಪ್ರತಿಭಟನಾಕಾರ ರ</w>
ಪ್ರ ೊ</w>
ಪ್ರ ಕಾರ
ಪ್ರ ಕಟ</w>
ಪೋಷ ಕರಿಗೆ</w>
ಪೇ ಸ್ಟ್</w>
ಪೂರ್ ತಿ</w>
ಪು ಟ್</w>
ಪಾರ್ ಕಿಂಗ್</w>
ಪರಿಷ ತ್</w>
ಪತ್ರಿಕ ಾ</w>
ಪಟ್ಟ ಿದ್ದಾರೆ</w>
ಪ ೂ</w>
ಪ ವಾರ್</w>
ನ್ನ ಾ</w>
ನ್ ಸ್
ನೇಮ ಕಾ
ನೆ ೖ
ನೆ ಟ್
ನೀ ತಿಯನ್ನು</w>
ನೀ ತಿಯ</w>
ನಿಷ್ ಕ್ರಿಯ
ನಿರ್ಮಾಣ ದ</w>
ನಿರ್ಮಾಣ ಕ್ಕೆ</w>
ನಿರ್ದೇಶ ನದ</w>
ನಿರ್ಣ ಾಯಕ</w>
ನಿರುದ್ಯ ೋಗ</w>
ನಿರಾ ಸ
ನಿಮಿ ತ್ತ</w>
ನಿಗ ದ
ನಾಗರಿ ಕರು</w>
ನಮಗ ಿರುವ</w>
ನಡೆಸ ಿದ್ದು</w>
ನಗ ು</w>
ನಕ ಲಿ</w>
ನ ವೆಂಬ
ನ ಂದರೆ</w>
ಧಾರ ಿತ</w>
ಧರ್ಮೋಪದೇಶ ಕಾಂಡ</w>
ದ್ದ ಾಗ
ದ್ದ ಲ್ಲ</w>
ದೌ ಡಾಯ
ದೇವಾಲಯ ದ</w>
ದಲ್ಲ ಿದ್ದು</w>
ದರ ೋ</w>
ದ ಿದ್ದರು</w>
ದ ಲಿತ</w>
ತ್ವ ರಿತ</w>
ತ್ವ ಕ್ಕೆ</w>
ತೋ ರಿ
ತೊಳೆ ದುಕೊಳ್ಳ
ತೈ ಲ</w>
ತೆ ಗಳಿವೆ</w>
ತುಂಡು ಗಳಾಗಿ</w>
ತೀರ್ಪ ಿನ</w>
ತೀವ ್ರ</w>
ತಿರಸ್ಕರಿಸ ಿದೆ</w>
ತಲುಪ ಿದೆ</w>
ತರಾ ಟೆಗೆ</w>
ತ ತ್ವ</w>
ಣ ್ಯ
ಡ್ರ ಾ</w>
ಡಿಯ ಾ</w>
ಡಿಕ ಾರ
ಟ್‌ ಗಳು</w>
ಟ ಿಯಲ್ಲಿ</w>
ಟ ವನ್ನು</w>
ಜೊ ತ
ಜೆ ಯ</w>
ಜನ ರೂ</w>
ಜನ ರ</w>
ಚಿ ತ್ತ</w>
ಚ ಳ
ಗ್ರಾಹ ಕರು</w>
ಗೌ ಪ್ಯ
ಗೊಳ್ಳ ುತ್ತದೆ</w>
ಗೊಳಿಸ ಬೇಕು</w>
ಗೇ ಕೆ</w>
ಗುರು ತು
ಗು ರಿಗಳನ್ನು</w>
ಗಿ ತ</w>
ಗಳಿ ಗ
ಗಲಾ ತ್ಯ</w>
ಗಂಗೂ ಲಿ</w>
ಗ ುದ್ದ
ಗ ಲಿ
ಖಚಿತ ವಾಗಿ</w>
ಕ್ಸ ಲ್</w>
ಕ್ಷ ೇ
ಕ್ಷ ಿ</w>
ಕ್ರೀಡಾ ಂಗ
ಕ್ರೀ ಡ
ಕೈ ಯಲ್ಲಿ</w>
ಕೂಡ ಿದ</w>
ಕುಸ ಿದಿದೆ</w>
ಕುಟುಂಬ ಸ್ಥರು</w>
ಕುಟುಂಬ ಗಳು</w>
ಕು ಗಳನ್ನು</w>
ಕಿಟ ಕಿ</w>
ಕಿ ಲೋ
ಕಿ ಡಿಕಾರ
ಕಾಲೇ ಜಿಗೆ</w>
ಕಾರಣ ವೇ
ಕಾರಣ ದಿಂದ</w>
ಕಾಯಿ ಲ
ಕಾ ಫಿ</w>
ಕರ್ ಯ</w>
ಕರೆದೊಯ್ಯ ಲಾಯಿತು</w>
ಕರಿ ಬೇ
ಕಣ್ಣ ು
ಕಣಕ್ಕಿ ಳಿಯ
ಕಂಡ ುಕೊಂಡ
ಕ ಪಿ
ಕ ನಾಗ
ಕ ಂದು</w>
ಒದಗ ಿಸುತ್ತದೆ</w>
ಒಡಂಬ ಡಿಕ
ಒಂದಿ ಷ್ಟು</w>
ಐಸಿಐಸಿ ಐ</w>
ಐಶ್ವರ ್ಯ
ಐ ಟಿ</w>
ಏರಿಕ ೆಯಾಗ
ಏ ಪ್ರಿ
ಏ ನಾ
ಎಸ್‌ ಟಿ</w>
ಎಸೆತ ಗಳಲ್ಲಿ</w>
ಎದು ರಾಗಿದೆ</w>
ಎಡ ವ
ಎಎ ಪಿ</w>
ಎಂಬ ಂತೆ</w>
ಎಂದ ವರು</w>
ಎ ರ್
ಎ ಫ್‌</w>
ಋ ತು
ಉಷ್ ಣಾ
ಉಳಿದ ಿಲ್ಲ</w>
ಉರು ಳಿ</w>
ಉಪನ್ಯಾ ಸ
ಉದ್ಯ ಾನ
ಉದ್ಘಾಟ ಿಸಿದರು</w>
ಉತ್ಪಾದ ನಾ</w>
ಉತ್ತರ ಪ್ರದೇಶ</w>
ಉಂಟಾಗ ುವ</w>
ಉಂಟ ಾಗುತ್ತದೆ</w>
ಉ ಸ್ತುವ
ಈಗಾಗ ಲೆ</w>
ಇವೆರಡ ೂ</w>
ಇವರಿಬ್ಬ ರ</w>
ಇಲ್ಲ ೇ</w>
ಇಲ್ಲ ಿಯೇ</w>
ಇದ್ದ ಕ್ಕ
ಇಟ್ಟ ುಕೊಂಡ
ಇ ವೇ</w>
ಆಸ್ಟ್ರ ೇಲಿಯ</w>
ಆವಶ್ಯ ಕ
ಆರಂಭ ಿಸಿದೆ</w>
ಆದ್ ಮಿ</w>
ಆದ ಿ</w>
ಆಟೋ ಮ್ಯಾ
ಆಗ ಿ</w>
ಆಗ ಿ
ಆ ಧಾರ</w>
ಅವಕಾಶ ಗಳನ್ನು</w>
ಅವ ರಿಗಾಗಿ</w>
ಅರು ಣಾ
ಅಯೋಧ್ಯ ೆ</w>
ಅನೈ ತಿಕ</w>
ಅನೇ ಕರಿಗೆ</w>
ಅನು ಮ
ಅಧೀ ನ
ಅತ್ಯ ು
ಅತ್ ಯಾವಶ್ಯ
ಅಜ್ ಜಿ</w>
ಅಚ್ಚ ರಿ</w>
ಅಗತ್ಯ ವಾದ</w>
ಅಗ ಲಿದ್ದಾರೆ</w>
ಅಂತಿ ಮ
ಅಂತರ್ ಜಾಲ</w>
ಅಂತ ರಾಷ್ಟ್ರೀಯ</w>
ಅಂಗ ಡಿಗಳು</w>
ಅ ಮಾಯ
ಅ ಕ್
ಅ ಂಡ್</w>
ಂಶ ಗಳು</w>
t i
3 3
್ಯಾ ಂ
್ಯ ಾರ
ೋತ್ ಸವ
ೊಳ ಗಿಂದ</w>
ೊಬ್ಬ ನ</w>
ೆಯ ಷ್ಟೇ</w>
ೆಂಬ ುದು</w>
ೆ ಲ್ಲಿ</w>
ೆ ಗೊಳ
ೆ ಗಳಿವೆ</w>
ೂರ್ ತಿ</w>
ೀ ರೋ</w>
ಿಸುವ ದು</w>
ಿಸ ಲಿ</w>
ಿರುವ ೆ</w>
ಿರುವ ನು</w>
ಿರ ್</w>
ಿರ ಾ
ಿರ ಲಿದೆ</w>
ಿಯಾಗ ುತ್ತದೆ</w>
ಿಯಾಗ ಲಿದೆ</w>
ಿನ ವೂ</w>
ಿದ್ದಾರ ಂತೆ</w>
ಿದೆಯ ೆ</w>
ಿದ ಿದ್ದಾರೆ</w>
ಿತ ವಾಗಿದೆ</w>
ಿಕೊಂಡ ಿತು</w>
ಿ ಂಗ್‌</w>
ಹೋಲಿಸ ಿದರೆ</w>
ಹೋದ ನು</w>
ಹೋಗ ುತ್ತೇನೆ</w>
ಹೋಗ ಲಿಲ್ಲ</w>
ಹೊಂದ ಿಲ್ಲ</w>
ಹೊಂದ ಿದ್ದರು</w>
ಹೇಳ ಿಕೊಂಡಿದ್ದಾರೆ</w>
ಹೇಗ ೋ</w>
ಹೆತ್ತ ವರ</w>
ಹುತಾತ್ಮ ರಾಗಿದ್ದಾರೆ</w>
ಹುಟ್ಟ ಿದ</w>
ಹೀಗ ನ್ನ
ಹೀ ರೋ</w>
ಹಿಡಿಯ ಲು</w>
ಹಿಂಜ ರಿಯ
ಹಾರ ್</w>
ಹಾಗ ಿಲ್ಲ</w>
ಹ ತಾ
ಸ್‌ ನ</w>
ಸ್ಮಾರ್ಟ್‌ ಫೋನ್</w>
ಸ್ಥಾಪ ನೆ</w>
ಸ್ಥಾನ ಮಾನ</w>
ಸ್ಥಳ ವಾಗಿದೆ</w>
ಸ್ಟ ಾಗ್ರಾ
ಸ್ ನೇ
ಸ್ನೇ ಹಿತ
ಸೌಂದ ರ್ಯ</w>
ಸೇವೆ ಗಳು</w>
ಸೇರ್ ಪಡೆ
ಸುದೀ ರ್
ಸುಂದ ರ
ಸಿವಿ ಲ್</w>
ಸಿ ೕ
ಸಿ ಧು</w>
ಸಿ ಐ
ಸಾಹಿ ತ್ಯ
ಸಾಧ್ಯವಾಗ ಿರಲಿಲ್ಲ</w>
ಸಾಧ್ಯ ವಿರುವ</w>
ಸಾಧ ಿಸ
ಸಾ ಮೂ
ಸಾಮೂ ಹಿಕ</w>
ಸಹ ಯೋಗ
ಸಲ್ಲ ಿಸುವ</w>
ಸರ್ಕಾರ ಗಳು</w>
ಸಮ್ಮಿ ಶ್ರ</w>
ಸಮುದಾಯ ಕ್ಕೆ</w>
ಸಮಾ ವೇಶ</w>
ಸಮಸ್ಯ ೆಗೆ</w>
ಸಂಸ್ಥ ೆಗಳ</w>
ಸಂಸದ ರು</w>
ಸಂಭಾಷ ಣೆ</w>
ಸಂದರ್ಶ ನ</w>
ಸಂಘ ರ್ಷ
ಸಂಗ್ರ ಹ</w>
ಸಂ ವಾದ
ಸಂ ಕಿ
ಸಂಕಿ ೕರ್
ಸ ಬ್ಬ
ಸ ದು
ಸದು ಪ
ಸ ದಾ
ಸ ತ್
ಶೇ ಕಡ
ಶಿ ಯ</w>
ಶಿ ಪ್</w>
ಶಾ ಲಿ</w>
ಶಬ್ ದ</w>
ಶಂಕ ಿಸಿದ್ದಾರೆ</w>
ಶ ವಾಗ
ವೊಂದ ನ್ನು</w>
ವೈದ್ಯ ರನ್ನು</w>
ವೈಜ್ಞಾ ನಿಕ</w>
ವೇ ಷ</w>
ವೃತ್ತ ಾಂತ
ವು ಂಟು</w>
ವೀಡಿಯ ೋ</w>
ವಿಶ್ವಾಸ ವಿದೆ</w>
ವಿಶ್ವವಿದ್ಯಾ ನಿಲಯ
ವಿಶ್ವಕ ಪ್‌</w>
ವಿಶ್ವ ದಲ್ಲಿ</w>
ವಿಧೇಯ ರಾಗ
ವಿಧ ದ</w>
ವಿತರಿಸ ಲಾಯಿತು</w>
ವಿಚಾರ ಣೆಯನ್ನು</w>
ವಿ ಭಾಗ</w>
ವಾಯು ಪಡೆ</w>
ವಾಗ ಿದ್ದರೆ</w>
ವಾ ಸಿ</w>
ವಾ ದಿ
ವಾ ಣ</w>
ವರ್ಷ ದವ
ವರ್ ತಿ</w>
ವ ರಿಂದ</w>
ವ ತ್ತು</w>
ಳ ಿಯಲ್ಲಿ</w>
ಲ್ಲ ದೇ</w>
ಲ್ಪಟ್ಟ ರು</w>
ಲೇ ಷ
ಲಿ ನ್</w>
ಲಿ ತ್ತು</w>
ಲಿ ಗಳು</w>
ಲ ಿದ್ದೇವೆ</w>
ರೋಗ ದ</w>
ರೂಪ ದಲ್ಲಿ</w>
ರು ಜು
ರೀ ತಿಯಲ್ಲ
ರೀ ತಿಯಲ್ಲಿ</w>
ರೀ ಕ್ಷ
ರಿ ಗೊ
ರಿ ಂದ
ರಾಮ ಮಂದಿರ</w>
ರಾಜ ಿ
ರಾಜ ಧಾನ
ರಾಜಧಾನ ಿ</w>
ರಕ್ಷ ಿಸಲಾಗಿದೆ</w>
ರಕ್ತ ಸ್ರಾ
ಯೋಜ ನೆ
ಯೇಸು ವಿ
ಯಾವುದ ೋ</w>
ಯಾವುದ ರ</w>
ಯಾವುದ ನ್ನೂ</w>
ಯಾರ ಿ
ಯಾಕೋ ಬ</w>
ಯಶಸ್ವಿಯ ಾಗಿದ್ದಾರೆ</w>
ಯ ಂತ್ರ
ಮ್ಯಾನ ೇ
ಮ್ಯಾ ಜಿಸ್ಟ್ರ
ಮೊದ ಲಿ
ಮೊದ ಲಾದ</w>
ಮೊದ ಲಾ
ಮೈತ್ರಿ ಕೂಟ</w>
ಮೆ ೖ
ಮೆ ಲ್ಲ
ಮೃತ ರಲ್ಲಿ</w>
ಮುಖ್ಯ ವಾಗಿದೆ</w>
ಮುಂಬೈ ಗೆ</w>
ಮೀ ಟ
ಮಾಹಿತ ಿಗಾಗಿ</w>
ಮಾಡುವ ಂತ
ಮಾಡಿದ ೆವು</w>
ಮಾ ನನ
ಮಲೆಯಾ ಳ
ಮರ ್ಯಾ
ಮನ್ನ ಾ</w>
ಮಧ್ಯ ಪ್ರದೇಶದ</w>
ಮತ್ತ ಿತ
ಮಗ ನಿಗೆ</w>
ಮಂ ಜು</w>
ಮ ೇಳ
ಮ ೇ</w>
ಭೇ ಟಿ</w>
ಭಾಷ ಾ</w>
ಭಾಷ ಣದ</w>
ಭಾವ ದಿಂದ</w>
ಭಾರತ ದಿಂದ</w>
ಭಾ ರ</w>
ಬೌ ಂಡರಿ</w>
ಬೆಚ್ಚ ಗಿನ</w>
ಬೆ ಲೆಯ
ಬಿದ್ದ ಿವೆ</w>
ಬಿಎ ಸ್ಪಿ</w>
ಬಿ ಡ್
ಬಿ ಗ್</w>
ಬಾಲಕ ನನ್ನು</w>
ಬಾಣ ಲೆಯಲ್ಲಿ</w>
ಬಹು ಮತ
ಬಹಿರಂಗ ಪಡಿಸಿಲ್ಲ</w>
ಬರೆದ ನು</w>
ಬರೆದ ದ್ದು</w>
ಬದಲಾವಣ ೆಗಳು</w>
ಬಣ್ಣ ಗಳು</w>
ಬಟ್ಟ ಲಿನಲ್ಲಿ</w>
ಬಂಧ ಿಸಲಾಗಿತ್ತು</w>
ಬ ರ</w>
ಬ ಣ
ಫೋಟ ೊ
ಫು ಲ್</w>
ಫಿ ಲ್
ಪ್ಲಾ ಸ್ಟಿಕ್</w>
ಪ್ರೊ ಡ
ಪ್ರೇ ರಿಸ
ಪ್ರೀತ ಿಸುತ್ತೇನೆ</w>
ಪ್ರಾ ಣಿ</w>
ಪ್ರತಿಯೊಬ್ಬ ರಿಗೂ</w>
ಪ್ರತಿ ಪಕ್ಷ</w>
ಪ್ರಣಾ ಳ
ಪ್ರಕ್ರಿಯ ೆಯನ್ನು</w>
ಪ್ರ ಶಂ
ಪ್ ಪಾ
ಪೌ ಲ</w>
ಪೋಷ ಕರ</w>
ಪೋ ರ್ಟ್</w>
ಪೈ ಲ
ಪೇತ್ರ ನು</w>
ಪೆಟ್ರೋ ಲಿಯಂ</w>
ಪೀ ಳಿ
ಪಿ ನಿಂದ</w>
ಪಿ ಂಗ್</w>
ಪಾಲ ಿಕೆ</w>
ಪಾ ಲಾಗ
ಪಾ ಡು</w>
ಪರಿ ಪೂರ್ಣ
ಪರಸ್ಪ ರ
ಪರ ್ಯಾ
ಪರ ್ಯ
ಪತ್ರ ಗಳನ್ನು</w>
ಪತ್ರ ಕರ್ತ
ಪತ್ತೆ ಹಚ್ಚ
ಪಡೆಯ ಿತು</w>
ಪಠ ್ಯ</w>
ಪಟ್ಟ ಿಯನ್ನು</w>
ಪಕ್ಕ ಾ</w>
ಪಂದ ್ಯಾ
ಪ ಾರು</w>
ಪ ರೋ
ನ್ಯಾಯಾಲಯ ವು</w>
ನ್ಯಾಯಾಧೀಶ ರು</w>
ನ್ಯಾಯ ಪೀಠ</w>
ನ್ನ ು
ನೋ ವನ್ನು</w>
ನೈಸರ್ಗ ಿಕ</w>
ನೆರವೇ ರ
ನೆಯ ದಾಗಿ</w>
ನೂ ರು</w>
ನು ಣ್ಣ
ನು ಂಗ
ನೀಡ ುತ್ತಿದೆ</w>
ನೀಡ ಲಿದ್ದಾರೆ</w>
ನೀ ರಿ
ನಿರ್ ಭಯ
ನಿತ್ಯ ದ</w>
ನಿಕ ಟ</w>
ನಿ ಮಿಷ
ನಿ ಜಾ
ನಿ ಂಗ್</w>
ನಲ್ಲ ಿನ</w>
ನನ್ನ ೇ</w>
ನನ್ನ ದೇ</w>
ನನ ಗಿ
ನಡೆಸ ುತ್ತಿರುವ</w>
ನಡೆಯ ುತ್ತಿಲ್ಲ</w>
ನಡೆಯ ಲಿವೆ</w>
ನಡೆ ದುಕೊಂಡ
ನಡುವ ಣ</w>
ನಟ ಿಸುತ್ತಿದ್ದಾರೆ</w>
ನ ದಿಯ</w>
ಧೈರ್ಯ ದಿಂದ</w>
ಧ ಿಕ</w>
ದ್ವಿ ಪಕ್ಷೀಯ</w>
ದ್ದ ೊಂದು</w>
ದೇಹ ದಲ್ಲಿ</w>
ದೇವೇ ಗೌಡ</w>
ದೃಶ ್ಯಾವ
ದುಃ ಖ</w>
ದು ಬೈ
ದಾವೀದ ನ</w>
ದಾಖಲಿಸ ಿದ್ದರು</w>
ದಾ ದ</w>
ದವ ನು</w>
ದಲ್ಲ ೇ</w>
ದಟ್ಟ ಣೆ</w>
ದ ೊಂದು</w>
ದ ಿದ್ದರೂ</w>
ದ ಬ್ಬ
ತ್ಯ ಾಗ
ತೆಯ ಿಲ್ಲ</w>
ತೆಂಗ ಿನ</w>
ತೀರ್ ಪು
ತಿಳಿಸ ಲಾಗಿದೆ</w>
ತಿಂಗಳ ುಗಳ</w>
ತಾ ವೇ</w>
ತಾ ಜಾ</w>
ತಲೆ ಮಾರ
ತಪ್ಪ ಿಸಲು</w>
ತಪ್ಪ ಾಗಿ</w>
ತಂತ್ರಜ್ಞಾನ ದ</w>
ತ ವಾಗಿದೆ</w>
ತ ವ
ತ ಳ್ಳಿ</w>
ತ ನ್ನು</w>
ಡೆ ಗಳು</w>
ಡಿಸ ೇಲ್</w>
ಡಿಸ ೆಂಬ
ಠೇ ವಣಿ</w>
ಟ್ಟ ರು</w>
ಟೆ ಕ್</w>
ಟ ಿನ</w>
ಜ್ ವಾ
ಜೊತೆಯ ಾಗಿ</w>
ಜೆ ಡಿಯು</w>
ಜೀವ ನದಲ್ಲಿ</w>
ಜಿಲ್ಲಾಸ್ಪತ್ರ ೆಗೆ</w>
ಜವಾಬ್ದಾರ ಿಯನ್ನು</w>
ಜನ ರೇ</w>
ಜ ಿತ್</w>
ಜ ರ್</w>
ಜ ಪ್ತಿ</w>
ಜ ಪಾನ್</w>
ಚೊಚ್ಚ ಲ</w>
ಚೈ ತ
ಚೆನ್ನ ಾಗಿದೆ</w>
ಚುರು ಕು
ಚಿಕ ನ್</w>
ಚಿಂತಾಜನ ಕವಾಗಿದೆ</w>
ಚಾಲ ಕನನ್ನು</w>
ಚಾಂಪಿಯ ನ್‌
ಚರ್ ಯ</w>
ಚಂಡ ಮಾರು
ಘೋಷ ಿಸಿದೆ</w>
ಗ್ರ ೇ
ಗೋ ಡೆ</w>
ಗೊತ್ತ ಿಲ್ಲ
ಗೊತ್ತ ಿರಲಿಲ್ಲ</w>
ಗುರುತ ಿಸಲಾಗಿದೆ</w>
ಗುಪ್ ತಾ</w>
ಗು ರು</w>
ಗು ರ
ಗು ಡ್</w>
ಗಾ ಣ
ಗಣ ಕ
ಗಟ್ಟ ಿಯಾಗಿ</w>
ಖ ಾಯ
ಕ್ರೀ ಡಾ</w>
ಕ್ಯಾಮೆ ರಾಗ
ಕ್ಯಾಪ್ಟ ನ್</w>
ಕ್ಕ ು
ಕೌನ್ಸಿ ಲ್</w>
ಕೌಂಟ ರ್</w>
ಕೊಡ ುವುದು</w>
ಕೊಡ ುವುದಿಲ್ಲ</w>
ಕೊಡ ುತ್ತಾರೆ</w>
ಕೊಡ ುಗೆ</w>
ಕೊ ಲೆಯ
ಕೈ ಜೋಡ
ಕೈ ಗೊಂಡಿದೆ</w>
ಕೇಳ ುವ</w>
ಕೆ ಜಿ</w>
ಕೆ ಂದು</w>
ಕೃ ತಿ</w>
ಕೂಟ ದಲ್ಲಿ</w>
ಕುಲ ದೀಪ್</w>
ಕುದ ು
ಕುಟುಂಬ ಸ್ಥ
ಕು ಶ
ಕು ಗ್ಗ
ಕೀರ್ತನೆ ಗಾರ
ಕೀರ್ ತಿ</w>
ಕೀ ಟ
ಕಿತ್ತ ಳೆ</w>
ಕಿ ಡ್
ಕಾರ್ಯ ರೂಪಕ್ಕೆ</w>
ಕಾರ್ಯ ಗಳನ್ನು</w>
ಕಾರಣ ಗಳಿಗಾಗಿ</w>
ಕಾರಣ ಗಳನ್ನು</w>
ಕಾಯ್ದ ಿರ
ಕಾಣ ಲಿಲ್ಲ</w>
ಕಾ ಳು
ಕಳು ಹಿಸಿ</w>
ಕಳ ವು</w>
ಕಣ್ಣ ುಗಳನ್ನು</w>
ಕ ಲಿತ</w>
ಕ ರೂ</w>
ಕ ನ್ನು</w>
ಒಬ್ಬ ರೇ</w>
ಒಂದ ುವ
ಒ ದ್ದ
ಒ ಡೆಯ
ಐ ಪಿಸಿ</w>
ಎಣ್ಣ ೆಯನ್ನು</w>
ಎಂದ ೆ</w>
ಉಳಿಯ ಲು</w>
ಉರು ಳಿಸ
ಉಪ ಯುಕ್ತ</w>
ಉಪ ಚುನಾವಣೆ</w>
ಉದ್ಯ ಮ
ಉದ್ಘಾಟ ನೆ</w>
ಉದ್ ವಿ
ಉತ್ಪನ್ನ ಗಳ</w>
ಉಡು ಗೊ
ಇಸ್ಲಾ ಮಿಕ್</w>
ಇವ ನನ್ನು</w>
ಇಲ್ಲ ದ</w>
ಇದ್ದ ೇ</w>
ಇದ್ದ ರೂ</w>
ಇದ ೊಂದು</w>
ಇದ ೆಲ್ಲ
ಇತ್ತೀಚೆಗ ಷ್ಟೇ</w>
ಇತರ ರೊಂದಿಗೆ</w>
ಇ ವನ್ನು</w>
ಇ ಂಗ
ಆಸಕ್ ತಿಯ
ಆರೋಪ ಿಸಿದೆ</w>
ಆರೋಪ ವನ್ನು</w>
ಆರಂಭ ಿಸ
ಆರಂಭ ವಾಗ
ಆಯ್ದ ುಕೊಂಡ
ಆಯು ಕ್ತ
ಆದೇಶ ಿಸಿದೆ</w>
ಆತ್ ಮ</w>
ಆಡ ಿದ</w>
ಆಟೋಮ್ಯಾ ಟಿಕ್</w>
ಆಟಗಾರ ರ</w>
ಆಟ ಗಾರ್
ಆಜ್ಞ ಾಪ
ಆಕ ಸ್
ಅಸ್ಸಾ ಂ</w>
ಅಷ್ಟ ು
ಅಷ್ಟ ಕ್ಕೂ</w>
ಅವಘ ಡ
ಅವಕಾಶ ವಿಲ್ಲ</w>
ಅವ ಶೇಷ
ಅಲ್ಲ ಿಯೂ</w>
ಅಲ್ಲ ಗಳೆ
ಅಲಹಾ ಬಾದ್</w>
ಅಯೋಧ್ಯ ೆಯಲ್ಲಿ</w>
ಅಮೆರಿಕ ಕ್ಕೆ</w>
ಅಪ ಾರ
ಅಪ ಹ
ಅನಾಹು ತ</w>
ಅನಾರೋಗ್ಯ ದಿಂದ</w>
ಅನ ರ್
ಅಧ್ಯ ಾಯ</w>
ಅಧ್ಯ ಾಯ
ಅಧ ಿಸೂ
ಅತ್ಯುತ್ತ ಮ
ಅಗತ್ಯ ವಾಗಿದೆ</w>
ಅಕ್ಷ ಯ್</w>
ಅಂದ ್
ಅ ಹಿತಕರ</w>
ಅ ಸ್ಥಿರ
ಅ ಡಿ
ಅ ಗ್ಗ
ಅ ಕ್ಕ</w>
ಂತ ಾ</w>
ಂ ನ</w>
ಂ ಚಿ
men t</w>
:1 ,
6 2</w>
5 4</w>
4 9</w>
4 3</w>
20 16</w>
2 ರಲ್ಲಿ</w>
18 0</w>
ೋ ಲ್</w>
ೇಳ ೆ</w>
ೇ ನೆಂದರೆ</w>
ೆಯಿ ಂದಲೂ</w>
ೆಯ ೇ</w>
ೆ ೖ
ೆ ನ್ನ
ೆ ಚ್ಚ
ುವುದ ಕ್ಕೂ</w>
ುವದ ಕ್ಕೂ</w>
ುವ ವರನ್ನು</w>
ುತ್ತ ದೆ
ೀ ನಾ</w>
ಿಸುತ್ತ ಿದ್ದೇವೆ</w>
ಿಸ ಸಾಧ್ಯವಿದೆ</w>
ಿಸ ದ
ಿರ ೋದು</w>
ಿಯ ೊಬ್ಬರು</w>
ಿಯ ಂತೆ</w>
ಿಕ್ಕ ೋ
ಿಕೊಂಡ ಿದ್ದ</w>
ಿಕ ೊ</w>
ಾಗೋ ಷ್ಠ
ಹೊ ಳ
ಹೊ ಟ್ಟೆ</w>
ಹೇಳ ಿಕೊಳ್ಳ
ಹೆಮ್ಮೆ ಯ</w>
ಹೆಚ್ಚಿ ದ</w>
ಹೆಚ್ಚ ಿಸಲು</w>
ಹೆಂಡ ತಿಯನ್ನು</w>
ಹೆ ಣ
ಹೆ ಚ್</w>
ಹು ರಿಯ
ಹೀಗ ಿದ್ದರೂ</w>
ಹಿಟ್ಟ ನ್ನು</w>
ಹಿಂದೂ ಗಳು</w>
ಹಾರ ೈಸ
ಹಾರ ಿ</w>
ಹಾಜ ರಾ
ಹಾ ಳು</w>
ಹತ್ತಿ ಕ್ಕ
ಹತಾ ಶ
ಹಣ್ಣ ಿನ</w>
ಹ ್ಯು
ಸ್ವಾಭಾ ವಿಕ</w>
ಸ್ವಾ ಧೀ
ಸ್ವಲ್ ಪದ
ಸ್ವ ಚ್ಛ</w>
ಸ್ಥಳ ದಲ್ಲಿದ್ದ</w>
ಸ್ಥ ಗಿತ</w>
ಸ್ಟ ೈ
ಸ್ ಮಿತ
ಸ್ ಮರಣ
ಸ್ ತಾನ</w>
ಸ್ ಕೋ
ಸೋಂಕ ಿಗೆ</w>
ಸೊ ಸೈ
ಸೈ ನ್ಸ್</w>
ಸೇವ ಕರ</w>
ಸೇರಿ ಕೊಂಡ
ಸೆ ಕ್ಸ್</w>
ಸೃಷ್ಟಿಕ ರ್
ಸೂಚ ್ಯ
ಸುರಿಯ ುತ್ತಾರೆ</w>
ಸುದ್ದಿಗೋಷ್ಠ ಿಯಲ್ಲಿ</w>
ಸು ತ್ತ</w>
ಸೀಟು ಗಳನ್ನು</w>
ಸಿದ್ಧ ವಾಗಿದೆ</w>
ಸಿಡಿ ಲು</w>
ಸಿಕ್ಕಾ ಪಟ್ಟೆ</w>
ಸಿ ತ್ತು</w>
ಸಾಮರ್ಥ ್ಯದ</w>
ಸಾಧ್ಯ ವಾಗಿದೆ</w>
ಸಾಂ ವಿಧಾ
ಸಹೋದರಿಯ ರು</w>
ಸಲ್ಲ ಿಸಿದರು</w>
ಸಲ ುವಾಗಿ</w>
ಸಮ್ಮೇಳ ನ</w>
ಸಮುದ್ರ ಕ್ಕೆ</w>
ಸಮಾರಂಭ ದ</w>
ಸಮಸ್ಯೆ ಗಳಿವೆ</w>
ಸಮಸ್ಯೆ ಗಳಿಗೆ</w>
ಸಮಯ ಕ್ಕೆ</w>
ಸಮ ತೋ
ಸಭ ೆಯು</w>
ಸಭ ಾಗೃಹ
ಸದಸ್ಯ ರನ್ನು</w>
ಸಡಿ ಲ
ಸಂಭವ ಿಸಿತು</w>
ಸಂಬಂಧ ಪಟ್ಟ
ಸಂದ ೀ
ಸಂಗ ತಿ
ಸಂ ಕಟ</w>
ಸ ಿಕ್</w>
ಸ ವಿ
ಸ ರಿಗೆ</w>
ಸ ತ್ವ
ಷ್ಟ ೋ</w>
ಶ್ರೀ ದೇವಿ</w>
ಶುಭಾ ಶಯ</w>
ಶೀ ಲ</w>
ಶಿಕ್ಷ ಣದ</w>
ಶಿ ವ</w>
ಶಾ ಖ
ಶವಾಗ ಾರ
ಶರಣ ಾಗ
ಶ ಮನ
ವೈಫ ಲ್ಯ</w>
ವೇದ ಿಕೆ</w>
ವೇಣುಗೋ ಪಾಲ್</w>
ವೈದ್ಯ ರು</w>
ವೆಚ್ಚ ವನ್ನು</w>
ವೆ ’</w>
ವೀ ಧ
ವಿಶ್ವಾ ಸಿ
ವಿವಾದ ಕ್ಕೆ</w>
ವಿಧಾನ ವನ್ನು</w>
ವಿದ್ಯಾರ್ಹ ತೆ</w>
ವಿಜೇ ತ</w>
ವಿಜಯ ್‌</w>
ವಿ ಪತ್ತ
ವಿ ನಾಯ
ವಿ ನಯ
ವಿ ಡ
ವಿ ಗ್ರಹ
ವಾರ ಿ</w>
ವಾಗ್ ವಾದ</w>
ವಾ ಸಿ
ವಾ ಂ
ವಹಿಸ ುತ್ತದೆ</w>
ವರ್ತ ನೆ</w>
ವರ್ ತನ
ವರ್ ಗ</w>
ವರಾಗ ಿದ್ದರು</w>
ವ ದು</w>
ಳ್ಳ ೆ</w>
ಳ ಾ</w>
ಲೆ ೕ</w>
ಲೀ ಟ
ಲಿ ದ</w>
ಲಿ ಕ್‌</w>
ಲಾಗ ದ</w>
ಲ ೈ</w>
ಲ ಗ್ಗೆ</w>
ಲ ಗ
ರೋ ಮನ್ನ
ರೈ ತರಿಗೆ</w>
ರೇ ನು</w>
ರಿಸ ರ್
ರಾವ ತ್</w>
ರಾತ್ರಿಯ ಲ್ಲಿ</w>
ರಾಜ್ಯಪಾಲ ರು</w>
ರಾಜ್ಯ ಸಭೆಗೆ</w>
ರಾಜ ಸ್ಥಾನದ</w>
ರಾ ಸಾಯ
ರನ್ನ ೊಬ್ಬರು</w>
ರಕ್ಷ ಣೆಗೆ</w>
ರಕ್ತದೊತ್ತ ಡ</w>
ರ ಮೇ
ರ ನ್ನ</w>
ಯೆಹೂ ದಿ</w>
ಯೂ ರೋ
ಯಾವುದ ಾದರೂ</w>
ಮ್ ‍
ಮ್ ಮು
ಮೌಲ್ಯ ಮಾಪ
ಮೊದಲ ನೆಯ</w>
ಮೇ ಲೆ
ಮೊಟ್ಟ ೆಗಳು</w>
ಮೆಸ್ ಸೀಯ
ಮೆಮೊ ರಿ</w>
ಮೃತಪಟ್ಟ ಿದ್ದಾನೆ</w>
ಮೂಲ ಗಳ</w>
ಮೂಡ ಿಸಿದೆ</w>
ಮೂ ಡಿ
ಮುನ್ನ ಡೆಯ
ಮುಖ ರ್ಜಿ</w>
ಮುಖ ದ</w>
ಮುಂದ ಾದ</w>
ಮು ಷ್
ಮು ನ
ಮು ತ್ತ</w>
ಮೀ ರಿ</w>
ಮಿ ನ</w>
ಮಾರ್ ಕ</w>
ಮಾನ್ಯ ತೆ</w>
ಮಾಡ ುತ್ತವೆ</w>
ಮಾಡ ಿಕೊಟ್ಟ
ಮಾಡ ಬೇಕಾಗ
ಮಾ ಸ್ಟರ್</w>
ಮಾ ತಿಗೆ</w>
ಮಹಿಳೆಯ ರಲ್ಲಿ</w>
ಮಹ ಾನ
ಮಸೂದ ೆಯನ್ನು</w>
ಮಲೆಯಾಳ ಂ</w>
ಮರೆಯ ದಿರಿ</w>
ಮರೆ ತು
ಮಕ್ಕಳ ೂ</w>
ಮ ಿಗೆ</w>
ಮ ಾಗ
ಮ ಯ</w>
ಮ ತಾ
ಭೇಟ ಿಯಾಗಿ</w>
ಭಯೋತ್ಪಾದ ಕ</w>
ಬ್ರಾಂ ಚ್‌</w>
ಬೇರೆಯ ವರಿಗೆ</w>
ಬೇರೆಯ ವರ</w>
ಬೆ ಲೆಯ</w>
ಬೀ ದಿ
ಬೀ ಗ</w>
ಬಿಹಾರ ದಲ್ಲಿ</w>
ಬಿಟ್ಟ ೆ</w>
ಬಿಟ್ಟ ಿದೆ</w>
ಬಿಜೆಪ ಿಯಲ್ಲಿ</w>
ಬಾಲ ಕನ</w>
ಬಾಂಬ ೆ</w>
ಬಾ ಬೆ
ಬಾ ದಾ
ಬಾ ಡಿ
ಬಾ ಟ
ಬಳಸ ುವುದು</w>
ಬಳಸ ುವ</w>
ಬಳಲ ುತ್ತಿದ್ದ</w>
ಬಲ್ಲ ರು</w>
ಬಯಸ ುತ್ತಾರೆ</w>
ಬದ್ಧ ತೆ</w>
ಬದು ಕು
ಬಂಧ ಿಸಿದರು</w>
ಬಂದ ವರು</w>
ಬಂಗಾ ಳದ</w>
ಫೈನ ಲ್‌ನಲ್ಲಿ</w>
ಫೆ ಬ್ರ
ಫೀ ಚರ್
ಫಲ ವನ್ನು</w>
ಫ ಿಕ್</w>
ಫ ಲಿಸ
ಪ್ರೇಕ್ಷ ಕರು</w>
ಪ್ರಾಯೋಗ ಿಕ</w>
ಪ್ರಾಯ ಶಃ</w>
ಪ್ರಸ್ತಾ ವ
ಪ್ರಶಸ್ ತಿಯನ್ನು</w>
ಪ್ರಶಸ್ ತಿಗೆ</w>
ಪ್ರಪಂಚ ದ</w>
ಪ್ರತ್ಯುತ್ತ ರ</w>
ಪ್ರತಿಯ ೊಬ್ಬರು</w>
ಪ್ರಕರಣ ಗಳ</w>
ಪ್ರಕಟ ಿಸಿದ್ದಾರೆ</w>
ಪ್ರ ಸಾರ</w>
ಪ್ರ ತ
ಪ್ರ ಜ್ಞೆ</w>
ಪುಸ್ತಕ ಗಳು</w>
ಪುಸ್ತಕ ಗಳನ್ನು</w>
ಪಿ ಂಚ
ಪಾಲ್ಗೊಳ್ಳ ಲಿದ್ದಾರೆ</w>
ಪಾರ ಾಗ
ಪಶ್ ಚಾ
ಪರಿಸ್ಥಿತ ಿಯಲ್ಲಿ</w>
ಪರಿಸ ರ
ಪರಿ ಷ್
ಪರಿ ಶುದ್ಧ</w>
ಪರಿ ಚಾರ
ಪರ ದೈ
ಪದ್ ಮಾವ
ಪದ್ ಮ
ಪದ ವೀಧ
ಪತ್ರಿಕ ಾಗೋಷ್ಠ
ಪತ್ರಿ ಕೆ</w>
ಪತ್ನಿಯ ನ್ನು</w>
ಪತ್ ನಿಯ</w>
ಪಡೆಯ ಿರಿ</w>
ಪಡೆದುಕೊಂಡ ರು</w>
ಪಡಿಸ ುತ್ತದೆ</w>
ಪಡ ುವ</w>
ಪ ್ಟ್</w>
ಪ ಂಥ
ನ್ ವಯ</w>
ನ್ ಗಳು</w>
ನೋ ವಿನ</w>
ನೋ ಡ್
ನೋ ಟ್</w>
ನೋ ವು</w>
ನೋ ಡಲು</w>
ನೆರೆ ಹೊರ
ನೆರವೇ ರಿಸ
ನೆನ ಪು
ನೀಡ ುತ್ತಿದ್ದಾರೆ</w>
ನೀಡ ಬಹುದು</w>
ನೀ ವೆ
ನೀ ರಿಗೆ</w>
ನಿಷ ೇ
ನಿಲ್ದಾ ಣ</w>
ನಿರ್ಮ ಿಸಲು</w>
ನಿದ ರ್ಶ
ನಿ ಲು
ನಿ ಯೋಗ
ನಾಶ ವಾಗ
ನಾರಾಯ ಣ</w>
ನಡೆಸ ಲಾಯಿತು</w>
ನಡೆಯ ಲು</w>
ನಡೆಯ ಲಿಲ್ಲ</w>
ನ ಲ್‌</w>
ನ ಲ
ನ ನ್</w>
ಧರಣ ಿ</w>
ಧ ದಲ್ಲಿ</w>
ದ್ರ ು</w>
ದ್ರ ಿ
ದ್ದ ಾರೆ</w>
ದ್ ವೇಷ</w>
ದೌ ರ್
ದೊರೆಯ ಲಿದೆ</w>
ದೇಶ ವು</w>
ದೇ ಶಿಯ</w>
ದೇ ಹದ</w>
ದೆ ಲ್ಲೆಡೆ</w>
ದು ಬೈ</w>
ದಿನ ಗಳ
ದಿ ೕರ್
ದಿ ಲೀ
ದಾರ ್</w>
ದಾಖ ಲೆಗಳು</w>
ದಾಂಪ ತ್ಯ</w>
ದಲ್ಲ ಿದ್ದರು</w>
ದಲ್ಲ ಿತ್ತು</w>
ದಂಪ ತಿಗೆ</w>
ದ ಲ
ತ್ಮ ಕವಾಗಿ</w>
ತೊಳೆ ದು</w>
ತೊಂದರೆ ಗಳು</w>
ತೊ ಳೆಯ
ತೆಗೆದುಕೊಳ್ಳ ಲಾಗುವುದು</w>
ತೆ ೕ
ತೆ ಂಡ
ತೆಂಡ ೂ
ತೂರಾ ಟ</w>
ತು ರಿದ</w>
ತು ರಿ</w>
ತಿಳಿಯ ಿರಿ</w>
ತಿಮೊಥ ೆಯ
ತಿಂಗಳಿ ನಲ್ಲಿ</w>
ತಿ ಂದ
ತಾ ಲ್ಲೂ
ತಜ್ಞ ರು</w>
ಡೌ ನ್
ಡಾ ಕ್ಟರ್</w>
ಟ್ರೋ ಫಿ</w>
ಟ್ರ ್ಯಾ
ಟ್ಯಾ ಕ್ಸಿ</w>
ಟ್ಯಾ ಂಕ
ಟ್ಟಿ ನಲ್ಲಿ</w>
ಟೊಮೆ ಟೊ</w>
ಟೆ ೂ</w>
ಟೆ ಲ್</w>
ಟೆ ಡ್‌</w>
ಟೂರ್ ನಿ</w>
ಟರ್ ಬ
ಜೊ ತೆಯಲ್ಲಿ</w>
ಜೆ ಕ್ಟ್</w>
ಜು ಗು
ಜೀವ ನಾ
ಜೀವ ಂತ
ಜಾರ್ ಖಂಡ್</w>
ಜಾಗರೂಕ ತೆಯಿಂದ</w>
ಜಲಾ ವೃ
ಜನ ವರಿ</w>
ಜ ಗಳ
ಚೆನ್ನೈ ನಲ್ಲಿ</w>
ಚಾ ಲೆ
ಚಲನ ಚಿತ್ರಗಳಲ್ಲಿ</w>
ಚರ್ಚ ್</w>
ಚರ್ ಮ</w>
ಚ ಿಗೆ</w>
ಚ ಾನ
ಚ ಂದ್</w>
ಘಟ ನೆಯನ್ನು</w>
ಗ್ ನ</w>
ಗೆ ಲ್ಲ</w>
ಗುಣ ಮಟ್ಟ</w>
ಗಿ ಲ್ಯ
ಗಿ ರಿ
ಗಾಯಾ ಳು</w>
ಗಾಯಗಳಾಗ ಿದ್ದು</w>
ಗಾಯ ದ</w>
ಗಳೆ ಲ್ಲಾ</w>
ಗಳ ಿಸಿದ್ದಾರೆ</w>
ಗಳ ಿಸಿದರು</w>
ಖರ್ ಗೆ</w>
ಖ ುದ್ದ
ಖ ರೀ
ಕ್ಷ ು
ಕ್ರಿಯ ೆ</w>
ಕ್ರಿಕೆ ಟ್‌ನಲ್ಲಿ</w>
ಕ್ಯಾ ಲಿ
ಕ್ಕ ೊಂದು</w>
ಕ್ ಸ್‌
ಕ್ ವಿ
ಕ್ ಲಾ
ಕ್ ರೆ</w>
ಕೊಲೆ ಸ್ಟ್ರಾ
ಕೊ ಬ್ಬು</w>
ಕೈಗೊಳ್ಳ ುವುದಾಗಿ</w>
ಕೇ ಳ್
ಕೊ ನೆಯಲ್ಲಿ</w>
ಕೆಲಸ ಗಳು</w>
ಕೆ ಎಸ್
ಕೃತಜ್ಞ ತೆ</w>
ಕೃ ಪ
ಕೂ ಡಿ
ಕುಳ ಿತು</w>
ಕಾವಲಿನಬುರು ಜು</w>
ಕಾಲ ಿಗೆ</w>
ಕಾರ್ಮಿಕ ರ</w>
ಕಾರ್ಖ ಾನ
ಕಾರಣ ವೆಂದು</w>
ಕಾರಣ ವೂ</w>
ಕಾರ ುಗಳಿಗೆ</w>
ಕಾರ ುಗಳ</w>
ಕಾಯ್ದ ೆಯಡಿ</w>
ಕಾ ಲ್
ಕಾ ಂಗ</w>
ಕಷ್ಟ ದ</w>
ಕಣ್ಣ ಿಗೆ</w>
ಕಂಡು ಬರುತ್ತದೆ</w>
ಕಂ ಠ
ಕ ೊ</w>
ಕ ಿಯಾ</w>
ಕ ಪ್ಪ
ಕ ಂಟ್ರ
ಒಳ್ಳೇದ ನ್ನು</w>
ಒಬ್ಬ ರನ್ನೊಬ್ಬರು</w>
ಒಬ್ಬ ನೇ</w>
ಒದಗ ಿಸುವ</w>
ಒತ್ತ ಿ</w>
ಒಟ್ಟ ುಗೂಡ
ಒಕ್ಕೂ ಟ</w>
ಏನೆ ಲ್ಲಾ</w>
ಏ ಲಕ್ಕಿ</w>
ಏ ರಿದೆ</w>
ಎಷ್ಟ ೊಂದು</w>
ಎಲ್ಲ ದಕ್ಕೂ</w>
ಎನ್‌ ಸಿಪಿ</w>
ಎಂದ ರೇನು</w>
ಉಸಿರಾಟ ದ</w>
ಉಪ ಮುಖ್ಯಮಂತ್ರಿ</w>
ಉದ್ದೇಶ ಿಸಿ</w>
ಉತ್ಪಾದ ಿಸುತ್ತದೆ</w>
ಉತ್ಪ ನ್ನ</w>
ಉಗ್ರ ಗಾ
ಉ ಷ್ಣ
ಇವೆ ಲ್ಲಾ</w>
ಇವ ುಗಳು</w>
ಇಲ್ಲಿಯ ವರೆಗೂ</w>
ಇಬ್ಬ ರಿಗೆ</w>
ಇನ್ನು ಳಿದ
ಇನಿ ಂಗ್
ಇದ್ದ ರೆ</w>
ಇದುವ ೇ</w>
ಇದರಿ ಂದ
ಇತರ ರನ್ನು</w>
ಇಂ ಚಿನ</w>
ಇ ಳಿ
ಇ ಡು
ಇ ಡಿ</w>
ಆರ್‌ ಟಿಸಿ</w>
ಆರ್ ​
ಆರೋಪ ಿಸಿದರು</w>
ಆಯ್ಕೆ ಮಾಡಿ</w>
ಆಫ್ ಘಾನಿಸ್
ಆದ ಾ
ಆಗ್ರ ಹ</w>
ಆಗ ುತ್ತ
ಆಗ ಿದ್ದ</w>
ಆ ಲ್</w>
ಅಶ್ ವಿನ್</w>
ಅವಲಂಬಿಸ ಿರುತ್ತದೆ</w>
ಅವ ಳಿ</w>
ಅಲ್ಲ ೂ</w>
ಅಲ್ ವಾ</w>
ಅಲ್ ಪ</w>
ಅರ್ಥಮಾಡಿಕೊಳ್ಳ ಲು</w>
ಅರ್ಥ ವೇನು</w>
ಅರಸ ನು</w>
ಅಮೆರಿ ಕಾದ</w>
ಅಭಿಷಿ ಕ್ತ</w>
ಅಭಿವೃದ್ದ ಿ</w>
ಅನ್ನ ೋದ
ಅನು ಸರಿಸಿ</w>
ಅನು ರಾಗ
ಅನು ಭ
ಅನು ಪ
ಅದಕ್ಕ ೇ</w>
ಅದ ೆಲ್ಲ</w>
ಅದ ುವೇ</w>
ಅತ್ಯ ಧಿಕ</w>
ಅಂತ ರದಲ್ಲಿ</w>
ಅ ಡೆ
ಅ ಜೇ
ಅ ಜಯ್</w>
ಅ ಂಚ
ಂಗ್ ‌ನಲ್ಲಿ</w>
:1 5</w>
:1 1</w>
8 ರಲ್ಲಿ</w>
7 ,
4 7</w>
4 6</w>
4 1</w>
3 9
1/ 2</w>
್ ವಿ</w>
್ ಳೆ</w>
್ ತಾ</w>
ೋ ಣ</w>
ೆಯ ಾಡ
ೆಂಬ ುದನ್ನು</w>
ೆಂದ ಿಗೂ</w>
ೂ ಗ
ುವುದ ಕ್ಕಾಗಿ</w>
ುದ್ದ ಕ್ಕೂ</w>
ುಕೊಳ್ಳ ಲು</w>
ಿಸುವುದ ರಿಂದ</w>
ಿಸುತ್ತ ೇನೆ</w>
ಿಸುತ್ತ ಿದ್ದೇನೆ</w>
ಿರುವ ವರನ್ನು</w>
ಿರ ಬಾರದು</w>
ಿಯಾಗ ಿದ್ದ</w>
ಿಯಾ ದಲ್ಲಿ</w>
ಿಯ ೋ</w>
ಿಯ ವರು</w>
ಹ್ ಲಿ</w>
ಹೋಟೆ ಲ್</w>
ಹೋಗ ೋಣ</w>
ಹೋಗ ಬಹುದು</w>
ಹೊರ ಗಡೆ</w>
ಹೇಳಿದ ಳು</w>
ಹೆಸ ರಿಸ
ಹೆಚ್ಚಾಗ ುತ್ತಿದೆ</w>
ಹೆಚ್ ಪಿ</w>
ಹೆ ನ್
ಹೆ ಜ್ಜ
ಹೂಡಿಕೆ ದಾರ
ಹು ಟ್ಟು</w>
ಹು ಚ್ಚು</w>
ಹಿತ ಾಸ
ಹಿಡ ಿತ
ಹಿಂಬಾ ಲಿಸ
ಹಿಂದಿರುಗ ಿ</w>
ಹಾರ ೈ
ಹಾಕ ಿಲ್ಲ</w>
ಹಾ ಸ
ಹಾ ಜಿ</w>
ಹಚ್ಚ ಿದ್ದಾರೆ</w>
ಹಕ್ಕ ನ್ನು</w>
ಹಂತ ಕ್ಕೆ</w>
ಹ ನು
ಹ ಡಗ
ಸ್ವಾತಂತ್ರ ್ಯವನ್ನು</w>
ಸ್ವಾತಂತ್ರ ್ಯ
ಸ್ವಾಗತ ಿಸಿದರು</w>
ಸ್ವರ ೂಪ</w>
ಸ್ಮಿತ ್</w>
ಸ್ಪಂದ ನೆ</w>
ಸ್ತ ಂಭ
ಸೌಲಭ್ಯ ಗಳನ್ನು</w>
ಸೌ ಕರ್ಯ</w>
ಸೋಂಕ ಿನಿಂದ</w>
ಸೋ ಲು
ಸೋ ಮ
ಸೈ ನಾ</w>
ಸೇತ ುವೆ</w>
ಸೇ ನಾ
ಸೆಲ್ ಸಿಯ
ಸೆಲ್ ಫಿ</w>
ಸೆಮಿ ಫೈನಲ್</w>
ಸೆ ಸ್</w>
ಸೆ ಳೆ
ಸೆ ಟ್</w>
ಸೆ ಂಟ
ಸೂ ಪರ್
ಸೂ ತ್ರ
ಸುವ್ಯವಸ್ಥ ೆ</w>
ಸುಪ್ರೀಂ ಕೋರ್
ಸುನೀ ಗ
ಸುದ್ದಿ ಗಾರ
ಸಿಬ್ಬಂದ ಿಗಳು</w>
ಸಿಂ ಹ</w>
ಸಿ ಇ
ಸಾರ್ವ ತ್ರಿಕ</w>
ಸಾರ ಲು</w>
ಸಾಧ ನ</w>
ಸಾಕ್ಷ ್ಯಾ
ಸಾಂತ್ವ ನ</w>
ಸಾಂ ಕೇ
ಸಹೋದರ ರನ್ನು</w>
ಸಹ ಜ</w>
ಸಲ್ಲ ಿಸಿದೆ</w>
ಸರ್ಕಾರ ದಲ್ಲಿ</w>
ಸರಳ ವಾಗಿ</w>
ಸಮೃದ್ಧ ವಾಗಿದೆ</w>
ಸಮಯ ದಿಂದ</w>
ಸಮ ಯಾ
ಸನ್ನಿ ವೇಶ</w>
ಸಚಿವ ರಾದ</w>
ಸಂವಹ ನ</w>
ಸಂಭ್ರ ಮ</w>
ಸಂಭಾವ ್ಯ</w>
ಸಂಬಂಧ ದ</w>
ಸಂಪರ್ಕ ವನ್ನು</w>
ಸಂತ್ರ ಸ್
ಸಂಗತಿಯ ಾಗಿದೆ</w>
ಸಂಕಷ್ಟ ಕ್ಕೆ</w>
ಸಂ ಚಲ
ಸ ೃ
ಸ ಲಾ
ಸ ತ
ಶ್ರೀಲ ಂ
ಶ್ ಲಾ
ಶ್ಲಾ ಘ
ಶೇಕಡ ಾ</w>
ಶೇ ಕ
ಶೇಕ ಡ</w>
ಶುರುವ ಾಯಿತು</w>
ಶೀಘ್ರ ದಲ್ಲಿಯೇ</w>
ಶಾಸ್ತ್ರ ೀಯ</w>
ಶಾಸ ಕಾಂಗ</w>
ಶಾರ ೀ
ಶಾಂತ ಿ
ಶಾ ಚ
ಶಸ್ ತ್ರ</w>
ಶಬರಿ ಮ
ಶಬರಿಮ ಲೆ</w>
ಶ ಾಯ
ಶ ತ</w>
ವ್ಯಾ ಖ್ಯ
ವ್ಯವಸ್ಥ ೆಯಲ್ಲಿ</w>
ವ್ಯಕ್ತಿ ಗಳನ್ನು</w>
ವೈ ಭವ
ವೆಚ್ಚ ದಲ್ಲಿ</w>
ವೆಂಬ ುದು</w>
ವೆ ಲ್ಲ
ವೃ ದ್ಧ</w>
ವೀ ಯ
ವೀ ಗ</w>
ವಿಶ್ವ ಸಂಸ್ಥೆಯ</w>
ವಿಶ್ವ ದಾದ್ಯಂತ</w>
ವಿವರ ವಾಗಿ</w>
ವಿಮೋಚ ನ
ವಿಮಾನ ದಲ್ಲಿ</w>
ವಿಧ ಿಸಿದೆ</w>
ವಿಧ ದಲ್ಲಿ</w>
ವಿಚಾರ ವನ್ನು</w>
ವಿಚಾರ ಗಳನ್ನು</w>
ವಾಗ ಬೇಕು</w>
ವಾ ಲ್
ವಾ ನ್</w>
ವಲಯ ದಲ್ಲಿ</w>
ವರ್ಷ ದಲ್ಲಿ</w>
ವರ್ ಕ್</w>
ವಯಸ್ ಸಿ
ವಯ ನಾ
ವ ಿದ್ದ</w>
ಳ ಲ್ಲಿ</w>
ಲ್ ‍ನಲ್ಲಿ</w>
ಲೀ ನ
ಲಾಯ ಿತಾದರೂ</w>
ಲಾಗ ಿರುವ</w>
ಲ ಡಾ
ರ‍ ್ಯಾ
ರೋ ಚ
ರೈಲ್ ವೇ</w>
ರೂ ಬಲ್
ರೂಬಲ್ ಸ್ಗಳನ್ನು</w>
ರು …</w>
ರಿಸ ಿದೆ</w>
ರಿ ಕೆ
ರಾಷ್ಟ್ರಾ ಧ್ಯಕ್ಷ</w>
ರಾಜ್ಯಾ ದ್ಯಂತ</w>
ರಾಜಧಾ ನಿಯ
ರಾಜ ಸ್ತ
ರಾ ತ್ಮ
ರಲ್ಲ ಿಯೂ</w>
ರ ೆಯನ್ನು</w>
ರ ನ</w>
ಯೆರೆ ಮಿ
ಯೂ ನಿ
ಯುವ ತಿಯ
ಯುವ ಕನನ್ನು</w>
ಯಾಕೋ ಬನು</w>
ಯಾ ದ</w>
ಯ ೌ
ಮ್ಮ ಾ</w>
ಮೌಲ್ಯ ವನ್ನು</w>
ಮೌ ನ</w>
ಮೋ ದಿ
ಮೊ ಹಮ್ಮ
ಮೊ ಟ್ಟೆ</w>
ಮೊ ಗ್
ಮೈ ಕ್ರ
ಮೇಲ ೆಯೇ</w>
ಮೆಗಾಪಿಕ್ ಸೆಲ್</w>
ಮುಸ್ಲಿ ಮ್</w>
ಮುಳುಗ ಿ</w>
ಮುಗಿಯ ಿತು</w>
ಮುಖ್ಯಮಂತ್ರಿ ಗಳ</w>
ಮುಖ ಭಂಗ</w>
ಮುಖ ದಲ್ಲಿ</w>
ಮುಂಚ ಿತವಾಗಿ</w>
ಮು ಡಿ
ಮೀಸ ಲಿ
ಮಿ ಜೋ
ಮಾರ್ಗ ದಲ್ಲಿ</w>
ಮಾಪ ಕದಲ್ಲಿ</w>
ಮಾನವ ಕುಲದ</w>
ಮಾನವ ಕುಲ
ಮಾನನ ಷ್ಟ</w>
ಮಾನ ವರ</w>
ಮಾದ ಕ</w>
ಮಾತುಕ ತೆಗೆ</w>
ಮಾತನಾಡ ುತ್ತಿದ್ದರು</w>
ಮಾಡಿದ ಳು</w>
ಮಾಡ ಿಕೊಂಡ</w>
ಮಾ ನ್ಯ</w>
ಮಳ ೆಯಾಗುವ</w>
ಮಲಗ ುವ</w>
ಮನೋಭಾವ ವನ್ನು</w>
ಮನೋ ಜ್</w>
ಮನ ಃ
ಮತ್ತಿತ ರರು</w>
ಮ ್ರಾ
ಮ ೆಗೆ</w>
ಮ ನೆಗಳನ್ನು</w>
ಮ ಣ್ಣು</w>
ಭ್ರಷ್ಟಾ ಚಾರ
ಭೌ ತಿಕ</w>
ಭೇ ದ
ಭಿನ್ನ ವಾಗಿದೆ</w>
ಭಾಷ ಾಂತರ
ಭಾಷ ಣದಲ್ಲಿ</w>
ಭಾವ ವನ್ನು</w>
ಭಾಗವಹಿಸ ಿದರು</w>
ಭಾಗ ವಾಗಿದೆ</w>
ಭಾಗ ವಹ
ಬ್ಯಾಡ್ಮಿಂಟ ನ್</w>
ಬೇ ಸಿಗೆ</w>
ಬೇ ಳೆ</w>
ಬೇ ರ್
ಬೆಳೆ ದು</w>
ಬೆಳ ಗ
ಬೆಂಗಳೂ ರಿಗೆ</w>
ಬೆ ಲೆ
ಬೆ ತೆ
ಬೂ ಮ್ರಾ</w>
ಬಿಹಾರ ದ</w>
ಬಿಡ ದೆ</w>
ಬಿ ಗಿ
ಬಿ ಎಸ್‌ಪಿ</w>
ಬಿ ಂದ
ಬಾಹು ಬಲಿ</w>
ಬಾ ಳೆ
ಬಾ ಲ್‌</w>
ಬಹು ತೇ
ಬಹುತೇ ಕ</w>
ಬಳಕೆ ದಾರ</w>
ಬಳ ಿಯೂ</w>
ಬರೆದ ುದು</w>
ಬರೆದ ರು</w>
ಬರ ುತ್ತ
ಬಯಸ ುತ್ತೇವೆ</w>
ಬದ್ಧ ವಾಗಿದೆ</w>
ಬದುಕ ಲು</w>
ಬಂಧ ಿಸಲಾಯಿತು</w>
ಬಂದ ಿದ್ದೇನೆ</w>
ಬ ಹಿ
ಫ‌ ಲ
ಫಲಿತಾಂಶ ವನ್ನು</w>
ಪ್ರೌ ಢ</w>
ಪ್ರೋಟೀ ನ್</w>
ಪ್ರೊ ಫೈ
ಪ್ರೀತ ಿಸಬೇಕು</w>
ಪ್ರೀ ಮಿಯ
ಪ್ರಾಮಾಣ ಿಕ</w>
ಪ್ರವಾಸೋ ದ್ಯಮ</w>
ಪ್ರಯಾಣಿಕ ರ</w>
ಪ್ರತಿರ ೋ
ಪ್ರತಿ ಶತ</w>
ಪ್ರ ಶಾಂತ್</w>
ಪ್ರ ಯೋಗ</w>
ಪ್ ‌ನಲ್ಲಿ</w>
ಪೌ ಷ್ಟ
ಪೋಷ ಕಾ
ಪೊಲೀಸ ರೂ</w>
ಪೂರೈ ಕೆ</w>
ಪುರಾ ವೆ
ಪುನರಾವರ್ತ ಿಸಿ</w>
ಪೀ ಡಿತ</w>
ಪಿ ಎಫ್</w>
ಪಾತ್ರ ೆಯಲ್ಲಿ</w>
ಪಾ ಲಿ
ಪಶ್ಚಾ ತ್ತ
ಪರ ವಾನ
ಪದಾರ್ಥ ಗಳು</w>
ಪತ್ತ ೆಗಾಗಿ</w>
ಪಡೆಯ ಬಹುದು</w>
ಪಕ್ಷ ವು</w>
ಪಕ್ಷ ವನ್ನು</w>
ಪಕ್ಷ ದಿಂದ</w>
ಪಂಜಾ ಬ್‌</w>
ಪ ತಿಯ</w>
ನ್‍ ನಲ್ಲಿ</w>
ನ್ವಿ ತ</w>
ನ್ಯಾಯಾಧೀಶ ರ</w>
ನೋಡ ುತ್ತಾ</w>
ನೋಡ ಿದ್ದೇನೆ</w>
ನೋಡ ಿದಾಗ</w>
ನೋ ಹನ</w>
ನೆಯ ನ್ನೂ</w>
ನೆಮ್ಮ ದಿ</w>
ನೆ ಚ್ಚಿನ</w>
ನೆ ಕ್
ನುಣ್ಣ ಗೆ</w>
ನೀ ವೂ</w>
ನಿಷ್ಠ ೆ</w>
ನಿಶ್ ಚಯ</w>
ನಿರ್ಮಾಪ ಕ</w>
ನಿರೀಕ್ಷ ೆಯ
ನಿರಾಕರಿಸ ಿದೆ</w>
ನಿಮ್ಮಿ ಂದ</w>
ನಿಗ ದಿ</w>
ನಿ ಂತ</w>
ನಾಯ ಿ</w>
ನವ ಜೋ
ನವ ಜಾತ</w>
ನರೇ ಂದ್ರ
ನಡೆಸ ುವಂತೆ</w>
ನಡೆಸ ುತ್ತ
ನಡೆಸ ಲಾಗಿತ್ತು</w>
ನಡೆಯ ುತ್ತಿತ್ತು</w>
ನಕ್ಕ ರು</w>
ನ ಿಸ್</w>
ನ ಜ್
ನ ಗಳ</w>
ಧಿಕ ಾರ</w>
ಧಾವ ಿಸಿ</w>
ದ್ದ ೂ</w>
ದೈ ನಂದಿನ</w>
ದೇಶ ದ್ರೋ
ದೇವರ ೊಂದಿಗೆ</w>
ದೆ ೖ
ದುಷ್ಕರ್ಮಿ ಗಳ</w>
ದುರದೃಷ್ಟ ವಶಾತ್</w>
ದು ಬಾರ
ದೀ ಪಾವ
ದಿನಾ ಚರಣೆ</w>
ದಿನ ವೂ</w>
ದಿ ಗಳ</w>
ದ ಿಯಲ್ಲಿ</w>
ದ ಿಗೆ</w>
ದ ಸ್ತಾ
ಥ ್ರ
ಥ ್ಯಾಂ
ತ್ವ ರಿತವಾಗಿ</w>
ತ್ಯ ದಲ್ಲಿ</w>
ತ್ ‌
ತ್ ರಿಕ
ತೇ ನೆ</w>
ತೆಗೆದು ಹಾಕಿ</w>
ತುಂಬ ಿ</w>
ತು ಳ
ತು ಂಡ
ತಿಳಿಯ ದು</w>
ತಿಂ ಗಳಿಗೆ</w>
ತಿ ಳ
ತಾಳ್ಮ ೆಯಿಂದ</w>
ತಾಳ್ ಮೆ</w>
ತಾರತ ಮ್ಯ</w>
ತಾ ಣ</w>
ತರ ಲಾಗಿದೆ</w>
ತಯಾರ ಾಗ
ತಮಿ ಳಿನಲ್ಲಿ</w>
ತಮಾ ಷೆ</w>
ತಡೆಗಟ್ಟ ಲು</w>
ತಗ ಲ
ತಂದ ರು</w>
ತ ಿಕ್</w>
ತ ರನ್ನು</w>
ತ ದ್
ತ ಟ್ಟ
ಣ ವು</w>
ಡ್ಡ ಾ</w>
ಡೆ ಯ</w>
ಡಿಕ್ಕ ಿಯಾಗಿ</w>
ಠಾ ಣಾ</w>
ಟ್ವಿ ಟ
ಟ್ರೇಲ ರ್</w>
ಟ್ಟ ಿನ</w>
ಟೈ ಪ್</w>
ಟಿ ವಿಯಲ್ಲಿ</w>
ಟಿ ಎಂಸಿ</w>
ಟ ್ಯ
ಟ ೋ</w>
ಜ್ ವರ
ಜೀವ ವನ್ನು</w>
ಜೀವ ನ</w>
ಜಾ ಣ
ಜಲಾವೃ ತ
ಜರ್ ಮನಿ</w>
ಜ ಪಾ
ಚಿತ್ರರಂಗ ದಲ್ಲಿ</w>
ಚಿತ್ತ ವನ್ನು</w>
ಚಾರ್ ಯ</w>
ಚಂದ್ರ ನ</w>
ಚ ಹಾ</w>
ಘಟ ನೆಯಿಂದ</w>
ಗ್ರಾಹ ಕರ</w>
ಗ್ರ ್ಯಾ
ಗ್ ಧ</w>
ಗೌ ರಿ</w>
ಗೋ ಪಾಲ್</w>
ಗೊಂದ ಲ
ಗೊಂಡ ಿರುವ</w>
ಗೊಂಡ ಿದ್ದರು</w>
ಗೊ ಂದ
ಗೆಳೆಯ ರು</w>
ಗೂಗ ಲ್</w>
ಗುಲಾ ಬಿ</w>
ಗುರಿಯ ಾಗ
ಗುಣ ಗಳನ್ನು</w>
ಗುಡುಗ ು</w>
ಗುಜರಾ ತ್‌</w>
ಗು ಡ್ಡ
ಗಿ ಟ್ಟ
ಗಳಿ ಗಿಂತಲೂ</w>
ಗಳ ಿಸುವ</w>
ಗಳ ಿರುತ್ತವೆ</w>
ಗ ಿರ
ಗ ಡಿಯಲ್ಲಿ</w>
ಖಾ ತ್ರಿ</w>
ಖಾ ತೆಗೆ</w>
ಖಂಡ ಿತಾ</w>
ಖ ್
ಖ ಾದ
ಕ್ರೀಡ ಾಪ
ಕ್ಯಾಮೆರಾ ವನ್ನು</w>
ಕ್ಯಾ ಥ
ಕ್ಕೊಳ ಗಾಗ
ಕ್ ಯು
ಕೋರ್ಟ್‌ ನ</w>
ಕೊ ಲ್
ಕೈಗೊಳ್ಳ ಲಾಗುತ್ತದೆ</w>
ಕೈ ಗೊಂಡ</w>
ಕೇಳ ಿ
ಕೇಳ ಬೇಕು</w>
ಕೂ ಲ</w>
ಕುಂಬ ್ಳೆ</w>
ಕಾಲೇ ಜಿನಲ್ಲಿ</w>
ಕಾಲ ದಿಂದ</w>
ಕಾರ್ಯಾಚರಣ ೆಯಲ್ಲಿ</w>
ಕಾರ್ಯಕ್ರಮ ಗಳನ್ನು</w>
ಕಾರಣ ಕ್ಕಾಗಿ</w>
ಕಾರ ಕ</w>
ಕಾಯ ಿದೆ</w>
ಕಾಣಿಸ ಿಕೊಳ್ಳ
ಕಾಣ ಿಸುತ್ತದೆ</w>
ಕಾಡ ುತ್ತಿದೆ</w>
ಕಲ್ಪ ನೆ</w>
ಕರ್ತ ನಾದ</w>
ಕರ ೊಂದಿಗೆ</w>
ಕರ ಣೆ</w>
ಕನ್ನ ಡಿ
ಕಡ್ಡಾಯ ವಾಗಿ</w>
ಕಡ ೇ</w>
ಕಡ ೆಯ
ಕಟ್ಟುನಿಟ್ಟ ಾಗಿ</w>
ಕಂಡ ಿತ್ತು</w>
ಕ ನ್
ಔಷಧ ಿಗಳನ್ನು</w>
ಔ ಟ
ಒಬ್ಬ ಳು</w>
ಒತ್ತಡ ವನ್ನು</w>
ಒಂದುವ ೇಳೆ</w>
ಒಂದ ನ್ನು</w>
ಐ ಎ
ಎಲೆಕ್ ಟ್ರಾ
ಎರ್ ನಾ
ಎನ್ನ ುವುದರ</w>
ಎನ್ ​
ಎಂಜಾಯ ್</w>
ಎ ಳ್ಳ
ಊಟ ಕ್ಕೆ</w>
ಉಪ ಚುನಾವಣೆಯಲ್ಲಿ</w>
ಉದ್ದ ಿ
ಉದಾಹರಣ ೆಗಳು</w>
ಉತ್ಪನ್ನ ಗಳು</w>
ಉ ಬ್ಬ
ಉ ಚ್ಚ</w>
ಉ ಚ್ಚ
ಈ ತನಿಗೆ</w>
ಈ ಜಿ
ಇಸ್ರ ೋ</w>
ಇಸ್ರ ೇಲ್</w>
ಇಲ್ಲ ೊಂದು</w>
ಇಲ್ಲ ಿರುವ</w>
ಇಲ್ಲ ಿಯೂ</w>
ಇದ್ದೇ ನೆ</w>
ಇದ್ದಕ್ಕ ಿದ್ದಂತೆ</w>
ಇತ್ಯಾ ದಿ</w>
ಇಡು ಕ್ಕಿ</w>
ಇಂಡ ಸ್ಟ್ರ
ಇಂಜಿನಿಯ ರಿಂಗ್</w>
ಇಂಗ್ಲೆಂಡ ್‌</w>
ಇಂಗ್ ಲೀ
ಇ ಲೆ
ಆಶ್ ಚರ್ಯ</w>
ಆಲೋಚ ನೆ</w>
ಆಲ ೌಟ್</w>
ಆರ್‌ ಎಸ್‌
ಆರೋಪಿ ಗಳಿಗಾಗಿ</w>
ಆರೋಗ್ಯ ದಲ್ಲಿ</w>
ಆಯ್ ದ</w>
ಆಫ್ರಿಕ ಾದ</w>
ಆದ ಾಮ
ಆದ ಕಾರಣ</w>
ಆಡ ಲು</w>
ಆ ಧರಿಸ
ಆ ಂಬು
ಅಹ ಮದಾ
ಅಸ್ ಸಾಂ
ಅಷ್ಟ ೇನೂ</w>
ಅವರಿಬ್ಬ ರ</w>
ಅಲ ರ್
ಅರ್ಜು ನ್</w>
ಅರ್ ಜಿಯ</w>
ಅರುಣಾ ಚಲ</w>
ಅರವಿ ಂದ</w>
ಅರಣ ್ಯ
ಅಮ್ಮ ಾ</w>
ಅಮ್ಮ ನಿಗೆ</w>
ಅಮಿತಾ ಬ್</w>
ಅಮಿ ತ್​</w>
ಅಭಿಷಿ ಕ್ತ
ಅಭಿನ ಯ</w>
ಅಪ್ರಾ ಪ್ತ</w>
ಅಪರೂಪ ದ</w>
ಅನ್ವಯ ಿಸುತ್ತದೆ</w>
ಅದ ್ದ
ಅದ ರೆ</w>
ಅತಿಯ ಾಗಿ</w>
ಅಜಿಂ ಕ್ಯ</w>
ಅಂದ ೆ</w>
ಅಂದ ಿನಿಂದ</w>
ಅಂತ ಾರೆ</w>
ಅಂ ಗ</w>
ಅ ಸುನೀಗ
ಅ ಲಕ್ಷ
ಅ ನ್ಯಾಯ</w>
ಅ ನಿರೀಕ್ಷ
ಅ ತೀ
ಂು ು</w>
ಂತ ಾಯಿತು</w>
ಂಡ ರ್ಡ್</w>
om ment</w>
C omment</w>
7 2</w>
2020 ರ</w>
20 20</w>
20 18</w>
10 5</w>
“ ನೀನು</w>
“ ನನಗೆ</w>
“ ಈ</w>
“ ಇದು</w>
್‌ ನಲ್ಲಿ</w>
ೋರ್ ವ</w>
ೊಂದ ಕ್ಕೆ</w>
ೇ ನಾಗ
ೇ ನಲ್ಲ</w>
ೆಲ್ಲ ವನ್ನೂ</w>
ೆಯಾಗ ಿದ್ದು</w>
ೆಯಲ್ಲ ಿದ್ದ</w>
ೆಯ ರು</w>
ೆ ಚ್ಚು</w>
ುವುದ ೋ</w>
ುವುದ ಕ್ಕಿಂತ</w>
ುವಿ ಕೆಯನ್ನು</w>
ುವ ಲ್</w>
ುದ್ದ ೇಶ
ುತ್ತಿದ್ದ ಾಳೆ</w>
ುತ್ತದ ೆಯೇ</w>
ುಗ ್ರ
ೀ ಸ್‌</w>
ೀ ರ್</w>
ಿಸುವ ವರು</w>
ಿಸಿದ್ದ ರಿಂದ</w>
ಿಸಿದ ್ರು</w>
ಿಸಿಕೊಳ್ಳ ುವ</w>
ಿಸಲ್ಪಟ್ಟ ಿದೆ</w>
ಿಸಲ ಿದ್ದೇವೆ</w>
ಿಸ ಿಕೊಂಡ
ಿಸ ಬಹುದಾಗಿದೆ</w>
ಿಲ್ಲ ದ
ಿರುವುದ ಾದರೆ</w>
ಿರುವುದ ರ</w>
ಿಯ ರ್</w>
ಿದ್ಧ ಾರೆ</w>
ಿದ್ದ ೇನೆ</w>
ಿದ ಲ್ಲಿ</w>
ಿತ ೋ</w>
ಿಡ ಲಾಗಿದೆ</w>
ಿಕ ತೆಯ</w>
ಿ ’</w>
ಾರ ೂಢ</w>
ಾಟ ದಲ್ಲಿ</w>
ಾಗ ಳು</w>
ಾ ಂತ</w>
ಹ್ಯು ಂಡ
ಹ್ಯುಂಡ ೈ</w>
ಹೋಗ ುವುದು</w>
ಹೊಡೆ ತ</w>
ಹೊಟ್ಟ ೆ
ಹೊ ತ್ತಿನಲ್ಲಿ</w>
ಹೈದರಾ ಬಾದ್
ಹೇಳ ುತ್ತಾ</w>
ಹೇಳ ಿದ್ದೆ</w>
ಹೇಳ ಿತ್ತು</w>
ಹೇಳ ುತ್ತಾರೆ</w>
ಹೆಸ ರು
ಹೆದ್ದ ಾರಿ</w>
ಹೆಚ್ಚಾಗ ುವ</w>
ಹೆಚ್ಚ ಿಸಿ</w>
ಹೆ ಬ್ಬ
ಹುಡು ಕು</w>
ಹುಟ್ಟು ಹಬ್ಬದ</w>
ಹು ರಿದ
ಹಿಂಸಾ ತ್ಮಕ</w>
ಹಿ ಮ
ಹಿ ಂಡ
ಹಾ ಲಿವು
ಹರ್ಯಾ ಣ</w>
ಹದಿ ಹರೆಯ
ಹಗ ಲು</w>
ಸ್ವಾಗ ತ</w>
ಸ್ವಾ ಮೀ
ಸ್ವ ರಾಜ್‌</w>
ಸ್ಪ ರ್ಶ
ಸ್ಥಳ ವನ್ನು</w>
ಸ್ಟ್ರ ೀ
ಸ್ಟೇ ಟ್‌</w>
ಸ್ಕ್ರೀ ನ್</w>
ಸ್ಕೂ ಲ್</w>
ಸ್ ನಾಯ
ಸ್ ಕ
ಸೌಂದ ರ್ಯ
ಸೌ ಹಾರ್ದ
ಸೋಂಕ ಿತರ</w>
ಸೈನಿ ಕರ</w>
ಸೇತ ುವ
ಸೆಪ್ಟೆಂಬ ರ್‌</w>
ಸೆ ಂಟ್ರ
ಸೃಷ್ಟ ಿ</w>
ಸೂಚ ನೆಗಳನ್ನು</w>
ಸುಧಾರ ಿಸುತ್ತದೆ</w>
ಸು ಖ</w>
ಸೀತಾರ ಾ
ಸಿಲಿ ಂಡರ್</w>
ಸಿಬ್ಬಂದ ಿಯನ್ನು</w>
ಸಿನಿಮಾಗಳ ನ್ನು</w>
ಸಿಕ್ಕ ಿದ್ದು</w>
ಸಿಕ್ಕ ಿತ್ತು</w>
ಸಿಂಗ್ ​</w>
ಸಿ ರು</w>
ಸಿ ಯ</w>
ಸಿ ಟ್ಟು</w>
ಸಾಯ ಿ</w>
ಸಾಯ ಂ
ಸಾಧ್ಯ ವಾಯಿತು</w>
ಸಾಧ್ಯ ತೆಗಳಿವೆ</w>
ಸಾಗ ುತ್ತದೆ</w>
ಸಾಂವಿಧಾ ನಿಕ</w>
ಸಾ ಸ್</w>
ಸಾ ಂಬ
ಸರ್ ವಾ
ಸರಕಾರ ದಿಂದ</w>
ಸರ ಳ</w>
ಸಮಾವೇಶ ದಲ್ಲಿ</w>
ಸಮಾ ಲೋಚ
ಸಭ ೆಯನ್ನು</w>
ಸದುಪ ಯೋಗ
ಸಂಸ್ಕೃ ತ</w>
ಸಂಪ ತ್ತು</w>
ಸಂತೋಷ ವನ್ನು</w>
ಸಂತೋಷ ಪಡ
ಸಂತ ಸದ</w>
ಸಂಚಾರ ವನ್ನು</w>
ಸಂಕ್ಷಿ ಪ್ತ</w>
ಸಂ ಬ
ಸಂ ಕಲ್ಪ
ಸ ಬ
ಸ ನ್ನಿ</w>
ಸ ದ್
ಷ್ಯ ನ್</w>
ಷ್ಣ ು
ಷ್ಟ ೂ</w>
ಷ್ಟ ವಾಗಿ</w>
ಷರ ತ್ತ
ಷ ಿಯ
ಷ ರೀ
ಶುಶ್ರೂಷ ಾ</w>
ಶುಲ್ ಕವನ್ನು</w>
ಶಿಷ್ಯ ರಿಗೆ</w>
ಶಿವ ಸೇನಾ</w>
ಶಿ ಲ್ಪ
ಶಾಸ್ ತ್ರಿ</w>
ಶಾ ಲೆಗಳು</w>
ಶವ ಗಳನ್ನು</w>
ಶಕ್ ತಿಯ</w>
ವ್ಯವಸ್ಥ ಾಪ
ವ್ಯಕ್ತಪಡಿಸ ಿದ</w>
ವ್ಯಕ್ ತಿಯಾಗ
ವ್ಯ ಯ
ವೈದ ್ಯ</w>
ವೈ ವಾ
ವೈವಾ ಹಿಕ</w>
ವೈದ್ಯ ಕೀಯ</w>
ವೆಂಬ ುದನ್ನು</w>
ವೆ ಬ್
ವಿಷಯ ವಾಗಿದೆ</w>
ವಿಷಯ ವಲ್ಲ</w>
ವಿಷಯ ದಲ್ಲೂ</w>
ವಿವೇ ಕ</w>
ವಿಮೋಚನ ಕಾಂಡ</w>
ವಿಮಾನ ಯಾನ</w>
ವಿತರ ಣೆ</w>
ವಿ ಶಾಲ
ವಿ ಲಿಯ
ವಿ ನ
ವಾಹ ನದ</w>
ವಾಟ್ ಸ
ವಾಗಿರ ಲಿ</w>
ವಾಗ ಿ
ವಾ ಂತಿ</w>
ವರ್ ಸ್</w>
ವರು ಷ</w>
ವರಿಷ್ಠ ಾಧಿಕಾರಿ</w>
ವರದ ಿಯಾಗ
ವಚ ನ</w>
ವ ೆಯೇ</w>
ವ ತಿಯಿಂದ</w>
ಳಿದ ು</w>
ಳಿ ಗಳನ್ನು</w>
ಲ್ ‍ನ</w>
ಲ್ ಡರ್</w>
ಲ್ ಡನ್</w>
ಲೆ ಂದು</w>
ಲಿ ಟಿ</w>
ಲಾ ಕ್‌
ಲಯ ದಲ್ಲಿ</w>
ಲಭ್ಯ ವಿರುವ</w>
ಲ ಾರ್
ರ್ತ ಾರೆ</w>
ರೋಹಿ ತ್‌</w>
ರೋಮಾ ಂಚ
ರೋಮನ್ನ ರಿಗೆ</w>
ರೆ ಗಳು</w>
ರೂ ಪು
ರಿಯ ರ್</w>
ರಿಗೊ ಬ್ಬರು</w>
ರಿ ತ್ತು</w>
ರಿ ಂದಾಗಿ</w>
ರಾಹು ಲ್​</w>
ರಾಷ್ಟ್ರ ಗಳು</w>
ರಾಯ ಲ್</w>
ರಾಜ್ಯ ವನ್ನು</w>
ರಾಜ್ಯ ಪಾಲ</w>
ರಾಜ್ಯ ದಲ್ಲೂ</w>
ರಾಜ ್
ರಾಜ ೇ
ರಾಜ ಸ್ಥಾನದಲ್ಲಿ</w>
ರಾಗ ಲು</w>
ರಾ ದರೂ</w>
ರಫೇ ಲ್</w>
ರಂಜ ನೆ</w>
ರ ತ್ನ</w>
ರ ಘ
ಯೂ ಟ್ಯೂ
ಯುವ ತಿಯನ್ನು</w>
ಯಾರ ೆಂದು</w>
ಯಾ ತ
ಯಾ ಂಕ
ಯ ರು</w>
ಮೊಹಮ್ಮ ದ್‌</w>
ಮೊತ್ತ ವನ್ನು</w>
ಮೊ ಸರು</w>
ಮೈ ತ್ರಿಯ
ಮೇಲ ಿರುವ</w>
ಮೇ ಲಿ
ಮೆ ಯ</w>
ಮೃತಪಟ್ಟ ವರ</w>
ಮೃ ದ
ಮೂಲ ತಃ</w>
ಮೂ ತ್ರ
ಮುರ ಳಿ</w>
ಮುಖಂಡ ನ</w>
ಮುಂದ ಿದೆ</w>
ಮುಂದ ಾ
ಮು ಸಲ್
ಮೀಸ ಲು</w>
ಮಿ ಗಳು</w>
ಮಾರ ್</w>
ಮಾದ ರಿಗಳು</w>
ಮಾತಿ ನಲ್ಲಿ</w>
ಮಾಡಿದ ್ರು</w>
ಮಾಡಿಕೊಳ್ಳ ುವ</w>
ಮಹಿಳೆಯ ರನ್ನು</w>
ಮಸೂದ ೆಗೆ</w>
ಮಸಾ ಲೆ</w>
ಮರೆಯ ಬೇಡಿ</w>
ಮನೆಯಲ್ಲ ೇ</w>
ಮನೆ ಗಳಲ್ಲಿ</w>
ಮನೀ ಶ್</w>
ಮದುವೆಯಾಗ ಲು</w>
ಮಕ್ಕ ಳೆ
ಮಂಡ ್ಯ</w>
ಮಂಡ ಳಿಯ</w>
ಮ ು</w>
ಮ ರಿ</w>
ಮ ನ</w>
ಮ ಣೆ</w>
ಭೌ ತ
ಭೂಷ ಣ್</w>
ಭಾಗಿಯಾಗ ಿದ್ದರು</w>
ಭಾಗ ಶಃ</w>
ಭಯೋತ್ಪಾದ ನೆಯನ್ನು</w>
ಭಯ ದಿಂದ</w>
ಭ ್</w>
ಭ ಯಾ
ಬ್ರೆ ಜಿ
ಬ್ರ ಹ್
ಬ್ಯಾಂಕ ಿಂಗ್</w>
ಬ್ ಲೂ
ಬೌ ಲ
ಬೇರ ೊಂದು</w>
ಬೇಯ ಿಸಿದ</w>
ಬೇ ರೆ</w>
ಬೆ ಲೆಗಳು</w>
ಬೀ ರುತ್ತದೆ</w>
ಬಿದ್ದ ಿದ್ದಾರೆ</w>
ಬಿ ಹೆಚ್ಪಿ</w>
ಬಾ ಲಾ
ಬಹಿ ಷ್
ಬಳಸ ಿಕೊಂಡು</w>
ಬಳ ಿಯಲ್ಲಿ</w>
ಬಲ ಿಯಾಗ
ಬಲ ವಾಗಿ</w>
ಬಲ ಗ
ಬರೆಯ ಿರಿ</w>
ಬದ ಲಾಯಿತು</w>
ಬಂಧ ಿಸಿದ</w>
ಬಂಧ ಿಸಲು</w>
ಬ ಕ್ಕ
ಫೇಸ್‌ಬು ಕ್‌ನಲ್ಲಿ</w>
ಫೆಬ್ರ ವರಿ</w>
ಫ ಿರ
ಫ ಸ್ಟ್</w>
ಪ್ಲ ಾನ್</w>
ಪ್ರೌ ಢ
ಪ್ರೀತ ಿಸುತ್ತಾರೆ</w>
ಪ್ರೀ ತಿಗೆ</w>
ಪ್ರಶ್ನ ೆಯನ್ನು</w>
ಪ್ರಶಸ್ ತಿಗಳು</w>
ಪ್ರವೇಶ ಕ್ಕೆ</w>
ಪ್ರವಾ ದಿ</w>
ಪ್ರಯೋಜನ ಗಳನ್ನು</w>
ಪ್ರಯತ್ನ ವನ್ನು</w>
ಪ್ರಭಾ ಸ್</w>
ಪ್ರದೇಶ ಕ್ಕೆ</w>
ಪ್ರತಿಯೊಬ್ಬ ರ</w>
ಪ್ರತಿಯ ಾಗಿ</w>
ಪ್ರತಿ ಭಾವ
ಪ್ರತಿ ಪಕ್ಷಗಳು</w>
ಪ್ರಚಾರ ದ</w>
ಪ್ರಕೃ ತಿ</w>
ಪ್ರ ೈ
ಪ್ರ ಯೋ
ಪ್ಯಾಕೇ ಜ್</w>
ಪ್ಯಾ ರ</w>
ಪ್ಪು ರಂ</w>
ಪೋ ಷ
ಪು ಷ್
ಪಿ ಶಾಚ
ಪಿ ಡಿಪಿ</w>
ಪಿ ಟಿ
ಪಿ ಕ್ಸ್</w>
ಪಿ ಎಂ</w>
ಪಾಕಿಸ್ತಾನ ವನ್ನು</w>
ಪವಿತ್ರಾತ್ಮ ವು</w>
ಪರ್ವ ತ</w>
ಪರ್ಯಾ ಯ</w>
ಪರಿಣಾಮ ಕಾರಿ</w>
ಪರಿ ೕ
ಪರಾಮ ರ್ಶ
ಪರವಾನ ಗಿ</w>
ಪತ್ರ ದಲ್ಲಿ</w>
ಪಡಿಸ ುವುದು</w>
ಪಕ್ಷೇ ತರ
ಪಂ ಚ</w>
ಪ ೃ
ಪ ಿಯ
ಪ ಶು
ನ್ನ ಲ್ಲಿ</w>
ನ್ ಸನ್</w>
ನೌಕರ ರ</w>
ನೋಡ ಿರಿ</w>
ನೋಡ ಿದ
ನೊ ಬೆಲ್</w>
ನೇಪಾ ಳ</w>
ನೆರ ವಿನ</w>
ನೆ ಟ್‌</w>
ನೆ ಗ
ನೆ ಂಬ</w>
ನೀಡ ುತ್ತಿಲ್ಲ</w>
ನೀ ವೇನು</w>
ನೀ ರು
ನೀ ರು</w>
ನಿಷೇ ಧ
ನಿಶ್ಚಯ ವಾಗಿ</w>
ನಿಲ ುವನ್ನು</w>
ನಿರ್ ಮಿತ</w>
ನಿರ ತ</w>
ನಿಯ ಮಿತ</w>
ನಿಯ ನ್</w>
ನಿ ರೀಕ್ಷ
ನಾಯ ಕನ</w>
ನಾಡ ಿನ</w>
ನಾಗ ೆ</w>
ನಾಗ ಿರುವ</w>
ನಾ ವೇಕೆ</w>
ನಾ ದ್ಯಂತ</w>
ನಮೂದ ಿಸಿ</w>
ನನಗ ಿದೆ</w>
ನಡೆಸ ಬೇಕು</w>
ನಡ ು
ನಟ ಿಸಿದ್ದರು</w>
ನಟ ನೆ</w>
ನಕ್ಷ ತ್ರ
ನಂಬಿಕ ೆಯ
ನಂದ ಿಸಲು</w>
ನಂತ ೂ</w>
ನ ೆಯಾಗ
ನ ಗು
ನ ಗಳಲ್ಲಿ</w>
ಧ್ ವಜ
ಧೂಮ ಪಾನ
ಧ ನ</w>
ದ್ರ ೇ
ದೇಶ ದಾದ್ಯಂತ</w>
ದೇವ ರಾತ್ಮ
ದೇ ವ</w>
ದೇಶ ದ</w>
ದೂ ರಿ
ದು ಷ್ಟ</w>
ದೀಪಾವ ಳಿ</w>
ದೀರ್ ಘ
ದಿ ಗಳನ್ನು</w>
ದಾಖಲಿಸ ಿದರು</w>
ದಾಖಲಿಸ ಲಾಯಿತು</w>
ದಾಖಲಾಗ ಿದ್ದಾರೆ</w>
ದಾ ಟಿ</w>
ದಸ್ತಾ ವೇ
ದರ್ಶಿ ಗಳು</w>
ದತ್ತ ಾಂಶ</w>
ದ ವರೆಗೆ</w>
ದ ರೋ
ತೋರಿಸ ಲು</w>
ತೋ ರುತ್ತದೆ</w>
ತೋ ರಿಸಿ</w>
ತೊಡ ಗ
ತೆಗೆದುಕೊಂಡ ಿಲ್ಲ</w>
ತೃಪ್ ತಿ
ತೀರಿ ಕೊಂಡ
ತಿಳಿಸ ಿ</w>
ತಿಳಿವಳ ಿಕೆ</w>
ತಿಳಿದ ಿತ್ತು</w>
ತಿರುವ ು</w>
ತಿ ಂಡಿ</w>
ತಪ್ಪ ಾಗ
ತಡೆಯ ಾ
ತಡೆ ದರು</w>
ತಡ ವಾಗಿ</w>
ತಂಡ ಗಳನ್ನು</w>
ತಂಡ ಗಳ</w>
ತ ಪ
ತ ನ್
ತ ಂಪ
ತ ಂತ
ಡ್ ‍
ಡ್ ಸ್</w>
ಡ್ ಕ</w>
ಡ ್ಯು
ಠಾ ಕ್ರೆ</w>
ಟ್ಟಿ ನಿಂದ</w>
ಟೈ ಮ್</w>
ಟೆ ೕ
ಟೂರ್ ನಿಯ</w>
ಟೀ ಚಮಚ</w>
ಟ ಿಯಾಗ
ಜ್ಞಾನ ೋ</w>
ಜೋ ಳ</w>
ಜೈ ಲಿನಲ್ಲಿ</w>
ಜೈ ಲಿನಲ್ಲ
ಜೈ ಪುರ</w>
ಜೇ ಮ್ಸ್</w>
ಜೆಡಿ ಎಸ್‌</w>
ಜೆ ಡಿ</w>
ಜು ಲೈ</w>
ಜಿ ಗ
ಜಿ ಎಸ್‌ಟಿ</w>
ಜಾರಿ ಗೊಳಿಸ
ಜಾ ಜ್</w>
ಜಲಾ ಶಯ
ಜನ ತಾ</w>
ಜನ ಕ್ಕೆ</w>
ಜತೆ ಗಿನ</w>
ಜ ೀ</w>
ಜ ಲಿ</w>
ಜ ಟಿ
ಚೇ ತೇ
ಚೆನ್ನಾಗ ಿಯೇ</w>
ಚಾ ಚ
ಚಂದ್ರ ಯಾನ</w>
ಚಂದ್ರ ನ್</w>
ಚ ್ಯು
ಚ ಾ</w>
ಘೋಷ ಿಸಿದ್ದಾರೆ</w>
ಗ್ರಾ ಮದ</w>
ಗ್ ‌
ಗ್ ಲಾಸ್</w>
ಗೋ ವಾದಲ್ಲಿ</w>
ಗೊಳ್ಳ ುವ</w>
ಗೊಳ ಗಾಗ
ಗೊ ಗೊ
ಗೇ ರಿಸ
ಗೃ ಹಿ
ಗುಡ ಾರ
ಗುಂಡಿ ಕ್ಕಿ</w>
ಗು ಂದ
ಗಾ ಳಿಯ</w>
ಗಳಿ ಗಿಂತ</w>
ಗಳ ್
ಗಳ ೆಂದು</w>
ಗಳ ನ್ನಾಡ
ಗಲಭ ೆ</w>
ಗಟ್ಟ ಿ</w>
ಗಂಟ ಲು</w>
ಗ ರಂ</w>
ಗ ತಿಯಲ್ಲಿ</w>
ಗ ಢ</w>
ಗ ಂ
ಖು ಲಾ
ಕ್ಷೇತ್ರ ಗಳು</w>
ಕ್ಷೇ ತ್ರ
ಕ್ರಿಸ್ ತ</w>
ಕ್ರಿಸ ್ಟ
ಕ್ಯಾನ್ ಸರ್
ಕ್ಕ ೋ
ಕ್ ರಿ</w>
ಕೊಲೆಸ್ಟ್ರಾ ಲ್</w>
ಕೇಂದ್ರ ೀಕರಿಸ
ಕೇಂದ್ರ ಾಡಳಿತ</w>
ಕೆಲಸ ವಲ್ಲ</w>
ಕೆ ನೆ</w>
ಕೂಡ ಿದೆ</w>
ಕೂ ಗಿ</w>
ಕುಂಬ ಳ
ಕು ಂ
ಕೀ ಳ
ಕೀ ಲಿ</w>
ಕೀ ಲಿ
ಕಿ ವಿ</w>
ಕಾರ್ಯದರ್ಶ ಿಯಾಗಿ</w>
ಕಾರಣ ವನ್ನು</w>
ಕಾಪಾಡ ಿಕೊಳ್ಳಲು</w>
ಕಾಪಾಡ ಲು</w>
ಕಾದ ಂಬ
ಕಾ ದಲ್ಲಿ</w>
ಕಾ ಡು</w>
ಕಷ್ಟ ಪಟ್ಟು</w>
ಕಳ್ಳ ರು</w>
ಕಳ್ಳ ತನ</w>
ಕಳೆದುಕೊಂಡ ು</w>
ಕಲ್ಲ ು
ಕರೆದೊಯ್ದ ರು</w>
ಕರ ವಾಗಿದೆ</w>
ಕಪಿ ಲ್</w>
ಕಟ್ಟ ಲು</w>
ಕಂಪ ನಿಯ</w>
ಕಂಡ ಿತು</w>
ಕ ರಿಗೂ</w>
ಕ ಪ್‌</w>
ಕ ಠ
ಓವರ್‌ ಗಳಲ್ಲಿ</w>
ಓ ದಿ
ಒಳ ಿತು</w>
ಒಬ್ಬ ರಿಗೊಬ್ಬರು</w>
ಒದಗ ಿಸಲಾಗಿದೆ</w>
ಒದಗ ಿಸ
ಒಟ್ಟ ಿನಲ್ಲಿ</w>
ಒಂದ ನೇ</w>
ಒ ಲೆಯಲ್ಲಿ</w>
ಒ ಯ್ಯ
ಐ ಫೋನ್</w>
ಏನೇ ನೋ</w>
ಏನ ಾಗಿದೆ</w>
ಏ ಜೆ
ಎನ್‌ ಡಿಎ</w>
ಎದುರು ನೋಡ
ಎಚ್ಚ ರಿಕೆಯ</w>
ಎ ದೆ</w>
ಉಳ್ಳ ಾ
ಉಲ್ ಬಣ
ಉತ್ಪನ್ನ ದ</w>
ಉತ್ತರಿಸ ಲು</w>
ಈ ಗ</w>
ಇಷ್ಟ ೆಲ್ಲಾ</w>
ಇಲ್ಲ ೂ</w>
ಇಲ್ಲ ಿಯ</w>
ಇರ ಲು</w>
ಇನ್ನಿ ಂಗ್ಸ್</w>
ಇನಿ ಂಗ್ಸ್</w>
ಇದ ್ರ</w>
ಇದ ೆ
ಇಚ್ಛ ಾ
ಇ ವರೇ</w>
ಇ ರು
ಆಹಾರ ದ</w>
ಆಶೀರ್ ವಾದ</w>
ಆಳ್ ವಿಕೆ</w>
ಆಲಿ ವ್</w>
ಆರೋಪ ದಲ್ಲಿ</w>
ಆರ ನೇ</w>
ಆದೇಶ ಿಸಿದ್ದಾರೆ</w>
ಆತ್ಮ ೀಯ</w>
ಆತ ನಲ್ಲಿ</w>
ಆಡಳಿತ ಾರೂಢ</w>
ಆಟಗಾರ್ ತಿ</w>
ಆಗ ಿರಬೇಕು</w>
ಆಗ ಿದ್ದವು</w>
ಆಗ ದು</w>
ಆ ವೃತ್ತಿ</w>
ಆ ಡಿಯೋ</w>
ಅಶ್ ಲೀ
ಅವಶ್ಯ ಕ</w>
ಅವರ ದ್ದು</w>
ಅವ ನಿಗ
ಅಲ್ಲ ಿಯ</w>
ಅಮಾನ ತು
ಅಭಿಪ್ರಾಯ ಗಳನ್ನು</w>
ಅಭಿ ಮಾನ
ಅಫ್ಘಾನಿಸ್ ತಾನ
ಅಪಘಾತ ಗಳು</w>
ಅನ್ನ ೋ
ಅನೇಕ ವೇಳೆ</w>
ಅನುಭವ ಿಸಿದೆ</w>
ಅನಿಸ ಿಕೆ</w>
ಅನಾವರ ಣ
ಅನ ೌ
ಅನ ಗತ್ಯ</w>
ಅಧ್ಯಕ್ಷ ತೆಯನ್ನು</w>
ಅಧಿವೇಶ ನದಲ್ಲಿ</w>
ಅಧಿಕಾರ ವನ್ನು</w>
ಅದೆ ಷ್ಟು</w>
ಅದ ಿ
ಅಗತ್ಯ ವಿರುತ್ತದೆ</w>
ಅಂಶ ವನ್ನು</w>
ಅಂದ ಹಾಗೆ</w>
ಅಂಗೀ ಕಾರ
ಅಂಗ ಡಿ
ಅ ರೋ
ಅ ಣ್ಣ</w>
ಅ ಕ್ಕಿ</w>
ಅ ಂದ್ರ
ಂಪ ಿಕ್</w>
ಂದ್ರ ನ್</w>
ಂದ ೇ</w>
ಂಗ ು
ಂ ಚ್‌</w>
:2 3</w>
:1 7</w>
8 00</w>
7 7</w>
50 ಕ್ಕೂ</w>
3 50</w>
19 4
10 0ಕ್ಕೂ</w>
10 0
1. 5</w>
“ ಯೆಹೋವನ</w>
ೋದ ಕ್ಕೆ</w>
ೊಳ ಗೊಂಡ</w>
ೊ ತ್ತ
ೇಲ ನ</w>
ೆಯಲ್ಲ ಿದ್ದರು</w>
ೆಯ ೊ</w>
ೆಯ ನ್ನ</w>
ೆ ಣ
ೂ ಲ</w>
ೂ ರಿನಲ್ಲಿ</w>
ೂ ಡಿ</w>
ುವೇ ಂದ್ರ</w>
ುವದ ನ್ನು</w>
ುವಂತ ಹ
ುವ ಾಯ
ುವ ವರೆಗೆ</w>
ುತ್ತಿದ್ದ ರೆ</w>
ುತ್ತಿದ್ದ ಂತೆಯೇ</w>
ುತ್ತದ ೋ</w>
ೀ ಕರಣ
ಿಸುವುದ ಕ್ಕೆ</w>
ಿಸುವ ೆನು</w>
ಿಸುವ ವನು</w>
ಿಸುತ್ತ ಿರಲಿಲ್ಲ</w>
ಿಸಿಕೊಂಡ ಿದೆ</w>
ಿಸ ್ಟ್</w>
ಿರುವ ರು</w>
ಿರ ಲಿಲ್ಲ
ಿರ ದ</w>
ಿಯ ನ್ನ
ಿನ ಂತೆ</w>
ಿದ್ದೇ ಕೆ</w>
ಿದ್ದೀ ನಿ</w>
ಿದ್ದ ೀ</w>
ಿದೆ …</w>
ಿದ ರ</w>
ಿತ ರಾಗಿದ್ದಾರೆ</w>
ಿಕೊಳ್ಳ ುತ್ತಾರೆ</w>
ಿಕ ಾರ್
ಿಕ ಾಂಶ
ಿ ಟ್ಟ</w>
ಿ ಗಳಿಂದ</w>
ಿ ಕ್ಕಿ</w>
ಾರ್ ‌</w>
ಾರ ಿ
ಾಪ ್ಟ
ಹೋರಾಟ ಕ್ಕೆ</w>
ಹೊರ ಬರ
ಹೊರ ಗು
ಹೊರ ಕ್ಕೆ</w>
ಹೊಂದ ಿಕೆಯಲ್ಲಿ</w>
ಹೊಂದ ಲು</w>
ಹೇಳ ುವ
ಹೇಳ ುತ್ತಿದ್ದರು</w>
ಹೇಳ ಿದ್ದೇನೆ</w>
ಹೇಳ ಿದರೆ</w>
ಹೊಂದ ಿರುತ್ತದೆ</w>
ಹೆಸ ರುಗಳು</w>
ಹೆಚ್ಚಳ ವಾಗಿದೆ</w>
ಹೆಚ್ಚ ೆಚ್ಚು</w>
ಹೆಚ್ಚ ಿಸಲಾಗಿದೆ</w>
ಹೆ ಲ್
ಹೆ ಮ್ಮ
ಹುಟ್ಟ ಿ</w>
ಹು ಡಿ</w>
ಹೀಗ ಿವೆ</w>
ಹೀಗ ಿರುವಾಗ</w>
ಹಿಂದ ೆಯೇ</w>
ಹಿಂದ ಿಯಲ್ಲಿ</w>
ಹಾರಾ ಟ</w>
ಹಾಯ ್ದ
ಹಾಡು ಗಳನ್ನು</w>
ಹಾಗ ಾದ್ರೆ</w>
ಹಾಕ ಲಾಗಿತ್ತು</w>
ಹಾ ಲಿನ</w>
ಹಾ ದು</w>
ಹಲ ವರಿಗೆ</w>
ಹರ ಸಾಹಸ</w>
ಹಕ್ಕ ುಗಳನ್ನು</w>
ಹ ೋ</w>
ಹ ವ್ಯಾ
ಹ ನ್ನೆ
ಸ್ವೀಕರಿಸ ಲು</w>
ಸ್ವಿ ೕಕರಿಸ
ಸ್ವಲ್ಪದ ರಲ್ಲೇ</w>
ಸ್ವಯಂ ಚಾಲಿತ</w>
ಸ್ಮ ರಿಸ
ಸ್ಪಿ ನ್ನ
ಸ್ಪಷ್ಟ ವಾಗಿದೆ</w>
ಸ್ನೇಹಿತ ರೊಂದಿಗೆ</w>
ಸ್ನೇಹಿತ ರ</w>
ಸ್ಥಳ ಗಳಿಗೆ</w>
ಸ್ಥ ಾ
ಸ್ತ್ರ ೀ
ಸ್ಕೂ ಟರ್</w>
ಸ್ ಪಾ
ಸೌತೆ ಕಾಯಿ</w>
ಸೊ ಗ
ಸೇವ ೆಗೆ</w>
ಸೇ ನ್</w>
ಸೆ ಹ್
ಸೆ ರೆಯ
ಸೂಚ ಿಸಿದರು</w>
ಸುಲಭ ದ</w>
ಸುರಕ್ಷ ಿತವಾಗಿ</w>
ಸುನೀ ಲ್</w>
ಸುತ್ತಮುತ್ತ ಲಿನ</w>
ಸಿದ್ಧ ತೆಗಳನ್ನು</w>
ಸಿಗ ುತ್ತವೆ</w>
ಸಿಂಗ ಲ್</w>
ಸಿಂ ಹ
ಸಾರ್ವಜನಿ ಕರ</w>
ಸಾಧ್ಯ ವಿರ
ಸಾಧ್ಯ ವಿತ್ತು</w>
ಸಾಧ ಿಸಿದ್ದಾರೆ</w>
ಸಾಕ್ಷ್ಯಾ ಧಾರ
ಸಾಂತ್ವ ನ
ಸಹಾಯ ದಿಂದ</w>
ಸವಾ ಲುಗಳು</w>
ಸವ ಲ
ಸಲಹ ೆಯನ್ನು</w>
ಸರ್ ಕಿ
ಸಮಸ್ಯ ೆಯಾಗಿದೆ</w>
ಸಮಯಾ ನಂತರ</w>
ಸಬ ಲೀ
ಸನ್ನಿವೇಶ ವನ್ನು</w>
ಸಂಬಂಧಿಕ ರ</w>
ಸಂಬಂಧಪಟ್ಟ ಂತೆ</w>
ಸಂಬಂಧ ಿ</w>
ಸಂಬ ಳ</w>
ಸಂತೃ ಪ್
ಸಂಘ ರ್ಷ</w>
ಸಂಗಾ ತಿಯ</w>
ಸಂಖ್ಯ ೆಯನ್ನು</w>
ಸಂ ಸಾರ</w>
ಸಂ ವೇದ
ಸಂ ಯೋಜನೆ</w>
ಸಂ ಬಳ
ಸಂ ಪ್ರ
ಸಂ ಪತ್ತ
ಸ ಿಯಾ
ಸ ಿಕವಾಗಿ</w>
ಸ ಲೀ
ಸ ಲಿಂಗ
ಸ ರೋ
ಷ್ಟ ಕ್ಕೆ</w>
ಶುಶ್ರೂಷ ೆಯಲ್ಲಿ</w>
ಶು ಷ್
ಶು ಚಿ
ಶಿವ ಕುಮಾರ್</w>
ಶಿ ಥ
ಶಾಂತ ಿಯ</w>
ಶ ್ಯಾ
ವ್ಯಕ್ತಪಡಿಸ ಿದ್ದರು</w>
ವ್ಯಕ್ತ ವಾಗಿತ್ತು</w>
ವ್ಯಂಗ ್ಯ
ವ್ಯ ಸ
ವ್ಯ ತ್ಯ
ವೈರ ಸ್‌</w>
ವೈರ ಲ್‌</w>
ವೈಶಿಷ್ಟ್ಯ ಗಳು</w>
ವೇ ನು</w>
ವೆ ನಿ
ವಿಸ್ತರ ಣೆ</w>
ವಿಸ ರ್ಜ
ವಿಷಯ ವು</w>
ವಿಶ್ವ ವೇ</w>
ವಿವಾ ದಾ
ವಿಳ ಂಬ</w>
ವಿರಾ ಟ್‌</w>
ವಿರ ಳ
ವಿಧ ಗಳಲ್ಲಿ</w>
ವಿದ್ಯ ಮಾನ
ವಿಚಾರಣೆ ಗೊಳ
ವಿ ಮೆ</w>
ವಿ ಪಿ</w>
ವಿ ದ</w>
ವಿ ಂಗ್</w>
ವಾರ ಣಾ
ವಾಗಿರ ುವುದಿಲ್ಲ</w>
ವಾಗ ುತ್ತವೆ</w>
ವಾಗ ಿದ್ದ
ವಶ್ಯ ಕ</w>
ವಳ ಲ್ಲ</w>
ವರ್ಷ ಗಳು</w>
ವರ್ಷ ಕ್ಕೆ</w>
ವರೆ ಲ್ಲರೂ</w>
ವರ ನ್ನೂ</w>
ವಜ ಾ</w>
ವ ಿಸ್</w>
ವ ಿದ್
ವ ಸ್ತುವ
ವ ನ್ಯ
ವ ಕ್ತ
ಳೆ ದು</w>
ಲ್ಯಾ ಂಡ
ಲೈ ಫ್</w>
ಲೆಕ್ಕಾ ಚಾರ</w>
ಲಿ ಂಗ</w>
ಲಯ ದ</w>
ಲಯ ಕ್ಕೆ</w>
ಲ ಿಯನ್ನು</w>
ರ್‌ ನ</w>
ರ್ ಸ್‌</w>
ರೌ ಂಡರ್</w>
ರೋಮಾ ಪುರ</w>
ರೋಚ ಕ</w>
ರೊ ಟ್ಟ
ರೈ ತ</w>
ರೇ ಟ್</w>
ರೋಗ ದ</w>
ರು ಜ
ರೀ ತಿಯ
ರಿ ಷ
ರಿ ಗಳ</w>
ರಾಷ್ಟ್ರ ೀಯ
ರಾಮ ನಾಥ</w>
ರಾಧ ಿಕಾ</w>
ರಾಜ ಸ್ಥಾನ
ರಾಜ ಸ್ತಾನ</w>
ರಾಗ ಿದ್ದೇವೆ</w>
ರಾ ಣಿ</w>
ರನ್‌ ಗಳನ್ನು</w>
ರಜ ಪೂ
ರಚ ಿಸಿದ್ದಾರೆ</w>
ರಚ ಿಸಿ</w>
ರಕ್ತ ನಾ
ರ ಸ್</w>
ರ ಶೀ
ರ ಳೆ</w>
ರ ಲ್</w>
ರ ಮ
ರ ನು</w>
ರ ಥ
ಯೋ ಗಾ
ಯೆಹೋವ ನೊಂದಿಗೆ</w>
ಯು ನಿ
ಯ ೀ
ಮ್ಯ ು
ಮ್ಯ ಾನ್</w>
ಮೋಶ ೆಯು</w>
ಮೊಬೈ ಲ್‌</w>
ಮೊತ್ತ ದ</w>
ಮೊ ಹ
ಮೈಕ್ರ ೋ</w>
ಮೊ ಟ್ಟೆ</w>
ಮೆಹಬೂ ಬಾ</w>
ಮೆ ಗ್
ಮೂರ ನೆಯ</w>
ಮೂ ಗು</w>
ಮುಸ್ಲಿಮ ರ</w>
ಮುತ್ತ ಿಗೆ</w>
ಮುಗ ಿದಿದೆ</w>
ಮುಂದುವರಿಸ ಿದ್ದಾರೆ</w>
ಮುಂದ ಾಗಿದ್ದಾರೆ</w>
ಮು ಕ್
ಮೀ ಟರ್</w>
ಮಿ ಶ್ರ</w>
ಮಿ ತ್ರ</w>
ಮಾಲಿ ನ್ಯ
ಮಾರ್ ಚ್</w>
ಮಾನವ ನ</w>
ಮಾನ ದಂಡ
ಮಾತ ೇ</w>
ಮಾಡುವ ಲ್ಲಿ</w>
ಮಾಡುತ್ತ ಿದ್ದೇನೆ</w>
ಮಾಡಿದ ವರು</w>
ಮಾಡಿಕೊಳ್ಳ ುವುದು</w>
ಮಾಡಿಕೊಳ್ಳ ಲಾಗಿದೆ</w>
ಮಾಡಿಕೊಂಡ ಿದ್ದರು</w>
ಮಾಡ ುತ್ತಿದ್ದೆ</w>
ಮಾಡ ಸಾಧ್ಯವಿದೆ</w>
ಮಾಡ ದೆ</w>
ಮಾ ಸಿಕ</w>
ಮಾ ದ</w>
ಮಳ ೆಯಾಗಲಿದೆ</w>
ಮಲ ಪ್ಪುರಂ</w>
ಮನ ವೊ
ಮನ ಮೋಹ
ಮಧ್ಯಾಹ್ ನದ</w>
ಮಧ್ಯಸ್ಥ ಿಕೆ</w>
ಮಧ್ಯ ದಲ್ಲಿ</w>
ಮದ್ರಾ ಸ್</w>
ಮತದಾರ ರು</w>
ಮಕ್ಕಳ ಿದ್ದರು</w>
ಮ ಿಯಾ</w>
ಮ ಯಾ
ಭಿನ್ನಾಭಿ ಪ್ರಾಯ
ಭಾಷ ೆಗಳನ್ನು</w>
ಭಾಷ ಾಂತ
ಭಾಗವಹಿಸ ಿದ</w>
ಭಾಗ ವಹಿಸಿ</w>
ಭಕ್ಷ ್ಯ
ಭ ಕ್ತ</w>
ಬ್ಲ್ಯ ು</w>
ಬ್ರೇ ಕ್</w>
ಬ್ರ ್ಯಾ
ಬ್ಯ ು
ಬೇರೇ ನೂ</w>
ಬೇಕಾಗ ಬಹುದು</w>
ಬೇಕ ಾಗಿ</w>
ಬೇಕ ಾಗುತ್ತದೆ</w>
ಬೆಳೆಯ ುತ್ತಿರುವ</w>
ಬೆಳ ಗಿನ</w>
ಬೆಂಕ ಿ
ಬೆ ಲ್
ಬೆ ರೆಸ
ಬೂ ದು</w>
ಬುಡ ಕಟ್ಟು</w>
ಬೀ ರ್</w>
ಬೀ ದಿ</w>
ಬಿದ್ದ ಿತ್ತು</w>
ಬಿಡುಗಡೆ ಯ</w>
ಬಿಡುಗಡ ೆಯಾಗಲಿದೆ</w>
ಬಾಲಿವುಡ್‌ ನ</w>
ಬಾಲಿವು ಡ್‌</w>
ಬಾ ಹ
ಬಾ ಬಾ</w>
ಬಹಿರಂಗ ವಾಗಿ</w>
ಬಳಲ ುತ್ತಿದ್ದರು</w>
ಬಲವಂತ ವಾಗಿ</w>
ಬಲ ವನ್ನು</w>
ಬರ್ ಬರ</w>
ಬರೆ ದು</w>
ಬರ ುತ್ತೆ</w>
ಬರ ುತ್ತಿದ್ದ</w>
ಬರ ಲಿ</w>
ಬಯ ಸು
ಬಯ ಕೆ</w>
ಬದ ಿಯಲ್ಲಿ</w>
ಬಂಧ ಿಸುವಲ್ಲಿ</w>
ಬಂಧ ಿಸ
ಬಂಧ ನದ</w>
ಬಂದ ಿ
ಬಂದ ನು</w>
ಬಂದ ಂತೆ</w>
ಬ ುದ್ದ
ಬ ಲ್‌</w>
ಫ್ರ ಂಟ್</w>
ಫೋಟೋ ಗಳನ್ನು</w>
ಫು ಟ್‌
ಫೀಲ್ ಡಿಂಗ್</w>
ಫಲಿತಾಂಶ ದ</w>
ಫ ರ್</w>
ಫ ರೋ
ಪ್ಲ ಸ್</w>
ಪ್ರೆ ಸ್</w>
ಪ್ರೀ ತ
ಪ್ರಾರಂಭ ವಾಯಿತು</w>
ಪ್ರಾಣ ಿಗಳು</w>
ಪ್ರವಾಹ ದಿಂದ</w>
ಪ್ರಯಾಣ ದ</w>
ಪ್ರಯಾ ಸ
ಪ್ರಮುಖ ವಾಗಿ</w>
ಪ್ರಧಾ ನಿ
ಪ್ರತ್ಯೇ ಕವಾಗಿ</w>
ಪ್ರತಿಯ ೊ
ಪ್ರತಿಭಟ ನಕಾರ
ಪ್ರತಿದ ಿನವೂ</w>
ಪ್ರ ಲೋಭ
ಪ್ರ ಭ
ಪೌ ಡರ್</w>
ಪೆ ಟ್ಟು</w>
ಪೂರ ಕ</w>
ಪೂ ರಕ
ಪೂ ಜಾ
ಪೂಜಾ ರ</w>
ಪುಸ್ತಕ ವು</w>
ಪುಸ್ತಕ ವನ್ನು</w>
ಪು ರಾವ
ಪು ಣೆ</w>
ಪೀಠ ದ</w>
ಪಿ ಕ್ಸಲ್</w>
ಪಿ ಎಸ್</w>
ಪಾಲ ನೆ</w>
ಪಾಲ ಕರು</w>
ಪಾತ್ರ ಗಳು</w>
ಪಾಕಿಸ್ತಾನ ಿ</w>
ಪಾ ಸ್</w>
ಪಬ್ ಲಿಕ್</w>
ಪತ್ರಿ ಕೆ
ಪಡೆಯ ಬೇಕು</w>
ಪಡಿಸ ಲಾಯಿತು</w>
ಪ ಿಸ್
ಪ ಲಾಯ
ಪ ಥ
ಪ ಟಾ
ಪ ಚಾರ
ಪ ಂತ್</w>
ನ್ನೆ ೕ</w>
ನೊ ಂದ</w>
ನೋ ಂದ
ನೆಹ ರು</w>
ನೆ ರೆ</w>
ನೆ ಟ್‌
ನೆ ಟ್ಟ
ನುಡ ಿದರು</w>
ನೀಡ ುವುದಾಗಿ</w>
ನಿಲ ುಗ
ನಿರಾಕರಿಸ ಿದರು</w>
ನಿರಾ ಸೆ</w>
ನಿಯಮ ಗಳ</w>
ನಿಯಂತ್ರ ಣಕ್ಕೆ</w>
ನಿಧ ನಕ್ಕೆ</w>
ನಿಂದ ನೆ</w>
ನಿ ತಿ
ನಿ ಟ್ಟಿನಲ್ಲಿ</w>
ನಾಯಕ ತ್ವ</w>
ನಾಗರಿ ಕರ</w>
ನಾ ನಲ್ಲ</w>
ನಾ ನಂತೂ</w>
ನಷ್ಟ ವಾಗಿದೆ</w>
ನಷ್ಟ ಕ್ಕೆ</w>
ನನ್ನ ಾಗಿ</w>
ನಡೆಯ ುವುದು</w>
ನಡೆಯ ುವುದಿಲ್ಲ</w>
ನಡೆ ದಾಗ</w>
ನಂಬ ಿಕೆ
ನಂ ಗೆ</w>
ನ ಿಸುತ್ತದೆ</w>
ನ ಿದೆ</w>
ನ ಸ್</w>
ನ ನ್ನೂ</w>
ನ ನ್ನಿ
ನ ತ್ತ</w>
ನ ಗೆ</w>
ಧಾರಾ ಕಾರ</w>
ಧ ನ
ಧ ಕ್ಕೆ</w>
ದ್ರ ೀ
ದೌರ್ ಬ
ದೇಶ ಕ್ಕಾಗಿ</w>
ದೃಶ್ಯ ಗಳು</w>
ದೃಶ್ಯ ಗಳನ್ನು</w>
ದೃಢ ಪಟ್ಟಿದೆ</w>
ದುರಸ್ ತಿ</w>
ದಿನ ವೇ</w>
ದಿನ ವು</w>
ದಿ ಕ್ಕಿ
ದಾರ ಿ
ದಾಖಲಿಸ ಿದೆ</w>
ದಾಖಲಾಗ ಿಲ್ಲ</w>
ದಾಖಲಾಗ ಿ</w>
ದಾ ಯ</w>
ದಶ ಲಕ್ಷ</w>
ದರ ವನ್ನು</w>
ದ …</w>
ದ ಯಾ
ತ್ತ ೆ</w>
ತ್ತ ಿನ</w>
ತ್ ಸಾಹ
ತ್ ರಿಗೆ</w>
ತೋರಿಸ ಿದರು</w>
ತೊ ಂದರೆ</w>
ತೆರೆಯ ಲು</w>
ತೆರೆ ದು</w>
ತೆರೆ ದ</w>
ತೆಗೆ ದ</w>
ತೆಂಡೂ ಲ್ಕರ್</w>
ತೆಂಗ ಿನ
ತಿಳಿಯ ಲಿಲ್ಲ</w>
ತಿರು ಗು
ತಿರಿ ಗಿ</w>
ತಿ ವೆ</w>
ತಾಲೂ ಕು</w>
ತಾಯ ಿಗೆ</w>
ತಾನ ೂ</w>
ತಾ ಣಗಳಲ್ಲಿ</w>
ತರ್ ಕ
ತನಿಖ ೆಯಿಂದ</w>
ತಡೆಯ ುವುದು</w>
ತಂ ತ್ರಾ
ತ ಿದ್ದ</w>
ತ ದ್ರೀ
ಣ ಿಯ</w>
ಡೆ ೂೕ
ಡೆ ನ್
ಡಿ ವೈ
ಡ ಾನ್</w>
ಟ್ವಿಟ ರ್‌ನಲ್ಲಿ</w>
ಟ ಿಸ್</w>
ಟ ವರ್‌</w>
ಜೋ ಸೆ
ಜೇ ನು
ಜೆ ೂೕ
ಜೆ ಪಿ</w>
ಜಿಲ್ಲ ೆ</w>
ಜಿಲ್ಲ ಾಡಳಿತ</w>
ಜಿ ೕ
ಜಾಮೀ ನಿನ</w>
ಜಾ ಧವ್</w>
ಜಾ ತಿ
ಜನ ರೊಂದಿಗೆ</w>
ಜನ ಜೀವನ</w>
ಜಡೇ ಜ</w>
ಜ ಮೀ
ಜ ತೆಗ
ಜ ಂಟಿಯಾಗಿ</w>
ಚೆ ನ್ನಿ
ಚಿತ್ರ ಕಥೆ</w>
ಚಿಕಿತ್ ಸಾ</w>
ಚಾ ಂಡಿ</w>
ಚರ್ಮ ವನ್ನು</w>
ಚಟುವಟಿಕೆ ಗಳು</w>
ಗ್ರಾಮ ದಲ್ಲಿ</w>
ಗೌರ ವಾ
ಗೊತ್ತಾಗ ಿಲ್ಲ</w>
ಗೊಂಡ ಿದ್ದು</w>
ಗೆದ್ದ ಿರುವ</w>
ಗೆ ಹ್
ಗೂ ಢ
ಗುಣಮುಖ ರಾಗಿದ್ದಾರೆ</w>
ಗಾಯಾಳು ಗಳ</w>
ಗಾಯ ಗಳ
ಗಾಂಧೀ ಜಿ</w>
ಗಾ ಬ
ಗಳೆ ಲ್ಲ
ಗಳಾಗ ಿದ್ದವು</w>
ಗಳ ಿಸಿತು</w>
ಗಳ ನ್ನೆಲ್ಲಾ</w>
ಗಳ ನ್ನಾಗಿ</w>
ಗಮನ ದಲ್ಲಿಟ್ಟ
ಗ ನ್</w>
ಖು ರೇ
ಕ್ಷೇತ್ರ ಗಳಿಗೆ</w>
ಕ್ಷಿ ಪ
ಕ್ಷ ೀ
ಕ್ಷ ನ್‌</w>
ಕ್ರೀ ಡೆ</w>
ಕ್ರಿಸ್ತ ನನ್ನು</w>
ಕ್ರಿಸ್ ಮಸ್</w>
ಕ್ರಿಯ ೆಗೈ
ಕ್ರಿಕೆ ಟ್‌ಗೆ</w>
ಕ್ರಾ ಂತ
ಕ್ರಮ ದ</w>
ಕೋ ರಿದ</w>
ಕೋ ಟೆ</w>
ಕೋ ಚ್‌</w>
ಕೊಡ ುತ್ತೇನೆ</w>
ಕೊಡ ುಗ
ಕೊಡ ಲ್ಪಟ್ಟ
ಕೊ ಲಂಬ
ಕೊ ಯ್
ಕೈಗೊಳ್ಳ ಲು</w>
ಕೈ ಯಿಂದ</w>
ಕೇಳ ಿದ್ದಾರೆ</w>
ಕೇಳ ಿದನು</w>
ಕೇಳ ಿದ
ಕೊ ಹ್ಲಿ</w>
ಕೆಲಸ ವೂ</w>
ಕೆಟ್ಟ ದಾಗಿ</w>
ಕೆ ತ್ತ
ಕೆ ಎಸ್‌
ಕೂದ ಲಿನ</w>
ಕೂಡ ಿಸಿ</w>
ಕುಸ ಿದ
ಕುಡಿಯ ಬೇಕು</w>
ಕಿರ ಣ</w>
ಕಿ ಂಗ್‌</w>
ಕಿ ಂಗ್
ಕಾಲೇಜು ಗಳಿಗೆ</w>
ಕಾಲಿ ಟ್ಟ
ಕಾರ್ಯಕ್ರಮ ಕ್ಕೆ</w>
ಕಾರ್ಯಕರ್ ತ</w>
ಕಾರ್ಯ ಾಗ
ಕಾರ್ಯ ನಿರ್ವಾಹಕ</w>
ಕಾರ್ ತಿಕ್</w>
ಕಾರಣ ಾಂತರ
ಕಾಯ ುತ್ತಿದ್ದಾರೆ</w>
ಕಾಮಗಾರ ಿಗಳು</w>
ಕಾನ್ಫರೆ ನ್ಸ್</w>
ಕಾದ ಂಬರಿ</w>
ಕಾಣ ುವುದಿಲ್ಲ</w>
ಕಾ ಮೆಂಟ್</w>
ಕಾ ಮು
ಕಸ್ಟ ಡಿಗೆ</w>
ಕಲಿಯ ುವ</w>
ಕಲಿಯ ಬಹುದು</w>
ಕಲಾ ಪ
ಕರು ಣೆ</w>
ಕರ ಿ</w>
ಕರ ವೂ</w>
ಕಡಿ ವಾಣ</w>
ಕಡತ ಗಳನ್ನು</w>
ಕಟ್ಟುನಿಟ್ಟ ಿನ</w>
ಕಟ್ಟ ೆಚ್ಚ
ಕಂಪ ನಿ
ಕಂಡು ಬರುವ</w>
ಕಂಟ್ರ ೋಲ್</w>
ಕ ುವ</w>
ಕ ಿತ್ತು</w>
ಕ ಟ್</w>
ಓರ್ ವನನ್ನು</w>
ಒಳ್ಳೆಯ ದಲ್ಲ</w>
ಒಳ ಗಾ
ಒಬ್ಬ ರ</w>
ಒಬ್ಬ ನನ್ನು</w>
ಒದಗ ಿಸಲು</w>
ಒತ್ತಡ ಕ್ಕೆ</w>
ಒಂದ ಷ್ಟು</w>
ಒಂದ ಲ್ಲ</w>
ಏರ್ ಪಡಿಸಲಾಗಿದೆ</w>
ಏನ ದು</w>
ಎಸ್ಯ ುವಿ
ಎಷ್ಟ ರ</w>
ಎಲ್ಲ ದ
ಎಲೀ ಯ
ಎನ್ನ ಬಹುದು</w>
ಎದುರಿಸ ುವ</w>
ಎಣ ಿಕೆ</w>
ಎ ಸೆಯ
ಎ ಳೆಯ
ಎ ಮ್‌
ಎ ಬಿ
ಎ ಡಿ
ಎ ಟಿ
ಉಸ್ತುವ ಾರಿ</w>
ಉಳಿಸ ಲು</w>
ಉಪಾ ಧ್ಯಕ್ಷ
ಉದ್ಯ ಮಿ</w>
ಉತ್ತೇಜ ನ</w>
ಉತ್ತರ ಪ್ರದೇಶದ</w>
ಉಂಟ ಾಗಿತ್ತು</w>
ಉ ದಾರ
ಉ ಕ್ಕ
ಈಗ ಲೇ</w>
ಇಷ್ಟ ವಾಗ
ಇವ ತ್ತು</w>
ಇರ ುವಂತಿಲ್ಲ</w>
ಇನ್ನಿ ಬ್ಬರು</w>
ಇನ್ನಿ ಂಗ್
ಇದ್ದೇ ವೆ</w>
ಇದಕ್ಕ ೆಲ್ಲ</w>
ಇದ ೆಯಾ</w>
ಇತ್ತೀ ಚಿಗೆ</w>
ಇಂಥ ದ್ದೇ</w>
ಇಂತ ಿದೆ</w>
ಇ ಳಿದ</w>
ಆಹಾರ ಗಳು</w>
ಆಸ್ಪತ್ರ ೆಗಳಿಗೆ</w>
ಆಸ್ಪತ್ರ ೆಗಳಲ್ಲಿ</w>
ಆಶ್ರ ಯ</w>
ಆರಂಭ ಿಸಿದ್ದರು</w>
ಆಯ್ಕೆಯಾಗ ಿದ್ದರು</w>
ಆಯಾ ಸ</w>
ಆದೇಶ ವನ್ನು</w>
ಆದ ರ್ಶ
ಆಘಾತ ಕಾರಿ</w>
ಆಗ ುತ್ತಿತ್ತು</w>
ಆ ವರ
ಆ ಪ್
ಆ ಪಾದ
ಆ ಕಾಶ</w>
ಆ ಂಟಿ</w>
ಅಸ್ತಿತ್ವ ಕ್ಕೆ</w>
ಅರ್ಥ ವನ್ನು</w>
ಅಭ್ಯರ್ಥ ಿಗಳಿಗೆ</w>
ಅಭಿನಯ ದ</w>
ಅಭಿನಂದ ನೆಗಳು</w>
ಅಪರಿ ಚಿತ</w>
ಅಪರಾಧ ಿ</w>
ಅನೇ ಕರನ್ನು</w>
ಅನುಭವ ಿಸಿತು</w>
ಅನುಕೂಲ ಕರ</w>
ಅನು ಕೂಲ</w>
ಅನ ುಗ್ರ
ಅನ ಿಸುತ್ತದೆ</w>
ಅನ ಂತ</w>
ಅಧಿಕಾರ ಿಗಳನ್ನು</w>
ಅದಕ್ಕ ೊಂದು</w>
ಅದ ನ್ನ
ಅಥ ್
ಅಣ ಬೆ
ಅಚ್ಚ ರಿಯ</w>
ಅಗತ್ಯವಿರ ುವುದಿಲ್ಲ</w>
ಅಗತ್ಯ ವನ್ನು</w>
ಅಗ ಲ
ಅಕ್ಟೋಬ ರ್‌</w>
ಅಂದ ೇ</w>
ಅಂಕ ಿತ</w>
ಅ ಳು
ಅ ಲೆ</w>
ಅ ನ್ನ</w>
ಅ ಂತರ</w>
ಂದ ೋ
ಂತ ು
o n</w>
e r
: 9</w>
9 .
7 6</w>
6 4
5 8</w>
5 1</w>
2 ರ</w>
19 ,
10 ,
/ 1</w>
“ ನಿನ್ನ</w>
’ ಗೆ</w>
್ಯಾವ ುದೂ</w>
್ಟ ್
ೋ ಗಿ
ೊಬ್ಬ ಳು</w>
ೈ ದು</w>
ೇ ನಾ</w>
ೇ ತ</w>
ೆಯಾಗ ಿಯೇ</w>
ೆಯ ಾದರು</w>
ೆಯ ನ್ನ
ೆ ಡ
ೂ ಢ
ುವಂತ ಿರಲಿಲ್ಲ</w>
ುವ ಾರ
ುವ ಾಗ
ುದ್ ದ</w>
ುದ ಿಲ್ಲ</w>
ುತ್ತೇ ನೆಂದು</w>
ುತ್ತಿದ್ದ ಾರ
ುತ್ತ ೇವೆ</w>
ುಕೊಂಡ ಿದ್ದರು</w>
ು ಣ</w>
ು ಗೆ
ು ಗಳಿಂದ</w>
ಿಸುತ್ತ ೀರಾ</w>
ಿಸುತ್ತ ಾಳೆ</w>
ಿಸುತ್ತ ಲೇ</w>
ಿಸಿ ಬಿಡ
ಿಸ ಲಿವೆ</w>
ಿಲ್ಲ ವೆಂದು</w>
ಿಯಲ್ಲ ಿದ್ದ</w>
ಿಯ ಾದರೂ</w>
ಿದ್ದ ೂ</w>
ಿದ್ದ ಾಗಲೇ</w>
ಿದ್ ವಿ</w>
ಿದ ್ರ
ಿತ ೇ</w>
ಿತ ೆ</w>
ಿಕೊಟ್ಟ ಿದ್ದಾರೆ</w>
ಿಕ ಾರ
ಿ ಲ್</w>
ಾರಾ ಮಿ</w>
ಾನ ೊ</w>
ಾ ದಿ
ಹೌ ಸ್</w>
ಹೋದ ಳು</w>
ಹೋಗ ುತ್ತೇವೆ</w>
ಹೋಗ ಿದ್ದು</w>
ಹೋ ಮ್</w>
ಹೊರ ಬೀಳ
ಹೊರ ಟು
ಹೊ ಲ
ಹೊ ಣೆಯನ್ನು</w>
ಹೊ ಗೆ</w>
ಹೇಳ ಿದ್ದೇನು</w>
ಹೇಳ ಿಕೆಗಳನ್ನು</w>
ಹೇಳ ಲಿ</w>
ಹೆಸರ ುವಾ
ಹೆಜ್ಜೆ ಗಳನ್ನು</w>
ಹೆಚ್ಚ ುತ್ತದೆ</w>
ಹೆಚ್ಚ ನ್ನು</w>
ಹೆ ಡ್</w>
ಹುದ್ದ ೆ</w>
ಹುಡುಗ ರು</w>
ಹುಟ್ಟ ಿದ್ದು</w>
ಹು ಳು
ಹೀಗನ್ನ ುತ್ತದೆ</w>
ಹೀ ಗೊಂದು</w>
ಹಿಸ ು
ಹಿಮಾ ಚಲ</w>
ಹಿನ್ನೆ ಲ
ಹಿಡಿದ ಿದ್ದಾರೆ</w>
ಹಿಂಸಾಚಾರ ಕ್ಕೆ</w>
ಹಿಂಭಾಗ ದಲ್ಲಿ</w>
ಹಿಂದ ೆಯೂ</w>
ಹಿ ಷ್ಣು
ಹಾನ ಾ</w>
ಹಾದ ಿಯಲ್ಲಿ</w>
ಹಾ ಸ್ಯ</w>
ಹಾ ಸ</w>
ಹರಿ ಹಾಯ್ದ
ಹರ ಣ</w>
ಹ ಾನ್</w>
ಹ ಸ್ತ</w>
ಹ ವೇ</w>
ಹ ವನ್ನು</w>
ಹ ರೀ
ಹ ಮೀ
ಹ ಕ್ಕೆ</w>
ಹ ಂಬ
ಸ್ವೀಕರಿಸ ಿದರು</w>
ಸ್ವೀ ಕಾರ</w>
ಸ್ವರ್ಗ ದಲ್ಲಿ</w>
ಸ್ವ ಂತ
ಸ್ಮಾರ್ಟ್‌ ಫೋನ್‌</w>
ಸ್ನೇಹಿತ ರು</w>
ಸ್ಥಿತ ಿಯನ್ನು</w>
ಸ್ಥಳೀಯ ರ</w>
ಸ್ಥಳ ಿಕ</w>
ಸ್ಟ್ಯಾ ಂಡರ್ಡ್</w>
ಸ್ಟೋ ರೇ
ಸ್ಟೇ ಟ್
ಸ್ ​
ಸ್ ವ</w>
ಸ್ ಟ್​</w>
ಸೌ ಮ್ಯ</w>
ಸೋ ದ
ಸೊಲೊಮೋನ ನು</w>
ಸೈ ನಿಕ
ಸೈ ಟ್</w>
ಸೇರಿಸ ಿದರು</w>
ಸೇರಿದ ವರು</w>
ಸೇರ ಿದ್ದರು</w>
ಸೇರ ಿದರು</w>
ಸೆಹ್ ವಾಗ
ಸೆಷ ನ್ಸ್</w>
ಸೆನ್ ಸಾರ್
ಸೆಂಟ ರ್</w>
ಸೆ ೖ
ಸೆ ಟ್ಟಿ
ಸೂಚ ಿಸಿದೆ</w>
ಸುಳ್ಳ ು
ಸುಮ್ಮ ನಾ
ಸುಪ್ರೀಂ ಕೋರ್ಟ್‌</w>
ಸುಧಾರ ಿಸಲು</w>
ಸುದ್ದ ಿಗಳು</w>
ಸುಂದ ರವಾದ</w>
ಸು ನಾ
ಸು ಗಳ</w>
ಸೀ ಟ್</w>
ಸಿ ರಿಯಾ</w>
ಸಿ ಆರ್</w>
ಸಾಧ್ಯ ವಾದ</w>
ಸಾ ಲದ</w>
ಸಾ ಥ್</w>
ಸವಾ ಲುಗಳನ್ನು</w>
ಸರ್ವ ೋ
ಸರ್ಕಿ ಟ್‌</w>
ಸರ್ ವಶ
ಸರಬ ರಾಜು</w>
ಸರ ಿದ
ಸಮೂ ಹ</w>
ಸಮಯ ದಲ್ಲೇ</w>
ಸಮ ುವ
ಸತ್ಯ ಕ್ಕೆ</w>
ಸತ ತವಾಗಿ</w>
ಸಚಿವಾಲಯ ದ</w>
ಸಂಸ್ ಕಾರ
ಸಂಸ ತ್ತಿನಲ್ಲಿ</w>
ಸಂಸ ತ್</w>
ಸಂಶೋಧ ನಾ</w>
ಸಂಬಂಧ ಿಸಿದ್ದ
ಸಂಬಂಧ ಗಳು</w>
ಸಂಪ್ರ ದಾಯ</w>
ಸಂದರ್ಶ ನದಲ್ಲಿ</w>
ಸಂದರ್ಶ ನದ</w>
ಸಂತ ೈಸ
ಸಂತ ೋಷ
ಸಂಚಲ ನ</w>
ಸಂಗೀತ ದ</w>
ಸಂಗ ತಿಗಳನ್ನು</w>
ಸಂಕೀರ್ ಣ
ಸಂ ರಕ್ಷಣೆ</w>
ಸಂ ಭವ</w>
ಸ ಹೋ
ಸ ಶಸ್ತ್ರ</w>
ಸ ಬ್
ಸ ನ್‌</w>
ಸ ದ್ದ
ಷ್ಟ ಿ</w>
ಶ್ರ ೇಯ
ಶ್ ವರ್
ಶ್ ಚೇತನ
ಶ್ ಚ
ಶೆ ಲ್</w>
ಶಿವ ಸೇ
ಶಾರ ್ಟ್</w>
ಶಾರ ು
ಶಾ ಲಿ
ಶಾ ಖ</w>
ಶ ೋ</w>
ವ್ಯಾಖ್ಯ ಾನ
ವ್ಯ ೂ
ವೇಗ ದಲ್ಲಿ</w>
ವೇ ಗಿ</w>
ವೆ ಸ್ಟ್‌</w>
ವೆ ಯ</w>
ವೀಡಿಯ ೊ</w>
ವೀಡಿಯ ೊ
ವೀ ಕ್ಷ
ವಿಸ್ ಮಯ
ವಿಷಯ ವೇ</w>
ವಿಶ್ವವಿದ್ಯಾಲಯ ದಲ್ಲಿ</w>
ವಿಶ್ ಲೇಷ
ವಿವೇ ಕ್</w>
ವಿವಿಧ ೆಡೆ</w>
ವಿಮೋಚ ನಾ</w>
ವಿಫಲ ಗೊಂಡಿದೆ</w>
ವಿಧಾನ ಗಳನ್ನು</w>
ವಿದ್ಯಾಭ್ಯಾ ಸ</w>
ವಿದೇಶ ದಲ್ಲಿ</w>
ವಿದೇಶ ಕ್ಕೆ</w>
ವಿಡಿಯೋ ವನ್ನು</w>
ವಿಂಡ ೀಸ್</w>
ವಿ ಚಿತ್ರ
ವಿ ಕ್ರ
ವಾಸ್ತ ವಾ
ವಾಸ ಿಸುತ್ತಿದ್ದಾರೆ</w>
ವಾಷಿಂಗ್ಟ ನ್</w>
ವಾಗಿರ ಲು</w>
ವಾಗ ುವಂತೆ</w>
ವಾಗ ಿದ್ದರು</w>
ವಾ ಲಾ</w>
ವಾ ಕ
ವಾಕ ರಿಕೆ</w>
ವಲ್ಲ ವೇ</w>
ವರ್ ಡ್</w>
ವರಾಗ ಿರುವ</w>
ವರ ಿದ್ದಾರೆ</w>
ವಕ್ತ ಾರ
ವ ತಿ</w>
ಳೆ ಗಳು</w>
ಲ್ಲ ಿದೆ</w>
ಲ್ಲ ಿಕ
ಲ್ಯ ೂ
ಲ್ಪಟ್ಟ ು</w>
ಲ್ಪಟ್ಟ ವು</w>
ಲ್ ಸ್‌</w>
ಲೋ ಟ್</w>
ಲೀ ಟ್</w>
ಲಾ ದ
ಲಯ ವನ್ನು</w>
ಲ ೊ</w>
ಲ ಿದ್ದೀರಿ</w>
ಲ ಘ
ರೋ ಮ</w>
ರೇ ಷ್
ರೇ ಪ್</w>
ರೆ ಸ್ಟ
ರು ಗಳ</w>
ರಿಯಾಯ ಿತಿ</w>
ರಿಯ ಾಗ
ರಿ ಂಗ್‌</w>
ರಾಷ್ಟ್ರ ಪ
ರಾಜ್ಯ ವು</w>
ರಾಜ್ಯ ಗಳಿಗೆ</w>
ರಾಜ ್‌
ರಾಜ ೇಶ್</w>
ರಾಜ ಾ</w>
ರಾಗ ಿರುತ್ತಾರೆ</w>
ರಾಗ ಿರಿ</w>
ರಾ ಮ್‌</w>
ರಾ ಣಾ</w>
ರಸ್ತೆ ಗಳಲ್ಲಿ</w>
ರವಿ ಶಂಕರ್</w>
ರಡ ೂ</w>
ರಕ್ಷ ಿಸಿ</w>
ರ ೀ</w>
ಯೋಜ ನೆಗೆ</w>
ಮ್ಯಾಜಿಸ್ಟ್ರ ೇಟ್</w>
ಮೌಲ್ಯಮಾಪ ನ</w>
ಮೋದಿಯ ವರನ್ನು</w>
ಮೋದ ಿಯನ್ನು</w>
ಮೈ ಕ್ರೋ
ಮೃತಪಟ್ಟ ವರಲ್ಲಿ</w>
ಮೃತ ರು</w>
ಮೂರ ನೇ</w>
ಮುನ್ನ ು
ಮುನ್ನ ವೇ</w>
ಮುದ ು
ಮುಜುಗ ರ
ಮುಗ ಿದು</w>
ಮುಖ್ಯ ವಾದ</w>
ಮುಖ ಕ್ಕೆ</w>
ಮುಂಬ ಯಿ</w>
ಮುಂದುವರಿಸ ಲು</w>
ಮುಂದುವರಿಯ ಿತು</w>
ಮುಂತಾದ ವರು</w>
ಮುಂಗಟ್ಟ ುಗಳು</w>
ಮು ಸ್
ಮು ಗು
ಮೀಸ ಲಾತಿ</w>
ಮಿಾ ಕ</w>
ಮಿಷ ನೆ
ಮಿ ಕ್
ಮಾಸ್ ಕ್</w>
ಮಾರ್ಗ ದ</w>
ಮಾರ ಕ</w>
ಮಾನ ಸಿಕವಾಗಿ</w>
ಮಾನ ವೀಯ
ಮಾದರಿಯ ು</w>
ಮಾದ ರಿ
ಮಾತನಾಡ ುತ್ತಾರೆ</w>
ಮಾತ ೃ
ಮಾಡುವುದ ಾಗಿ</w>
ಮಾಡುವುದ ರ</w>
ಮಾಡುವ ರು</w>
ಮಾಡಿಕೊಳ್ಳ ುವುದಿಲ್ಲ</w>
ಮಾಡಿಕೊಂಡ ಿದೆ</w>
ಮಾಡ ಲಾದ</w>
ಮಾ ಲ್
ಮಹೇ ಶ್</w>
ಮಹಾ ತ್ಮ
ಮಸೂ ದ್</w>
ಮಳ ೆಯಾಗ
ಮರು ಜ್ಞಾಪ
ಮನೆಯ ೊಳಗೆ</w>
ಮನುಷ್ಯ ರಿಗೆ</w>
ಮನಸ್ ಸಾಕ್ಷ
ಮಧ್ಯ ಪ್ರದೇಶದಲ್ಲಿ</w>
ಮದ್ಯ ಪಾನ</w>
ಮದುವ ೆಯಾದ</w>
ಮತ್ತ ೊಬ್ಬ
ಮತದಾರ ರ</w>
ಮತ ಗಟ್ಟ
ಮಟ್ಟ ಕ್ಕೆ</w>
ಮಕ್ಕಳ ೊಂದಿಗೆ</w>
ಮ ೆಯ
ಮ ಸ್‌</w>
ಮ ಮತ
ಮ ತ್
ಮ ಡಿಕ
ಭ್ರಷ್ಟಾ ಚಾರದ</w>
ಭಾಗ ವಾಗಿ</w>
ಭಾ ವು
ಭವ ನದಲ್ಲಿ</w>
ಭರ್ ತಿ</w>
ಭರವ ಸೆ
ಭಯಾ ನ
ಬ್ಲೂ ಟೂ
ಬ್ಯಾ ಟಿಂಗ್‌</w>
ಬೇಕೆ ಂದರೆ</w>
ಬೇಕಾಗ ಿರುವ</w>
ಬೇ ಕಾದ</w>
ಬೆಳೆಯ ಲು</w>
ಬೆಳೆ ದ
ಬೆಟ್ಟ ದ</w>
ಬೆಂಬಲ ವನ್ನು</w>
ಬೆ ೖ
ಬೆ ರೆಯ
ಬೆ ನ್</w>
ಬೆ ಚ್ಚಿ
ಬುದ್ಧಿ ವಾದವನ್ನು</w>
ಬಿಡ ುವ</w>
ಬಿಟ್ಟು ಕೊಡ
ಬಿ ಟ್</w>
ಬಿ ಚ್ಚ
ಬಾಹ ್ಯ</w>
ಬಾರ ಿಸಿದ</w>
ಬಾರ ಾ
ಬಾಬೆ ಲಿನ</w>
ಬಹುದ ಾ</w>
ಬಳಲ ುತ್ತಿದ್ದಾರೆ</w>
ಬಲ್ಲ ನು</w>
ಬಲ್ ಸ್ಪೂನ್</w>
ಬಲಿ ಷ್ಠ
ಬಲ ಹೀನ
ಬಲ ಗೊಳಿಸ
ಬರೆ ದುಕೊಂಡ
ಬರ ುವಾಗ</w>
ಬರ ುತ್ತಿರಲಿಲ್ಲ</w>
ಬರ ವಣ
ಬಯಸ ುತ್ತಾನೆ</w>
ಬಯಸ ಿದೆ</w>
ಬದ ಲಾಗುತ್ತದೆ</w>
ಬಣ್ಣ ಗಳ</w>
ಬಗೆಹರಿಸ ಲು</w>
ಬಂಧ ಿಸಿರುವ</w>
ಬಂಧ ಿಸಿದ್ದು</w>
ಬ ಿಯ
ಬ ಿದ್ದೆ</w>
ಬ ಿದ್ದರೆ</w>
ಬ ಿದ
ಬ ಳ್ಳ
ಬ ತ್ತ
ಬ ಡ್ಡ
ಬ ಜಾಜ್</w>
ಫ್ರೆ ಂಚ್</w>
ಫೋಟೋ ವನ್ನು</w>
ಫಿಲಿ ಪ್ಪಿ</w>
ಫಿಲಿ ಪ್ಪ
ಫಾರ ೂ
ಫಲಕಾರಿಯಾಗ ದೆ</w>
ಪ್ಲಾ ಸ್ಟಿ
ಪ್ರೀತ ಿಸುತ್ತಾನೆ</w>
ಪ್ರೀತ ಿಸ
ಪ್ರಾರ್ಥ ನೆ
ಪ್ರಶ್ನ ೆಯೇ</w>
ಪ್ರಶಸ್ ತಿ
ಪ್ರಯೋಜನ ವನ್ನು</w>
ಪ್ರಭಾ ವಿ</w>
ಪ್ರದೇಶ ಗಳು</w>
ಪ್ರದೇಶ ಗಳ</w>
ಪ್ರತಿಭಟ ನೆಯನ್ನು</w>
ಪ್ರತಿಭಟ ನೆಗೆ</w>
ಪ್ರತಿಕ್ರಿಯ ಿಸಿದ್ದಾರೆ</w>
ಪ್ರತಿ ಪಕ್ಷಗಳ</w>
ಪ್ರತ ಿಸ್
ಪ್ರಚೋದ ನೆ</w>
ಪ್ರಕ್ರಿಯ ೆಯ</w>
ಪ್ರ ಹಾರ</w>
ಪ್ರ ಳಯ
ಪ್ರ ತೀ</w>
ಪೊಲೀಸ ರೇ</w>
ಪೊಲೀಸ ರಿಗೂ</w>
ಪೆÇ ಲೀಸರು</w>
ಪೆ ೂ
ಪೃ ಥ
ಪುರಾ ವೆ</w>
ಪುರಸ್ ಕಾರ</w>
ಪುನರು ಚ್ಚ
ಪುನ ಃ
ಪುತ್ರಿಯ ರು</w>
ಪಿತ ೃ
ಪಿಂಚ ಣಿ</w>
ಪಾತ್ರ ದ</w>
ಪಾತ್ರ ಗಳನ್ನು</w>
ಪಾ ಲ್‌</w>
ಪಾ ಡು
ಪಶ್ಚಾತ್ತ ಾಪ
ಪವಿತ್ರಾತ್ಮ ದ</w>
ಪತ್ರಿ ಕೆಯ</w>
ಪಡೆದುಕೊಳ್ಳ ಲು</w>
ಪಡೆ ಗಳ</w>
ಪಡ ಿಸುತ್ತಾನೆ</w>
ಪಠ ್ಯ
ಪಟ್ಟ ು
ಪಕ್ಷೇ ತರ</w>
ಪಂಚಾಯ ಿತಿ</w>
ಪ ುತ್ತ
ಪ ಲ್ಲ
ಪ ಠಾ
ನ್‌ ಗಳು</w>
ನ್ಯೂಯಾರ್ ಕ್</w>
ನ್ಯೂಜಿಲೆಂಡ ್‌</w>
ನ್ಯಾಯಾಧೀ ಶ</w>
ನ್ಯಾಯಮೂರ್ ತಿ
ನ್ನಿ ರಿ</w>
ನ್ನಿ ಟ್ಟ
ನೋಡ ಿದರು</w>
ನೋ ಡಿಯ
ನೋ ಟು</w>
ನೆ ಗಳೂ</w>
ನೂರ ಕ್ಕೂ</w>
ನಿಶ್ಚಿತ ಾರ್ಥ</w>
ನಿಲ್ಲ ಿಸಿ</w>
ನಿರ್ದೇಶ ನಾ
ನಿಯ ಾಗ
ನಿತ್ಯ ವೂ</w>
ನಿ ವೃತ್ತ
ನಿ ರು
ನಿ ಕೋ
ನಾಪತ್ತೆಯಾಗ ಿದ್ದಾರೆ</w>
ನಾನೇ ನೂ</w>
ನಾ ಮೆ</w>
ನಾ ನಾ
ನಾ ಚ
ನಲ್ಲಿ ಡಿ</w>
ನಲ್ಲ ಿದ್ದಾರೆ</w>
ನಮ್ಮೆ ಲ್ಲರ</w>
ನನ್ನ ೊಂದಿಗೆ</w>
ನನಗ ಂತೂ</w>
ನನ ಸಾಗ
ನನ ಗೇನೂ</w>
ನಡೆಸ ುತ್ತಿದ್ದ</w>
ನಡೆಯ ುತ್ತಿದ್ದ</w>
ನಡೆಯ ುತ್ತವೆ</w>
ನಡೆಯ ುತ್ತ
ನಡೆದ ಿರುವ</w>
ನಡ ುಗ
ನಡ ವಳ
ನಡ ತೆ</w>
ನಜ್ ಜುಗು
ನಂಬಿಕ ೆಯಿ
ನಂಬ ಿ</w>
ನ ಳಿ
ನ ಡ್ಡಾ</w>
ಧರ್ಮ ವನ್ನು</w>
ಧರ್ಮ ಕ್ಕೆ</w>
ಧ ರೆ
ದ್ರಾಕ್ಷ ಿ</w>
ದೊರೆ ತಿಲ್ಲ</w>
ದೊರೆ ತ
ದೇವದೂ ತರು</w>
ದೆ ವ್ವ
ದೂರ ದಲ್ಲಿದೆ</w>
ದುರ್ ಬಳಕೆ</w>
ದು ರು</w>
ದು ಡ್
ದು ಡ
ದೀ ಪ್‌</w>
ದಿನ ವನ್ನು</w>
ದಾವೀದ ನಿಗೆ</w>
ದಾಖಲಾಗ ಿದ್ದು</w>
ದಾಖಲಾಗ ಿದ್ದರು</w>
ದಾ ಳಿ
ದಾ ದರೆ</w>
ದಲ್ಲ ೆ</w>
ದ ವರನ್ನು</w>
ದ ಳ</w>
ಥಿಯ ೇ
ತ್ತ ಿಗೂ</w>
ತ್ ಸವ
ತೊಳೆದುಕೊಳ್ಳ ಿ</w>
ತೇ ಜ
ತೆಗೆದುಕೊಳ್ಳ ಬೇಕು</w>
ತೆಗೆದು ಕೊಳ್ಳಿ</w>
ತೃ ಣ
ತು ಂಡು</w>
ತೀ ವಿ</w>
ತೀ ಯಾ</w>
ತಿಳಿಸ ಿದನು</w>
ತಿಳಿಯ ುತ್ತಿಲ್ಲ</w>
ತಿಳಿಯ ದೆ</w>
ತಿಳಿದ ಿರಲಿಲ್ಲ</w>
ತಿರಸ್ಕರಿಸ ಿತ್ತು</w>
ತಿನ್ನ ುವ</w>
ತಾಯ ಿಯ
ತಪ್ಪ ಿಸ
ತಪ್ಪ ಿ
ತನ ಕ್ಕೆ</w>
ತಣ್ಣ ೀ
ತಡೆಯಾ ಜ್ಞೆ</w>
ತಂದೆ ತಾಯ
ತ ವನ್ನು</w>
ತ ಲೆಯ</w>
ತ ಲೆಯ
ಣ ್ಯ</w>
ಣ ೆಯ
ಡ್ರೈ ವರ್</w>
ಡೆ ದು
ಡಿಸ್ ‌
ಡಿಸ ೈ
ಡಿ ಪಿ
ಡಿ ಗಳ</w>
ಡ ಿಸಿ</w>
ಠಾ ಣೆಯ</w>
ಟ್‌ ಗಳನ್ನು</w>
ಟ್ರೈ ಲರ್</w>
ಟ್ರಾ ಫಿಕ್</w>
ಟ್ರ ಿ</w>
ಟ್ರ ಕ್</w>
ಟ್ ‍ನಲ್ಲಿ</w>
ಟೇ ಬಲ್</w>
ಟಿಪ್ಪ ಣಿ</w>
ಟಿ ಂಗ್
ಟ ಿಯನ್ನು</w>
ಜ್ಞಾಪ ಕ
ಜ್ಞಾನ ವು</w>
ಜೀವ ಿಸುವ</w>
ಜೀವ ಕ್ಕೆ</w>
ಜಿಲ್ಲ ೆಗಳ</w>
ಜಿಯ ೋ</w>
ಜಿ ಂಗ್</w>
ಜಾಹೀರಾ ತು</w>
ಜಾರ್ ಜ್</w>
ಜಾಗ್ರ ತೆ</w>
ಜಾ ನ್‌</w>
ಜನ ಸಂಖ್ಯೆಯ</w>
ಜನ ರಿದ್ದರು</w>
ಜಗತ್ತ ಿಗೆ</w>
ಜ ುಗಳು</w>
ಜ ಸ್‌
ಜ ಮ್ಮು
ಚೌ ಕ
ಚುನಾವಣ ೆಗಳಲ್ಲಿ</w>
ಚಿಕಿತ್ಸ ೆಯನ್ನು</w>
ಚಿ ಲ್ಲ
ಚಾಲೆ ಂಜ
ಚರಿ ತ್ರೆ</w>
ಚರಿ ತ್ರ
ಚಮ ಚ
ಚದು ರಿಸಲು</w>
ಚಕಮ ಕ
ಚ ಪ್ಪ
ಘರ್ಷ ಣೆಯಲ್ಲಿ</w>
ಗ್ರಾಹ ಕರಿಗೆ</w>
ಗ್ಯಾ ಲ
ಗೌ ಡ
ಗೊಳಿಸ ಬಹುದು</w>
ಗೊತ್ತಾಗ ಲಿಲ್ಲ</w>
ಗೇ ರ್</w>
ಗೆಲ ುವ
ಗೆದ್ದ ಿದ್ದಾರೆ</w>
ಗುಂ ಪಿನಲ್ಲಿ</w>
ಗು ರಿ
ಗಾತ್ರ ದ</w>
ಗಾಂಧಿಯ ವರ</w>
ಗಾಂಧ ಿ
ಗಾ ಬರಿ
ಗಳ ಿಸಿದ್ದರು</w>
ಗರ್ಭಿ ಣ
ಗಮನ ಾರ್ಹ
ಗಂಭ ೀ
ಗ ಢ
ಖ ನಿಜ
ಕ್ಷಮ ಿಸಿ</w>
ಕ್ರೈಸ್ತ ರ</w>
ಕ್ರೀಡಾಂಗ ಣದಲ್ಲಿ</w>
ಕ್ರಿಸ ್</w>
ಕ್ರ ಮಾ
ಕ್ಕೆ …</w>
ಕ್ ‍ನಲ್ಲಿ</w>
ಕೋಶ ದ</w>
ಕೋಲ್ ಕತ್ತಾ</w>
ಕೋರ ಿದರು</w>
ಕೊರಿ ಂ</w>
ಕೊರ ತೆಯ
ಕೊಡ ುವಂತೆ</w>
ಕೊಡ ಗು</w>
ಕೊಟ್ಟ ಿದೆ</w>
ಕೊಂಡ ಾಡ
ಕೊ ರಿಯಾ</w>
ಕೊ ಯ
ಕೈ ವಾಡ
ಕೇಜ್ರಿ ವಾ
ಕೊಠ ಡಿ</w>
ಕೊ ನೆ
ಕೆ ಮ್ಮು</w>
ಕೂದ ಲನ್ನು</w>
ಕೂ ತುಕೊಳ್ಳ
ಕುಲ ಂ</w>
ಕುರು ಡ
ಕುಡ ಿದ</w>
ಕುಟುಂಬ ವನ್ನು</w>
ಕುಟುಂಬ ಗಳ</w>
ಕು ಲ್</w>
ಕು ರಿ</w>
ಕು ಮ್ಮ
ಕು ಗಳ</w>
ಕಿರ ಣ್</w>
ಕಿ ರಿ
ಕಾರಿ ನಲ್ಲಿದ್ದ</w>
ಕಾರಣ ಗಳಿಂದ</w>
ಕಾರ ುಗಳನ್ನು</w>
ಕಾರ ಿಯಾಗಿದೆ</w>
ಕಾರ ಿಗೆ</w>
ಕಾರ ಾಗೃಹ
ಕಾಯಿ ಲೆಗಳು</w>
ಕಾಣಿಸಿಕೊಳ್ಳ ಲಿದ್ದಾರೆ</w>
ಕಾಡ ುತ್ತದೆ</w>
ಕಾ ಲು
ಕಾ ಮಿ
ಕಾ ಣ್
ಕಳೆದು ಕೊಂಡ
ಕಲಿಯ ಲು</w>
ಕರ್ ತನಿಗೆ</w>
ಕರು ಣಾ
ಕನ ಸ
ಕಥ ೆಯನ್ನು</w>
ಕಥ ೆಗಳು</w>
ಕಣ್ಣೀ ರು</w>
ಕಡಿಮೆಯಾಗ ುತ್ತದೆ</w>
ಕಡಿತ ಗೊಳಿಸ
ಕಟ್ಟ ುವ</w>
ಕಚೇ ರಿಯಲ್ಲಿ</w>
ಕ ಮ್ಮಿ</w>
ಕ ಪಾ
ಕ ನಾದ</w>
ಕ ಣಿ
ಓದ ುವುದು</w>
ಒಳ್ಳೇ ದು</w>
ಒಬ್ಬ ಳೇ</w>
ಒಪ್ಪಂದ ದ</w>
ಒ ಂಭ
ಒ ಂಟ
ಐ ಷ
ಏಳ ನೇ</w>
ಏನೆ ೂೕ</w>
ಏ ಷ್ಯನ್</w>
ಏ ಕಿ</w>
ಎಸ್‌ ಬಿಐ</w>
ಎಸ್ ​</w>
ಎಲ್ಲೆಲ್ಲ ೂ</w>
ಎಲ್ಲ ರು</w>
ಎಬಿ ವಿಪಿ</w>
ಎದ್ದ ು
ಎಂದ ಿದೆ</w>
ಎಂದ ಳು</w>
ಎಂದ ನು</w>
ಎಂಟ ್ರಿ</w>
ಎಂ ಎಸ್</w>
ಎ ಷ್ಟೇ</w>
ಉಷ್ಣಾ ಂಶ</w>
ಉಳ್ಳಾ ಲ</w>
ಉಳಿದ ಿವೆ</w>
ಉರು ಳ
ಉರಿಯ ೂ
ಉದ್ಯೋ ಗಿ
ಉದ್ಯೋ ಗಾವ
ಉದಾಹರಣ ೆಗಾಗಿ</w>
ಉತ್ತರಿಸ ಿದ</w>
ಉಡು ಪ
ಉ ಳಿತ
ಉ ಡಾ
ಇಷ್ಟ ವಿಲ್ಲ</w>
ಇಲ್ಲ ’</w>
ಇಲ್ಲ ಾ</w>
ಇರಾ ನ್‌</w>
ಇರ ುತ್ತೆ</w>
ಇಬ್ರ ಾ
ಇಪ್ಪ ತ್ತ
ಇನ್ನ ಷ್ಟೇ</w>
ಇನ್ ಸ್ಟಿಟ್ಯೂಟ್</w>
ಇದ್ರ ಿಂದ</w>
ಇದ್ರ ಲ್ಲಿ</w>
ಇದ್ದ ನು</w>
ಇದ ೇ</w>
ಇದ ನ್ನೆಲ್ಲ</w>
ಇತಿಹಾಸ ದಲ್ಲೇ</w>
ಇ ಲ್
ಇ ರಿ</w>
ಇ ಮ್ರಾ
ಇ ಟ್ಟು</w>
ಇ ಟ್ಟ</w>
ಆಸ್ ತಿ
ಆರ್ಭ ಟ
ಆರೋಪ ಿಸಿ</w>
ಆರೋಗ್ಯ ವನ್ನು</w>
ಆರಂಭ ಿಸಲಾಗಿದೆ</w>
ಆಯೋಗ ದ</w>
ಆಯು ಧ
ಆದ ುದ
ಆತ್ಮ ವಿಶ್ವಾಸ
ಆತ್ ಮೀಯ
ಆತಿಥ ೇಯ</w>
ಆತ ನೇ</w>
ಆತ ನ
ಆಟ ೊ</w>
ಆಗಮ ಿಸಿದ್ದಾರೆ</w>
ಆಗ ಿರುವುದು</w>
ಆಕ್ ಸಿಡೆ
ಆ ಳು</w>
ಆ ರಾ
ಆ ನಂದ</w>
ಆ ಕ್ರ
ಅಹ ಮದ್</w>
ಅಷ್ಟ ರ
ಅಶ್ಲೀ ಲ</w>
ಅಶ್ ವಿ
ಅವರೆ ಲ್ಲಾ</w>
ಅವರ ನ್ನೂ</w>
ಅವ ೆಲ್ಲವೂ</w>
ಅವ ನೂ</w>
ಅಲ್ಲ ಾಡ
ಅಲ ಂಕ
ಅರ್ಜಿ ಗಳನ್ನು</w>
ಅರೇ ಬಿಯಾ</w>
ಅಮೂ ಲ್ಯ</w>
ಅಭಿನಂದ ಿಸಿದ್ದಾರೆ</w>
ಅಭಿ ವ್ಯಕ್ತಿ</w>
ಅಪಾಯ ದ</w>
ಅನ್ನ ುವುದು</w>
ಅನ್ನ ಿಸಿತು</w>
ಅನುರಾಗ ್</w>
ಅನಿ ಲ</w>
ಅನ ುವು</w>
ಅನ ುವ
ಅಧ್ಯಕ್ಷ ರ</w>
ಅಧಿವೇಶ ನದ</w>
ಅದ ೊಂದು</w>
ಅದ ರೊಂದಿಗೆ</w>
ಅತ್ಯಾವಶ್ಯ ಕ</w>
ಅತ್ಯ ಗತ್ಯ</w>
ಅತ್ಯ ಗತ್ಯ
ಅಣಬೆ ಗಳು</w>
ಅಡಚ ಣೆ</w>
ಅಗ್ನಿಶಾಮ ಕದ
ಅಗ್ಗ ದ</w>
ಅಗತ್ಯ ವಿತ್ತು</w>
ಅಂದಾಜ ಿಸಲಾಗಿದೆ</w>
ಅಂದ ರೇನು</w>
ಅಂತರ ದಿಂದ</w>
ಅಂಕ ಿ</w>
ಅಂಕ ಿ
ಅಂ ಗಳ
ಅ ಳಿ
ಅ ಲೋ
ಅ ಮೃತ
ಅ ಪೂರ್ವ</w>
ಂಶ ವನ್ನು</w>
ಂಬ ್
ಂಬ ಿ</w>
ಂ ತ್ರ</w>
7 ರಲ್ಲಿ</w>
6 3</w>
5 7</w>
5 6</w>
3 ರಲ್ಲಿ</w>
20 14</w>
2. 0</w>
13 ,
12 .
1 30</w>
1 1,
“ ದೇವರ</w>
“ ಅದು</w>
‘ ನನಗೆ</w>
್ದ ೆ</w>
್ದ ು</w>
ೌ ಂಡ್</w>
ೋ ರು</w>
ೋ ಮಿ</w>
ೊಬ್ಬ ನೇ</w>
ೇಲ ನು</w>
ೇ ಲಿ</w>
ೊ ಂದ
ೆಯಾಗ ಿರುವ</w>
ೆಯಾ ಚ
ೆ ಗಳೂ</w>
ೆ ಗಳನ್ನೂ</w>
ುವುದ ೆಂದು</w>
ುವಷ್ಟ ರಲ್ಲಿ</w>
ುವಂತ ೆಯೂ</w>
ುವ ವರೂ</w>
ುದ ಿಗೆ</w>
ುತ್ತ ದೆಂದು</w>
ು ”</w>
ೀ ಮ್</w>
ಿಸುವುದ ೂ</w>
ಿಸುವಂತ ಿಲ್ಲ</w>
ಿಸುವ ವರಿಗೆ</w>
ಿಸುವ ವರ</w>
ಿಸುವ ಂತಹ</w>
ಿಸುತ್ತ ೀರಿ</w>
ಿಸಿದ ವರು</w>
ಿಸಲ್ಪಟ್ಟ ಿರುವ</w>
ಿರುವ ವರಿಗೆ</w>
ಿರ ುತ್ತಿತ್ತು</w>
ಿಯಾಗ ುವ</w>
ಿಯಾಗ ಿದ್ದು</w>
ಿಯಲ್ಲ ೇ</w>
ಿಯ ೋ
ಿಯ ಿಲ್ಲ</w>
ಿದ ಾಯಕ</w>
ಿತ ರನ್ನು</w>
ಿಕೊಳ್ಳ ುತ್ತದೆ</w>
ಿಕೊಂಡ ು</w>
ಿಕೊಂಡ ಿದ್ದಾರೆ</w>
ಿಕೊ ಳ್ಳಿ</w>
ಿಕ ರು</w>
ಿ ಗಳಾಗಿ</w>
ಾರಾ ಧ
ಾರ ೋಪ
ಾನು ಭವ
ಾನ ದಲ್ಲಿ</w>
ಾಂ ಜಲಿ</w>
ಾ ವ</w>
ಾ ಧ
ಾ ಕ್ಷಿ
ಾ ಂಧ
ಹೋರಾಟ ದಲ್ಲಿ</w>
ಹೋದ ವು</w>
ಹೋದ ರೆ</w>
ಹೋಗ ುತ್ತಿದೆ</w>
ಹೋ ದೆವು</w>
ಹೊರತ ಾಗಿ</w>
ಹೊರತ ಲ್ಲ</w>
ಹೊಣೆ ಗಾರ
ಹೊ ರೆ</w>
ಹೈ ಕಮಾ
ಹೇಳ ುವುದಾದರೆ</w>
ಹೇಳ ುವುದನ್ನು</w>
ಹೇಗ ಿತ್ತು</w>
ಹೆಲ್ ಮೆ
ಹೆತ್ತ ವರಿಗೆ</w>
ಹೆಚ್ಚ ು
ಹೆಚ್ಚ ಲಿದೆ</w>
ಹೆ ಲಿಕ
ಹೆಲಿಕ ಾಪ್ಟ
ಹೃದಯ ವು</w>
ಹೃದಯ ದಿಂದ</w>
ಹೂ ಗಳು</w>
ಹುಡುಗ ಿಯರು</w>
ಹುಟ್ಟು ಹಬ್ಬ</w>
ಹು ರುಪ
ಹಿನ್ನ ಲೆಯಲ್ಲಿ</w>
ಹಿನ್ನ ಡ
ಹಿ ಂ</w>
ಹಾಕ ಿದ್ದರು</w>
ಹಾ ದು
ಹಳ ೇ</w>
ಹಲ ವರನ್ನು</w>
ಹರಿದಾಡ ುತ್ತಿದೆ</w>
ಹಂತ ದಲ್ಲಿದೆ</w>
ಹ ಿರ
ಹ ಳೆಯ
ಹ ಲ್</w>
ಹ ತೋಟ
ಹ ಂ
ಸ್ವಾತಂತ್ರ ್ಯದ</w>
ಸ್ವಲ್ಪ ವೂ</w>
ಸ್ವಚ್ಛಗೊಳಿಸ ಲು</w>
ಸ್ವ ಭಾವ</w>
ಸ್ಮ ಿಕವಾಗಿ</w>
ಸ್ನೇಹಿತ ರನ್ನು</w>
ಸ್ನೇ ಹ</w>
ಸ್ಥಳಕ್ಕಾಗಮ ಿಸಿದ</w>
ಸ್ಥಳ ದ</w>
ಸ್ಟೋ ರ್</w>
ಸ್ ಸ
ಸ್ ಲಿ</w>
ಸ್ ಕರ್</w>
ಸೌಲಭ್ಯ ಗಳು</w>
ಸೌ ರವ್</w>
ಸೋಂಕ ಿನ</w>
ಸೋ ತಿದೆ</w>
ಸೇರಿಸ ಲಾಯಿತು</w>
ಸೇರಿ ಕೊಳ್ಳ
ಸೇ ತು
ಸೇತು ಪತಿ</w>
ಸೆಪ್ಟೆಂಬ ರ್</w>
ಸೆಂಟ್ರ ಲ್</w>
ಸೂ ಪರ್‌</w>
ಸುಬ್ರಮಣ ಿಯನ್</w>
ಸುಧಾರ ಿತ</w>
ಸುದೀರ್ ಘ</w>
ಸುತ್ತ ಿನ</w>
ಸುತ್ತ ಲಿನ</w>
ಸುತ್ತ ಮುತ್ತ</w>
ಸು ರಿದ</w>
ಸಿಸ್ಟ ಮ್</w>
ಸಿಬ್ಬಂದ ಿಗೆ</w>
ಸಿ ನಿಂದ</w>
ಸಿ ಆರ್‌
ಸಾವನ್ನಪ್ಪ ಿದ್ದರು</w>
ಸಾಲ ದು</w>
ಸಾರ ವಾಗಿ</w>
ಸಾಯ ುವ</w>
ಸಾಧ್ಯ ತೆಗಳು</w>
ಸಾಕ್ಷ ್ಯ</w>
ಸಾ ಹಿತ
ಸಾ ವರ್
ಸಾ ವ
ಸಾ ಕಾರ
ಸಹಾಯ ಕ್ಕೆ</w>
ಸಲ್ಲ ಿಸುತ್ತೇನೆ</w>
ಸಲ್ಲ ಿಸಿತ್ತು</w>
ಸರ್ಕಾರ ವೂ</w>
ಸರಳ ವಾದ</w>
ಸರಣ ಿಯನ್ನು</w>
ಸರಕಾರ ವನ್ನು</w>
ಸಮೃ ದ್ಧ</w>
ಸಮಸ್ಯೆ ಗಳ</w>
ಸಮಸ್ಯ ೆಯೇ</w>
ಸಮಯ ವು</w>
ಸಮಗ್ರ ತೆ</w>
ಸಮ ೇತ</w>
ಸಮ ಯಾವ
ಸಭೆಯಲ್ಲ ಿರುವ</w>
ಸಭ ೆಗಳಲ್ಲಿ</w>
ಸದಸ್ಯ ತ್ವ</w>
ಸಣ್ಣ ಗೆ</w>
ಸಕ್ಕ ರೆಯ</w>
ಸಂಸ್ಥ ೆಗೆ</w>
ಸಂಸ್ಕೃ ತಿಯ</w>
ಸಂಭ್ರ ಮಾ
ಸಂಭವ ಿಸುವ</w>
ಸಂಭವ ಿಸಿವೆ</w>
ಸಂಬಂಧ ದಲ್ಲಿ</w>
ಸಂದೀ ಪ್</w>
ಸಂಘಟ ನೆಗಳ</w>
ಸಂಗೀ ತ</w>
ಸಂಗ ತಿಗಳು</w>
ಸಂಖ್ಯಾ ತ</w>
ಸಂ ಶಯ</w>
ಸಂ ಭ
ಸಂ ಧಿ
ಸ ತೀಶ್</w>
ಷ್ಟ ು
ಷ ್ಯ</w>
ಷ ೀಯ
ಶ್ರೀಮ ಂತ
ಶ್ರ ಮದ</w>
ಶ್ ​</w>
ಶ್ ವೇ
ಶೂ ನ್ಯ</w>
ಶೂ ಟ್</w>
ಶಿಥ ಿಲ
ಶಿಕ್ಷ ೆಯನ್ನು</w>
ಶಿಕ್ಷ ೆಗೆ</w>
ಶಿಕ್ಷ ಕಿ</w>
ಶಿ ಶು</w>
ಶಿ ಬಿ
ಶಿಬಿ ರ</w>
ಶಾಶ್ವ ತವಾಗಿ</w>
ಶಾಮ ಕ</w>
ಶಾ ಪ
ಶಸ್ತ್ರ ಚಿಕಿತ್ಸೆಯ</w>
ಶರ ತ್</w>
ಶಬರಿ ಮಲ
ಶಂಕ ಿತ</w>
ಶ ಹ
ವ್ಯಭಿ ಚಾರ</w>
ವ್ಯತ್ಯಾಸ ವಿದೆ</w>
ವೈ ರಿ</w>
ವೈ ರಸ್
ವೆಂಕ ಟ
ವೆ ಗಳು</w>
ವೀಕ್ಷ ಿಸಿ</w>
ವೀ ರ
ವಿಷಯ ಕ್ಕೆ</w>
ವಿಷ ್ಯ</w>
ವಿಷ ಾದ</w>
ವಿಶ್ವ ಸಂಸ್ಥೆ</w>
ವಿಲಿಯ ಮ್
ವಿಮಾನ ವನ್ನು</w>
ವಿಮಾನ ಗಳನ್ನು</w>
ವಿಪ ತ್ತು</w>
ವಿಧ ಿಸಿತ್ತು</w>
ವಿಧ ಿ
ವಿಧ ವ
ವಿಧ ಗಳಿವೆ</w>
ವಿದ್ ವಾಂ
ವಿಡಿಯ ೊ</w>
ವಿಜ್ಞಾ ನಿ
ವಿಜೇ ತರಿಗೆ</w>
ವಿಚಾರ ಗಳ</w>
ವಿ ಷ್ಣ
ವಿ ಶಿಷ್ಟ
ವಿ ವೆ</w>
ವಿ ಜ
ವಾಹನ ವನ್ನು</w>
ವಾಷಿಂಗ್ಟ ನ್‌</w>
ವಾರ್ ನರ್</w>
ವಾರ ದಿಂದ</w>
ವಾರ ಗಳ</w>
ವಾದದ್ದ ೂ</w>
ವಾದದ್ದ ಾಗಿದೆ</w>
ವಾದ ್ರಾ</w>
ವಾದ ುದ
ವಾಗ ಿದೆಯೇ</w>
ವಾ ದಾಗ</w>
ವಹಿಸ ಲಾಗಿದೆ</w>
ವಯಸ್ ಸಾ
ವನಾಗ ಿದ್ದಾನೆ</w>
ವಂತ ೂ</w>
ಲ್ಲ ಿದ್ದ</w>
ಲ್ಲ ವೆ</w>
ಲ್ಲ ರನ್ನು</w>
ಲ್ಪಡ ುತ್ತದೆ</w>
ಲ್ಪಟ್ಟ ನು</w>
ಲೋಕ ಸಭೆಯ</w>
ಲೋಕ ವನ್ನು</w>
ಲೋ ಪ
ಲೋ ಟ</w>
ಲೇಖ ಕರು</w>
ಲೇ ವಿಯ
ಲೇ ಖ
ಲೆಂಡ ್
ಲು ಕ್</w>
ಲಿಲ್ಲ ವೇ</w>
ಲಾಭ ಗಳು</w>
ಲಾಗ ುತ್ತಿಲ್ಲ</w>
ಲಾ ವಣ
ಲಾ ಲು</w>
ಲಾ ರ</w>
ಲಭ್ಯ ವಿರ
ಲ ವ
ಲ ನ
ಲ ಜಿ</w>
ರ್ತ ಾಗಿ</w>
ರ್ ​
ರೋ ಮನ್‌</w>
ರೊ ಟ್ಟಿ</w>
ರೈ ಲುಗಳು</w>
ರೈ ಲಿಗೆ</w>
ರೇ ಷನ್</w>
ರೇ ಖ
ರೇ ಂದ್ರ</w>
ರೆ ಡ್
ರುಬ್ಬ ಿ</w>
ರುಜ ುವಾ
ರೀ ಗ</w>
ರಿರ ಲಿಲ್ಲ</w>
ರಿ ವೆ</w>
ರಿ ಲಯ
ರಾಯ ್
ರಾಯ ಭಾರಿ</w>
ರಾಜ್ಯ ಸಭೆ</w>
ರಾಜಿ ನಾಮೆ</w>
ರಾಜ ಿ</w>
ರಾಜ ನಾಥ್‌</w>
ರಾಗ ಿಯೂ</w>
ರಾಗ ಿದ್ದು</w>
ರಾ ಮನ
ರಾ ಬರ್
ರಸ್ತೆ ಗಳ</w>
ರವಾನ ಿಸಿದ್ದಾರೆ</w>
ರಫ್ ತು</w>
ರನ್‌ ಗಳಿಂದ</w>
ರಕ್ಷ ಿಸಲು</w>
ರಕ್ಷ ಣೆಗಾಗಿ</w>
ರಕ್ತಸ್ರಾ ವ
ರಕ್ತ ದಲ್ಲಿನ</w>
ರ ್ಯದ</w>
ರ ಷ್ಯ
ರ ಳು</w>
ರ ಜಾ
ಯ್ಯ ಾ</w>
ಯೋಜನ ಾ</w>
ಯೋಜ ನೆಗಳ</w>
ಯೋ ಹಾ</w>
ಯೆಹೂ ದದ</w>
ಯುದ್ಧ ಕ್ಕೆ</w>
ಯುಎ ಇ</w>
ಯಾರಿ ಗಾದರೂ</w>
ಯಾರ ೇ</w>
ಯಾ ನ್</w>
ಯ ೂ</w>
ಮ್ಯಾನ್ ಮಾರ್</w>
ಮ್ಯಾ ಥ
ಮೋಶ ೆ</w>
ಮೋ ವಾ
ಮೋ ರ್
ಮೋ ದಿಯ</w>
ಮೊದ ಲೆ
ಮೊ ಣ
ಮೇ ಲು</w>
ಮೇ ಘಾ
ಮೊದ ಲ
ಮೆಕ್ಸ ಿಕೊ</w>
ಮೆ ಸೇ
ಮೆ ದು
ಮೃತಪಟ್ಟ ಿದ್ದಾಳೆ</w>
ಮೂರ್ ತಿ</w>
ಮೂ ರೂ</w>
ಮುಖ್ಯಸ್ಥ ೆ</w>
ಮುಖ ಾಂತರ</w>
ಮುಂದುವರಿಯ ಲಿದೆ</w>
ಮು ಕೇಶ್</w>
ಮೀನುಗಾರ ರ</w>
ಮೀ ನು</w>
ಮಿತ ಿ
ಮಿ ಚೆ
ಮಿಚೆ ಲ್</w>
ಮಾರ ಾ
ಮಾತನಾಡ ುವ</w>
ಮಾಡುವುದ ರಲ್ಲಿ</w>
ಮಾಡ ೋಕೆ</w>
ಮಾಡ ೋ
ಮಾಡ ಿಬಿಟ್ಟ
ಮಾಡ ಿದ್ದಾಳೆ</w>
ಮಾಡ ಲ
ಮಾಡ ಬಹುದಾದ</w>
ಮಾಡ ಬಹುದ
ಮಾಂ ಸ
ಮಾ ಮೂ
ಮಾ ನಾ
ಮಹ ಮ್ಮ
ಮರೆಯ ಬೇಡಿ</w>
ಮನೋ ಹ
ಮನಸ್ಸಿ ನಿಂದ</w>
ಮನಸ್ಸಿ ನಲ್ಲ
ಮನ ರಂ
ಮದುವ ೆಯಾಗಿದೆ</w>
ಮದುವ ೆಗೆ</w>
ಮತ್ತ ೊಂದ
ಮತ ಗಳನ್ನು</w>
ಮಣ್ಣ ಿನ</w>
ಮಗ ನು</w>
ಮಂಡ ನೆ</w>
ಮಂಜ ೂರು</w>
ಮಂಗಳೂ ರಿನ</w>
ಮ ಿಸ್ಟ
ಮ ಲೇ
ಮ ಲಾ
ಮ ರೀ
ಮ ರಾಜ
ಮ ನ್
ಮ ನು</w>
ಮ ದಲ್ಲಿ</w>
ಮ ಠ
ಮ ಗಳಿಗೆ</w>
ಭೂಕಂಪ ದ</w>
ಭಿ ವೃದ್ಧಿ</w>
ಭಾಷ ೆಗಳ</w>
ಭಾಷ ಾಂತರ</w>
ಭಾರತ ವೂ</w>
ಭಾರತ ದಲ್ಲೇ</w>
ಭವ ್ಯ</w>
ಭ ುಗ
ಬ್ಲ್ಯಾ ಕ್</w>
ಬ್ರ ಾಹ್
ಬ್ಯಾಕ್ ಟೀ
ಬ್ಬಿ ನ</w>
ಬ್ಬ ರ್</w>
ಬೋ ರ್
ಬೊ ಕ್ಕ
ಬೇರೆಯ ವರು</w>
ಬೇಯ ಿಸುವುದು</w>
ಬೆಳ್ಳು ಳ್ಳ
ಬೆಂಗಳೂ ರಿ
ಬೆ ೂ
ಬೆ ನ್ನು</w>
ಬೆ ಣ್ಣ
ಬೆ ಂಚ್</w>
ಬು ಕ್ಕಿ
ಬೀ ಜ</w>
ಬಿಡ ಲಿಲ್ಲ</w>
ಬಿಟ್ಟ ಿಲ್ಲ</w>
ಬಿಎ ಚ್
ಬಿಎಚ್ ಪಿ</w>
ಬಿ ಲ್</w>
ಬಾರ ದೆ
ಬಾಯ ಿಂದ</w>
ಬಾದಾ ಮಿ</w>
ಬಸ್ ಸು</w>
ಬಲಗ ೈ</w>
ಬಲ ಿಯಾದ
ಬಲ ಪಡಿಸಲು</w>
ಬಯಸು ವಿರಾ</w>
ಬದಲಾವಣ ೆಯನ್ನು</w>
ಬದಲಾಯ ಿಸು</w>
ಬದಲಾಗ ಿಲ್ಲ</w>
ಬಗೆ ಹರಿಯ
ಬಗೆ ಹರಿದ
ಬಂಧಿತ ರಿಂದ</w>
ಬಂಧ ಿತರ</w>
ಬಂಧ ನಕ್ಕ
ಬಂದ ್‌</w>
ಬಂದ ್ರು</w>
ಬಂದ ೆವು</w>
ಬಂದ ರೂ</w>
ಬ ಿದ್ದರು</w>
ಬ ಿಗೆ</w>
ಬ ದಿ
ಫ್ರೆ ಂಡ್</w>
ಫ್ರೆ ಂಚ್‌</w>
ಫ್ಯಾ ಕ್ಟ
ಫೋಟ ೊ</w>
ಫೈನ ಲ್‌</w>
ಫೋ ನ್</w>
ಫೆ ಡ
ಫಾ ಲೋ
ಫಲಿತಾಂಶ ಗಳನ್ನು</w>
ಫಲಾನುಭ ವಿ
ಫಡ್ ನವ
ಫ ಂಡ್</w>
ಪ್‌ ಗೆ</w>
ಪ್ರೇ ರೇ
ಪ್ರಾರಂಭ ವಾಗಿದೆ</w>
ಪ್ರಾಯ ದ</w>
ಪ್ರಾಮುಖ್ಯ ತೆ</w>
ಪ್ರಾಧ್ಯ ಾಪ
ಪ್ರಾಂ ಶು
ಪ್ರಾ ಧಿಕಾರ</w>
ಪ್ರಯಾಣ ಿಸುತ್ತಿದ್ದರು</w>
ಪ್ರಮುಖ ರು</w>
ಪ್ರಮಾಣ ವಚನ</w>
ಪ್ರಭಾವ ವನ್ನು</w>
ಪ್ರಧಾನಿಯ ವರು</w>
ಪ್ರತಿಷ್ಠ ಿತ</w>
ಪ್ರತಿಯೊಬ್ಬ ನು</w>
ಪ್ರತಿಯ ೊಂದು</w>
ಪ್ರಣ ಬ್</w>
ಪ್ರ ಿಯಾ</w>
ಪ್ರ ಸಂಗ
ಪ್ರ ವರ್ಧ
ಪ್ರ ಪಂಚ</w>
ಪ್ರ ತಿಕ
ಪ್ ಲ್ಯಾ
ಪ್ ರ</w>
ಪೌ ಷ್ಠ
ಪೋಷಕಾ ಂಶ
ಪೋಷ ಕ</w>
ಪೋ ಕ್ಸ
ಪೊ ಟ್ಯಾ
ಪೆ ೖ
ಪೂರ್ಣ ಗೊಳ್ಳ
ಪುಸ್ತಕ ಗಳ</w>
ಪುರಸ್ ಕರಿಸ
ಪುದ ು
ಪು ಳ
ಪು ರಿ</w>
ಪು ಡಿ
ಪು ಟ್ಟ
ಪೀಠ ವು</w>
ಪಿ ವಿ</w>
ಪಾಲಿಸ ಬೇಕು</w>
ಪಾತ್ರ ವಾಗಿದೆ</w>
ಪಾಟೀ ಲ್</w>
ಪಾ ಪಿ
ಪಾ ದ್ರ
ಪವಿ ತ್ರ
ಪರೀಕ್ಷ ೆಗಳು</w>
ಪರಿಸ್ಥಿತ ಿಯ</w>
ಪರಿಸ್ಥಿತ ಿಗಳು</w>
ಪರಿಶೀಲ ನಾ</w>
ಪರಿಣಾಮಕಾರ ಿಯಾಗಿ</w>
ಪರಿ ಶಿಷ್ಟ</w>
ಪರಿ ಚಿತ
ಪದ್ಧ ತಿ</w>
ಪದ ಗಳನ್ನು</w>
ಪಡೆದುಕೊಳ್ಳ ಿ</w>
ಪಡೆದ ಿಲ್ಲ</w>
ಪಡಿಸ ಿದನು</w>
ಪ ಳ
ಪ ರಾಧ
ನೌ ಕ
ನೋಡ ುವುದು</w>
ನೋಡ ಿದಳು</w>
ನೋ ಡಿ
ನೇಮಕಾ ತಿ</w>
ನೆನಪ ಿಗೆ</w>
ನೆ ”</w>
ನೆ ರೆದ
ನೆ ಗಳಿಂದ</w>
ನು ಗ್ಗಿ</w>
ನೀಡ ಿದ್ದಾನೆ</w>
ನೀಡ ಿದನು</w>
ನೀ ಸ್</w>
ನೀ ಗ</w>
ನಿಸ ರ್ಗ
ನಿವಾರ ಣೆ</w>
ನಿಲ್ಲ ಿಸ
ನಿರ್ವಹಿಸ ಲು</w>
ನಿರ್ವಹಣ ಾ</w>
ನಿರ್ವಹ ಿಸುತ್ತಿದ್ದಾರೆ</w>
ನಿರ್ಲಕ್ಷ ್ಯ</w>
ನಿರ್ಭಯ ಾ</w>
ನಿರ್ದ ಾಕ್ಷಿ
ನಿರೂಪ ಿಸಿದರು</w>
ನಿರೀಕ್ಷ ಿಸಿರಲಿಲ್ಲ</w>
ನಿಯ ತ
ನಿಕ ಲ್</w>
ನಿಂತ ಿದ್ದ</w>
ನಿ ರೋ
ನಿ ಂಬೆ</w>
ನಾವೆ ಲ್ಲಾ</w>
ನಾಲ್ ವರಿಗೆ</w>
ನಾಲ ಜಿ</w>
ನಾಯಕ ತ್ವ
ನಾಯ ಕನಾಗಿ</w>
ನಾಮ ಕರಣ</w>
ನಾ ಪತ್ತ
ನವೀ ಕರಿಸ
ನಯ ವಾದ</w>
ನಯ ನ
ನಮ್ಮ ೊಂದಿಗೆ</w>
ನಮ ್ರ
ನನ್ನ ನ್ನ</w>
ನನಗ ೇನು</w>
ನದ ಿಯಲ್ಲಿ</w>
ನಡೆಸ ಿತು</w>
ನಡೆಸ ಲಿದೆ</w>
ನಡ ೀ
ನಕ್ಕ ು</w>
ನಂಬಿಗಸ್ತ ನೂ</w>
ನ ಮ್
ನ ಂತಹ</w>
ಧ್ವಂ ಸ
ಧಿ ಪ
ಧಾವ ಿಸಿದ</w>
ಧಾನ್ಯ ಗಳು</w>
ಧರೆ ಗುರು
ಧ ೃ
ಧ ರ್</w>
ದ್ದ ೇನು</w>
ದ್ದ ಾಗಿತ್ತು</w>
ದೋ ಣಿ</w>
ದೊರೆ ತ</w>
ದೇಶ ದಿಂದ</w>
ದೇ ನು</w>
ದೇ ಶ</w>
ದೆಹಲ ಿಗೆ</w>
ದೆ ೕ</w>
ದೂರ ದರ್ಶನ</w>
ದು ಡು
ದೀಪ ಕ್</w>
ದಿಲೀ ಪ್</w>
ದಿ ಢ
ದಿ ಟ್ಟ</w>
ದಾಖಲಿಸ ಿಕೊಳ್ಳಲಾಗಿದೆ</w>
ದಾಖ ಲಾಗಿತ್ತು</w>
ದಲ್ಲ ಿ…</w>
ದಯ ೆಯನ್ನು</w>
ದತ್ತ ಾಂಶ
ದಕ್ಷಿ ಣ
ದ ್ರ</w>
ದ ಿಯನ್ನು</w>
ದ ಿದ್ದ
ದ ವರೇ</w>
ದ ಲಿ</w>
ದ ನ</w>
ದ ಣ
ತ್ಮ ಕ
ತ್ತಿ ೕ
ತೋ ಡ
ತೋ ರುತ್ತದೆ</w>
ತೆರೆ ಯ</w>
ತೆರಳ ಿದರು</w>
ತೆಯ ಾಗಿ</w>
ತೆಗೆಯ ಲು</w>
ತೆಗೆದುಕೊಳ್ಳ ುವುದು</w>
ತೆಗೆದು ಕೊಂಡ</w>
ತೆ ಗೂ</w>
ತೆ ಗಾಗಿ</w>
ತೃಣ ಮೂಲ</w>
ತೃ ಪ್ತ
ತೃ ತೀಯ</w>
ತೂ ಗ
ತುತ್ತ ಾಗ
ತು ರ್ತಾಗಿ</w>
ತು ಪ್ಪ
ತು ಂತು
ತುಂತು ರು</w>
ತಿಳಿಸ ಿಲ್ಲ</w>
ತಿಳಿಸ ಿದ್ದು</w>
ತಿಳಿದುಕೊಳ್ಳ ಲು</w>
ತಿಯ ೊಂದಿಗೆ</w>
ತಿಯ ೇ</w>
ತಿ ವಾರಿ</w>
ತಿ ಳಿ</w>
ತಿ ಂದು</w>
ತಾಳ್ಮ ೆಯಿಂದ
ತಾರ ಾಗ
ತಾಪ ಮಾನ
ತಾನ ್</w>
ತಾ ಯ</w>
ತವ ಕ
ತಲುಪ ುವ</w>
ತಲು ಪಿ</w>
ತರ ಬೇಕು</w>
ತರ ಬೇ
ತಪ್ಪ ಿಸಿಕೊಂಡ
ತಪ್ಪ ನ್ನು</w>
ತಪ್ ಪೊ
ತನಿಖ ೆಯ</w>
ತಡೆ ದು</w>
ತಂದ ೆಯಾದ</w>
ತಂಡ ದಿಂದ</w>
ತ ಗಳು</w>
ತ ಂಬಾ
ತ ಂದ</w>
ಣ ಿಯಲ್ಲಿ</w>
ಢ ಿಕ್ಕಿ</w>
ಡೇವಿ ಡ್‌</w>
ಡಿಸೆಂಬ ರ್‌</w>
ಡಾ ಲ
ಡ ಿಕೆ</w>
ಡ ಾರ್
ಟ್‌ ನಿಂದ</w>
ಟ್ವಿ ಟರ್
ಟ್ಯಾಂಕ ರ್</w>
ಟ್ ‍
ಟ್ ​
ಟೆಸ್ ಟ್‌ನಲ್ಲಿ</w>
ಟೆಕ್ ನಾಲಜಿ</w>
ಟೀ ಕಾ
ಟಿ ಡಿಪಿ</w>
ಟಿ ಕ್ಸ್</w>
ಟ ೆಯಾಡ
ಜೋ ಶಿ</w>
ಜೊತೆಯ ಾಟದಲ್ಲಿ</w>
ಜೆ ಟ್</w>
ಜೀವ ಿಸಲು</w>
ಜಾ ಸ್
ಜಾ ವ
ಜಾ ನ್ಸನ್</w>
ಜರುಗ ಿಸಲಾಗುವುದು</w>
ಜನ ರಿಂದ</w>
ಜನ ತೆಯ</w>
ಜ ೈ</w>
ಜ ಲ್</w>
ಜ ಮಾಯ
ಚೂ ರಿ</w>
ಚಿಹ್ ನೆಗಳು</w>
ಚಿತ್ರ ಗಳ</w>
ಚಿ ನ್
ಚಲನ ಚಿತ್ರಗಳು</w>
ಚರ್ಮ ಕ್ಕೆ</w>
ಚರ ಂಡ
ಚದು ರಿಸಿದರು</w>
ಚಟುವಟಿಕೆ ಗಳಲ್ಲಿ</w>
ಚಟುವಟಿಕೆ ಗಳನ್ನು</w>
ಚಂದ್ರ ಬಾಬು</w>
ಚ ಪ್ಪಾ
ಘೋಷಣ ೆಗಳನ್ನು</w>
ಘೋ ರ</w>
ಘರ್ಷ ಣೆ</w>
ಘಟ ನೆಗಳನ್ನು</w>
ಗ್ರೂ ಪ್</w>
ಗ್ರ ೇಟ್</w>
ಗ್ ಲೋ
ಗ್ ಗೆ
ಗೋ ಯಲ್</w>
ಗೊಳಿಸ ಲಾಯಿತು</w>
ಗೊತ್ತಾಗ ುತ್ತಿಲ್ಲ</w>
ಗೊತ್ತ ಾಗಿದೆ</w>
ಗೊಂಡ ವು</w>
ಗೊಳಿಸ ಿ</w>
ಗೊಂಡ ಿದೆ</w>
ಗೆಹ್ ಲೋಟ್</w>
ಗೆಲ್ಲ ುತ್ತದೆ</w>
ಗೆದ್ದ ುಕೊಂಡಿದೆ</w>
ಗೆ ಳೆ
ಗೆ ಡ
ಗುರುತ ಿಸಿಕೊಂಡ
ಗುಣ ಲಕ್ಷಣಗಳು</w>
ಗು ಹೆ
ಗು ಪ್ತ</w>
ಗೀ ಗ</w>
ಗಿಲ್ಯ ಡ್‌</w>
ಗಾಯಗೊಂಡ ು</w>
ಗಾಂಧಿಯ ವರು</w>
ಗಳಾಗ ಿದ್ದು</w>
ಗಳಾಗ ಿದ್ದಾರೆ</w>
ಗಳ ಿಕೆ</w>
ಗಮನ ಿಸಿದ</w>
ಗಮನ ಿಸ
ಗಣ ನೀಯ</w>
ಗ ುವಾ
ಗ ುತ್ತಿಗೆ</w>
ಗ ವರ್
ಖಾ ತೆಯನ್ನು</w>
ಕ್ಷಿಪ ಣಿ</w>
ಕ್ಷಮ ೆಯಾಚ
ಕ್ವಾರ್ಟ ರ್</w>
ಕ್ಲೀ ನ್</w>
ಕ್ಲ ಬ್</w>
ಕ್ರೈಸ್ತ ನು</w>
ಕ್ರೀಡಾಪ ಟು
ಕ್ರಮಾ ಂಕ
ಕ್ರಮ ದಲ್ಲಿ</w>
ಕ್ರಮ ಗಳ</w>
ಕ್ತ ವಾಗಿ</w>
ಕ್ಕೇ ರಿದೆ</w>
ಕೌಶ ಲ್ಯ
ಕೋಲ್ಕ ತಾ</w>
ಕೋ ಝ
ಕೊಲೆ ಗೈ
ಕೊಡ ುವ
ಕೊಡ ು</w>
ಕೊಡ ಲಾಗಿದೆ</w>
ಕೊ ಲೊ
ಕೊ ಚ್ಚಿ
ಕೈಗೊಂಡ ಿರುವ</w>
ಕೇಳ ಿಸಿಕೊಂಡ
ಕೇಳ ಿದಾಗ</w>
ಕೇಂದ್ರ ದಲ್ಲಿ</w>
ಕೇಂದ್ರ ಗಳಲ್ಲಿ</w>
ಕೇ ನ್</w>
ಕೈ ಗಳನ್ನು</w>
ಕೊರ ತೆ</w>
ಕೊ ಟ್ಟ
ಕೆಲಸ ವು</w>
ಕೆಲ ವನ್ನು</w>
ಕೆಲ ಕಾಲ</w>
ಕೆಎಸ್‌ ಆರ್‌ಟಿಸಿ</w>
ಕೆ ಡು
ಕೆ ಎಲ್</w>
ಕೆ ಂಡ
ಕೆ ಂಗ
ಕೂಟ ಗಳಲ್ಲಿ</w>
ಕೂಗ ಿದರು</w>
ಕುಲ್ ದೀಪ್</w>
ಕುರು ಬ
ಕುತೂಹಲ ದಿಂದ</w>
ಕು ರ್
ಕೀರ್ತನೆಗಾರ ನು</w>
ಕಿರುಕು ಳ
ಕಿ ಚ್ಚು</w>
ಕಾಲ ುವೆ</w>
ಕಾಲ ಾನ
ಕಾರ ಕ್ಕೆ</w>
ಕಾಯ್ದ ೆಗೆ</w>
ಕಾಯ ಿಸಿ</w>
ಕಾನೂನು ಗಳು</w>
ಕಾಣಿಸಿಕೊಳ್ಳ ುತ್ತಿದ್ದಾರೆ</w>
ಕಾಣ ಬಹುದಾಗಿದೆ</w>
ಕಾ ಲ್ಪ
ಕಾ ಲುಗಳನ್ನು</w>
ಕಾ ಲೀನ</w>
ಕಾ ನಾ
ಕಾ ತರ
ಕಷ್ಟ ಕರ</w>
ಕಳುಹಿಸ ಿದ</w>
ಕಳುಹಿಸ ಲು</w>
ಕಲಿಸ ುವ</w>
ಕರೆಯ ುತ್ತಾರೆ</w>
ಕರೆದೊಯ್ದ ು</w>
ಕರೆದ ರು</w>
ಕರು ಣ
ಕರಿಬೇ ವು</w>
ಕಬ್ಬಿ ಣ</w>
ಕಣ್ಣ ಿನ</w>
ಕಣ್ ಮರ
ಕಡಿ ತ</w>
ಕಡತ ವನ್ನು</w>
ಕಟ್ಟೆಚ್ಚ ರ</w>
ಕಚೇ ರಿಯ</w>
ಕಂಡ ಿದ್ದಾರೆ</w>
ಕ ುತ್ತಿಗೆ</w>
ಕ ಿತ
ಕ ಹಿ</w>
ಕ ಹಳೆ</w>
ಕ ವಾಗ
ಕ ಮಿಷನ್</w>
ಕ ಮಿಷ
ಕ ಮಿ
ಕ ಪ್
ಔಷ ಧಿ</w>
ಔಟ ಾದರು</w>
ಓಡಾ ಟ</w>
ಒಳ ಪಡಿಸಲಾಗಿದೆ</w>
ಒಲಿಂ ಪಿಕ್
ಒಲಿ ಂಪಿಕ್</w>
ಒಬ್ಬ ನ</w>
ಒಡಿ ಶಾ</w>
ಒಡ ನಾ
ಒಂದ ೊಂದ
ಒಂದ ೇ</w>
ಒಂದ ೆ
ಒಂದ ಕ್ಕೊಂದು</w>
ಒ ರ
ಐ ರೋ
ಏಕಾ ಏಕಿ</w>
ಏ ನನ್ನ
ಎಸ್ಯ ುವಿ</w>
ಎಲ್ಲ ೋ</w>
ಎಲ್ಲ ರಲ್ಲೂ</w>
ಎಲ್ಲ ಕ್ಕಿಂತ</w>
ಎರಡ ನ್ನೂ</w>
ಎಫ್ ‍
ಎದುರಿಸ ಿದ</w>
ಎತ್ತ ರ</w>
ಎಡ ಕ್ಕೆ</w>
ಎಂಬ ುವುದು</w>
ಎಂಬ ವರು</w>
ಎಂದ ಲ್ಲ</w>
ಎ ತ್ತಿ
ಎ ಡಗ
ಉಳಿಸ ಿಕೊಳ್ಳ
ಉಪ ರಾಷ್ಟ್ರಪತಿ</w>
ಉದ್ಯೋಗ ದಲ್ಲಿ</w>
ಉದ್ದೇಶ ದಿಂದ</w>
ಉತ್ತೇ ಜನ
ಉತ್ತರ ಗಳನ್ನು</w>
ಉತ್ ಸವ
ಉಂಟಾಗ ುತ್ತಿದೆ</w>
ಉಂಟ ಾದ</w>
ಉ ಳ
ಉ ಮೇ
ಉ ದ್ರಿ
ಉ ದಯ
ಉ ಣ್ಣ
ಉ ಡುಗೆ</w>
ಈಗ ಿರುವ</w>
ಈ ವೆ
ಈ ಕೆಯ</w>
ಇಸ್ರಾಯೇಲ್ಯ ರ</w>
ಇಷ್ಟ ಕ್ಕೂ</w>
ಇವ ಳು</w>
ಇಳ ಿಕೆಯಾಗಿದೆ</w>
ಇಲ್ಲ ವೋ</w>
ಇಬ್ರಾ ಹಿಂ</w>
ಇಬ್ರ ಿ</w>
ಇನ್ನೊಂದ ೆಡೆ</w>
ಇನ್ನಿ ತರ
ಇನ್ನ ೊಮ್ಮೆ</w>
ಇದ್ದ ಾಗ</w>
ಇದ್ದ ಳು</w>
ಇದ್ದ ದ್ದು</w>
ಇಡ ಲಾಗಿದೆ</w>
ಇಟ್ಟ ುಕೊಂಡು</w>
ಆ್ಯ ಪ್</w>
ಆಸ್ಟ್ರೇಲ ಿಯಾದ</w>
ಆಶ್ರ ಯ
ಆಶ್ ವಾಸನೆ</w>
ಆಲೋಚ ನೆಗಳು</w>
ಆರ್‌ ಬಿಐ</w>
ಆರ್ಭ ಟ</w>
ಆರೈ ಕೆ</w>
ಆರಂಭ ಿಸಿ</w>
ಆರಂಭ ದಲ್ಲೇ</w>
ಆಯ್ಕ ೆಯಾದ</w>
ಆಯು ರ್
ಆಯು ಕ್ತ</w>
ಆಫ ೀಸ್</w>
ಆನ್ ಲೈನ್</w>
ಆನಂದ ಿಸಿ</w>
ಆಧ್ಯಾತ್ಮ ಿಕವಾಗಿ</w>
ಆದೇಶ ದ</w>
ಆದಾಯ ದ</w>
ಆದ ಂಥ</w>
ಆಗ ಿದ್ದ
ಆಕ್ರೋಶ ಕ್ಕೆ</w>
ಆಕ ಸ್ಮಿಕವಾಗಿ</w>
ಆಂಧ್ರ ಪ್ರದೇಶದ</w>
ಆ ಹು
ಆ ಲ್‌
ಆ ಡಿ</w>
ಆ ಟ</w>
ಆ ಕ್ಷನ್</w>
ಅಹ್ ಮದಾ
ಅಸ್ತಿತ್ವ ದಲ್ಲ
ಅಸೋಸಿಯ ೇಷನ್</w>
ಅಷ್ಟ ಾಗಿ</w>
ಅಷ್ಟ ರಲ್ಲ
ಅವ ್
ಅವ ರಲ್ಲ
ಅವ ಮಾನ</w>
ಅವ ನಲ್ಲಿ</w>
ಅಳ ಲು</w>
ಅಲ್ಲ ವೆ</w>
ಅರ್ಥವಾಗ ುತ್ತಿಲ್ಲ</w>
ಅರ್ಥ ಶಾಸ್ತ್ರ
ಅರ್ಜ ಿದಾರ
ಅರೋ ರಾ</w>
ಅರಸ ನಾದ</w>
ಅಮೂಲ್ಯ ವಾದ</w>
ಅಭಿವೃದ್ಧ ಿಯನ್ನು</w>
ಅಭಿಪ್ರಾಯ ವನ್ನು</w>
ಅಭ ಿರು
ಅಫ್ಘಾನಿಸ್ ತಾನ</w>
ಅಪಾಯ ವನ್ನು</w>
ಅಪರಿ ಪೂರ್ಣ
ಅನ್ ವೇಷ
ಅನುಮತ ಿಸಲಾಗುವುದಿಲ್ಲ</w>
ಅನಾರೋಗ ್ಯದ</w>
ಅನ ಿಸಿತು</w>
ಅನ ನ್ಯ</w>
ಅಧ್ಯಯ ನದ</w>
ಅಧ್ಯಯ ನ
ಅದೆ ಷ್ಟೋ</w>
ಅದ ಲ್ಲದೆ</w>
ಅದ ರಲ್ಲೇ</w>
ಅತಿಥ ಿ</w>
ಅಡೆ ತಡೆ
ಅಚ್ಚ ು
ಅಗಾ ಧ</w>
ಅಂದ ಳು</w>
ಅಂತ ೀರಾ</w>
ಅಂಗೀ ಕಾರ</w>
ಅ ಸೆ
ಅ ಸಮಾಧಾನ
ಅ ಮೋ
ಅ ಮೀರ್</w>
ಅ ಬ್ಬರ</w>
ಅ ನಿರೀಕ್ಷಿತ</w>
ಅ ಡ್ಡಿ</w>
ಅ ಝ
ಅ ಜ್ಞಾ
ಂಬ ುದು</w>
ಂಬ ುದನ್ನು</w>
ಂಡ ರ್‌</w>
ಂಟ ಲ್</w>
ಂಗ ಲ್</w>
ಂಗ ಣ</w>
ra n
:2 2</w>
: 6</w>
: 5</w>
7 3</w>
7 00</w>
6, 7</w>
6 ರಲ್ಲಿ</w>
4 ರಲ್ಲಿ</w>
4 50</w>
3 1
20 ಕ್ಕೂ</w>
20 ,
1 10</w>
. 2</w>
“ ”
“ ನಾವು</w>
‍ ನಿಂದ</w>
್ಯಾ ವ</w>
್ಯ ತೆ</w>
ೇ ದ</w>
ೆಲ್ಲ ವನ್ನು</w>
ೆಯ ೆಂದರೆ</w>
ೆಯ ಾದರೂ</w>
ೆ ಸೆ
ೂ ರಿನ</w>
ೂ ರ</w>
ುವುದಿಲ್ಲ ವೇ</w>
ುವುದ ೆ</w>
ುವಾಯ ು</w>
ುವಂತ ೆಯೇ</w>
ುವಂತ ಾಯಿತು</w>
ುವ ೂ</w>
ುವ ವರಾಗ
ುದ ರ</w>
ುತ್ತ ೀ</w>
ುತ್ತ ಿದ್ದೇ
ುತ್ತ ಿ</w>
ುಕೊಳ್ಳ ಬೇಕು</w>
ು “</w>
ು ‌</w>
ು ವಿರಾ</w>
ು ತ</w>
ು ಕೊಳ್ಳ
ಿಸುತ್ತ ೇವೆ</w>
ಿಸುತ್ತ ಿರುವುದು</w>
ಿಸುತ್ತ ಿದ್ದೆ</w>
ಿಸುತ್ತ ಿದ್ದ
ಿಸಿದ್ದ ನ್ನು</w>
ಿಸಲ್ಪಡ ುವ</w>
ಿಸಲ್ಪಟ್ಟ ಿತು</w>
ಿಸಲಾಗ ುತ್ತಿತ್ತು</w>
ಿಸ ುವಿಕೆ</w>
ಿಸ ಿದ್ದವು</w>
ಿರುವುದ ಾದರೂ</w>
ಿರುವ ಂಥ</w>
ಿರುವ ಂಥ
ಿಯಾಗ ೆ</w>
ಿಯಲ್ಲ ೂ</w>
ಿಯ ೊ</w>
ಿಯ ೇ</w>
ಿಯ ನ್‌</w>
ಿದ್ದ ೇವೆ</w>
ಿತ ೆಂದು</w>
ಿತ ನ</w>
ಿಗೆ ಯ</w>
ಿಗ ೆಯನ್ನು</w>
ಿಕೊಳ್ಳ ುವಂತೆ</w>
ಿಕೊಂಡ ವು</w>
ಿಕೊ ಟ್ಟ</w>
ಿಕೊಂಡ ರು</w>
ಿಕ ೇ
ಿಕ ೆಯೂ</w>
ಿಕ ೆಯು</w>
ಿಕ ರ</w>
ಿ ಹಾಕ
ಿ ಲೆ
ಿ ನೆ
ಿ ಟ್ಟು</w>
ಿ ಂಗ್‌ನಲ್ಲಿ</w>
ಾರ್ ಪ
ಾರ ೋ</w>
ಾನು ಭೂ
ಾ ತ
ಹ್ ಮಣ
ಹೋರಾಟ ದ</w>
ಹೋಗ ುವದು</w>
ಹೋಗ ುತ್ತಿತ್ತು</w>
ಹೋಗ ುತ್ತವೆ</w>
ಹೋಗ ಲ್ಲ</w>
ಹೊರ ಟೆ</w>
ಹೈಕಮಾ ಂಡ್</w>
ಹೇಳಿದ ್ರು</w>
ಹೇಳ ಿರಲಿಲ್ಲ</w>
ಹೇಳ ಿದ್ದೇ
ಹೇಳ ಿಕೊಂಡ
ಹೇಳ ಿಕೆಯಲ್ಲಿ</w>
ಹೇ ಗಾದರೂ</w>
ಹೊಂದ ಿತ್ತು</w>
ಹೆಸ ರಿಗೆ</w>
ಹೆಣ್ಣು ಮಕ್ಕಳು</w>
ಹೆಜ್ ಕೇ
ಹೆಂಡ ತಿಯ</w>
ಹೃದಯ ಕ್ಕೆ</w>
ಹೂಡ ಿಕೆಗೆ</w>
ಹುಡುಗ ಿಯ</w>
ಹುಡುಕ ಲು</w>
ಹು ಲ್ಲ
ಹು ಣ
ಹೀಗ ಿರುವುದರಿಂದ</w>
ಹಿತಾಸ ಕ್
ಹಿಡ ಿದ</w>
ಹಿಂಸಾಚಾರ ದಲ್ಲಿ</w>
ಹಿಂದ ೆಂದೂ</w>
ಹಿ ಜ್
ಹಾಳ ಾಗಿದೆ</w>
ಹಾ ಸ್ಟೆ
ಹಾ ಣ್</w>
ಹರಿ ವು</w>
ಹತ್ಯೆಗೈ ದ</w>
ಹಣ ಕ್ಕೆ</w>
ಹಡಗ ು</w>
ಹಗ ರಣ
ಹಂತ ವಾಗಿ</w>
ಹಂತ ದಲ್ಲಿವೆ</w>
ಹ ೂ</w>
ಹ ಸೀ
ಹ ಸಿ</w>
ಹ ನ್ನ
ಹ ನಿ</w>
ಹ ಡ
ಹ ಗು
ಹ ಂದಿ</w>
ಹ ಂದ
ಸ್ವೀಕರಿಸ ಿದ್ದಾರೆ</w>
ಸ್ವಾಧೀ ನ</w>
ಸ್ವಾ ಮ
ಸ್ವತಂತ್ರ ವಾಗಿ</w>
ಸ್ವ ಾರ್ಥ</w>
ಸ್ವ ತ್ತ
ಸ್ಫ ೂರ್ತಿ</w>
ಸ್ಪಿನ್ನ ರ್</w>
ಸ್ಥಿತ ಿಗ
ಸ್ಥಾಪ ಿಸಲು</w>
ಸ್ಥಳ ಾವ
ಸ್ಥಗಿತಗೊಳಿಸ ಲಾಗಿತ್ತು</w>
ಸ್ಥಗಿತ ಗೊಂಡಿದೆ</w>
ಸ್ಥಗಿತ ಗೊಂಡಿತ್ತು</w>
ಸ್ತ್ರ ೀ</w>
ಸ್ತ ನ</w>
ಸ್ಟ್ರೀ ಟ್</w>
ಸ್ಟ ರ್‌</w>
ಸ್ ‍ನಲ್ಲಿ</w>
ಸ್ ‍ನ</w>
ಸ್ ‍</w>
ಸ್ ಸಾಗ
ಸೊಲೊಮೋನ ನ</w>
ಸೊ ಪ್ಪ
ಸೊ ತ್ತ
ಸೈ ನ್</w>
ಸೈ ನಿ</w>
ಸೈ ಕಲ್</w>
ಸೇರ್ ಪಡೆಯ
ಸೇರಿಸ ು</w>
ಸೇ ವೆ</w>
ಸೋ ಂಕ
ಸೆ ಣ
ಸೂಕ್ತ ವಾಗಿದೆ</w>
ಸುಬ್ರ ಹ್ಮಣ
ಸುನಾ ಮಿ</w>
ಸುದ್ದಿಗೋಷ್ಠ ಿ</w>
ಸು ಹಾನಾ</w>
ಸು ಸ್ತ
ಸು ಶೀ
ಸು ಮ್
ಸೀ ಸ್</w>
ಸಿನೆ ಮಾಗ
ಸಿಡ ಿಸಿ</w>
ಸಿಎ ಎ</w>
ಸಿ ರಿ
ಸಿ ಖ್</w>
ಸಾಲ ವನ್ನು</w>
ಸಾರ್ವಜನಿ ಕರಿಗೆ</w>
ಸಾರ ಾಂಶ</w>
ಸಾಮ ್ರಾ
ಸಾಧ್ಯ ತೆಯೂ</w>
ಸಾಧಾರ ಣ
ಸಾಧ ನದ</w>
ಸಾಗ ಣೆ</w>
ಸಾಕ್ಷ ಿಯಾಗ
ಸಾಂ ಕ್ರಾ
ಸಾಂಕ್ರಾ ಮಿಕ</w>
ಸಾ ಹ</w>
ಸಾ ಲಿನಲ್ಲಿ</w>
ಸಾ ಮರ
ಸಾಮರ ಸ್ಯ
ಸಹಾಯ ಮಾಡಿತು</w>
ಸಹಾಯ ಮಾಡಲು</w>
ಸಹ ಾನುಭೂ
ಸಹ ಭಾಗ
ಸಲ್ಲ ಿಸಿರುವ</w>
ಸಲ್ಲ ಿಸಬಹುದು</w>
ಸಲ ಿಗೆ</w>
ಸರ್ ವ</w>
ಸರಣ ಿಗೆ</w>
ಸಮ್ಮ ತಿ</w>
ಸಮಾಲೋಚ ನೆ</w>
ಸಮಾಜ ಕ್ಕೆ</w>
ಸಮಸ್ಯ ೆಯಿಂದ</w>
ಸಮ ು</w>
ಸಮ ರ್ಥ</w>
ಸಭ ್ಯ</w>
ಸಭ ೆಗಳು</w>
ಸನ್ನ ದ್ಧ
ಸಣ್ಣ ದಾಗಿ</w>
ಸಂಸ್ಥ ಾಪಕ</w>
ಸಂಸ ದೆ</w>
ಸಂಬಂಧ ವಿದೆ</w>
ಸಂಬಂಧ ಗಳನ್ನು</w>
ಸಂಧಿ ವಾ
ಸಂತೋಷ ್</w>
ಸಂತ ಸ
ಸಂಗತಿಯ ೇನೆಂದರೆ</w>
ಸಂಕೀರ್ ಣ</w>
ಸಂ ಸತ್ತ
ಸಂ ಶ
ಸಂ ಯುಕ್ತ</w>
ಸಂ ಭಾವನೆ</w>
ಸಂ ಗ</w>
ಸಂ ಕಲ್
ಸಂಕಲ್ ಪ</w>
ಸ ೈ</w>
ಸ ಿಯಾಗ
ಸ ಸ್</w>
ಸ ಯೀ
ಸ ನಿ
ಸ ನ</w>
ಸ ಖಾ
ಸಖಾ ಫಿ</w>
ಷ್ಟ ೇ</w>
ಷ್ಟ ಿದೆ</w>
ಷ ೆ
ಶ್ವರ್ ಯ</w>
ಶ್ ವರ್‌</w>
ಶೌ ಚಾ
ಶೇಖ ್</w>
ಶುಷ್ ಕ</w>
ಶುಶ್ರೂಷ ೆಯನ್ನು</w>
ಶೀ ಟ್</w>
ಶಿವ ಸೇನೆಯ</w>
ಶಿಯ ಂ</w>
ಶಿಫಾರ ಸ್ಸು</w>
ಶಾಲೆ ಗಳಿಗೆ</w>
ಶಾರೀ ರಿಕ</w>
ಶಾ ಹ
ಶಾ ಂ
ಶರಣ ು</w>
ಶಕ್ತ ರಾಗ
ಶಂಕ ರ್‌</w>
ವ್ಯಾ ಪಿ</w>
ವ್ಯವಹಾರ ದಲ್ಲಿ</w>
ವ್ಯ ಥ
ವ್ಯ ತಿರಿ
ವ್ ಸ್</w>
ವೇ ರಿಯ
ವೇ ನೋ</w>
ವೇಗ ವಾಗಿ</w>
ವೆನ್ನ ುವುದು</w>
ವೆಚ್ಚ ಗಳು</w>
ವೆ ಲ್
ವೆ ಬ್</w>
ವು ಡ್</w>
ವೀ ಸ್</w>
ವಿಷಯ ಗಳಿಗೆ</w>
ವಿವಾ ದಿತ</w>
ವಿರುದ್ಧ ವಾಗಿದೆ</w>
ವಿರಾ ಮ</w>
ವಿಮಾನ ದಲ್ಲಿದ್ದ</w>
ವಿಮರ್ಶ ೆ</w>
ವಿಭಿನ್ನ ವಾಗಿದೆ</w>
ವಿಭಾಗ ಗಳಲ್ಲಿ</w>
ವಿದ ೇಶ</w>
ವಿಜಯ ನ್‌</w>
ವಿಚಾರ ದ</w>
ವಿ ಷ</w>
ವಿ ವಿ</w>
ವಿ ಲೀನ</w>
ವಿ ರಿ</w>
ವಿ ಕವಾಗಿ</w>
ವಾರ್ ಡ್‌
ವಾರ ಾಂ
ವಾತಾವರ ಣ
ವಾಗಿರ ಬಹುದು</w>
ವಾಗ ಿಡ
ವಾ ಚ್
ವಾ ಕ್
ವಳ ಿಯನ್ನು</w>
ವಳ ಿಯ</w>
ವಲ್ಲ ದ</w>
ವಲ ಸಿಗ
ವಯಸ್ ಸಾದ</w>
ವಯನಾ ಡ್</w>
ವಕೀ ಲ</w>
ವ ಸ್ತ್ರ</w>
ವ ರಿಸಿ</w>
ವ ನೇ</w>
ವ ನಿ
ಳಿಯ ು</w>
ಳಿ ಗ
ಲ್ಪಟ್ಟ ಾಗ</w>
ಲ್ ಯು
ಲ್ ಪ</w>
ಲೇಖ ನಗಳು</w>
ಲೇಖ ನ</w>
ಲೇ ಟ್</w>
ಲೋ ಡ್</w>
ಲೆ ಜೆ
ಲೀ ಲಾ</w>
ಲಾಯ ್ತು</w>
ಲಾಗ ್ತಿದೆ</w>
ಲಾಗ ುತ್ತಿತ್ತು</w>
ಲಭ್ಯ ವಿವೆ</w>
ಲಕ್ಷ್ ಮಿ</w>
ಲಕ್ ನೋ</w>
ಲಂ ಕೇಶ್</w>
ಲ ನ್</w>
ಲ ಖ
ಲ ಂಕಾ</w>
ರ್‌ ಗಳು</w>
ರ್ ಣ</w>
ರೋಗ ವು</w>
ರೋಗ ಲಕ್ಷಣಗಳು</w>
ರೋ ಡ್</w>
ರೊ ನಾಲ್
ರೇ ಟಿಂಗ್</w>
ರೋಗ ಿಯ</w>
ರೆ …</w>
ರೆ ಹ
ರೆ ಲ್ಲಾ</w>
ರೆ ಕಾರ್ಡ್</w>
ರುಚಿಕ ರವಾದ</w>
ರಿಸ ುವ</w>
ರಿಲಯ ನ್ಸ್</w>
ರಿಕ ೆಯನ್ನು</w>
ರಿ ಚರ್
ರಾಸಾಯ ನಿಕ</w>
ರಾಷ್ಟ್ರ ಗಳಲ್ಲಿ</w>
ರಾಯ ಲ್ಸ್</w>
ರಾಮ ನಾಥ್</w>
ರಾತ್ರಿ ಯ</w>
ರಾಜಕೀಯ ದ</w>
ರಾಜಕಾರಣ ಿ</w>
ರಾಜ ಶೇಖ
ರಾ ಶ
ರಾ ಣ
ರಷ್ಟ ಿದೆ</w>
ರದ್ದು ಗೊಳಿಸ
ರಕ್ತದೊತ್ತ ಡ
ರಂಗ ಭೂಮಿ</w>
ರಂಗ ದಲ್ಲಿ</w>
ರ ವಾ
ರ ಮ್ಯ
ರ ನ್‍
ರ ನ್
ರ ಣ್
ರ ಜಾ</w>
ಯ್ದ ು</w>
ಯೋಧ ರಿಗೆ</w>
ಯೋಧ ರನ್ನು</w>
ಯೊ ಟಾ</w>
ಯೋಜ ನೆಗಳು</w>
ಯೋಜ ನೆ</w>
ಯೆಹೋಶ ುವ</w>
ಯೆಹೋವ ನಿಂದ</w>
ಯೆಹೋವ ನ
ಯೆ ಹೆಜ್ಕೇ
ಯೆ ಲ್</w>
ಯುದ್ಧ ದಲ್ಲಿ</w>
ಯಾಕೋ ಬ
ಯಜ ುವೇಂದ್ರ</w>
ಯ ಕೃ
ಮ್ ‍ನಲ್ಲಿ</w>
ಮೋಶ ೆಗೆ</w>
ಮೋಟ ಾರ್</w>
ಮೊದಲಿ ನಿಂದಲೂ</w>
ಮೊದಲ ಾರ್
ಮೊ ಟ್ಟ</w>
ಮೈತ್ರಿಕೂಟ ದ</w>
ಮೇಲ ಕ್ಕೆ</w>
ಮೇ ಯ
ಮೆಗಾಪಿಕ್ ಸೆಲ್‌</w>
ಮೆಗಾ ಪಿಕ್ಸಲ್</w>
ಮೆ ಚ್ಚಿ
ಮೃತಪಟ್ಟ ಿದ್ದು</w>
ಮೂರ್ ಖ
ಮೂಡ ುತ್ತದೆ</w>
ಮೂ ಢ
ಮುಸ್ಲಿಮ ರಿಗೆ</w>
ಮುಸಲ್ ಮಾನ
ಮುಚ್ಚ ಿದ್ದವು</w>
ಮುಖ್ಯಾ ಂಶಗಳು</w>
ಮುಖ್ಯಮಂತ್ರಿ ಗಳಾದ</w>
ಮುಖ್ಯ ವಲ್ಲ</w>
ಮುಖಂಡ ರ</w>
ಮುಂಬೈ ಯಲ್ಲಿ</w>
ಮುಂದುವರಿಯ ುತ್ತಿದೆ</w>
ಮುಂದುವರಿಯ ುತ್ತದೆ</w>
ಮುಂದುವ ರೆ
ಮುಂದುವ ರಿಕೆ</w>
ಮು ಸು
ಮು ಂಜ
ಮೀನುಗಾರ ರಿಗೆ</w>
ಮೀ ಟರ್‌</w>
ಮಿ ನಲ್ಲಿ</w>
ಮಿ ಕ್ಸ್</w>
ಮಿ ಕ್ಕ
ಮಾರ್ಗದರ್ಶ ನ</w>
ಮಾರ್ಗ ಗಳು</w>
ಮಾಧ್ಯಮ ಗಳಿಗೆ</w>
ಮಾದರಿಯ ಲ್ಲಿ</w>
ಮಾತಾ ಡ್
ಮಾತ ಲ್ಲ</w>
ಮಾಡ್ ತಾ</w>
ಮಾಡುವ ವರ</w>
ಮಾಡ ೋದು</w>
ಮಾಡ ಿಸಿದ</w>
ಮಾಡ ಿರುವುದು</w>
ಮಾಡ ಿರುವುದಾಗಿ</w>
ಮಹೀ ಂದ್ರ</w>
ಮಹಾ ಮಾರಿ</w>
ಮಹಾ ನ್‌</w>
ಮಹಾ ತ್ಮ</w>
ಮಹಮ್ಮ ದ್</w>
ಮಹ ವ್
ಮಹ ತ್ವಾ
ಮಹತ್ವಾ ಕಾಂ
ಮಹ ತ್ವವನ್ನು</w>
ಮಹ ತ್
ಮರೆ ತು</w>
ಮನುಷ್ಯ ನಿಗೆ</w>
ಮನುಷ್ಯ ನನ್ನು</w>
ಮನಸ್ ಸುಳ್ಳ
ಮಧ್ಯ ಂತರ</w>
ಮತದಾನ ದ</w>
ಮಂದ ಿಯಲ್ಲಿ</w>
ಮ ರಿ
ಮ ದ್
ಮ ಡಿ
ಭೇಟ ಿಗೆ</w>
ಭೂಮ ಿಯು</w>
ಭು ಜ
ಭಿನ್ನಾಭಿ ಪ್ರಾಯ</w>
ಭಾಷ ೆಯ
ಭಾವ ದ</w>
ಭಾರತ ್</w>
ಭಾಗವಹಿಸ ಲು</w>
ಭಾ ಸ
ಭರವಸೆಯಿ ಡ
ಭರವಸ ೆಯ</w>
ಭಯಾನ ಕ</w>
ಭಯ ಭೀ
ಭದ್ರ ವಾಗಿ</w>
ಭದ್ರ ತೆಯನ್ನು</w>
ಭಕ್ ತಾ
ಭ ತ್ಯ
ಭ ಕ್ತಿ</w>
ಭ ಂಡ
ಬ್ಯಾ ಟ್</w>
ಬ್ಯ ಾರ
ಬ್ ಲ್ಯು
ಬ್ ಲೂ</w>
ಬ್ ಲಾ
ಬ್ ಧ
ಬೋಧ ನೆ</w>
ಬೇರೆ ಬೇರೆ</w>
ಬೇಡ ಿಕೊಳ್ಳ
ಬೇ ಡ್
ಬೆಳ ಗ್ಗ
ಬೆಲ ೆಯೂ</w>
ಬೆರಳ ಚ್ಚು</w>
ಬೆನ್ನ ು
ಬೆಂಕ ಿಗೆ</w>
ಬೆ ಟ್ಟ</w>
ಬುದ್ಧ ಿ</w>
ಬು ರ್
ಬಿಡುಗಡ ೆಯಾಗಿದೆ</w>
ಬಾರ ಿಯೂ</w>
ಬಾರ ದೆಂದು</w>
ಬಾ ಸ್</w>
ಬಾ ಧ್ಯ
ಬಸ್‌ ಗಳು</w>
ಬಳಕೆದಾರ ರ</w>
ಬಳ ಸಿದ</w>
ಬಳ ಕೆಯ</w>
ಬಲಾ ತ್
ಬಲ ಕ್ಕೆ</w>
ಬರೆದ ಿದ್ದರು</w>
ಬರ ುವ
ಬರ ುತ್ತಿವೆ</w>
ಬರ ಲಿರುವ</w>
ಬಯಸ ುತ್ತದೆ</w>
ಬಯಸ ಿದರು</w>
ಬಯ ಕ
ಬದು ಕಿನಲ್ಲಿ</w>
ಬದಲಾವಣ ೆಯ</w>
ಬದಲಾಯ ಿಸ
ಬಣ್ಣ ದಲ್ಲಿ</w>
ಬಡ ಿದು</w>
ಬಡ ವರು</w>
ಬಂಧ ಿಸಲಾಗುವುದು</w>
ಬಂದ ೂ
ಬಂಗ ಾರದ</w>
ಬ ಾಗಿ</w>
ಬ ರು
ಫ್ ಲಿ
ಫಡ್ ನವೀ
ಫ ್ರಿ
ಪ್ರೇ ರಣೆ</w>
ಪ್ರೀತಿ ಪೂರ್ವಕ</w>
ಪ್ರೀತ ಿಸಿ</w>
ಪ್ರೀ ತಿಯಲ್ಲಿ</w>
ಪ್ರಾರ್ಥ ನೆಯಲ್ಲಿ</w>
ಪ್ರಾರ್ಥ ನೆಗಳು</w>
ಪ್ರಾಣಿ ಗಳ</w>
ಪ್ರಾ ಂತ
ಪ್ರಶ್ನ ಿಸುತ್ತಾರೆ</w>
ಪ್ರವೇಶ ಿಸಿದ</w>
ಪ್ರವೇಶ ಿಸಲು</w>
ಪ್ರವಾಸಿಗ ರ</w>
ಪ್ರಯಾಣಿಕ ರಿದ್ದರು</w>
ಪ್ರಯಾಣಿಕ ರನ್ನು</w>
ಪ್ರಯತ್ನ ಿಸ
ಪ್ರಭ ು</w>
ಪ್ರಧಾನ ವಾಗಿ</w>
ಪ್ರದೇಶ ವನ್ನು</w>
ಪ್ರತಿಭಾವ ಂತ</w>
ಪ್ರತಿಭಟ ನೆಯ</w>
ಪ್ರತಿಭ ೆ</w>
ಪ್ರತಿಪಾದ ಿಸಿದರು</w>
ಪ್ರತಿ ಬಿಂಬ
ಪ್ರಜಾಪ್ರಭು ತ್ವದಲ್ಲಿ</w>
ಪ್ರಗ ತಿಯ</w>
ಪ್ರಗ ತಿ
ಪ್ರ ೋ
ಪ್ರ ಾರಂಭ</w>
ಪ್ರ ಹಾರ
ಪ್ರ ವೃತ್ತಿ</w>
ಪ್ರ ತಾ
ಪೋಲಿಸ ್</w>
ಪೋ ಲೀ
ಪೊಲೀ ಸ್​</w>
ಪೊ ಲಿಸ
ಪೈಲ ಟ್</w>
ಪೋಷ ಕರು</w>
ಪೂರ್ ವಜ
ಪೂರೈಸ ುವ</w>
ಪೂ ಜಾ</w>
ಪುರುಷ ರಿಗಿಂತ</w>
ಪಿಸ್ ತೂ
ಪಾಲ ಕ್ಕಾ
ಪಾಠ ವನ್ನು</w>
ಪಾಟ್ ನಾ</w>
ಪಾ ಲಿನ</w>
ಪಲ್ ಟ
ಪರೀಕ್ಷ ೆಗಳನ್ನು</w>
ಪರಿಹಾರ ಗಳು</w>
ಪರಿಸ ರದ</w>
ಪರಿಗಣ ಿಸಲು</w>
ಪರಿಗಣ ಿಸಲಾಗಿದೆ</w>
ಪರ ಮೇ
ಪರ ಮಾಣ
ಪಯನೀಯ ರ
ಪದ ವು</w>
ಪತ್ರಿಕಾಗೋಷ್ಠ ಿಯಲ್ಲಿ</w>
ಪತ್ತೆಯಾಗ ಿವೆ</w>
ಪಡೆಯ ುತ್ತಾರೆ</w>
ಪಡ ುತ್ತಾರೆ</w>
ಪಟ್ಟ ಿಲ್ಲ</w>
ಪಟ್ಟ ಿಯಿಂದ</w>
ಪಟ್ಟ ಣ</w>
ಪಕ್ಷ ಿಗಳು</w>
ಪಕ್ಷ ವೇ</w>
ಪಕ್ಷ ಗಳಿಗೆ</w>
ಪಂದ್ಯಾ ವಳಿಯಲ್ಲಿ</w>
ಪಂದ್ಯ ಕ್ಕೆ</w>
ಪ ೇ
ಪ ರೀ
ಪ ದೇ
ಪದೇ ಪದೇ</w>
ಪ ತನ</w>
ನ್ನಿ ಡ
ನ್ ಸಾ
ನ್ ಗೆ</w>
ನೋಡ ಿದ್ದೇವೆ</w>
ನೋಟ ಕ್ಕೆ</w>
ನೋಂದ ಾಯ
ನೋ ವಿನಿಂದ</w>
ನೈ ಟ್</w>
ನೇಮ ಕವನ್ನು</w>
ನೇ ಯ
ನೇ ಣು</w>
ನೆಲೆಸ ಿದೆ</w>
ನೆರೆಹೊರ ೆಯವರು</w>
ನೆರ ವಿಗೆ</w>
ನೆರ ವಾಗುವುದು</w>
ನೆಯ ೊಂದಿಗೆ</w>
ನೆನ ಪು</w>
ನೆ ಹ್
ನೆ ಸ್</w>
ನೆ ಪ
ನೆ ಗೆ
ನು ಡಿ
ನೀಡಲಾಗ ುತ್ತಿತ್ತು</w>
ನೀಡ ುತ್ತಿರುವ</w>
ನೀಡ ಬಾರದು</w>
ನೀ ಗ
ನೀ ಲಿ</w>
ನಿಷೇಧ ಿಸಲಾಗಿದೆ</w>
ನಿಶ್ಚಯ ವಾಗಿಯೂ</w>
ನಿಶ್ ಚಿತ</w>
ನಿವಾ ಸ</w>
ನಿರ್ಧರಿಸ ಿದ್ದಾರೆ</w>
ನಿರ್ದಿ ಷ್ಟವಾಗಿ</w>
ನಿರ್ಣಯ ವನ್ನು</w>
ನಿರ್ ಮೂಲ
ನಿರೀಕ್ಷ ಿಸಲಾಗಿದೆ</w>
ನಿರಾಶ ೆ</w>
ನಿರಾಕರಿಸ ಿದ</w>
ನಿರಾಕರಿಸ ಿತ್ತು</w>
ನಿನಗ ೇನು</w>
ನಿತಿ ನ್</w>
ನಿಗ ೂಢ
ನಿ ಮ್
ನಿ ಖಿ
ನಾವಿ ಬ್ಬರು</w>
ನಾನಿ ನ್ನೂ</w>
ನಾನ ೊಬ್ಬ</w>
ನಾಚ ಿಕೆ</w>
ನಾ ವೀಗ</w>
ನಾ ತ್ಮಕವಾಗಿ</w>
ನಾ ಕ್ಷಿ</w>
ನವಜೋ ತ್</w>
ನಮ್ಮಿ ಬ್ಬರ</w>
ನಮ್ಮ ನ್ನೇ</w>
ನನ ೂ</w>
ನನ ಗೇ
ನಡೆಸ ುವುದು</w>
ನಡೆಸ ಲಿದ್ದಾರೆ</w>
ನಡೆ ದುಕೊಂಡು</w>
ನಟ ರು</w>
ನಕಾರ ಾತ್ಮಕ</w>
ನಂಬಿಕ ೆಯು</w>
ನಂತರ ವೇ</w>
ನ ೌ</w>
ನ ಿಸಿತು</w>
ನ ವಿ</w>
ನ ವರ</w>
ನ ನ</w>
ಧ್ವ ಜ</w>
ಧ್ಯ ಾನ</w>
ಧರ್ಮಶಾಸ್ತ್ರ ದ</w>
ಧರೆಗುರು ಳ
ಧರಿಸ ಬೇಕು</w>
ಧ ದ</w>
ದ್ವೇಷ ದ</w>
ದ್ರಾ ವಿ
ದ್ದ ಕ್ಕೆ</w>
ದೊಡ್ಡ ದಾದ</w>
ದೈ ವ
ದೇವ ಸ್ಥಾನ
ದೇವ ಪ್ರಭು
ದೊ ಡ್ಡ
ದೃಷ್ಟಿಕೋ ನ</w>
ದೂರ ಿದರು</w>
ದೂರ ದಲ್ಲಿರುವ</w>
ದುರುಪ ಯೋಗ</w>
ದುರುಪ ಯೋಗ
ದುರಾ ದೃಷ್ಟ
ದು ’</w>
ದೀಕ್ಷಾಸ್ನಾ ನದ</w>
ದಿವ ಸ</w>
ದಿ ವಾ
ದಿ ಗ್ಗ
ದಿ ಕ್ಕು</w>
ದಾಖಲಾಗ ಿರುವ</w>
ದಾ ಸ್</w>
ದವ ರೂ</w>
ದಲ್ಲ ಿದ್ದಾಗ</w>
ದಲ್ಲ ವೇ</w>
ದಬ್ಬ ಾಳ
ದ ಾಗಿತ್ತು</w>
ದ ವರಾಗ
ದ ರ್</w>
ದ ಡ
ಥ್ರ ಿಲ್ಲ
ಥ್ಯಾಂ ಕ್ಸ್</w>
ಥ ಾ</w>
ತ್ರಿ ವಳಿ</w>
ತ್ರಿ ಪು
ತ್ಯ ವನ್ನು</w>
ತ್ ಸವ</w>
ತೊಂದರ ೆಯಾಗ
ತೊ ಳೆದು</w>
ತೆಲ ಗು</w>
ತೆರೆಯ ಿರಿ</w>
ತೆರಳ ಿದ</w>
ತೆಗೆದುಕೊಳ್ಳ ುವ</w>
ತೆಗೆದುಕೊಳ್ಳ ಲಾಗಿದೆ</w>
ತು ಣು
ತು ಟಿ
ತಿಳಿಸ ುವುದು</w>
ತಿಳಿಸ ಲು</w>
ತಿಂಗಳ ುಗಳು</w>
ತಿ ಮೊ</w>
ತಿ ಂಡ
ತಾಲೂ ಕಿನ</w>
ತಾಣ ವಾಗಿದೆ</w>
ತಾಂ ತ್ರಿಕ
ತಾ ತ</w>
ತಲೆಮಾರ ಿನ</w>
ತರ ಾಗಿ</w>
ತಯಾರ ಿಸಲು</w>
ತಪ್ಪೊ ಪ್ಪ
ತಪ್ಪ ಿಸಿಕೊಂಡು</w>
ತಪ್ಪ ಿದೆ</w>
ತಪ್ಪ ಲ್ಲ</w>
ತಪಾಸ ಣೆಗೆ</w>
ತದ್ರೀ ತಿಯಲ್ಲಿ</w>
ತತ್ತ ರಿಸ
ತಡೆ ದುಕೊಳ್ಳ
ತಗ್ಗ ು</w>
ತಕ್ಕೊ ಂಡು</w>
ತಂಬಾ ಕು</w>
ತ ವರು</w>
ತ ಲ್ಲ</w>
ಣೆ ಗಳ</w>
ಣ ಿಗಳು</w>
ಡ್ಯು ಯಲ್</w>
ಡೌನ್‌ ಲೋಡ್</w>
ಡೋ ಣ</w>
ಡೆದು ಹಾಕಲು</w>
ಡ ಬಲ್</w>
ಡ ಗಿ</w>
ಟ್ರಿ ಬ್ಯೂ
ಟ್ರ ೇ
ಟ್ಯಾ ಬ್‌
ಟ್ಯಾ ಪ್</w>
ಟೈ ಮ್ಸ್</w>
ಟೆ ಲಿ
ಟೀ ಸ್</w>
ಟೀ ಕೆ
ಟಾ ಮ್</w>
ಟ ೌ
ಟ ಿಯ
ಟ ಿಕಲ್</w>
ಟ ಲ್‌</w>
ಟ ನ್ನು</w>
ಟ ದಿಂದ</w>
ಜೋಸೆ ಫ್</w>
ಜೋ ಡಿಸ
ಜೊತೆಗ ೂಡ
ಜೈ ವಿಕ</w>
ಜೈ ನ್</w>
ಜೆ ಎನ್‌
ಜೀವಿ ಗಳು</w>
ಜಿ ಗಳು</w>
ಜಿ ಎಸ್
ಜಾಗರೂ ಕರಾಗ
ಜವಾಬ್ದಾರ ಿಗಳನ್ನು</w>
ಜನಸಂಖ್ಯ ಾ</w>
ಜನ ೆಯನ್ನು</w>
ಜಟಿ ಲ
ಜಗತ್ತಿ ನಾದ್ಯಂತ</w>
ಜ ಾರು</w>
ಜ ಪೇ
ಜ ಗ್ಗ
ಛಾ ಯಾ
ಚೌ ಕಟ್ಟ
ಚೇತರಿಸ ಿಕೊಳ್ಳ
ಚೆ ಲ
ಚೆ ಗಿನ</w>
ಚೆ ಂಡು</w>
ಚೆ ಂಡ
ಚುನಾವಣ ೆಗಳು</w>
ಚಿಹ್ ನೆ</w>
ಚರ್ಚ ಿಸಲು</w>
ಚರ ಂಡಿ</w>
ಚಪ್ಪಾ ಳೆ</w>
ಚಕಮಕ ಿಯಲ್ಲಿ</w>
ಚಂದ್ರಶೇಖ ರ್</w>
ಚ ರ</w>
ಘಟ ಕದಲ್ಲಿ</w>
ಘ ್
ಗ್ರಾಮ ಸ್ಥ
ಗೌರವಾ ನ್ವಿತ</w>
ಗೋ ಡೆಗೆ</w>
ಗೋ ಡ
ಗೋ ಚರಿಸ
ಗೊಳ್ಳ ಲು</w>
ಗೊಳಿಸ ಿದರು</w>
ಗೊಳಿಸ ಲು</w>
ಗೊಂಡ ಿಲ್ಲ</w>
ಗೆಲ್ಲ ಲಿದೆ</w>
ಗೆದ್ದ ರು</w>
ಗೆ ಲ್ಲಾ</w>
ಗೃಹ ಬಂಧನ
ಗುಪ್ತ ಪದವನ್ನು</w>
ಗುಪ್ತ ಚರ</w>
ಗುಣ ಗಳು</w>
ಗುಣ ಗಳ</w>
ಗುಂಪು ಗಳು</w>
ಗುಂಡ ಿಗೆ</w>
ಗು ಡ್ಡ</w>
ಗಾರ ರ</w>
ಗಾಯಾಳು ಗಳು</w>
ಗಾಯಗೊಂಡ ಿದ್ದಾನೆ</w>
ಗಾಯಗೊಂಡ ಿದ್ದಾರೆ</w>
ಗಾಯ ವಾಗಿದ್ದು</w>
ಗಾ ಳಿಗೆ</w>
ಗಾ ಬರಿ</w>
ಗಾ ಢ</w>
ಗಳ್ ಳ
ಗಳಲ್ಲ ೊಂದು</w>
ಗಳಲ್ಲ ಿಯೇ</w>
ಗಳ ೆ</w>
ಗರ್ಭಿ ಣಿ</w>
ಗಮನ ಹರಿಸ
ಗದ ರಿಸ
ಗಣ ನೆಗೆ</w>
ಗಡ್ ಕರಿ</w>
ಗಡ ುವು</w>
ಗಂಡ ು
ಗ ಿತ್ತು</w>
ಗ ರ್</w>
ಗ ನುಸಾರ</w>
ಗ ತಿ</w>
ಖ್ಯಾ ತಿ</w>
ಖುದ್ದ ು</w>
ಖಿನ್ನ ತೆ</w>
ಖರೀದ ಿಸಲು</w>
ಖರೀದ ಿಗೆ</w>
ಖರೀ ದ
ಕ್ಷೇ ಪ
ಕ್ಷ ಣದಲ್ಲಿ</w>
ಕ್ರೀ ಮ್</w>
ಕ್ರೀ ಮ್</w>
ಕ್ರಿಯ ೆಗಳು</w>
ಕ್ರಿಯ ೆ
ಕ್ರಿ ಶ್ಚ
ಕ್ಕ ಿರುವ</w>
ಕ್ಕ ನುಸಾರ</w>
ಕ್ ಗಳು</w>
ಕೌಶ ಲ</w>
ಕೋಶ ವನ್ನು</w>
ಕೋವಿ ಂದ
ಕೋರ್ ಸ್</w>
ಕೋರ್ ಟ್​</w>
ಕೋಪ ಕ್ಕೆ</w>
ಕೋ ಣೆಯಲ್ಲಿ</w>
ಕೋ ಟ್ಯಾ
ಕೊಲ್ ಕತ್ತಾ</w>
ಕೊರಿ ಂಥ
ಕೊನೆಯುಸಿರೆಳೆ ದಿದ್ದಾರೆ</w>
ಕೊಡ ುತ್ತಿಲ್ಲ</w>
ಕೊಟ್ಟ ಿತು</w>
ಕೊ ಬ್ಬ
ಕೈಗೊಳ್ಳ ುವ</w>
ಕೈ ಗೂಡ
ಕೇಳ ುವುದಿಲ್ಲ</w>
ಕೇರಳ ಕ್ಕೆ</w>
ಕೇಂದ್ರ ೀಯ</w>
ಕೋ ಳಿ</w>
ಕೊ ಲ್ಲ
ಕೆಲಸ ದಿಂದ</w>
ಕೆಲ ವರನ್ನು</w>
ಕೆಡ ಿಸಿಕೊಳ್ಳ
ಕೆ ಸ
ಕೆ ಂಪ
ಕೆ ಂ
ಕೃಷ್ಣ ನ್</w>
ಕೃತ್ಯ ಕ್ಕೆ</w>
ಕೂದ ಲಿಗೆ</w>
ಕೂಡ ದು</w>
ಕುಶ ಲ</w>
ಕುಳಿತ ುಕೊಳ್ಳ
ಕುಮಾರ ಿ</w>
ಕುದಿಯ ುವ</w>
ಕುಟುಂಬ ದವರಿಗೆ</w>
ಕಿ ಲೋ</w>
ಕಾಳ ಜ
ಕಾಲ್ಪ ನಿಕ</w>
ಕಾರ್ಯಾಚರಣ ೆಯನ್ನು</w>
ಕಾರ್ಯ ವಿಧಾನ
ಕಾರ್ಯ ಕ್ಕೆ</w>
ಕಾರಣ ದಿಂದಾಗಿ</w>
ಕಾರ ು
ಕಾಯ ುವ</w>
ಕಾಯ ಲು</w>
ಕಾಣ ುವ</w>
ಕಾ ಳು</w>
ಕಾ ಡು
ಕಾ ಂತ
ಕಾ ಂ</w>
ಕಷ್ಟ ಗಳನ್ನು</w>
ಕಷ್ಟ ಕರವಾದ</w>
ಕಳುಹಿಸ ಿಕೊಡ
ಕಳ ಪೆ</w>
ಕಲ್ಪ ಿಸ
ಕಲಿಸ ಲು</w>
ಕರ್ತ ನೇ</w>
ಕರ್ತ ನನ್ನು</w>
ಕರೆ ದು</w>
ಕರು ಳಿನ</w>
ಕರಾ ಳ</w>
ಕರ ಣ್</w>
ಕಬಳಿಸ ಿದರು</w>
ಕನ್ನಡ ದ</w>
ಕಥ ೆಗಳನ್ನು</w>
ಕತ್ತರಿಸ ು</w>
ಕಣ್ಣ ಾಡ
ಕಣ ಿವೆ</w>
ಕಣ ಕ್ಕೆ</w>
ಕಂಡ ಿಲ್ಲ</w>
ಕ ಸೂ
ಕ ವಿ</w>
ಕ ಲಾ</w>
ಕ ಮ್ಯು
ಕ ಮ್</w>
ಕ ಪ್ಪು
ಕ ನ್ಯ
ಕ ಡಿಯ
ಕ ಟಿ
ಓದ ುವ</w>
ಓದ ಿದ್ದು</w>
ಒಳ ಿತ
ಒಲಿಂ ಪಿಕ್ಸ್</w>
ಒಮ್ಮ ೊಮ್ಮೆ</w>
ಒಪ್ಪ ಿಸಲಾಗಿದೆ</w>
ಒಂದೊಂದ ಾಗಿ</w>
ಒಂದ ಾಗಿ</w>
ಒ ರೆಸ
ಒ ಂಟಿ</w>
ಐರೋ ಪ್ಯ</w>
ಐಪಿ ಎ
ಐ ಹಿಕ</w>
ಐ ಸ್</w>
ಐ ಸಿಯ
ಐ ಶ್ವರ್ಯ</w>
ಐ ಐ
ಏಕಾಂಗ ಿಯಾಗಿ</w>
ಏ ರ್‌</w>
ಏ ನ್
ಎಸಗ ಿದ</w>
ಎರ್ನಾ ಕುಲಂ</w>
ಎದುರಾ ಳಿ</w>
ಎತ್ತ ಿ</w>
ಎಡೆ ಬಿಡದೆ</w>
ಎಂಬುದ ರಲ್ಲಿ</w>
ಎಂದ ೆಂದಿಗೂ</w>
ಎಂದ ುಕೊಂಡ
ಎಂಜಿನಿಯ ರಿಂಗ್‌</w>
ಎ ಸ
ಎ ರ
ಎ ಚ್‌</w>
ಎ ಚ್
ಋ ಣಾ
ಉಳಿಸ ು</w>
ಉಳಿದ ಿರುವ</w>
ಉಳಿದ ವರ</w>
ಉಪ್ಪ ಿನ
ಉಪಾ ಯ</w>
ಉಪಯೋಗ ಿಸುವ</w>
ಉದ್ದೇಶ ವನ್ನು</w>
ಉತ್ಪಾದ ಿಸುವ</w>
ಉಂಟು ಮಾಡುವ</w>
ಉಂಟು ಮಾಡಬಹುದು</w>
ಉಂಟಾಗ ುವುದು</w>
ಉ ದ
ಈಡೇರಿಸ ಿಲ್ಲ</w>
ಈಜಿ ಪ್ಟ
ಇವು ಗಳಿಗೆ</w>
ಇವರೆ ಲ್ಲರೂ</w>
ಇವ ರಿಂದ</w>
ಇವ ನಿಗೆ</w>
ಇಲಾಖ ೆಗಳ</w>
ಇರ ುವವರು</w>
ಇರ ಲ್ಲ</w>
ಇದ್ದ ಲ್ಲಿ</w>
ಇದಕ್ಕ ೆಲ್ಲಾ</w>
ಇಂಡೋನೇ ಷ್ಯಾ
ಇಂಗ್ಲೀ ಷ್</w>
ಇ ತ್ತ
ಇ ಂದ</w>
ಆಸ್ಪತ್ರ ೆಯಿಂದ</w>
ಆವರ ಣದಲ್ಲಿ</w>
ಆಳ್ ವಿ
ಆಳ ುವ</w>
ಆರೋಪಿ ಗಾಗಿ</w>
ಆರೋಗ ್ಯ
ಆರಂಭ ವಾಗಿಲ್ಲ</w>
ಆಯ್ಕ ೆಯಾಗಿದೆ</w>
ಆಯ್ ಕೆಯ</w>
ಆಯೋಗ ಕ್ಕೆ</w>
ಆನಂದ ವನ್ನು</w>
ಆದುದ ರಿಂದಲೇ</w>
ಆದಿ ತ್ಯ</w>
ಆದಾ ಮಹವ್
ಆದ ರು</w>
ಆತು ರ</w>
ಆತಂಕ ಕ್ಕೆ</w>
ಆತ ನೂ</w>
ಆಜ್ಞ ೆ</w>
ಆಗ ೇನು</w>
ಆಗ ಿರುತ್ತದೆ</w>
ಆಗ ಿರಲಿ</w>
ಆಗ ಿನ</w>
ಆಗ ಬಾರದು</w>
ಆಕ್ರಮ ಣ</w>
ಆಕ ೆಯು</w>
ಆ ಶಯ
ಆ ಂಬ
ಅಸೆ ಂಬ್
ಅಸ ಲಿ</w>
ಅಶ್ರ ುವಾಯು</w>
ಅಶ್ ವಶ
ಅವು ಗಳೆಂದರೆ</w>
ಅವರ ನ್ನ
ಅವರ ದೇ</w>
ಅವ ್ರು</w>
ಅವ ೆಲ್ಲ</w>
ಅವ ರೇನು</w>
ಅವ ನೆ
ಅಲ್ ಪಾವ
ಅರ್ ಜೆ
ಅರೇ ಬ
ಅಮೇರಿಕ ಾ</w>
ಅಮೇ ಥ
ಅಮ ಲಾ</w>
ಅಭಿಮಾನ ಿ</w>
ಅಭಿಪ್ರಾಯ ಪಟ್ಟರು</w>
ಅಭಿನಯ ಿಸುತ್ತಿದ್ದಾರೆ</w>
ಅಪ್ಲಿಕ ೇಶ
ಅಪೊಸ್ತಲ ರ</w>
ಅಪ ಹರಣ</w>
ಅನ್ನ ುವ</w>
ಅನುಸರಿಸ ಲು</w>
ಅನುಭವ ವನ್ನು</w>
ಅನುಭ ವಿ</w>
ಅನು ಮಾನಾ
ಅಧ್ಯಯ ನವನ್ನು</w>
ಅಧ್ಯಕ್ಷ ರಾದ</w>
ಅಧ್ಯ ಾಪ
ಅತ್ಯು ನ್ನ
ಅಡ್ ಡಿ
ಅಂಶ ಗಳ</w>
ಅಂದುಕೊಂಡ ಿರಲಿಲ್ಲ</w>
ಅಂದ ಿನ</w>
ಅಂತ್ಯ ದ</w>
ಅಂತ ೂ</w>
ಅ ಸಮರ್ಥ
ಅ ಬೀ
ಅ ಫ್ರ
ಅ ಣೆ
ಅ ಜ್ಜ
ಂಡ ್‌
ಂಟ್ ಸ್‌</w>
ಂಗ ಡಿ</w>
ಂಕ ರ</w>
ಂ ಕು
­ ಯ
s ”</w>
h or
: 1</w>
9, 10</w>
9 5</w>
9 1</w>
7 50</w>
6 4</w>
50 ರಷ್ಟು</w>
5 ರಲ್ಲಿ</w>
5 9</w>
4 :1
3:1 6</w>
3: 1</w>
3 2
3 00ಕ್ಕೂ</w>
200 9</w>
20 19</w>
20 18
20 16
2 3
17 ,
10 .
1 :1
1 12</w>
/ 15</w>
“ ಯೆಹೋವನೇ</w>
“ ಯೆಹೋವನು</w>
“ ನಮ್ಮ</w>
“ ಇಲ್ಲ</w>
‍ ‍
್ಯೂ ಸ್</w>
್ಯ ಾರು</w>
್ಯ ಂ</w>
್ ಲೇ</w>
ೋಷ ಿ</w>
ೋ ಪಾ
ೋಪಾ ಧ್ಯ
ೊಬ್ಬ ನನ್ನು</w>
ೊ ದಲ್ಲಿ</w>
ೋ ಧ
ೆಯಾಗ ಲಿ</w>
ೆಯಾ ದ್ಯಂತ</w>
ೆಯಲ್ಲ ಿಯೇ</w>
ೆಗೆ ದುಕೊಳ್ಳ
ೆ ೖ</w>
ೆ ತ್ತ
ೂ ವರೆ</w>
ುವುದಿಲ್ಲ ’</w>
ುವುದ ೇಕೆ</w>
ುವುದ ೆಂದರೆ</w>
ುವಿಕ ೆಯು</w>
ುವಿ ಕೆ
ುವ ಾ</w>
ುದ್ದೇಶ ಿಸಿ</w>
ುದ ೇ
ುದ ಾ
ುತ್ತಿದ್ದ ೀರಾ</w>
ುತ್ತಿದ್ದ ಾಗ</w>
ುತ್ತಾರ ಾ</w>
ುತ್ತ ೀರಿ</w>
ುತ್ತ ಿರುತ್ತಾರೆ</w>
ು ತಿ</w>
ು ­
ು  
ಿಸುವ ಷ್ಟು</w>
ಿಸಿದ್ದ ೆವು</w>
ಿಸಿದ ವರ</w>
ಿಸ ಲೂ</w>
ಿರುವ ಂತಹ</w>
ಿರ ುತ್ತೆ</w>
ಿರ ಬೇಕು</w>
ಿರ ಬಹುದೆಂದು</w>
ಿಯಾ ಕ್ಕೆ</w>
ಿಯ ನ್ನಾಗಿ</w>
ಿಬಿಟ್ಟ ಿದೆ</w>
ಿದ್ದೇ ನೆ’</w>
ಿದ್ದಾರ ೆಯೇ</w>
ಿದ್ದಾರ ಾ</w>
ಿದ್ದ ಾಗಿ</w>
ಿದ್ದ ಕ್ಕಾಗಿ</w>
ಿದ ್ರೂ</w>
ಿತ್ತ ೆಂದು</w>
ಿತ ರಿಗೆ</w>
ಿಕ್ಕೋ ಡ್</w>
ಿಕೊಂಡ ಿವೆ</w>
ಿಕೊ ಂಡ</w>
ಿಕೆ ೕ
ಿಕ ಿ</w>
ಿ ಗೇ
ಿ ಗಳಾದ</w>
ಾನ ಂದ</w>
ಾಗಿ ತ್ತ
ಾಗ ುತ್ತಿದೆ</w>
ಾಗ ಿರುತ್ತದೆ</w>
ಾಗ ಬಹುದು</w>
ಾಂಧ ಿ</w>
ಾ ಲ
ಾ ದಾಗ</w>
ಾ ಕೆ</w>
ಹ್ಯ ಾರ
ಹೋಲ ಿಕೆ</w>
ಹೋರಾಟ ವನ್ನು</w>
ಹೋಗ ುವಂತೆ</w>
ಹೋಗ ುತ್ತಿದ್ದ</w>
ಹೋಗ ಿರುವ</w>
ಹೋಗ ಿದ್ದ</w>
ಹೋ ದ್ಯ
ಹೊಸ ಬ
ಹೊರಬಿದ್ದ ಿಲ್ಲ</w>
ಹೊರಡ ಿಸಿದೆ</w>
ಹೊರ ಟ</w>
ಹೊರ ಗಿನಿಂದ</w>
ಹೊಡೆ ದಿದೆ</w>
ಹೊಟ್ಟ ೆಯ</w>
ಹೊಂದ ಿಸು</w>
ಹೊಂದ ಿರುತ್ತದೆ</w>
ಹೊಂದ ಿರಬೇಕು</w>
ಹೊಂದ ಿದ್ದ</w>
ಹೊ ತ್ತಿ
ಹೊ ಟೇ
ಹೊ ಂಡ
ಹೈ ಕೋರ್ಟ್‌ನಲ್ಲಿ</w>
ಹೈ ಕೋರ್ಟ್‌ಗೆ</w>
ಹೇಳ ುತ್ತಿದೆ</w>
ಹೇಳ ುತ್ತಾಳೆ</w>
ಹೇಳ ಿವೆ</w>
ಹೇಳ ಿರುವ</w>
ಹೇಳ ಿದ್ದಾನೆ</w>
ಹೇಳ ಲಾಗದು</w>
ಹೆಚ್ಚಾಗ ಲಿದೆ</w>
ಹೆಚ್ಚ ೇನೂ</w>
ಹೆಚ್ಚ ುತ್ತಿರುವ</w>
ಹೆಚ್ಚ ಿಗೆ</w>
ಹೆಚ್ಚ ಾಯಿತು</w>
ಹೆಗ್ಗಳ ಿಕೆ</w>
ಹೆಂಗ ಸರು</w>
ಹೃದಯಾ ಘಾತ</w>
ಹುರು ಳ
ಹುರು ಪಿನಿಂದ</w>
ಹುಟ್ಟ ುವ</w>
ಹು ಷ
ಹು ಚ್ಚು
ಹೀ ಗೂ</w>
ಹೀ ಗಾ
ಹಿನ್ನ ಲೆ</w>
ಹಿಡಿದ ಿದೆ</w>
ಹಿಂದೂ ಗಳ</w>
ಹಿಂದ ಿ
ಹಿಂ ಸೆ
ಹಿ ತ್ತ
ಹಿ ಡಿತ</w>
ಹಾನಿ ಕಾರಕ</w>
ಹಾಡು ಗಳಿಗೆ</w>
ಹಾಕ ುವುದು</w>
ಹಾಕ ಿತ್ತು</w>
ಹಾ ಸಿಗೆ</w>
ಹಾ ಸಿ
ಹಾ ಲು
ಹಾ ಪೋ
ಹಾ ಡಿ</w>
ಹರಿದಾಡ ುತ್ತಿವೆ</w>
ಹನ್ನೆ ರಡು</w>
ಹತ್ತ ಿ</w>
ಹತ್ತ ಾರು</w>
ಹಚ್ಚ ಲು</w>
ಹ ುದ
ಹ ಿಕವಾಗಿ</w>
ಹ ಸನ್</w>
ಹ ರ್
ಹ ಬಕ್ಕ
ಹಬಕ್ಕ ೂ
ಹ ಗ್ಗ
ಸ್‌ ಗಳು</w>
ಸ್ವಾ ಮಿ
ಸ್ವ ಾರ್ಥ
ಸ್ಯಾ ಮ್
ಸ್ಯಾ ಂಪ
ಸ್ಪೋ ರ್ಟ್</w>
ಸ್ಪಷ್ಟ ವಾದ</w>
ಸ್ಪರ್ಧ ೆಗಳಲ್ಲಿ</w>
ಸ್ಪರ್ಧ ಿಸಿದ್ದರು</w>
ಸ್ಪ ೇ
ಸ್ನೇ ಹಿತ</w>
ಸ್ಥಾಪ ಿಸುವ</w>
ಸ್ಥಾನ ಕ್ಕೇ
ಸ್ಥಳ ಾಂತರ
ಸ್ಥ ೈ
ಸ್ತ್ರೀಯ ನ್ನು</w>
ಸ್ತ ಾನ್</w>
ಸ್ಟೋರೇ ಜ್</w>
ಸ್ಟೇ ಡಿಯ
ಸ್ ​ನಲ್ಲಿ</w>
ಸ್ ಗೆ</w>
ಸೌಲ ನು</w>
ಸೌತೆ ಕಾಯ
ಸೋಲಿಸ ಲು</w>
ಸೋದ ರಿಯ
ಸೋ ತ</w>
ಸೊಸೈ ಟಿ</w>
ಸೈ ಫ್</w>
ಸೈ ನಿಕ</w>
ಸೇವೆ ಗಳನ್ನು</w>
ಸೇವ ಿಸುವುದು</w>
ಸೇವ ಿಸಬೇಕು</w>
ಸೇವ ಕ</w>
ಸೇರ ುವ</w>
ಸೇ ಡು</w>
ಸೇರಿಸ ಬಹುದು</w>
ಸೆರೆ ಹಿಡಿಯ
ಸೆಮಿ ಫೈನಲ್‌ಗೆ</w>
ಸೂ ರ್ಯ</w>
ಸುವಾರ್ ತೆಯ</w>
ಸುರಕ್ಷಿತ ವಾಗಿದ್ದಾರೆ</w>
ಸುರಕ್ಷ ತೆಯ</w>
ಸುಪ್ರೀಂ ಕೋರ್ಟ್‌ನಲ್ಲಿ</w>
ಸುತ್ತ ುವ
ಸುಂದ ರವಾಗಿ</w>
ಸು ರ್ಜ
ಸು ರಿಸ
ಸು ರಿ
ಸು ಮಲ
ಸು ಪ್ರಿ
ಸು ನ್ನ
ಸು ಟ್ಟ</w>
ಸೀ ರಿಯ
ಸಿಬ್ಬಂದ ಿಯ</w>
ಸಿಪಿ ಎಂ
ಸಿನೆ ಮಾ</w>
ಸಿದ್ಧ ನ
ಸಿಗ ುವುದು</w>
ಸಿಕ್ಕಿ ಬಿದ್ದ
ಸಿಕ್ ಸರ್</w>
ಸಿಂ ಹಾಸ
ಸಿ ಬಂದ
ಸಿ ಟಿಯಲ್ಲಿ</w>
ಸಾವರ್ ಕರ್</w>
ಸಾವನ್ನಪ್ಪ ಿದ್ದಾಳೆ</w>
ಸಾರ ಾ
ಸಾಯಂ ಕಾಲ</w>
ಸಾಬೀ ತು</w>
ಸಾಧ್ಯ ತೆಯ
ಸಾಧ ಿಸಿ</w>
ಸಾಧ ನವನ್ನು</w>
ಸಾಗ ಿಸುವ</w>
ಸಾಗ ಿಸಲಾಯಿತು</w>
ಸಾಗ ರ</w>
ಸಾಕ್ಷಿ ಗಳನ್ನು</w>
ಸಾಕಾಗ ುವುದಿಲ್ಲ</w>
ಸಾ ಲಿನ</w>
ಸಾ ನಿಯಾ</w>
ಸಾ ಡ
ಸಹೋದರ ರಿಗೆ</w>
ಸಹೋದರ ರ</w>
ಸಹಭಾಗ ಿ
ಸಹ ವಾಸ</w>
ಸಸ್ಯ ಗಳು</w>
ಸಲಿಂಗ ಕಾಮ
ಸರ್ ಜ
ಸರೋ ವರ
ಸರಕಾರ ವು</w>
ಸರ ್ದ
ಸಮಾನ ವಾಗಿ</w>
ಸಮಸ್ಯೆ ಗಳಿಂದ</w>
ಸಮಸ್ಯ ೆಯಾಗ
ಸಮಸ್ ತ</w>
ಸಮಯ ಗಳಲ್ಲಿ</w>
ಸಮಗ್ರ ತೆಯನ್ನು</w>
ಸಮ ಾರೋಪ</w>
ಸಮ ಸ್ತ
ಸಭ ್ಯ
ಸಭ ೆ
ಸಬ್ಬ ಸಿಗೆ</w>
ಸನ್ ಮಾನ
ಸದೃ ಢ
ಸದಸ್ಯ ರಾದ</w>
ಸತ್ಯಾ ಂಶ</w>
ಸತ್ಯ ವಾಗಿದೆ</w>
ಸತ್ಯ ಗಳನ್ನು</w>
ಸತ್ತ ರು</w>
ಸಜ್ ಜಾಗ
ಸಚಿವಾಲಯ ವು</w>
ಸಂಹಿತ ೆ</w>
ಸಂಸ್ಥ ೆಯಲ್ಲಿ</w>
ಸಂಸ್ ಕ
ಸಂಶೋಧ ಕರು</w>
ಸಂಪರ್ಕ ಿಸಲು</w>
ಸಂಪನ್ ಮೂಲ
ಸಂದ ಿ
ಸಂತ ಾನ
ಸಂಚಾರ ಿ</w>
ಸಂಕೀರ್ ಣ</w>
ಸಂ ಯ
ಸಂ ಜೆ
ಸಂ ಕೇ
ಸಂ ಕಿರ
ಸ ುವ</w>
ಸ ಿಸ್‌</w>
ಸ ಿಸ
ಸ ಿಯಲ್ಲಿ</w>
ಸ ಾರ್ಥ
ಸ ಹೋದ್ಯ
ಸ ಸ್ಯ</w>
ಸ ಮ</w>
ಶ್ರಮ ಿಸಬೇಕು</w>
ಶ್ರದ್ಧ ಾಂಜಲಿ</w>
ಶ್ ಮ
ಶೌ ಚಾಲ
ಶೌಚಾಲ ಯ</w>
ಶೋಧ ಕಾರ್ಯ</w>
ಶೇ ರುಗಳು</w>
ಶೀ ತ</w>
ಶೀ ಘ
ಶಿಸ್ ತನ್ನು</w>
ಶಿವ ರಾಜ್</w>
ಶಿವ ಮೊಗ್
ಶಿವಮೊಗ್ ಗ</w>
ಶಿವ ನ್</w>
ಶಿಯ ೋಮಿ</w>
ಶಿಬಿರ ದಲ್ಲಿ</w>
ಶಿಕ್ಷ ಕನ</w>
ಶಿಕ್ಷ ಕ
ಶಾಹ ಿದ್</w>
ಶಾಸ ಕನ</w>
ಶಸ್ತ್ರಾಸ್ತ್ರ ಗಳನ್ನು</w>
ಶರೀ ರ</w>
ಶತ ಕೋಟಿ</w>
ವ್ಯಾಯಾ ಮ
ವ್ಯಾಪ ಾರಿ</w>
ವ್ಯಾ ಸಂಗ</w>
ವ್ಯಕ್ತ ವಾಗುತ್ತಿದೆ</w>
ವ್ ಹೀ
ವೈಫ ಲ್ಯ
ವೈ ಟ್</w>
ವೇಳ ೆಯಲ್ಲಿ</w>
ವೇಳ ಾ
ವೇ ರ್</w>
ವೇ ದ</w>
ವೇ ಟ್</w>
ವೆಂದ ೆಣ
ವೆಂಕ ಯ್ಯ</w>
ವೆ ೂ
ವೆ ಲ್ಲಾ</w>
ವೆ ಲ್</w>
ವೆ ಬ್‌
ವೃದ್ಧ ಿ
ವೀಕ್ಷ ಿಸಲು</w>
ವೀ ಲ್</w>
ವೀ ರೇಂದ್ರ</w>
ವೀ ರ</w>
ವಿವೇಕ ಯುತ</w>
ವಿವಾಹ ದಲ್ಲಿ</w>
ವಿವಾಹ ದ</w>
ವಿವರಿಸ ಲು</w>
ವಿವರ ವನ್ನು</w>
ವಿಳ ಾಸ
ವಿಲ್ಲ ದೇ</w>
ವಿರ ುವುದು</w>
ವಿರ ಬಹುದು</w>
ವಿನಾಯ ಿತಿ</w>
ವಿಧಾನ ಗಳಿವೆ</w>
ವಿದ್ಯಾರ್ಥಿ ನಿಗೆ</w>
ವಿದ್ಯಾರ್ಥಿ ಗಳಿಂದ</w>
ವಿಡಿಯೋ ಗಳು</w>
ವಿಚಾರಣೆ ಗಾಗಿ</w>
ವಿಕೆಟ್‌ ಗಳನ್ನು</w>
ವಿಕಾ ಸ
ವಿಂಗಡ ಿಸಲಾಗಿದೆ</w>
ವಿ ಹಾರ
ವಿ ಕಲ
ವಾಹನ ಕ್ಕೆ</w>
ವಾಸ ವ
ವಾರ್ಷ ಿಕ
ವಾರ್ ತಾ
ವಾರಣಾ ಸಿ</w>
ವಾರ ಾಣ
ವಾಪ ಸು</w>
ವಾದ ಕ್ಕೆ</w>
ವಾಗ ಿದ್ದೇವೆ</w>
ವಾಗ ಿದ್ದೇನೆ</w>
ವಹಿಸ ಿದರು</w>
ವರ್ಷ ಕ್ಕಿಂತ</w>
ವರೆ ಲ್ಲ</w>
ವರ ದಿಯ</w>
ವಯಸ್ ಸಾಗ
ವಯ ನಾಡು</w>
ವನ್ಯ ಜೀವಿ</w>
ವನ್ನ ುಂಟು</w>
ವನ್ನ ುಂಟು
ವನ್ನ ಾಗಿ</w>
ವಚ ನಗಳನ್ನು</w>
ವಕೀಲ ರು</w>
ವಕೀಲ ರ</w>
ವಂತ ್</w>
ವಂತ ನ</w>
ವ ಿದ್ದು</w>
ವ ಿದ್ದರೆ</w>
ವ ನಿಗೆ</w>
ವ ಡಿಸ
ವ ಂಶ
ವ ಂತರ</w>
ಳೆ ಣ
ಳಿಯ ಲಿಲ್ಲ</w>
ಳಿದ ಿದೆ</w>
ಳಿ ಗಳ</w>
ಳ ಲು</w>
ಲ್‌ ನ</w>
ಲ್‌ ಗಳು</w>
ಲ್ಪಟ್ಟ ಿವೆ</w>
ಲೋಕ ವ್ಯಾಪಕ</w>
ಲೀಟ ರಿನ</w>
ಲಿಯ ೋನ್</w>
ಲಿ ಕ್ಕೂ</w>
ಲಾರಂಭ ಿಸಿದರು</w>
ಲಾಭ ವನ್ನು</w>
ಲಾಕ್‌ ಡೌನ್</w>
ಲಾ ಲ್‌</w>
ಲಗ ತ್ತ
ಲ ಂಚ</w>
ಲ ಂ</w>
ರ್ದ ು</w>
ರ್ಜ ಾ</w>
ರೋಗಿ ಗಳಿಗೆ</w>
ರೋಗಿ ಗಳನ್ನು</w>
ರೋಗಿ ಗಳ</w>
ರೋಗ ನಿರೋಧಕ</w>
ರೋಗ ಗಳು</w>
ರೋ ಪಾದಿ</w>
ರೈ ಸರ್
ರೆ ಗಳನ್ನು</w>
ರೆ ಕಾರ್
ರೂ ಪಾ
ರೂ ಂ</w>
ರು ಪೇ
ರು ಗಳಿಗೆ</w>
ರೀ ತಿ
ರಿಸ ್</w>
ರಿಸ ುತ್ತದೆ</w>
ರಿಯಾಯ ಿತ
ರಿ ಮೆ</w>
ರಿ ಟ್</w>
ರಿ ಟರ್
ರಿ ಗೋಸ್ಕರ</w>
ರಿ ಕೆಗಳು</w>
ರಾಷ್ಟ್ರ ವಾಗಿದೆ</w>
ರಾಷ್ಟ್ರ ಗೀತೆ</w>
ರಾಯ ಭಾರ</w>
ರಾಯ ಭಾರ
ರಾಜೀನಾ ಮೆಗೆ</w>
ರಾಜಕೀಯ ವಾಗಿ</w>
ರಾಜಕಾರಣ ದಲ್ಲಿ</w>
ರಾಜ ೇಂದ್ರ</w>
ರಾಜ ಮೌ
ರಾ ಶಿ</w>
ರಾ ಘ
ರಸ್ ತೆಗೆ</w>
ರಶೀ ದ್</w>
ರದ್ದು ಗೊಳಿಸಲಾಗಿದೆ</w>
ರಕ್ತ ವನ್ನು</w>
ರ ಹೀ
ರ ಲು</w>
ರ ಗಳು</w>
ಯೋ ಷೀಯ
ಯೋ ಬನ</w>
ಯೋ ಬ
ಯೆರೆಮಿ ಾಯ</w>
ಯೆ ಶಾಯ
ಯೂ ನಿಯನ್</w>
ಯುವ ಕನ
ಯುರೋ ಪ್</w>
ಯು ಎಸ್
ಯಾವ ನು</w>
ಯಾವ ನಾದರೂ</w>
ಯಾಕೋ ಬನ</w>
ಯಾಕ ಂದ್ರೆ</w>
ಯಶಸ್ವಿಯ ಾಗಿದೆ</w>
ಯಶಸ್ವಿ ಯಾ
ಯಶಸ್ ಸಿನ</w>
ಯಶಸ್ ಸಿಗೆ</w>
ಯಥ ಾ
ಯತ್ನ ಿಸಿದ</w>
ಯ ್‌</w>
ಯ ಿ
ಮ್ಯೂ ಸಿಯಂ</w>
ಮ್ಯೂ ಸಿಕ್</w>
ಮ್ಯಾನ ುವಲ್</w>
ಮ್ಯಾ ಜ
ಮ್ಯಾಜ ಿಕ್</w>
ಮೊದಲಾ ದವರು</w>
ಮೊಟ್ಟ ೆಗಳನ್ನು</w>
ಮೊ ಸ
ಮೊ ರೆ
ಮೈದಾನ ದಲ್ಲಿ</w>
ಮೇ ಲಾ
ಮೇ ರಿ</w>
ಮೇ ಲ್
ಮೊದಲ ನೆಯದಾಗಿ</w>
ಮೊ ಸರು</w>
ಮೆರವಣ ಿಗೆ</w>
ಮೆ ಗಾ</w>
ಮೆ ಂಟ್‌</w>
ಮೂಲ ಸೌಕರ್ಯ
ಮೂಲ ದವರು</w>
ಮುಷ್ ಕರ</w>
ಮುನ್ನ ೋ
ಮುದ್ರ ಣ</w>
ಮುಚ್ಚಿ ಟ್ಟ
ಮುಚ್ಚ ಲಾಗಿದೆ</w>
ಮುಗು ಳ್
ಮುಖಾಮುಖ ಿ</w>
ಮುಖ ೇಶ್</w>
ಮುಕ್ ತಾಯ</w>
ಮುಂಭಾಗ ದಲ್ಲಿ</w>
ಮುಂಭಾಗ ದ</w>
ಮುಂದುವರಿಸ ಿದರು</w>
ಮುಂದ ಾದರು</w>
ಮುಂಚ ೆಯೇ</w>
ಮುಂಗ ಾರು</w>
ಮು ಲಾಯ
ಮು ರಿದ</w>
ಮು ಜಾ
ಮು ಗ್ಧ</w>
ಮು ಗಿ
ಮು ಕ
ಮು ಂಡ
ಮೀನುಗಾರ ಿಕೆಗೆ</w>
ಮಿಜೋ ರಾಂ</w>
ಮಿ ೕ</w>
ಮಿ ಾಟ
ಮಿ ರ್ಜಾ</w>
ಮಾಹಿತ ಿಗಳು</w>
ಮಾಹಿತ ಿ
ಮಾಲಿ ೕ
ಮಾರ್ಕೆ ಟಿಂಗ್</w>
ಮಾರ್ ಕ್</w>
ಮಾರಾಟ ಕ್ಕೆ</w>
ಮಾನ್ಯ ವಾದ</w>
ಮಾಧ್ಯಮ ದಲ್ಲಿ</w>
ಮಾಧ್ಯ ಮದ</w>
ಮಾತು ಗಳ</w>
ಮಾತನಾಡ ಿದ್ದಾರೆ</w>
ಮಾತ ೂ</w>
ಮಾಡ್ ತಿದ್ದಾರೆ</w>
ಮಾಡ್ ತಾರೆ</w>
ಮಾಡುವುದ ೇ</w>
ಮಾಡುವುದ ಕ್ಕೆ</w>
ಮಾಡುವಂತ ಿಲ್ಲ</w>
ಮಾಡುವ ವರು</w>
ಮಾಡುತ್ತಿದ್ದ ೀರಿ</w>
ಮಾಡಿದ ರೂ</w>
ಮಾಡಿಕೊಂಡ ಿರುವ</w>
ಮಾಡ ುವಿರಿ</w>
ಮಾಡ ಲ್ಪಟ್ಟ</w>
ಮಾಡ ಲಿಕ್ಕಾಗಿ</w>
ಮಾಡ ಬೇಡ</w>
ಮಾಡ ಬೇಕೆಂಬ
ಮಾಡ ಬೇಕಿತ್ತು</w>
ಮಾಡ ಬಲ್ಲದು</w>
ಮಾ ವು</w>
ಮಾ ಲೆ</w>
ಮಾ ಯಾ
ಮಾ ಟ
ಮಾ ಚ
ಮಹಿಳೆಯ ರೇ</w>
ಮಳ ೆಯಾಗುತ್ತಿದೆ</w>
ಮಲ್ಲ ಿಕಾರ್
ಮರಳ ಲು</w>
ಮರಣ ವು</w>
ಮನುಷ್ಯ ರ</w>
ಮನವೊ ಲಿಸ
ಮನ ು
ಮನ ವ
ಮನ ರಂಜನೆ</w>
ಮಧ ು</w>
ಮದುವ ೆಯಾ
ಮತ್ತೊಂದ ೆಡೆ</w>
ಮತ್ತಿ ಬ್ಬರು</w>
ಮಣಿ ಪುರ</w>
ಮಡಿಕ ೇರಿ</w>
ಮಗು ಚಿ</w>
ಮಕ್ಕಳಿ ಗೂ</w>
ಮಕ್ಕ ಾಗಿ</w>
ಮಂಡ ಲ</w>
ಮಂಜ ೂಷ
ಮಂಗಳೂ ರಿನಲ್ಲಿ</w>
ಮ ೆಯಿಂದ</w>
ಮ ಿಸ್</w>
ಮ ಹೋ
ಮ ಸ್
ಮ ರೆ</w>
ಮ ದ್ದ
ಮ ಜ
ಮ ಂತ</w>
ಮ ಂತ
ಭೇ ಟಿಯ</w>
ಭೂಮ ಿಕೆಯಲ್ಲಿ</w>
ಭುಗ ಿಲೆ
ಭಿನ್ನ ವಾಗಿರುತ್ತವೆ</w>
ಭಾಷ ೆಗಳಿಗೆ</w>
ಭಾವ ಸ್ಥ
ಭಾರತೀಯ ರಿಗೆ</w>
ಭಾಗ ವನ್ನು</w>
ಭಾಗ ಗಳನ್ನು</w>
ಭಾಗ ಕ್ಕೆ</w>
ಭಾ ಜನ
ಭರ್ಜ ರಿಯಾಗಿ</w>
ಭಕ್ತ ರಿಗೆ</w>
ಭಕ್ ತಿಯ
ಭಕ್ ತಿ
ಭ ್ರಾ
ಭ ಾಗಿ</w>
ಭ ರಣ
ಬ್ಯಾ ಟ್ಸ್</w>
ಬ್ ‌ನಲ್ಲಿ</w>
ಬೌ ದ್ಧ</w>
ಬೋಧ ಿಸುತ್ತದೆ</w>
ಬೇಡ ಿಕೆಯನ್ನು</w>
ಬೇಕಾಗ ುವ</w>
ಬೇಕ ಲ್ಲ</w>
ಬೇ ಕೆಂದು</w>
ಬೇ ಕಾಗ
ಬೆಳೆಸ ಿಕೊಳ್ಳಲು</w>
ಬೆಳೆಯ ುವ</w>
ಬೆಳಕ ಿನ</w>
ಬೆಳಕ ನ್ನು</w>
ಬೆಲ್ ಜಿಯ
ಬೆರ ಳೆಣ
ಬೆನ್ನ ತ್ತ
ಬೆಂಬ ಲಿಗ
ಬೆ ೂೕ
ಬೆ ತ್ತ
ಬೆ ಡಗಿ</w>
ಬುದ್ಧಿ ವಂತ
ಬಿದ್ದ ಿದ್ದ</w>
ಬಿಡುಗಡೆಯ ಾದ</w>
ಬಿಟ್ಟ ಿದ್ದಾನೆ</w>
ಬಿಎ ಂಡ
ಬಿ ಪಿ
ಬಿ ಚ್ಚಿ</w>
ಬಾಲಿವುಡ್‌ ನಲ್ಲಿ</w>
ಬಾರ ಿಸಿ</w>
ಬಾರ ದಿತ್ತು</w>
ಬಾರ ದ</w>
ಬಾ ಲ್
ಬಾ ಚ
ಬಾ ಕಿಯ
ಬಹಿರಂಗ ವಾಗಿಲ್ಲ</w>
ಬಹಿರಂಗ ಪಡಿಸಿದ್ದಾರೆ</w>
ಬಸ್ ಸಿನಲ್ಲಿ</w>
ಬಳಲ ುತ್ತಿರುವ</w>
ಬಳ ಿಯ
ಬಲಿ ಷ್ಠ</w>
ಬಲ ದಲ್ಲಿ</w>
ಬರೆಯ ುವುದು</w>
ಬರೆದುಕೊಂಡ ಿದ್ದಾರೆ</w>
ಬರ ೇ</w>
ಬರ ುತ್ತೇನೆ</w>
ಬರ ುತ್ತಿರುವ</w>
ಬರ ುತ್ತಿದ್ದಾರೆ</w>
ಬರ ಹ</w>
ಬರ ಗಾ
ಬದುಕ ನ್ನು</w>
ಬದು ಕಿ
ಬಣ್ಣ ಗಳನ್ನು</w>
ಬಡ ಿದ
ಬಟ್ಟ ೆಗಳನ್ನು</w>
ಬಟ್ಟ ಲು</w>
ಬಂಧನಕ್ಕ ೊಳ
ಬಂಧ ಿಸುವುದಾಗಿ</w>
ಬಂದ ಿದ್ದ</w>
ಬಂದ ಳು</w>
ಬಂಗಾ ಳಿ</w>
ಬ ರಾ
ಬ ಯೋ
ಫೋ ರ್ಡ್</w>
ಫೋ ರ್
ಫೇ ಸ್‍
ಫಿ ಕ್
ಫಡ್ನವೀ ಸ್</w>
ಪ್ರೇರೇ ಪ
ಪ್ರೀಮಿಯ ರ್</w>
ಪ್ರೀತ ಿಸುವ</w>
ಪ್ರಾರ್ಥ ನೆಗಳನ್ನು</w>
ಪ್ರಾರಂಭ ಿಸ
ಪ್ರಾರಂಭ ವಾಗುತ್ತದೆ</w>
ಪ್ರಾಯ ೋ
ಪ್ರಾಮುಖ್ಯ ವಾದ</w>
ಪ್ರಾಮಾಣ ಿಕ
ಪ್ರಾಂ ತ್ಯ
ಪ್ರಾ ಜೆಕ್ಟ್</w>
ಪ್ರಾ ಕ್ಸಿ</w>
ಪ್ರಶ್ನೆ ಗಳ</w>
ಪ್ರಶ್ನ ೆಯ
ಪ್ರಶ್ನ ಿಸಿದೆ</w>
ಪ್ರಶಂ ಸ
ಪ್ರವೇಶ ದ</w>
ಪ್ರವಾಹ ಕ್ಕೆ</w>
ಪ್ರಯೋ ಜನ
ಪ್ರಯತ್ನ ಿಸುತ್ತಾರೆ</w>
ಪ್ರಯತ್ನ ಿಸಿದರು</w>
ಪ್ರಯತ್ನ ಗಳನ್ನು</w>
ಪ್ರಧಾನ ಮಂತ್ರಿ
ಪ್ರಧಾ ನಿಯಾದ</w>
ಪ್ರದೇಶ ಗಳಿಗೆ</w>
ಪ್ರತ್ಯೇ ಕ</w>
ಪ್ರತಿಯೊ ಬ್ಬರೂ</w>
ಪ್ರತಿಕ್ರಿಯ ೆಯನ್ನು</w>
ಪ್ರತಿಕ್ರಿಯ ಿಸಿದ</w>
ಪ್ರತಿಕ ೂಲ</w>
ಪ್ರತಿ ಭಾ
ಪ್ರತಿ ಫಲ</w>
ಪ್ರತಿ ಫಲ
ಪ್ರಣಾಳ ಿಕೆ</w>
ಪ್ರಜಾಪ್ರಭು ತ್ವ
ಪ್ರಕಟ ಿಸಿದೆ</w>
ಪ್ರ ಮೋ
ಪ್ರ ದಾನ</w>
ಪ್ರ ದ
ಪ್ರ ಜ್ಞಾ
ಪೌಲ ನಿಗೆ</w>
ಪೋ ಲೀಸ್</w>
ಪೋ ನ್</w>
ಪೇ ದೆ</w>
ಪೂ ಜಾರಿ</w>
ಪುನ ಶ್ಚೇತನ
ಪುನ ರ್</w>
ಪುದು ಚೇ
ಪುಟ ಗಳು</w>
ಪಿಟಿ ಐ</w>
ಪಾಯಿ ಂಟ್ಸ್</w>
ಪಾಪ ವನ್ನು</w>
ಪಾನ ೀಯ
ಪಾಕಿಸ್ಥ ಾನದ</w>
ಪಾಕಿಸ್ಥ ಾನ</w>
ಪಾಕಿಸ್ತಾನ ವು</w>
ಪರ್ಯ ಾಯ
ಪರ್ ವೇ
ಪರಿಣಮ ಿಸಿದೆ</w>
ಪರಿಗಣ ಿಸಲಾಗುತ್ತದೆ</w>
ಪರಿ ಶ್ರಮ</w>
ಪರಿ ಶೀ
ಪತ್ರಿಕ ೆಯು</w>
ಪತ್ರಿಕ ೆಯಲ್ಲಿ</w>
ಪತ್ರಕರ್ ತೆ</w>
ಪತ್ರಕರ್ ತ</w>
ಪತ್ ನಿಗೆ</w>
ಪಡೆ ದಿತ್ತು</w>
ಪಟ್ಟ ಿ
ಪಟ್ಟ ಣಕ್ಕೆ</w>
ಪಟಾ ಕಿ</w>
ಪಕ್ಷ ದವರು</w>
ಪಂಥ ಾಹ್
ಪ ರಿ</w>
ಪ ತಿಯನ್ನು</w>
ಪ ಟ</w>
ನ್‌ ನಿಂದ</w>
ನ್ಯ ು
ನೌಕಾ ಪಡೆ</w>
ನೋಡ ುತ್ತಾರೆ</w>
ನೋಟು ಗಳು</w>
ನೋ ಕಿಯಾ</w>
ನೋ ಡೋಣ</w>
ನೆಲ ಕ್ಕೆ</w>
ನೆಯ ಲ್ಲ</w>
ನೆಂಬ ುದನ್ನು</w>
ನೆ ಚ್ಚ
ನುಗ್ಗ ಲು</w>
ನು ಭವ
ನೀಡ ುತ್ತೇವೆ</w>
ನೀಡ ುತ್ತೇನೆ</w>
ನೀಡ ಿದ್ದೇವೆ</w>
ನೀಡ ಬೇಕೆಂದು</w>
ನೀ ರಿಲ್ಲ</w>
ನೀ ನೇ</w>
ನೀಡ ುತ್ತದೆ</w>
ನೀ ರಿನಲ್ಲಿ</w>
ನೀ ಯ</w>
ನಿಷ್ ಕೃ
ನಿಷೇ ಧಾ
ನಿಲ್ಲ ಿಸಲು</w>
ನಿಲ್ಲ ಲಿಲ್ಲ</w>
ನಿರ್ಮಾಪ ಕರು</w>
ನಿರೋ ಧಕ</w>
ನಿರೀಕ್ಷ ೆಯಿದೆ</w>
ನಿರೀಕ್ಷ ಣಾ</w>
ನಿರಾಕರಿಸ ಿದ್ದರು</w>
ನಿಯಮ ವನ್ನು</w>
ನಿಮ್ಮೆ ಲ್ಲರ</w>
ನಿಮಿ ತ್ತ
ನಿಭಾಯ ಿಸ
ನಿಗ ಮ</w>
ನಿಖ ರ
ನಿಂತ ಿದ್ದಾರೆ</w>
ನಿಂತ ರು</w>
ನಿ ಗಾ
ನಿ ಕ್ಸ್</w>
ನಾಶ ವಾಗಿವೆ</w>
ನಾಯಕ ಿಯ
ನಾಯ ಕರಾಗಿ</w>
ನಾಯ ಕರನ್ನು</w>
ನಾಥ ್​</w>
ನಾಗರಿಕ ರಿಗೆ</w>
ನಾಗ ಿದ್ದು</w>
ನಾ ನ್</w>
ನಾ ನೀಗ</w>
ನವೆಂಬ ರ್</w>
ನಯನ ತಾರಾ</w>
ನಮ ಸ್
ನನ್ನ ನ್ನೇ</w>
ನನಗ ೇ</w>
ನದ ನ್ನು</w>
ನಡೆಸ ಿದ್ದ</w>
ನಟ ಿಯ
ನಟ ನೆಯ</w>
ನಗ ರದ</w>
ನಂಬಿಕ ೆಯಲ್ಲಿ</w>
ನಂದ ಿಸಿದ್ದಾರೆ</w>
ನಂದ ಾ</w>
ನಂದ ದ್ದು</w>
ನಂತರ ವೂ</w>
ನ ೊಳಗೆ</w>
ನ ೊಬ್ಬನು</w>
ನ ಬಿ</w>
ನ ನ್ವಯ</w>
ನ ನು</w>
ನ ಗಳಿಗೆ</w>
ನ ಕಾರ</w>
ನ ಂಟು</w>
ನ ಂಗ
ಧೋ ರಣೆ</w>
ಧ ನಾತ್ಮಕ</w>
ದ್ರೇ ಕ
ದ್ರ ವ
ದ್ದ ೇನೂ</w>
ದ್ ವಾರ
ದ್ ಭು
ದೋಷ ಾರೋಪ</w>
ದೈ ಹಿಕವಾಗಿ</w>
ದೇಶ ವೇ</w>
ದೇಶ ವಾಗಿದೆ</w>
ದೇಶ ದಲ್ಲೇ</w>
ದೇಶ ಗಳಿಗೆ</w>
ದೇಶ ಗಳಿಂದ</w>
ದೇ ಣಿಗೆ</w>
ದೈ ನಂದಿನ</w>
ದೊ ಂದಿಗೆ</w>
ದೃಶ್ಯಾವ ಳಿಗಳನ್ನು</w>
ದೃಢ ವಾಗಿ</w>
ದೂರಿ ನನ್ವಯ</w>
ದೂರವಿರ ಬೇಕು</w>
ದೂರವಿ ರಿ</w>
ದೂರ ಿದ್ದಾರೆ</w>
ದೂರ ದರ್ಶ
ದೂ ರುಗಳು</w>
ದುಷ್ಟ ರ</w>
ದುಷ್ಕರ್ಮಿ ಗಳು</w>
ದುರಂತ ದ</w>
ದುಬೈ ನಲ್ಲಿ</w>
ದೀರ್ಘ ಕಾಲ</w>
ದಿನಾ ಚರಣ
ದಿನ ನಿತ್ಯದ</w>
ದಿನ ನಿತ್ಯ</w>
ದಿ ಟ್ಟ
ದಿ ಗಿ
ದಾಟ ಿದೆ</w>
ದಾಖಲೆ ಗಳ</w>
ದಾ ಸ
ದಾ ಲ್
ದಲ್ಲ ೆಲ್ಲಾ</w>
ದಲ್ಲ ಂತೂ</w>
ದಂಪ ತಿ
ದ ಳು</w>
ದ ತ್</w>
ದ ಕ್ಷ
ಥ ೋ
ತ್ರಿ ಕೋ
ತ್ಯ ತೀತ</w>
ತ್ ‌ಗೆ</w>
ತ್ ರು</w>
ತೋರಿಸ ಿದ್ದಾರೆ</w>
ತೋರಿಸ ಬೇಕು</w>
ತೈ ಲದ</w>
ತೈ ಲ
ತೆಲಂಗಾ ಣದಲ್ಲಿ</w>
ತೆರಳ ಿದ್ದಾರೆ</w>
ತೆರಳ ಲು</w>
ತೆಗೆದು ಕೊಂಡ
ತೆ ತ್ತ
ತೆ ಗಳಲ್ಲಿ</w>
ತೆ ಂದು</w>
ತೂ ಕದ</w>
ತುಳ ಸಿ</w>
ತುರ್ ತು
ತುಂಬ ು</w>
ತು ರ
ತು ಕೊಂಡ
ತೀವ್ರ ವಾದ</w>
ತೀರ್ಮಾನ ಕ್ಕೆ</w>
ತೀವ ್ರ
ತಿಳಿಯ ುವುದಿಲ್ಲ</w>
ತಿಳಿದ ಿರುವ</w>
ತಿರ ಸ್ಕೃ
ತಿಯ ಲ್ಲ</w>
ತಿ ಗಾಗಿ</w>
ತಾ ಳೆ</w>
ತಾ ಂಡ
ತಲೆಮರೆಸ ಿಕೊಂಡಿರುವ</w>
ತರಬೇ ತಿ</w>
ತರ ುವುದು</w>
ತಪ್ಪ ಿಲ್ಲ</w>
ತಪ್ಪ ದೆ</w>
ತಪ್ ಪಾದ</w>
ತನಿ ಂದ</w>
ತನ ದಿಂದ</w>
ತಣ್ಣ ಗಾಗ
ತಗು ಲ
ತಕ್ಕ ಷ್ಟು</w>
ತ ೆಯಾಗಿದೆ</w>
ತ ಿರಲಿಲ್ಲ</w>
ತ ಲ್ಲ
ತ ರಿ</w>
ಣಾ ಂತ
ಣ ್ಯದ</w>
ಡ್‌ ಗಳನ್ನು</w>
ಡ್ ಸ್‌</w>
ಡ್ ಜ್</w>
ಡೌನ್ ಲೋಡ್</w>
ಡೈ ರೆ
ಡೇ ಕರ್</w>
ಡೆ ಬಿಟ್</w>
ಡಿಸ್ ಕ್</w>
ಡಿಯ ಿಂದ</w>
ಡಿ ’</w>
ಡಿ ಲೀಟ್</w>
ಡಾಕ್ಟ ರ್‌</w>
ಡ ೊ</w>
ಟ್ವೀ ಟ್‌</w>
ಟ್ರಿಬ್ಯೂ ನಲ್</w>
ಟ್ ಸ್‌</w>
ಟೊ ಯೊಟಾ</w>
ಟೆ ನಿಸ್</w>
ಟೂರ್ ನಿಯ
ಟಾರ್ ಗೆ
ಟಾ ವನ್ನು</w>
ಟರ್ಬ ೊ</w>
ಟರ್ ಕಿ</w>
ಝ ಿ</w>
ಝ ಿ
ಜ್ಜ ಾಗಿದೆ</w>
ಜೆ ೕ
ಜು ನ</w>
ಜೀವಿ ತದಲ್ಲಿ</w>
ಜೀವನಾ ಧಾರಿತ</w>
ಜೀವ ಿಸುತ್ತ
ಜೀವ ದ</w>
ಜಿಲ್ಲಾಸ್ಪತ್ರ ೆಯಲ್ಲಿ</w>
ಜಿಲ್ಲಾ ಧ್ಯಕ್ಷ</w>
ಜಿಲ್ಲ ೆ
ಜಿ ಎಸ್</w>
ಜಿ ಂ
ಜಾರ್ ಖಂಡ
ಜಾಗ ತಿಕವಾಗಿ</w>
ಜಾ ತ್ರ
ಜಯ ಂತಿ</w>
ಜಪೇ ಯಿ</w>
ಜನ ತಾ
ಜಗ ದೀ
ಜಖಂಗೊಂಡ ಿವೆ</w>
ಜ ೋ</w>
ಜ ಿಸಿ</w>
ಜ ಿಯಾ
ಜ ಿದ್ದ
ಜ ರು</w>
ಜ ಮೀನು</w>
ಜ ನ್</w>
ಛತ್ತೀ ಸ್‌
ಛ ೇ
ಚೌ ಹಾಣ್</w>
ಚೈತ ನ್ಯ</w>
ಚೇತ ರಿಕೆ</w>
ಚೆನ್ನೈ ನ</w>
ಚೆನ್ನಿ ತ್ತ
ಚುನಾವಣ ೆ
ಚಿಲ್ಲ ರೆ</w>
ಚಿತ್ರೀ ಕರಣದ</w>
ಚಿತ್ರೀ ಕರಣ
ಚಿತ್ರಮಂದಿರ ಗಳಲ್ಲಿ</w>
ಚಿತ್ರ ಣ</w>
ಚಿಕ್ಕ ಪುಟ್ಟ</w>
ಚಿಕ್ಕ ಂದಿ
ಚಿ ತ್ರಿ
ಚಾಲೆಂಜ ರ್ಸ್</w>
ಚಾರ ್ಟ
ಚಾ ಲ್
ಚಾ ಕು
ಚಲ ಿಸುತ್ತಿದ್ದ</w>
ಚಕ್ರ ವರ್ತಿ</w>
ಚ ಳಿ</w>
ಗ್ರೀ ನ್</w>
ಗ್ರಾಹ ಕ</w>
ಗ್ರ ಂಥ</w>
ಗ್ ಲಾ
ಗ್ ಧ
ಗ್ ಗು
ಗೌಪ್ಯ ತೆ</w>
ಗೋ ವಿ
ಗೋ ಲ್
ಗೋ ಲಿ
ಗೋ ರ
ಗೋ ಧಿ</w>
ಗೊಳಿಸ ಲಾಗುವುದು</w>
ಗೊಗೊ ಯ್</w>
ಗೊಂಡ ರು</w>
ಗೇ ಲ್</w>
ಗೊಳಿಸ ಲಾಗಿದೆ</w>
ಗೊಂದ ಲ
ಗೊಂಡ ಿತು</w>
ಗೊ ಳ
ಗೊ ಂಡ</w>
ಗೆದ್ದುಕೊಂಡ ಿತು</w>
ಗೆದ್ದ ರೆ</w>
ಗುರುತ ಿಸಲು</w>
ಗುರುತ ನ್ನು</w>
ಗುಣ ಮಟ್ಟವನ್ನು</w>
ಗುಂಡಿ ಟ್ಟು</w>
ಗು ಟ್ಟು</w>
ಗಿ ಲ್
ಗಿ ಡ</w>
ಗಾರ ನ</w>
ಗಾಯಗೊಂಡ ರು</w>
ಗಾಯಗಳಾಗ ಿಲ್ಲ</w>
ಗಾ ಟ</w>
ಗಾ ಜಿನ</w>
ಗಳಾಗ ಿರುವ</w>
ಗಳಲ್ಲ ಿವೆ</w>
ಗಳ ೆಯ
ಗಳ ಿಸ
ಗಳ ಿರಬಹುದು</w>
ಗಲಾ ಟೆ</w>
ಗರ್ ಭಾವಸ್ಥ
ಗಟ್ಟ ಲೆ</w>
ಗಗ ನ
ಗಂಡ ನು</w>
ಗಂಡ ನ</w>
ಗಂಟ ೆಗಳಲ್ಲಿ</w>
ಗಂಗ ಾ</w>
ಗ ್ಯು
ಗ ೆಯನ್ನು</w>
ಗ ದ</w>
ಗ ಡ</w>
ಖುರೇ ಷಿ</w>
ಖಾ ತೆಯ</w>
ಖರೀದ ಿಸಿ</w>
ಖ ಾರ
ಖ ಂಡ</w>
ಕ್‌ ನ</w>
ಕ್ಷೀ ಣ
ಕ್ಷ ಯ
ಕ್ಷ ಕ</w>
ಕ್ರೂ ರ</w>
ಕ್ರಿಯ ೆಯನ್ನು</w>
ಕ್ರಿಕೆ ಟ್
ಕ್ಯಾಮೆರಾ ವು</w>
ಕ್ಯಾ ಲೆಂಡ
ಕ್ ‍ಗೆ</w>
ಕ್ ಸಿ
ಕೋಟಿ ಗೂ</w>
ಕೋ ಳಿ</w>
ಕೋ ಟ್</w>
ಕೊಹ್ ಲಿಗೆ</w>
ಕೊಳ್ಳ ಬೇಕು</w>
ಕೊಲೊ ಸ್
ಕೊರೊ ನಾ
ಕೊಡ ುವೆನು</w>
ಕೊಡ ುಗೆ
ಕೊಡ ಬೇಡಿ</w>
ಕೊಂಡೊಯ್ಯ ುವ</w>
ಕೊ ಡಿಯ
ಕೈಗೊಳ್ಳ ಬೇಕು</w>
ಕೈಗಾರ ಿಕೆ</w>
ಕೈ ವಾಡ</w>
ಕೇಳ ು</w>
ಕೇಳ ಿದಳು</w>
ಕೇಳ ಿಕೊಂಡರು</w>
ಕೇಂದ್ರ ಗಳನ್ನು</w>
ಕೋ ಸು</w>
ಕೆಲ ವರ
ಕೆರ ೆಯಲ್ಲಿ</w>
ಕೆ ಎಸ್‍
ಕೃತ್ಯ ಗಳನ್ನು</w>
ಕೃತ ಕ</w>
ಕೃ ಷ
ಕೂದ ಲ</w>
ಕೂಟ ದ</w>
ಕೂಟ ಕ್ಕೆ</w>
ಕೂ ಲ್ಡ್</w>
ಕುಮ್ಮ ಕ್ಕು</w>
ಕುಟುಂಬ ವು</w>
ಕುಟುಂಬ ದಿಂದ</w>
ಕುಂಬಳ ಕಾಯಿ</w>
ಕು ಷ್ಠ
ಕು ಗಳಿಗೆ</w>
ಕೀಲಿ ಮಣೆ</w>
ಕಿರ ೀ
ಕಿಟ ಕ
ಕಿ ರಿಯ</w>
ಕಿ ಮೀ</w>
ಕಾಶ ಿ</w>
ಕಾಲಾ ವಕಾಶ</w>
ಕಾರ್ಯಕರ್ತ ರಿಗೆ</w>
ಕಾರ್ಯ ಮಗ್ನ
ಕಾರ್ಯ ಗಳಲ್ಲಿ</w>
ಕಾರ್ಯ ಗತ
ಕಾರ್ ಪೋ
ಕಾರ ್ಟ
ಕಾರ ಿಯಾಗಿ</w>
ಕಾಯಿಲ ೆಯಿಂದ</w>
ಕಾಯ ಿರಿ</w>
ಕಾಯ ಿಯನ್ನು</w>
ಕಾಮಿ ಡಿ</w>
ಕಾಪಾಡ ಿಕೊಳ್ಳಬೇಕು</w>
ಕಾಣ ಲು</w>
ಕಾಡ ಬಹುದು</w>
ಕಾ ವ್ಯ</w>
ಕಾ ಲ್</w>
ಕಾ ಂಡ
ಕಷ್ಟ ಾನುಭವ
ಕಷ್ಟ ವಾಗಿತ್ತು</w>
ಕಷ್ಟ ಪಡ
ಕವಿ ತೆ</w>
ಕಳೆದುಕೊಂಡ ಿತು</w>
ಕಳೆದುಕೊಂಡ ರು</w>
ಕಳ ವಳ
ಕಲಿಸ ುತ್ತದೆ</w>
ಕಲಿತ ೆ</w>
ಕಲಿತ ುಕೊಂಡ
ಕಲ ಿಕೆ</w>
ಕರೆದೊಯ್ದ ಿದ್ದಾರೆ</w>
ಕರ ಕ
ಕನ ಸಿನ</w>
ಕಥ ೆಯಲ್ಲ</w>
ಕಣ್ಣ ೆ
ಕಣಕ್ಕಿ ಳಿಸ
ಕಣ ದಲ್ಲಿದ್ದಾರೆ</w>
ಕಡಿತ ಗೊಂಡಿದೆ</w>
ಕಡತ ಗಳು</w>
ಕಡ ೆಯಿಂದ</w>
ಕಟ ುವಾಗಿ</w>
ಕಂಪ್ಯೂ ಟರ್‌</w>
ಕಂಪ ನಿಯಲ್ಲಿ</w>
ಕಂದ ಾಯ</w>
ಕಂಡುಕೊಳ್ಳ ಲು</w>
ಕಂಡ ಿವೆ</w>
ಕಂಗ ನಾ</w>
ಕ ುತ್ತ
ಕ ಿಕ</w>
ಕ ವ
ಕ ಂಟ
ಔಷಧ ಗಳು</w>
ಓದಿ ದ</w>
ಒಳಗೊಂಡ ಿರುತ್ತದೆ</w>
ಒಬ್ಬ ರಿಗೆ</w>
ಒಪ್ಪ ಿಕೊಳ್ಳಲು</w>
ಒಪ್ಪ ಲು</w>
ಒಗ್ಗ ಟ್ಟಿನಿಂದ</w>
ಒಂದ ಾಗ
ಒ ಬ್
ಐಷ ಾರಾಮಿ</w>
ಐಶ್ವರ್ಯ ವಂತ
ಐಪಿ ಎಲ್‌</w>
ಐ ಆರ್‌</w>
ಏನೆ ಂದರೆ</w>
ಏನಾ ದ್ರೂ</w>
ಏನ ಿದರ</w>
ಏ ಮ್ಸ್</w>
ಎಸ್‌ ಸಿ</w>
ಎಸ್ ಎಸ್</w>
ಎಲ್ಲ ೆಲ್ಲಿ</w>
ಎಲ್ಲ ಿದ್ದಾರೆ</w>
ಎರಡ ನೆಯದು</w>
ಎನ್ನ ುತ್ತಾನೆ</w>
ಎನ ಿಸಿತು</w>
ಎಚ್ಚರಿಕ ೆಯನ್ನು</w>
ಎಚ್ಚರ ದಿಂದ
ಎಂದ ಿನಂತೆ</w>
ಎಂದ ಷ್ಟೇ</w>
ಎಂದ ರ್ಥ</w>
ಎಂಥ ಾ</w>
ಎ ’</w>
ಎ ಲಿ
ಎ ಮ್</w>
ಎ ಪಿ
ಎ ದೆಯ</w>
ಎ ಂಗ
ಊ ಹಾಪೋ
ಉಳಿಯ ಿತು</w>
ಉಳಿತ ಾಯ</w>
ಉಪ ಹಾರ</w>
ಉಪ ವಾಸ</w>
ಉದ್ಯೋಗಾವ ಕಾಶ
ಉದ್ದ ೇಶ
ಉದ್ದ ದ</w>
ಉದ್ಘಾಟ ನಾ</w>
ಉತ್ತರಿಸ ಿದರು</w>
ಉತ್ತರ ಪ್ರದೇಶದಲ್ಲಿ</w>
ಉಡು ಪು
ಉಜ್ ವಲ</w>
ಉ ಳಿದರು</w>
ಉ ರ್ದು</w>
ಉ ನ್ನಾ
ಈವೆ ಂಟ್</w>
ಈಡೇ ರ
ಇಸ್ರಾಯೇಲ್ಯ ರಿಗೆ</w>
ಇಷ್ಟ ಾದರೂ</w>
ಇವರೆ ಲ್ಲಾ</w>
ಇವರೆ ಲ್ಲ</w>
ಇಳಿದ ಿದೆ</w>
ಇಳಿ ಮುಖ
ಇಲ್ಲ ಿ
ಇಲ್ಲ ವೆಂದ
ಇಲ್ಲ ವಾಗಿದೆ</w>
ಇಲಾಖ ೆಗೆ</w>
ಇರ್ ಲಿಲ್ಲ</w>
ಇರೋ ದು</w>
ಇರಾ ಕ್</w>
ಇರ ುವುದರಿಂದ</w>
ಇಮ್ರಾ ನ್‌</w>
ಇನ್ನಿ ಲ್ಲ</w>
ಇನ್ನ ೆರಡು</w>
ಇನ್ನ ೆ
ಇನ್ ಸ್ಟಾಗ್ರಾ
ಇದಕ್ಕ ೊಂದು</w>
ಇದ ೇ
ಇದ ೂ
ಇಂದ ೂ</w>
ಇಂಡೋನೇ ಷ್ಯಾ</w>
ಇಂಟರ್‌ ನೆಟ್‌</w>
ಇಂಗ ು</w>
ಇ ಮೇಲ್</w>
ಇ ತ್ತೀ
ಇ ಡಿ
ಆಸ್ಪತ್ರ ೆಯ
ಆಸ್ತಿ ಪಾ
ಆಶೀರ್ ವಾದಗಳು</w>
ಆರೋಪ ಿಗೆ</w>
ಆರೋಪ ಕ್ಕೆ</w>
ಆರಂಭ ಿಸುವ</w>
ಆಯ್ಕೆ ಗಳಿವೆ</w>
ಆಯ್ಕೆ ಗಳಲ್ಲಿ</w>
ಆಯೋಜ ಿಸಿದ್ದ</w>
ಆಯಾ ಸ
ಆಯ ಾ</w>
ಆನ್‌ಲೈ ನ್‌</w>
ಆತ್ಮ ಿಕವಾಗಿ</w>
ಆತ ನೊಂದಿಗೆ</w>
ಆಟ ವಾಡ
ಆಟ ಗಳು</w>
ಆಜ್ಞ ೆಯನ್ನು</w>
ಆಗಮ ಿಸಿದ್ದು</w>
ಆಗಮ ಿಸಿದ್ದರು</w>
ಆಗ ೋದಿಲ್ಲ</w>
ಆಗ ೋ
ಆಗ ುತ್ತಾ</w>
ಆಗ ಿದ್ದೆ</w>
ಆಗ ಸ್ಟ್‌</w>
ಆಕಸ್ ಮಿಕ</w>
ಆ ಶಾ</w>
ಆ ವಾಗ</w>
ಆ ಡಿ
ಆ ಜಾ
ಆ ಗ</w>
ಆ ಂದೋ
ಅಸ್ತವ್ಯಸ್ತ ವಾಗಿದೆ</w>
ಅಸಹ ್ಯ
ಅಸ ಹಿಷ್ಣು
ಅಷ್ಟು ಮಾತ್ರವಲ್ಲ</w>
ಅಷ್ಟರಲ್ಲ ಾಗಲೇ</w>
ಅವಳ ೂ</w>
ಅವನ ೊಬ್ಬ</w>
ಅವಧ ಿಯನ್ನು</w>
ಅವಕಾಶ ಗಳಿವೆ</w>
ಅವ ೆ
ಅವ ಾಗ</w>
ಅವ ನಿ
ಅಳ ವಡಿಸ
ಅಲ್ಲಗಳೆ ದಿದ್ದಾರೆ</w>
ಅಲ್ಲ ೊಂದು</w>
ಅಲ್ಲ ಿಯ
ಅಲ್ಲ ಿದ್ದ
ಅಲ್ಪಸಂಖ್ಯಾ ತ</w>
ಅಲರ್ ಟ್‌</w>
ಅಲ ಂ
ಅರ್ಥ ವೇ</w>
ಅರ್ಥ ಮಾಡಿಕೊಳ್ಳ
ಅರ್ಥ ದಲ್ಲಿ</w>
ಅಭಿಷೇ ಕ
ಅಭಿವೃದ್ಧ ಿಯ</w>
ಅಬ್ರಹಾಮ ನು</w>
ಅಪ್ಪ ಳಿಸ
ಅಪಾಯ ದಿಂದ</w>
ಅಪಹ ರಣ
ಅಪರಿ ಚಿತ
ಅನೈ ತಿಕ
ಅನೇ ಕರ</w>
ಅನು ಸಾರವಾಗಿ</w>
ಅನಿವಾರ್ಯ ವಲ್ಲ</w>
ಅನಾರೋಗ ್ಯ</w>
ಅನರ್ ಹ
ಅಧ್ಯಯ ನಕ್ಕೆ</w>
ಅಧಿಸೂ ಚ
ಅಧಿವೇಶ ನವನ್ನು</w>
ಅಧಿಕಾರ ಿಯೊಬ್ಬರು</w>
ಅದ್ಭುತ ವಾದ</w>
ಅದ ೆಲ್ಲವೂ</w>
ಅದ ರಿಂದಾಗಿ</w>
ಅಥ್ ಲೆ
ಅತ್ತ ೆ</w>
ಅಡ್ ವಾಣಿ</w>
ಅಜೇ ಯ
ಅಗ್ರ ಸ್ಥಾನ</w>
ಅಗ್ನಿಶಾಮಕದ ಳ</w>
ಅಗತ್ಯ ಗಳನ್ನು</w>
ಅಗ ರ್
ಅಕ್ಟೋಬ ರ್</w>
ಅಕ್ಕ ಪಕ್ಕ
ಅಂಶ ವು</w>
ಅಂದ ುಕೊಂಡ
ಅಂಥ ವರು</w>
ಅಂತಹ ವರ</w>
ಅಂಚ ೆ</w>
ಅಂಕ ಗಳೊಂದಿಗೆ</w>
ಅ ಸಂಖ್ಯಾತ</w>
ಅ ಶುದ್ಧ
ಅ ಶಕ್ತ
ಅ ವಿಧೇಯ
ಅ ಲು
ಅ ಫ
ಅ ಕ್ರಮವಾಗಿ</w>
ಅ ಂಧ
ಅ ಂಡ
ಂಶ ವು</w>
ಂಧ ೆ</w>
ಂದ ಿರ
ಂತ ಲ್ಲ</w>
ti on</w>
t e
s e
n ame</w>
i n
M P</w>
:2 4</w>
:1, 2</w>
:1 4</w>
9 ರಲ್ಲಿ</w>
9 ರ</w>
8 6</w>
7 8</w>
7 1</w>
6 ರ</w>
50 ,000</w>
5 ರ</w>
5 :2
4 ರ</w>
3 5
20 14
20 13</w>
20 00</w>
2. 5</w>
2 ,000</w>
19, 20</w>
15 0ಕ್ಕೂ</w>
10 4</w>
1 19</w>
“ ದೇವರು</w>
‘ ನಮ್ಮ</w>
‍ ಟವರ್‌</w>
​ ​ನಲ್ಲಿ</w>
್ರ ೇ
್ಯ ದಲ್ಲಿ</w>
್ಯ ಕ್ಕೆ</w>
ೌ ಷ
ೊಳ ಗಿನ</w>
ೊಬ್ಬ ರಿಗೆ</w>
ೊಂದ ೂ</w>
ೊಂದ ರ</w>
ೊ ನೀ
ೇ …</w>
ೇ ಲ</w>
ೇ ನೆ</w>
ೇ ಜ್</w>
ೊ ೕ</w>
ೆಯ ವರ</w>
ೆ ನೋ</w>
ೆ ಗೀಡ
ೂ ಲ್</w>
ೂ ಂದು</w>
ುವುದ ಕ್ಕಿಂತಲೂ</w>
ುವ ರಿಯಾಗಿ</w>
ುತ್ತದೆ ’</w>
ುತ್ತ ಿದೆಯೇ</w>
ುಕೊಂಡ ಿತ್ತು</w>
ು ಗಳೂ</w>
ು ಕ್ತ</w>
ಿಸುವ ೆವು</w>
ಿಸಿದ್ದ ೀರಿ</w>
ಿಸಿದ್ದ ನು</w>
ಿಸಿಕೊಳ್ಳ ುವುದು</w>
ಿಸಿಕೊಳ್ಳ ುತ್ತಾರೆ</w>
ಿಸಲಾಗ ಿರುವ</w>
ಿಸಲಾಗ ಿದ್ದ</w>
ಿಸ ಬೇಡ</w>
ಿಸ ಬಹುದ
ಿಲ್ಲ ದೇ</w>
ಿರುವುದ ೇಕೆ</w>
ಿರುವ ಂತ
ಿಯಾಗ ಿದ್ದಾನೆ</w>
ಿಯಾಗ ಬೇಕು</w>
ಿಯಲ್ಲ ಿಯೂ</w>
ಿಯ ರಿಗೆ</w>
ಿದ್ದಾ ಜಿದ್ದ
ಿದ್ದ ುವು</w>
ಿದ್ದ ಿರಬಹುದು</w>
ಿದೆಯ ಂತೆ</w>
ಿದ ಿ</w>
ಿದ ಾ</w>
ಿತ ರಾದ</w>
ಿಟ್ಟ ುಕೊಳ್ಳ
ಿಕೊಳ್ಳ ಲಿಲ್ಲ</w>
ಿಕೊಂಡ ಿತು</w>
ಿಕೆ ೂಡ
ಿ ೕ</w>
ಾವ ಂತ</w>
ಾನ ಕ್ಕೆ</w>
ಾದ ್ರೂ</w>
ಾಗ ಿರಲಿಲ್ಲ</w>
ಾ ವು</w>
ಾ ಭಿ
ಾ ಡಿ</w>
ಹೋಗ ುವರು</w>
ಹೋಗ ುತ್ತಿದ್ದೆ</w>
ಹೊರಹೊಮ್ಮ ಿದೆ</w>
ಹೊರಡ ುವ</w>
ಹೊತ್ತ ಿ</w>
ಹೊಣೆ ಗಾರಿಕೆ</w>
ಹೊಂದ ಿದ್ದೀರಾ</w>
ಹೊ ದ
ಹೈದರಾ ಬಾದ್‌</w>
ಹೇಳ ುವಂತೆ</w>
ಹೇಳ ಿದ್ದನ್ನು</w>
ಹೇಳ ಿಕೊಡ
ಹೇಳ ಿಕ
ಹೇಳ ಲಾರೆ</w>
ಹೇರಳ ವಾಗಿ</w>
ಹೇರ ಲಾಗಿದೆ</w>
ಹೇಗ ಿರಬೇಕು</w>
ಹೇಳ ಲು</w>
ಹೋಗ ುತ್ತದೆ</w>
ಹೋ ದರು</w>
ಹೋ ಟೆಲ್</w>
ಹೆಸ ರುಗಳನ್ನು</w>
ಹೆತ್ತ ವರನ್ನು</w>
ಹೆಚ್ಚಿನ ದ್ದು</w>
ಹೆಚ್ಚಿ ನವು</w>
ಹೆಚ್ಚ ುವರಿಯಾಗಿ</w>
ಹೆಚ್ಚ ಿಸಿದೆ</w>
ಹೆಗ್ಗಳ ಿಕೆಗೆ</w>
ಹೆಂಡ ತಿಗೆ</w>
ಹೂ ವುಗಳು</w>
ಹುಲ್ಲ ು
ಹುರುಳ ಿಲ್ಲ</w>
ಹುದ್ದ ೆಗಳಿಗೆ</w>
ಹುತಾತ್ಮ ರಾದ</w>
ಹುಡುಕ ುವ</w>
ಹುಟ್ಟ ಿದ
ಹು ರಿದ</w>
ಹು ಬ್
ಹೀಗಾಗ ಿಯೇ</w>
ಹೀ ನ</w>
ಹೀ ಗೆ</w>
ಹಿಂದ ಿಕ್ಕ
ಹಿ ಂಪ
ಹಿಂಪ ಡೆ
ಹಾಲಿವು ಡ್</w>
ಹಾರ ಿಸಿ</w>
ಹಾನಿ ಕರ</w>
ಹಾದ ಿಯಾ</w>
ಹಾಜ ರಾಗಿದ್ದರು</w>
ಹಾಗಾಗ ುವುದಿಲ್ಲ</w>
ಹಾಕ ುತ್ತಿದ್ದಾರೆ</w>
ಹಾಕ ಿರುವ</w>
ಹಾಕ ಿದ್ದ</w>
ಹಾಕ ಿಕೊಂಡ
ಹಾಕ ಲಿಲ್ಲ</w>
ಹಾಕ ಲಾಯಿತು</w>
ಹಾಕ ಬೇಕು</w>
ಹಾ ಲನ್ನು</w>
ಹಸಿ ವಿನಿಂದ</w>
ಹರೀ ಶ್</w>
ಹರಿಹಾಯ್ದ ಿದ್ದಾರೆ</w>
ಹಮೀ ದ್</w>
ಹತ್ತಿರ ವಾಗ
ಹಣ ವಿಲ್ಲ</w>
ಹಣ ಕ್ಕಾಗಿ</w>
ಹಂಚ ಿಕೊಳ್ಳಿ</w>
ಹ ಿಸಿದ್ದಾರೆ</w>
ಹ ವು</w>
ಹ ರಿಸಿ</w>
ಹ ರಾಜ
ಹ ತ
ಹ ಂಗಾ
ಸ್‌ ಗಳನ್ನು</w>
ಸ್ವೀಕರಿಸ ಿದ</w>
ಸ್ವಾಮ ್ಯದ</w>
ಸ್ವಾತಂ ತ್ರ</w>
ಸ್ವರ್ ಣ</w>
ಸ್ವರ್ ಡ್</w>
ಸ್ವ ಪ್
ಸ್ಯಾ ಮ್</w>
ಸ್ಮಾರ್ಟ್ ಫೋನ್</w>
ಸ್ಫೋಟ ದಲ್ಲಿ</w>
ಸ್ಫೋಟ ಕ್ಕೆ</w>
ಸ್ಪೆ ಕ್ಟರ್</w>
ಸ್ಪರ್ಧ ಿಸಿ</w>
ಸ್ಪರ್ಧ ಿಸಲಿದ್ದಾರೆ</w>
ಸ್ಪರ್ ಧಾ
ಸ್ಥಿತ ಿಯು</w>
ಸ್ಥಾಪ ಿಸಿ</w>
ಸ್ಥಳೀಯ ರಿಗೆ</w>
ಸ್ಥಳ ಾಂತರ</w>
ಸ್ಥಳ ಗಳು</w>
ಸ್ತ ಬ್ಧ
ಸ್ಟೋ ರಿ</w>
ಸ್ಟೇ ಬಲ್</w>
ಸ್ಟೀ ವ್</w>
ಸ್ಟೀ ಲ್</w>
ಸ್ಟ ಾ</w>
ಸ್ಕೋ ಡಾ</w>
ಸ್ಕೂ ಲ್‌</w>
ಸ್ ವೇ
ಸ್ ಟಿ</w>
ಸ್ ಕ್ಯಾ
ಸ್ ಕೂಟ
ಸೋ ದರ
ಸೊ ಳ್ಳ
ಸೇವೆ ಸಲ್ಲ
ಸೇವೆ ಗಳ</w>
ಸೇರಿಸ ಬಹುದು</w>
ಸೇ ರಿಸಲು</w>
ಸೆನ್ಸಾರ್ ‌</w>
ಸೆನ್ ಸಾರ್</w>
ಸೆ ಮಿ</w>
ಸೃಷ್ಟಿಕರ್ತ ನನ್ನು</w>
ಸೃಷ್ಟ ಿಯಾಗಿದೆ</w>
ಸೃಷ್ಟ ಿಯಾಗ
ಸೂರ್ಯ ನ</w>
ಸೂಕ್ಷ್ ಮ
ಸುವಾರ್ ತಾ</w>
ಸುರೇ ಂದ್ರನ್</w>
ಸುರಿದ ು</w>
ಸುರಕ್ಷ ಾ</w>
ಸುಮ್ಮ ನಿರ
ಸುಧಾರ ಿಸುವ</w>
ಸುದೀ ಪ್</w>
ಸುಂದ ರಿ</w>
ಸು ಲ್
ಸು ರ್
ಸು ನಂದಾ</w>
ಸು ಟ್ಟ
ಸೀಮಿತ ವಾಗಿಲ್ಲ</w>
ಸೀಟು ಗಳು</w>
ಸಿಸ್ಟ ಂ</w>
ಸಿಲುಕ ಿರುವ</w>
ಸಿಯ ಾನ್</w>
ಸಿಗ ರೇ
ಸಿಗ ಬೇಕು</w>
ಸಿ ಡಿ</w>
ಸಿ ಟ್ಟ
ಸಿ ಂಗಾ
ಸಾಹ ಿತಿ</w>
ಸಾವಿರ ದ</w>
ಸಾವನ್ನಪ್ಪ ಿದರು</w>
ಸಾರ್ವ ಭೌ
ಸಾರ ಥ
ಸಾಮರ್ಥ್ಯ ಗಳನ್ನು</w>
ಸಾಮಗ್ರ ಿಗಳನ್ನು</w>
ಸಾಬೀತು ಪಡಿಸಲು</w>
ಸಾಧ ಿಸುವ</w>
ಸಾಧ ಿಸಿತ್ತು</w>
ಸಾಧ ನೆಗೆ</w>
ಸಾಕ್ಷ ಿಯನ್ನು</w>
ಸಾ ಫ್ಟ
ಸಹೋದರ ನ</w>
ಸಹಿಸ ಲು</w>
ಸಹಾಯ ದ</w>
ಸಹಕಾರ ಕ್ಕಾಗಿ</w>
ಸಹ ಾ</w>
ಸವಾರ ರು</w>
ಸವಲ ತ್ತ
ಸಲ್ಲ ಿಸಿಲ್ಲ</w>
ಸಲ್ಲ ದು</w>
ಸಲಾ ಡ್</w>
ಸಲ ೊನೀ
ಸರ್ವೋ ಚ್ಚ</w>
ಸರ್ಕಾರ ಗಳ</w>
ಸರಕಾರ ವೇ</w>
ಸರಕಾರ ಗಳು</w>
ಸರ ಾಗ
ಸರ ದಿ</w>
ಸಮ್ಮೇಳ ನದ</w>
ಸಮಸ್ಯೆ ಯ</w>
ಸಮರ್ಪ ಣೆ</w>
ಸಮರ್ಥ ನೆ</w>
ಸಭ ಿಕ
ಸದ್ಯ ದಲ್ಲಿಯೇ</w>
ಸದಸ್ಯ ೆ</w>
ಸದಸ್ಯ ರೂ</w>
ಸದಸ್ಯ ರಿಗೆ</w>
ಸತ್ಯ ವೇ</w>
ಸತ್ತ ು
ಸತ್ತ ವರ</w>
ಸಜ್ಜ ಾಗಿದೆ</w>
ಸಖ ತ್</w>
ಸಕ್ರಿಯ ವಾಗಿ</w>
ಸಂಸತ್ತ ಿನ</w>
ಸಂಶಯ ವಿಲ್ಲ</w>
ಸಂವಾದ ದಲ್ಲಿ</w>
ಸಂಭವ ಿಸಿದ್ದು</w>
ಸಂಬಂಧ ಕ್ಕೆ</w>
ಸಂಪುಟ ದಲ್ಲಿ</w>
ಸಂಪಾದ ಿಸು</w>
ಸಂಪರ್ಕ ದ</w>
ಸಂದೇಶ ವು</w>
ಸಂತ್ರಸ್ ತೆ</w>
ಸಂತ್ರ ಸ್ತ</w>
ಸಂತೋಷ ವಾಗಿದೆ</w>
ಸಂತ ು
ಸಂಗ್ರಹ ಣೆ</w>
ಸಂಗಾ ತಿ</w>
ಸಂಕೀರ್ ಣ
ಸಂಕಷ್ಟ ದ</w>
ಸಂ ಜನಾ</w>
ಸ ೂ</w>
ಸ ೀ</w>
ಸ ಿಸ್
ಸ ಬ್</w>
ಸ ನ್ಯಾ
ಷ್ಟ ನ್ನು</w>
ಷೇ ರು</w>
ಶ್ರೇ ಷ್ಠ
ಶ್ರ ುತಿ</w>
ಶ್ರ ೀ
ಶೇಖ ರಣ
ಶೂ ರ್</w>
ಶುರುವ ಾಗಿತ್ತು</w>
ಶೀರ್ಷ ಿಕೆ</w>
ಶೀಘ ್ರ
ಶಿಷ್ಯ ರ</w>
ಶಿಕ್ಷ ೆಯಾಗ
ಶಿ ಲಾ
ಶಾಸ್ತ್ರ ದ</w>
ಶಾಸ್ತ್ರ ಜ್ಞ
ಶಾಸ್ ತ್ರಿ
ಶಾಸ ನ
ಶಾಶ್ವ ತ
ಶಾಲೆ ಗಳಲ್ಲಿ</w>
ಶಾಲೆ ಗಳ</w>
ಶಾರು ಖ್</w>
ಶಾಂತಿಯು ತವಾಗಿ</w>
ಶಾಂತಿಯು ತ</w>
ಶಾ ಹೀ
ಶವ ವಾಗಿ</w>
ಶಂಕ ಿತರನ್ನು</w>
ಶ ಿನ</w>
ಶ ತ್ರು</w>
ಶ ಕು
ವ್ಯವಸ್ಥ ೆಗೆ</w>
ವ್ಯವಸ್ಥ ೆ
ವ್ಯಭಿ ಚಾರ
ವ್ಯತ್ಯ ಯ
ವ್ಯಕ್ತಪಡಿಸ ಿವೆ</w>
ವ್ಯಂಗ ್ಯ</w>
ವೈಫ ೈ</w>
ವೈದ್ಯ ೆ</w>
ವೇಳಾ ಪಟ್ಟಿ</w>
ವೇದ ಿಕೆಯಲ್ಲಿ</w>
ವೇ ದಿ</w>
ವೈ ವಿಧ್ಯ
ವೇ ಶ
ವೆ ಲ್ಲ</w>
ವೃದ್ಧ ರು</w>
ವಿಷಯ ಗಳಿವೆ</w>
ವಿಶ್ವಕ ಪ್‌ನಲ್ಲಿ</w>
ವಿಶ್ವ ಕ್ಕೆ</w>
ವಿಶೇಷ ವಾದ</w>
ವಿಶೇಷ ತೆ</w>
ವಿವೇಕ ಿಯೂ</w>
ವಿವಾಹ ವಾದರು</w>
ವಿರ ುವುದಿಲ್ಲ</w>
ವಿರ ಳ</w>
ವಿರ ಲಿ</w>
ವಿಧಾನ ಸೌ
ವಿಧಾನ ಸಭೆಗೆ</w>
ವಿಧ ಿಯನ್ನು</w>
ವಿದ್ಯಾರ್ಥ ಿಯ</w>
ವಿದೇಶ ೀ</w>
ವಿದ ಾಯ</w>
ವಿತರಿಸ ಿದರು</w>
ವಿಡಿಯ ೊ
ವಿಚಾರ ದಲ್ಲೂ</w>
ವಿಚಾರ ಣೆಯ</w>
ವಿಚಾರ ಗೋಷ್ಠ
ವಿಚಾರ ಗಳು</w>
ವಿಚಾರ ಕ್ಕೆ</w>
ವಿಕಾ ಸ್</w>
ವಿಕಾ ಸ</w>
ವಿಂಡೋ ಸ್</w>
ವಿ ರೋ
ವಿ ಯೆ
ವಿ ಪಕ್ಷಗಳು</w>
ವಿ ನ್ನೂ</w>
ವಿ ತ್ತ
ವಿ ಡಿ</w>
ವಿ ಘ್
ವಿ ಗಾಗಿ</w>
ವಾಸ ಿಸುತ್ತಿದ್ದರು</w>
ವಾರ್ ತಾ</w>
ವಾರ ಕ್ಕೆ</w>
ವಾಟ್ಸ ಪ್</w>
ವಾಚ್ ‍ಟವರ್‌</w>
ವಾಗ್ದ ತ್ತ</w>
ವಾಗ ಿರುವುದರಿಂದ</w>
ವಾಗ ಲೂ</w>
ವಾಗ ಲೀ</w>
ವಾ ಡಿ</w>
ವಾ ಕ್ಯ</w>
ವಹಿಸ ಿದ</w>
ವಹಿಸ ಲು</w>
ವಹ ಿಸಿದ್ದಾರೆ</w>
ವಲ್ಲ ದೇ</w>
ವರ್ಧ ಕ</w>
ವರ್ ಲ್ಡ್</w>
ವರೆ ಂದು</w>
ವರುಷ ಗಳ</w>
ವರಾಗ ಿರ
ವಯಸ್ ಕ</w>
ವದಂತ ಿಗಳನ್ನು</w>
ವದ ನ್ನು</w>
ವಜಾಗೊಳಿಸ ಿದೆ</w>
ವ ್‌
ವ ್ರ
ವ ೆಯನ್ನು</w>
ವ ೂ
ವ ಸ್ತ
ವ ಸೂ
ವ ಶ</w>
ವ ರಾದ</w>
ವ ನಾಗಿ</w>
ವ ಡಿ</w>
ವ ಕಾಶ
ಳೆಯ ಿಂದ</w>
ಳೆ ಗಳನ್ನು</w>
ಳು ಗಳಾಗಿ</w>
ಳ ುವನ್ನು</w>
ಳ ಿಗಳು</w>
ಲ್‌ ಗಳನ್ನು</w>
ಲ್ಲ ಿಗೆ</w>
ಲ್ಲ ರಿಗೆ</w>
ಲ್ಯಾ ಂಡ್‌</w>
ಲ್ಪಡ ುತ್ತವೆ</w>
ಲೋ ಸ್</w>
ಲೇಖ ನದ</w>
ಲೇಖ ನ
ಲೇ ವಡಿ</w>
ಲೂ ಬಹುದು</w>
ಲೀ ಗ್‌</w>
ಲಿಲ್ಲ ವಂತೆ</w>
ಲಿಯ ಾರ್</w>
ಲಿ ಂಗ್‌</w>
ಲಿ ಂ
ಲಾರ ದ</w>
ಲಾಗ ದಷ್ಟು</w>
ಲಾ ಲೂ</w>
ಲಾ ದರೂ</w>
ಲಾ ಜ
ಲಭ್ಯ ವಿಲ್ಲ</w>
ಲಭ ೂಷ
ಲಘ ು</w>
ಲ ೌ
ಲ ನು</w>
ರ‍್ಯಾ ಂಕ
ರ್‌ ನಿಂದ</w>
ರ್ಯ ವನ್ನು</w>
ರ್ ಲಿಲ್ಲ</w>
ರ್ ತ</w>
ರ್ ಗ</w>
ರೋಗ ಕ್ಕೆ</w>
ರೊ ಚ್ಚಿ
ರೈ ಡ
ರೋಗ ಗಳು</w>
ರೆ ಸಾರ
ರೆ ಡ್‌</w>
ರೆ ಂಟ್</w>
ರೂಪ ಿಸಲು</w>
ರೀತಿಯಲ್ಲ ೂ</w>
ರೀ ಸ್</w>
ರಿರ ುತ್ತಾರೆ</w>
ರಿಯ ು</w>
ರಿ ’</w>
ರಿ ಲೀ
ರಿ ಮೇಕ್</w>
ರಾಷ್ಟ್ರ ೀಯ</w>
ರಾಷ್ಟ್ರ ಪತಿಯ
ರಾವ ರಿ</w>
ರಾಮ ಚಂದ್ರ
ರಾಜಕಾರಣ ಿಗಳು</w>
ರಾಜ ಾ
ರಾಜ ನ್</w>
ರಾಗ ಬಹುದು</w>
ರಾ ದರೆ</w>
ರಷ್ಯಾ ದಲ್ಲಿ</w>
ರವೀ ಂದ್ರ
ರಮೇ ಶ</w>
ರನ್‌ ಗಳಿಗೆ</w>
ರಣ ದೀಪ್</w>
ರಜಪೂ ತ್</w>
ರಜ ನೀ
ರಕ್ಷ ಿಸಿದ್ದಾರೆ</w>
ರಂಜ ನೆಯ</w>
ರ ್ರ
ರ ಹಿತ
ರ ಷ್ಟೇ</w>
ರ ನ್​
ರ ನ್ನೇ</w>
ರ ದೂ</w>
ಯ್ದ ಿದ್ದಾರೆ</w>
ಯೋಸೇಫ ನು</w>
ಯೋಜ ನೆಗಳಿಗೆ</w>
ಯೋಗ್ಯ ವಾದ</w>
ಯೋ ಬನು</w>
ಯೋ ಚ
ಯೋ ಗ
ಯೆಹೂದ್ಯ ರು</w>
ಯೆಹೂದ್ಯ ರ</w>
ಯೆರೂಸಲೇಮಿ ನಲ್ಲಿ</w>
ಯೂನಿ ವರ್
ಯುವತಿಯ ರು</w>
ಯುವ ಕರ</w>
ಯು ರೋ
ಯು ನೆ
ಯು ತ
ಯು ಎಸ್‌
ಯಾವುದ ರಲ್ಲೂ</w>
ಯಾರ ಿಂದ</w>
ಯಾಜ ಕ
ಯಾಕ ೋ</w>
ಯಾ ಯ
ಯಾ ತ್ರೆ</w>
ಯಾ ತ್ರಿ
ಯಾ ಚ
ಯ ೆ</w>
ಯ ಿಂಗ್</w>
ಯ ನು</w>
ಮೌಲ್ಯ ಗಳು</w>
ಮೋ ಜು</w>
ಮೊಳ ಕೆ</w>
ಮೊದಲ ಲ್ಲ</w>
ಮೊ ರೆಯ
ಮೇಘಾ ಲಯ</w>
ಮೇ ರ್</w>
ಮೇ ಯರ್</w>
ಮೆಟ್ಟಿಲೇ ರಿದ್ದರು</w>
ಮೆಟ್ಟಿಲೇ ರಿತ್ತು</w>
ಮೆ ನನ್</w>
ಮೆ ಕ್ಯಾ
ಮೆ ಂಟ್
ಮೃತಪಟ್ಟ ಿರುವ</w>
ಮೂಲತತ್ತ್ವ ಗಳನ್ನು</w>
ಮೂಲ ಸೌಕರ್ಯ</w>
ಮೂಲ ವಾಗಿದೆ</w>
ಮೂ ವರಿಗೆ</w>
ಮುಸ್ ಲಿಯಾರ್</w>
ಮುನ್ನ ಡ
ಮುದ್ದ ಾದ</w>
ಮುಟ್ಟ ಿಸಿದ್ದಾರೆ</w>
ಮುಜುಗ ರ</w>
ಮುಚ್ಚಿ ದ</w>
ಮುಗ ಿಸಿದ</w>
ಮುಗ ಿಸಿ</w>
ಮುಖಂಡ ರಾದ</w>
ಮುಂದ ಿಟ್ಟ
ಮುಂದ ಾಳ
ಮುಂಚೂಣ ಿಯಲ್ಲ
ಮು ಹೂ
ಮೀಸಲಿ ಡ
ಮಿಶ್ರ ಣಕ್ಕೆ</w>
ಮಿನ ಿಸ್ಟ
ಮಿ ಲ್ಲ
ಮಿ ನಿ</w>
ಮಾಲ ಿಯಾ</w>
ಮಾರ್ಗ ಗಳಿವೆ</w>
ಮಾರ್ಗ ಗಳನ್ನು</w>
ಮಾರ್ ಕ್‌</w>
ಮಾರಾಟ ದ</w>
ಮಾನ ಹಾನಿ</w>
ಮಾನ ವರಿಗೆ</w>
ಮಾನ ವನ್ನು</w>
ಮಾತುಕ ತೆಯ</w>
ಮಾತು ಗಳಿಗೆ</w>
ಮಾತಾಡ ುತ್ತಿದ್ದರು</w>
ಮಾತನಾಡ ಿದ್ದೇನೆ</w>
ಮಾತ ಿಲ್ಲ</w>
ಮಾಡ್ ತೀನಿ</w>
ಮಾಡುವ ೆನು</w>
ಮಾಡುವ ಂತಹ</w>
ಮಾಡಿದ ವು</w>
ಮಾಡಿಕೊಳ್ಳ ಬೇಡಿ</w>
ಮಾಡ ಿಕೊ
ಮಾಡ ಲೂ</w>
ಮಾಡ ಬೇಕಾದ</w>
ಮಾಡ ಬೇಕಾಗಿದೆ</w>
ಮಾಡ ಬೇಕಾಗುತ್ತದೆ</w>
ಮಾಡ ಬಲ್ಲವು</w>
ಮಾಡ ದಿದ್ದರೆ</w>
ಮಾಂ ಸವನ್ನು</w>
ಮಾಂ ಸದ</w>
ಮಾ ಲ್</w>
ಮಾ ನ್‌</w>
ಮಾ ದಲ್ಲಿ</w>
ಮಹಿ ಮೆಯನ್ನು</w>
ಮಹಾತ್ಮ ಾ</w>
ಮಹತ್ವ ದ್ದಾಗಿದೆ</w>
ಮಹ ಡಿ</w>
ಮಲ್ಲಿಕಾರ್ ಜುನ</w>
ಮಲ ಬದ್ಧತೆ</w>
ಮರುಕಳಿಸ ದಂತೆ</w>
ಮರಳ ಿದರು</w>
ಮರಳ ಿದ</w>
ಮರಣ ವನ್ನು</w>
ಮರ ಣ</w>
ಮನೆ ವಾರ್
ಮನೆ ಗೂ</w>
ಮನಸ್ಸ ಿಲ್ಲ</w>
ಮನಸ್ ಸಿನ</w>
ಮನಸ್ ತಾಪ
ಮನಃ ಪೂರ್ವಕವಾಗಿ</w>
ಮತ್ತ ೇನೂ</w>
ಮಣ ಿಯ
ಮಟ್ಟ ಗಳನ್ನು</w>
ಮಕ್ಕ ೂ</w>
ಮಂಡ ಳಿಯಲ್ಲಿ</w>
ಮ ಿದು
ಮ ಾರ್ಥ
ಮ ಣ</w>
ಭ್ರ ಷ್ಟ</w>
ಭೇಟಿಯಾಗ ಲು</w>
ಭೂಷ ಣ</w>
ಭೂಮ ಿಯಲ್ಲ
ಭೂ ತ
ಭಾವ ಿಸುತ್ತೇನೆ</w>
ಭಾವ ನೆಗಳ</w>
ಭಾರತ ವೇ</w>
ಭಾರ ್
ಭಾಗ ವ
ಭವಿಷ ್ಯವನ್ನು</w>
ಭರವಸ ೆಯ
ಭರವ ಸಾರ್
ಭರ ದಿಂದ</w>
ಭಯ ಂಕರ</w>
ಭದ್ರ ತೆಯ</w>
ಭದ್ರ ತೆಗೆ</w>
ಭಗ ವಂತನ</w>
ಭಕ್ ತಿಯ</w>
ಭ ಾಯಿ</w>
ಭ ಸ್ಮ
ಭ ರಿತ
ಭ ದ್ರ</w>
ಭ ತ್ತ</w>
ಬ್ರಿಟಿ ಷ್</w>
ಬ್ರಿ ಕ್ಸ್</w>
ಬ್ರಾಂ ಚ್
ಬ್ರ ೌ
ಬ್ರ ೋಷ
ಬ್ಯಾಟ್ಸ್‌ ಮ
ಬ್ಯಾ ಟ
ಬ್ಬ ರಿಗೂ</w>
ಬೊ ಜ್
ಬೈಬ ಲಿನಿಂದ</w>
ಬೇಡ ವೇ</w>
ಬೇಕಾಗ ಿರುವುದು</w>
ಬೇ ಧ
ಬೆಳೆಸ ಿದರು</w>
ಬೆಳವಣಿಗೆ ಗೆ</w>
ಬೆಳ ಗಾ
ಬೆಲ ೆಯು</w>
ಬೆ ವರು</w>
ಬೆ ಡ್</w>
ಬೆ ಚ್ಚಿ</w>
ಬೆ ಕ್ಕು</w>
ಬೆ ಂಗಾ
ಬೀರ ಲಿದೆ</w>
ಬೀ ರಿದೆ</w>
ಬೀ ಜ
ಬಿಸಿಸಿ ಐ
ಬಿರು ಸಿನ</w>
ಬಿದ್ದ ಿಲ್ಲ</w>
ಬಿದ್ದ ಿದ್ದು</w>
ಬಿಡುಗಡೆ ಗೊಳಿಸಿದೆ</w>
ಬಿಡುಗಡೆ ಗೊಳಿಸಲು</w>
ಬಿಡ ಬೇಕು</w>
ಬಿಡ ಬಾರದು</w>
ಬಿಟ್ಟ ಿದ್ದರು</w>
ಬಿಜೆಪಿಯ ವರ</w>
ಬಿಕ್ಕ ಟ್ಟಿನ</w>
ಬಿ ಟ್ರ
ಬಾಳ ುವ</w>
ಬಾಲ್ಯ ದಿಂದಲೂ</w>
ಬಾಯ ್
ಬಾಯ ಿಗೆ</w>
ಬಾಯ ಲ್ಲಿ</w>
ಬಾಡಿ ಗೆಗೆ</w>
ಬಾಂಬ ್‌</w>
ಬಾ ವು
ಬಾ ವಿ
ಬಾ ಳೆ</w>
ಬಾ ತ್</w>
ಬಹುಮಾನ ಗಳನ್ನು</w>
ಬಹುಮತ ಕ್ಕೆ</w>
ಬಹು ಮಟ್ಟಿಗೆ</w>
ಬಹಿರಂಗ ಪಡಿಸ
ಬಸ್‌ ಗಳ</w>
ಬಳಿಕ ವೇ</w>
ಬಳ ಕೆಯನ್ನು</w>
ಬಳ ಕೆಗೆ</w>
ಬರೋ ದಿಲ್ಲ</w>
ಬರ ುತ್ತೇವೆ</w>
ಬರ ಲೇ</w>
ಬರ ಲಿವೆ</w>
ಬರ ದಂತೆ</w>
ಬದುಕ ಿಗೆ</w>
ಬದಲಾವಣ ೆ
ಬದಲಾಯ ಿಸುವ</w>
ಬದಲಾಗ ುವುದಿಲ್ಲ</w>
ಬಂಧ ು</w>
ಬಂಡ ಾಯ</w>
ಬ ುನಾ
ಬ ಸ
ಬ ರೀ
ಬ ಡ್
ಬ ಡಾ
ಬ ಚ್ಚಿ
ಬ ಂತ
ಫ‌ಲ ಿತಾಂ
ಫ್ರ ೈ</w>
ಫಾ ಲ್
ಫಲ ವತ್ತ
ಫ ಾರ್</w>
ಫ ರಿಸ
ಪ್‌ ನ</w>
ಪ್ಲಾಸ್ಟಿ ಕ್‌</w>
ಪ್ರೊಫೈ ಲ್</w>
ಪ್ರೊಫೆ ಸರ್</w>
ಪ್ರೊಡ ಕ್ಷನ್</w>
ಪ್ರೇ ರಿತ
ಪ್ರೀತಿಯ ೇ</w>
ಪ್ರೀ ತ್‌</w>
ಪ್ರಿಯ ಕರ
ಪ್ರಾರ್ಥ ನೆಯನ್ನು</w>
ಪ್ರಾರಂಭ ಿಸಿದರು</w>
ಪ್ರಾರಂಭ ಿಸಲು</w>
ಪ್ರಾಣ ಹಾನಿ</w>
ಪ್ರಾಂ ತ್ಯದ</w>
ಪ್ರಾ ಬ
ಪ್ರಾ ಧಿಕಾರ
ಪ್ರಸ್ತು ತ
ಪ್ರಸ್ತಾ ಪ</w>
ಪ್ರವೇಶ ಿಸಿ</w>
ಪ್ರಯಾಣ ವನ್ನು</w>
ಪ್ರಯತ್ನ ಿಸುತ್ತಿದೆ</w>
ಪ್ರಯತ್ನ ಿಸಿದರೂ</w>
ಪ್ರಪಂಚ ದಾದ್ಯಂತ</w>
ಪ್ರಧಾನಿಯ ಾಗ
ಪ್ರಥ ಮವಾಗಿ</w>
ಪ್ರತೀ ಕ್ಷ
ಪ್ರತಿಸ್ ಪರ್
ಪ್ರತಿಭಟನಕಾರ ರು</w>
ಪ್ರತಿದ ಾಳಿ</w>
ಪ್ರತಾ ಪ್</w>
ಪ್ರಜ್ಞ ಾ</w>
ಪ್ರಚೋದ ಿಸುತ್ತದೆ</w>
ಪ್ರಚಾರ ಕ್ಕೆ</w>
ಪ್ರಗ ತಿಯಲ್ಲ
ಪ್ರಕ್ರಿಯ ೆಯು</w>
ಪ್ರಕ್ರಿಯ ೆಯಲ್ಲಿ</w>
ಪ್ರಕ್ರಿಯ ೆಗಳು</w>
ಪ್ರಕೃ ತಿಯ</w>
ಪ್ರ ೋ</w>
ಪ್ರ ಯಾಗ
ಪ್ರ ಜೆ</w>
ಪ್ರ ಜ
ಪ್ ಸ್</w>
ಪೌಷ್ಟ ಿಕಾಂಶ
ಪೋ ಸ್ಟ್‌
ಪೊಲಿಸ ರು</w>
ಪೆಟ್ರೋ ಲ್‌</w>
ಪೆ ರಿಯ
ಪೃಥ ್ವಿ</w>
ಪೂರ್ವ ಭಾ
ಪೂರ್ಣ ಗೊಂಡಿದೆ</w>
ಪೂರ್ ವಾ
ಪೂರೈಸ ಲು</w>
ಪುರುಷ ರನ್ನು</w>
ಪುನರ್ ವಸತಿ</w>
ಪೀಳಿ ಗೆಗೆ</w>
ಪಾಲ್ಗೊಳ್ಳ ಲು</w>
ಪಾಲ್ಗೊಂಡ ರು</w>
ಪಾಲಿಸ ಲು</w>
ಪಾಲಕ್ಕಾ ಡ್</w>
ಪಾರ್ ಕ್</w>
ಪಾರ ದರ್ಶ
ಪಾಪ ಗಳನ್ನು</w>
ಪಾಠ ಗಳನ್ನು</w>
ಪಾಕಿಸ್ ತಾ
ಪಾ ಶ
ಪವಿತ್ರಾ ತ್ಮ</w>
ಪರ್ ಸ್</w>
ಪರೀಕ್ಷ ೆಯನ್ನು</w>
ಪರೀ ಕ್ಷ
ಪರಿಸ್ಥಿತ ಿಯ
ಪರಿಶೀಲ ಿಸುತ್ತಿದ್ದಾರೆ</w>
ಪರಿವರ್ತ ನೆ</w>
ಪರಿಣಮ ಿಸಿತು</w>
ಪರಿಗಣ ಿಸಬೇಕು</w>
ಪರಿ ಮಳ
ಪರಿ ಕ್ಕ
ಪರಾಮರ್ಶ ೆ</w>
ಪರಾ ಕ್ರಮ
ಪರಸ್ಪರ ರ</w>
ಪರ ಾರಿ</w>
ಪರ ಲೋಕ
ಪರ ಮಾ
ಪಯ ಣ</w>
ಪದ ಕಗಳನ್ನು</w>
ಪತ್ರ ದ</w>
ಪಡೆದುಕೊಂಡ ು</w>
ಪಡೆದ ರೆ</w>
ಪಡಿಸ ಿಕೊಳ್ಳಲು</w>
ಪಠ ್ಯದ</w>
ಪಟ್ಟ ಿದ್ದರು</w>
ಪಕ್ಷ ಪಾ
ಪಕ್ಕ ದಲ್ಲೇ</w>
ಪಂದ್ಯ ಗಳಿಂದ</w>
ಪಂದ್ಯ ಗಳನ್ನಾಡ
ಪಂಜಾ ಬಿ
ಪ ಾರ್ಥ
ಪ ರಿಯ
ಪ ದಾ
ಪ ಕ್
ಪ ಂಡ
ನ್ಯಾಯಾಲಯ ದಿಂದ</w>
ನ್ಯಾಯ ವಾದಿ</w>
ನ್ನಿ ನ</w>
ನ್ನ ೇನು</w>
ನ್ನ ುವುದು</w>
ನ್ನ ುಂಟು
ನೋಡಿಯ ೇ</w>
ನೋಡ ುತ್ತಾನೆ</w>
ನೋಡ ಲಿಲ್ಲ</w>
ನೋಟ ಿಸ್‌</w>
ನೋ ವುಂಟ
ನೋ ವಾಗಿದೆ</w>
ನೈ ಜ
ನೇ ರ
ನೇ ನು</w>
ನೆಹ್ ವಾಲ್</w>
ನೆಲ ಸಮ
ನೆರ ವನ್ನು</w>
ನೆನೆ ಸಿ</w>
ನೆನಪಿ ಡಿ</w>
ನೆ ೂಂದಿಗೆ</w>
ನೆ ರೆಯ</w>
ನೆ ಗೂ</w>
ನು ಸು
ನು ಣು
ನು ಡಿಯ
ನು ಕೂಲ
ನೀಡಲಾಗ ಿದ್ದು</w>
ನೀಡ ುತ್ತಿದ್ದ</w>
ನೀಡ ಿದ್ದೇನೆ</w>
ನೀಡ ಿದರೂ</w>
ನೀ ವೇಕೆ</w>
ನೀ ಲ್</w>
ನೀ ರಾವರಿ</w>
ನೀ ಡಲು</w>
ನಿಷ್ಠ ಾವಂತ</w>
ನಿಲ್ಲ ುವುದಿಲ್ಲ</w>
ನಿಲ್ಲ ಲು</w>
ನಿಲು ಕ
ನಿರ್ಲಕ್ಷ ್ಯ
ನಿರ್ಧಾರ ವಾಗಿಲ್ಲ</w>
ನಿರ್ಧರಿಸ ಲು</w>
ನಿರ್ ಧರಿಸಿ</w>
ನಿರೀಕ್ಷ ೆಯ</w>
ನಿರಾ ಶೆ
ನಿರಂತ ರ
ನಿರ ಂಜ
ನಿಯ ಮದ</w>
ನಿಯ ನ್ನು</w>
ನಿಮ ಗೇ
ನಿಧನ ರಾಗಿದ್ದಾರೆ</w>
ನಿಧ ಿಗೆ</w>
ನಿತ್ಯಜೀವ ವನ್ನು</w>
ನಿತ್ಯಜೀವ ಕ್ಕೆ</w>
ನಿಜ ವೇ</w>
ನಿಖಿ ಲ್</w>
ನಿಖ ರವಾದ</w>
ನಿಂತ ು
ನಿ ವೇದ
ನಿ ಬಂಧ
ನಿ ಗ್ರಹ</w>
ನಾರಾಯ ಣ
ನಾಯಕ ಿಯಾಗಿದ್ದಾರೆ</w>
ನಾಯ ಿತು</w>
ನಾಯ ರ್</w>
ನಾಯ ಕ್</w>
ನಾಯ ಕರಿಗೆ</w>
ನಾಯ ಕರಾಗ
ನಾನೇ ಕೆ</w>
ನಾನಿ ಲ್ಲಿ</w>
ನಾಡ ಿಗೆ</w>
ನಾಚಿಕ ೆ
ನಾಗಾ ಲ್ಯಾಂಡ್</w>
ನಾಗ ಿದ್ದೆ</w>
ನಾ ಮ</w>
ನಾ ನ್
ನವೀ ಕರಣ</w>
ನವಾ ಜ್</w>
ನವ ೋ
ನಲ್ಲ ಿವೆ</w>
ನಲ ುಗ
ನರೇಂದ್ರ ಮೋದಿ</w>
ನಮಗ ಿದೆ</w>
ನದ ಿಗೆ</w>
ನಡೆಸ ುತ್ತಾರೆ</w>
ನಡೆದ ಿರಲಿಲ್ಲ</w>
ನಡೆದ ಿದ್ದ</w>
ನಟ ಿಸಿ</w>
ನಜ್ಜುಗು ಜ್ಜಾಗಿದೆ</w>
ನಗರ ಕ್ಕೆ</w>
ನಗ ುತ್ತಾ</w>
ನಕ್ಕ ೇ
ನಂಬಿಗಸ್ತ ಿಕೆಯಿಂದ</w>
ನಂಬ ುತ್ತಾರೆ</w>
ನ ೊಂದು</w>
ನ ಿದ್ದ</w>
ನ ಸು
ನ ಶ
ನ ವರೇ</w>
ಧ್ಯ ಾ</w>
ಧಾರಾ ವಾಹಿ
ಧರ್ ಮದ
ಧ ಿಯಲ್ಲಿ</w>
ಧ ಿಯ</w>
ಧ ಾ</w>
ಧ ರಿ</w>
ದ್ವೀ ಪ</w>
ದ್ರ ವ್ಯ</w>
ದ್ಯ ಮ
ದ್ದ ಕ್ಕಾಗಿ</w>
ದ್ ​</w>
ದೋ ನಿ</w>
ದೊಳ ಗಿಂದ</w>
ದೊರೆಯ ಿತು</w>
ದೊರಕ ಿತು</w>
ದೊಡ್ಡ ದಾಗಿ</w>
ದೈ ತ್ಯ</w>
ದೇಶ ಿ</w>
ದೇವಾಲಯ ದಲ್ಲಿ</w>
ದೇವಪ್ರಭು ತ್ವಾ
ದೇವ ಸ್ಥಾನದಲ್ಲಿ</w>
ದೇ ಕೆ</w>
ದೃಷ್ಟಿಕೋ ನವನ್ನು</w>
ದೃಢ ೀಕರಿಸ
ದೃ ಢ</w>
ದುಷ್ ಪರಿಣಾಮ</w>
ದುಡು ಕಿ</w>
ದು ಡಿ
ದೀರ್ ಘಾ
ದೀಪ ಕ್‌</w>
ದೀಕ್ಷಾಸ್ನಾ ನ
ದಿವ ಂಗ
ದಿವಂಗ ತ</w>
ದಿಗ್ಗ ಜ</w>
ದಿ ಕ್ಕ
ದಾಲ್ ಚಿ
ದಾಖಲಿಸಿಕೊಂಡ ಿದ್ದ</w>
ದಾಖಲಿಸ ಲಾಗಿದ್ದು</w>
ದಾಖಲಾಗ ಿವೆ</w>
ದಾಖ ಲಾದ</w>
ದಾ ಳಿಯಿಂದ</w>
ದಾ ಳಿಯ
ದಾ ಟ</w>
ದಶ ಕದಲ್ಲಿ</w>
ದಶ ಕ
ದರೋ ಡೆ</w>
ದರ ೊ</w>
ದ ುದ್ದಕ್ಕೂ</w>
ದ ಿರುವಲ್ಲಿ</w>
ದ ಿರಲಿ</w>
ದ ಾನಿ</w>
ದ ಹನ
ದ ವರ
ದ ಪ್ಪ
ದ ನಿ</w>
ದ ಟ್ಟ</w>
ದ ಂತಾಗಿದೆ</w>
ದ ಂತಹ</w>
ಥೆ ಸಲೊನೀ
ಥ ೀಮ್</w>
ಥ ರ್
ತ್ವ ಚ
ತ್ರಿಕೋ ನ</w>
ತ್ರಿ ಶ್
ತ್ ಸ
ತೋರಿಸ ುವುದು</w>
ತೋರಿಸ ುತ್ತವೆ</w>
ತೋರಿಸ ಿಕೊಡ
ತೊಡಗ ಿಸಿಕೊಂಡ
ತೊಡಗ ಿದ್ದಾರೆ</w>
ತೊಡಗ ಿದ</w>
ತೊಂದರೆಯ ಾಗಿದೆ</w>
ತೊಂದರ ೆಯಾಗುತ್ತಿದೆ</w>
ತೆರ ೆಯನ್ನು</w>
ತೆಯ ನ್ನೂ</w>
ತೆಗೆದುಕೊಳ್ಳ ಲಿಲ್ಲ</w>
ತೆಗೆದುಕೊಳ್ಳ ಬಹುದು</w>
ತೆಗೆದುಕೊಂಡ ರು</w>
ತೆಗೆ ಸ
ತೆ ವೆ
ತೆ ರಿಗ
ತೆ ಂಡು
ತು ರಿಕೆ</w>
ತೀವ್ರ ತೆಗೆ</w>
ತೀ ರದ</w>
ತೀ ಕ್ಷ್
ತಿಳಿಸ ುವ</w>
ತಿಳಿಯ ುವ</w>
ತಿಳಿಯ ುತ್ತಿದ್ದಂತೆ</w>
ತಿಳಿಯ ಿತು</w>
ತಿಳಿಯ ದ</w>
ತಿಯಾಗ ಿವೆ</w>
ತಿಯ ನ್ನೂ</w>
ತಿನ್ನ ಬಹುದು</w>
ತಿಂಗಳ ು
ತಿ ಹಾರ್</w>
ತಿ ಳು
ತಿ ಮ್ಮ
ತಿ ಗೂ</w>
ತಾರತ ಮ್ಯ
ತಾರ ್</w>
ತಾಂಡ ವ
ತಳ್ಳಿ ಹಾಕಿದೆ</w>
ತಲುಪ ಿದ</w>
ತರಕಾರ ಿಗಳನ್ನು</w>
ತರ ವಾದ</w>
ತಯಾರ ಕ</w>
ತಮ್ಮ ದಾಗ
ತಮಿಳುನಾ ಡಿ
ತಪ್ಪಿಸಿಕೊಳ್ಳ ುವ</w>
ತಪ್ಪಿತ ಸ್ಥ</w>
ತಪ್ಪ ಿಸುವ</w>
ತಪ್ಪ ಿಸಿಕೊಳ್ಳಲು</w>
ತಪ್ಪ ಾಗಿದೆ</w>
ತನ್ ಮಧ್ಯೆ</w>
ತನ ವೂ</w>
ತನ ವು</w>
ತಡೆಯ ುವ</w>
ತಗು ಲಿ</w>
ತಂಗ ಿ</w>
ತಂ ಪಾದ</w>
ತ ಲಾ
ತ ರು
ತ ಬ್ಬ
ತ ನ್ನಿಂದ</w>
ತ ನೂ</w>
ತ ದಿಂದ</w>
ತ ಟ
ಣ್ಣ ನ</w>
ಣ ೆಯಿಂದ</w>
ಣ ಿಯನ್ನು</w>
ಡ್ರೈ ವ್</w>
ಡ್ ಡೆ</w>
ಡೊನಾಲ್ ಡ್‌</w>
ಡೆ ಗಳಲ್ಲಿ</w>
ಡೆ ಗಳ</w>
ಡು ತ್ತ</w>
ಡಾ ಫೋನ್</w>
ಡ ್ರೆ
ಡ ್ಯ
ಡ ುವುದು</w>
ಟ್‌ ನ</w>
ಟ್ಯಾ ಬ್</w>
ಟ್ಯಾ ಬ್
ಟೊ ಮೆ
ಟೆ ೂೕ
ಟೀಕಾ ಕಾರ
ಟೀ ಸ್‌</w>
ಟೀ ಮ್‌</w>
ಟಿಕೆ ಟ್‌</w>
ಟಿ ಮ್</w>
ಟಾರ್ಗೆ ಟ್</w>
ಟಾ ಸ್‌</w>
ಟರ್ ಸ್</w>
ಟ ೈ</w>
ಟ ೆಯ</w>
ಟ ಿಕ
ಟ ನ್‌</w>
ಜ್ಯೋ ತಿ</w>
ಜ್ಞಾನ ದ</w>
ಜ್ ಜಿ</w>
ಜೋ ರಾಗ
ಜೈ ಲಿನಿಂದ</w>
ಜೈ ನ</w>
ಜೇ ಸನ್</w>
ಜೆಡಿ ಎಸ್‌
ಜೆಎನ್‌ ಯು</w>
ಜೀವಿ ಗಳ</w>
ಜೀವನ ವು</w>
ಜೀವ ಮಾನ
ಜಿಲ್ಲ ೆಗಳು</w>
ಜಿಲ್ಲ ೆಗಳಿಗೆ</w>
ಜಿಎಸ್ ಟಿ</w>
ಜಾಲತಾಣ ಗಳ</w>
ಜಾಗ ದಲ್ಲಿ</w>
ಜಾ ಮ್</w>
ಜಾ ತ್ಯತೀತ</w>
ಜಾ ಣ</w>
ಜಾ ಡ
ಜರ್ಮ ನಿಯ</w>
ಜಯಗಳ ಿಸಿದೆ</w>
ಜಯ ್‌</w>
ಜನಸಾಮಾನ್ಯ ರ</w>
ಜನಪ್ರಿಯ ವಾಗಿದೆ</w>
ಜನ ಸಂಖ್ಯೆಯಲ್ಲಿ</w>
ಜನ ರಿದ್ದಾರೆ</w>
ಜನ ಪ್ರತಿನಿಧಿಗಳು</w>
ಜಗದೀ ಶ್</w>
ಜಗತ್ತ ನ್ನು</w>
ಜ ್ಯಾ
ಜ ಿರ
ಜ ಿದ್ದಾಜಿದ್ದ
ಜ ಸ್
ಜ ರಗ
ಜ ಮಾ
ಜ ನ್ನು</w>
ಚೌ ಧರಿ</w>
ಚೈತ ನ್ಯ
ಚೈ ನೀಸ್</w>
ಚೆನ್ನಿತ್ತ ಲ</w>
ಚೆ ಫ
ಚುನಾ ಯ
ಚೀ ನಾಗೆ</w>
ಚೀ ಸ್</w>
ಚಿತ್ರ ರಂಗ</w>
ಚಾಲ ಕರು</w>
ಚಾಕು ವಿನಿಂದ</w>
ಚಾಂಪಿಯನ್‌ ಶಿ
ಚರ್ಚ ೆಯ</w>
ಚರ್ಚ ಿಸಿ</w>
ಚರಣ ್</w>
ಚಂದ್ರ ಚೂ
ಚ ಹಾ
ಚ ಲಾವಣ
ಚ ರಿಸಿ</w>
ಘೋಷ ಿಸಿಲ್ಲ</w>
ಘೋಷ ಿಸಿದ</w>
ಘನ ತೆವೆ
ಘಟ ನೆ
ಘಟ ಕ</w>
ಘ ಟ್ಟ</w>
ಗ್ರ್ಯಾ ಂಡ್</w>
ಗ್ರೀ ನ್ಸ್</w>
ಗ್ರಾಮೀ ಣಾ
ಗ್ರಹ ದ</w>
ಗ್ರ ೌಂಡ್</w>
ಗ್ರ ಾ</w>
ಗ್ ಲೆ
ಗ್ ಗಿ
ಗೌರವ ಿಸಲಾಯಿತು</w>
ಗೌ ತ
ಗೋ ಸ್ವಾಮಿ</w>
ಗೋ ಸ್
ಗೋ ದಾ
ಗೊಳಿಸ ಿತು</w>
ಗೊಳಿಸ ಲಾಗಿತ್ತು</w>
ಗೊತ್ತ ಾಯಿತು</w>
ಗೊ ಗೋ
ಗೇ ರ್
ಗೊಳಿಸ ುತ್ತದೆ</w>
ಗೆಲ್ಲ ರಿಗೂ</w>
ಗೆಲ ುವನ್ನು</w>
ಗೆದ್ದುಕೊಂಡ ಿತ್ತು</w>
ಗೆದ್ದ ೇ</w>
ಗೆದ್ದ ಿತು</w>
ಗೆ …</w>
ಗೆ ಳ
ಗೆ ರೆ</w>
ಗೃಹಿ ಣಿ</w>
ಗುವಾ ಹ
ಗುರು ತಿನ</w>
ಗುರು ಗಳು</w>
ಗುಪ್ತ ಪದ</w>
ಗುಣ ವನ್ನು</w>
ಗುಣ ಪಡಿಸ
ಗುಜರಾತ್ ‌ನಲ್ಲಿ</w>
ಗು ಂಟ
ಗೀ ತೆಗಳನ್ನು</w>
ಗಾಗ ಲೇ</w>
ಗಾ ಢ
ಗಾ ಜು</w>
ಗಾ ಂ
ಗವರ್ ನರ್</w>
ಗಳೆಲ್ಲ ವೂ</w>
ಗಳೆ ಂಬ</w>
ಗಳಿಗ ನುಸಾರ</w>
ಗಳಿ ಲ್ಲದೆ</w>
ಗಳ ಿಸಿರುವ</w>
ಗಳ ಿಸಿದ್ದು</w>
ಗಳ ಿದ್ದು</w>
ಗಲಿ ಬಿ
ಗಮನದಲ್ಲಿಟ್ಟ ುಕೊಂಡು</w>
ಗಮನ ಿಸಬೇಕಾದ</w>
ಗಣ ಿತ</w>
ಗಢ ದಲ್ಲಿ</w>
ಗಗ ನಕ್ಕೇ
ಗಂಡ ನಿಗೆ</w>
ಗಂಡ ನನ್ನು</w>
ಗ ್ರೇ
ಗ ್ರೆ
ಗ ೆಯ
ಗ ಿಲ್ಲ</w>
ಗ ಿದ್ದ</w>
ಗ ರಿ</w>
ಖಾದ ರ್</w>
ಖರೀದ ಿಸುವ</w>
ಖಚಿತಪಡಿಸ ಿಕೊಳ್ಳಿ</w>
ಖಚಿತ ವಾಗಿದೆ</w>
ಖಂಡ ನೆ</w>
ಖ ಲೀ
ಕ್‌ ನಿಂದ</w>
ಕ್ಷೇತ್ರ ಗಳಲ್ಲೂ</w>
ಕ್ಷೇ ಮ
ಕ್ವಾರ ಂಟೈ
ಕ್ರಿಸ್ ತನ
ಕ್ರಿಯೆಗೈ ಯ
ಕ್ರಿಯಾ ಶೀಲ
ಕ್ಯಾಲಿ ಫೋರ್
ಕ್ಯಾಮೆರಾಗ ಳನ್ನು</w>
ಕ್ಯಾನ್ ಸರ್‌</w>
ಕ್ಯಾ ಬ್</w>
ಕ್ಟ ರ್‌</w>
ಕ್ಕ ೊಮ್ಮೆ</w>
ಕ್ಕ ೊ
ಕ್ಕ ಲ್ಲ</w>
ಕ್ ‍</w>
ಕ್ ವಾ
ಕ್ ಲೈ
ಕ್ ಲಿಕ್ಕ
ಕ್ ಟ್‌</w>
ಕೋಟ ್ಯ
ಕೋ ಲಾ
ಕೊಳ್ಳ ಲು</w>
ಕೊಲ್ಲ ಲು</w>
ಕೊಟ್ಟ ಿದ್ದಾನೆ</w>
ಕೊಟ್ಟ ಳು</w>
ಕೊಂಡ ಿದ್ದಾರೆ</w>
ಕೊಂಡ ರು</w>
ಕೊ ಲೆಯ</w>
ಕೊ ಬ್ಬಿನ</w>
ಕೈಯಲ್ಲ ಿದೆ</w>
ಕೈಗೊಳ್ಳ ುವಂತೆ</w>
ಕೈ ಯ
ಕೇಳ ಲಿಲ್ಲ</w>
ಕೇಂದ್ರ ದಿಂದ</w>
ಕೇ ಶ್‌</w>
ಕೆಲಸ ವಿಲ್ಲ</w>
ಕೆಲಸ ವನ್ನೂ</w>
ಕೆಲಸ ಗಾರ
ಕೆಲಸ ಕ್ಕಾಗಿ</w>
ಕೆಲವೆ ೕ</w>
ಕೆ ೂ</w>
ಕೆ ಪಿ
ಕೆ ನ್ನಾ
ಕೂಡ ಿರುತ್ತದೆ</w>
ಕೂ ರು</w>
ಕುಸಿತ ದಿಂದ</w>
ಕುಳಿತ ಿದೆ</w>
ಕುಮಾರ ನು</w>
ಕುಡ ಿದು</w>
ಕುಟುಂಬ ದವರ</w>
ಕುಂದ ು
ಕು ಲಭೂಷ
ಕಿವಿ ಗೊ
ಕಿಲೋ ಮೀಟರ್</w>
ಕಿರು ತೆರೆ</w>
ಕಿಡ್ ನಿ</w>
ಕಿಡಿಕಾರ ಿದ್ದಾರೆ</w>
ಕಾಲೇಜು ಗಳ</w>
ಕಾಲ ದಿಂದಲೂ</w>
ಕಾರ್ಯಾಗ ಾರ</w>
ಕಾರ್ಯನಿರ್ವಹಿಸ ುತ್ತದೆ</w>
ಕಾರ್ಯನಿರ್ವಹ ಿಸುತ್ತಿದ್ದಾರೆ</w>
ಕಾರ್ಯಕರ್ತ ನ</w>
ಕಾರ್ಯ ದ</w>
ಕಾರ್ಮಿಕ ರಿಗೆ</w>
ಕಾರ್ಪೊರೇ ಷನ್</w>
ಕಾರ್ಪೊರೇ ಟ್</w>
ಕಾರ್ ಡ್‌</w>
ಕಾರಣ ವಿದೆ</w>
ಕಾರಣ ವಾದ</w>
ಕಾಯಿ ಲೆಯ</w>
ಕಾಯ ಬೇಕು</w>
ಕಾಪಾಡ ಿಕೊಳ್ಳುವುದು</w>
ಕಾನ್ ಸ್ಟೇಬಲ್</w>
ಕಾನೂನು ಗಳನ್ನು</w>
ಕಾನೂ ನಿಗೆ</w>
ಕಾದಂಬ ರಿ
ಕಾದ ಿರ
ಕಾಣಿಸಿಕೊಂಡ ಿದೆ</w>
ಕಾಣ ಿಸಲಿಲ್ಲ</w>
ಕಾಣ ಬೇಕು</w>
ಕಾಂಗ್ರೆಸ್ ‍ನ</w>
ಕಾ ವ್ಯ
ಕಾ ನ್</w>
ಕಸ ಿದ
ಕಷ್ಟ ವಾಯಿತು</w>
ಕಷ್ಟ ಕರ
ಕಳೆದುಕೊಳ್ಳ ಲು</w>
ಕಳೆದುಕೊಂಡ ಿದೆ</w>
ಕಳೆದು ಕೊಂಡ</w>
ಕಳೆ ದು</w>
ಕಳೆ ದಂತೆ</w>
ಕಳುಹಿಸ ಿದರು</w>
ಕಲ್ಲ ಿನ</w>
ಕಲ್ಪ ಿಸಲಾಗಿದೆ</w>
ಕಲ್ ಮ
ಕಲಿಯ ುವುದು</w>
ಕಲಿಯ ುತ್ತೇವೆ</w>
ಕಲ ಸಿ</w>
ಕಲ ರ್</w>
ಕರೆದೊಯ್ಯ ಲಾಗಿದೆ</w>
ಕರೆ ನ್ಸಿ</w>
ಕರಣ ಕ್ಕೆ</w>
ಕರ ಕೊಂಡು</w>
ಕನ್ನಡಿ ಗ</w>
ಕಣ್ಣ ಾರೆ</w>
ಕಣಕ್ಕಿ ಳಿದ
ಕಡ ಲೆ
ಕಟ್ಟ ೆ</w>
ಕಟ್ಟ ಕಡೆಗೆ</w>
ಕಚೇ ರಿಗೆ</w>
ಕಚೇ ರಿಗಳು</w>
ಕಂಪೆ ನಿಯ</w>
ಕಂ ಚಿನ</w>
ಕ ೆಯ
ಕ ಿಸ
ಕ ಲು
ಕ ಮ್ಮ
ಕ ಮೆಂಟ್</w>
ಕ ಬ್ಬು</w>
ಕ ನೆ
ಕ ನಾ
ಕ ಂತ
ಓವರ್ ‌ನಲ್ಲಿ</w>
ಓದ ಿರಿ</w>
ಓದ ಬೇಕು</w>
ಒಳ್ಳೆಯ ವರು</w>
ಒಳ್ಳೆಯ ದಾಗ
ಒಳ್ಳೆಯ ದ
ಒಳಗೊಂಡ ಿರುವ</w>
ಒಳಗೊಂಡ ಂತೆ</w>
ಒಳ ಪಡಿಸ
ಒಳ ಗೊಳ
ಒಮ್ಮ ೆಯೂ</w>
ಒಪ್ಪಿಕೊಂಡ ಿಲ್ಲ</w>
ಒಪ್ಪಿಕೊಂಡ ರು</w>
ಒಪ್ಪ ಿಸಿದ್ದರು</w>
ಒತ್ತ ಿ
ಒಡಿ ಶಾ
ಒಂಭ ತ್ತು</w>
ಒ ಲವು</w>
ಒ ಲ
ಒ ಮರ್</w>
ಒ ಬಾ
ಒ ನ್</w>
ಐಪಿಎ ಲ್‌ನಲ್ಲಿ</w>
ಐ ರ್
ಐ ಡಿಯಾ</w>
ಐ ಎಸ್‌
ಐ ಎನ್‌
ಐ ಎಂ</w>
ಏರ್ ಪಾಡ
ಏರಿಕೆಯಾಗ ುತ್ತಲೇ</w>
ಏಪ್ರಿ ಲ್</w>
ಏಕಾ ಂತ
ಏ ನಿಲ್ಲ</w>
ಎಸ್‍ ಪಿ</w>
ಎಸ್​ ಪಿ</w>
ಎಸ್ಯುವಿ ಯನ್ನು</w>
ಎಲ್ಲ ರಿಗೆ</w>
ಎಲೆ ಗಳು</w>
ಎಲೆ ಕೋಸು</w>
ಎರಡ ೇ</w>
ಎರಡ ನೆಯ
ಎಫ್‌ ಸಿ</w>
ಎಫ್ ​
ಎಫ್ ಐಆರ್</w>
ಎನ್‌ ಡಿ
ಎನ್ನ ುವುದೇ</w>
ಎನ್ನ ುತ್ತಿದ್ದಾರೆ</w>
ಎನ್ನ ುತ್ತದೆ</w>
ಎನ್ನ ಲಾಗುತ್ತಿದೆ</w>
ಎದು ರಿ
ಎಂಬ ದನ್ನು</w>
ಎಂ ಬಿ
ಎಂ ಜಿ</w>
ಎ ಲೆ</w>
ಋಣಾ ತ್ಮಕ</w>
ಉಸಿರ ಾಡ
ಉಳಿಯ ುವುದಿಲ್ಲ</w>
ಉಳಿಯ ಲಿಲ್ಲ</w>
ಉಳಿದ ುಕೊಂಡ
ಉಲ್ಲ ಾಸ
ಉರಿಯೂ ತ</w>
ಉಪ ಗ್ರಹ</w>
ಉದ್ವಿ ಗ್ನ</w>
ಉದ್ವಿ ಗ್ನ
ಉದ್ದಿ ಮೆ
ಉದ್ದ ಕ್ಕೂ</w>
ಉದ್ಘಾಟ ಿಸಲಿದ್ದಾರೆ</w>
ಉತ್ಪಾದ ನೆಯ</w>
ಉತ್ಪನ್ನ ಗಳನ್ನು</w>
ಉತ್ತರಾ ಖಂಡ
ಉತ್ತ ರದ</w>
ಉತ್ ಸು
ಉಚ್ಚ ಾಟ
ಉಂಟು ಮಾಡಿದೆ</w>
ಉಂಟಾಗ ಿರುವ</w>
ಉ ಸಿರು</w>
ಉ ಮ್ಮ
ಉ ಣ
ಉ ಂಡ
ಈಗಾಗ ್ಲೇ</w>
ಈಗಾಗ ಲೇ</w>
ಈ ದ್</w>
ಈ ಗಿ
ಇಸ್ಲಾ ಮಾ
ಇಸ್ರಾಯೇಲ್ಯ ರನ್ನು</w>
ಇಸ್ರಾಯ ೇಲ
ಇಷ್ಟಪಡ ುತ್ತಾರೆ</w>
ಇಷ್ಟ ವಾಯಿತು</w>
ಇಳಿಸ ಲು</w>
ಇಳ ುವರಿ</w>
ಇಲ್ಲದ ಂತಾಗಿದೆ</w>
ಇಲಾಖ ೆಯು</w>
ಇರ ುವುದೇ</w>
ಇರ ುತ್ತಿತ್ತು</w>
ಇರ ಬಹುದ
ಇನ್ನೊಬ್ಬ ರ</w>
ಇನ್ ಫೋ
ಇನಿಂಗ್ ಸ್‌ನಲ್ಲಿ</w>
ಇದ್ದ ೀನಿ</w>
ಇದ್ದ ಾಳೆ</w>
ಇದ್ದ ವರು</w>
ಇದರ ರ್ಥ</w>
ಇದ ಿ
ಇದ ನ್ನೆಲ್ಲಾ</w>
ಇಡಿ ೕ</w>
ಇಡ ಲು</w>
ಇಡ ಬೇಕು</w>
ಇಟ ಲಿಯಲ್ಲಿ</w>
ಇಂತಹ ುದೇ</w>
ಇಂಡಿಯಾ ದಲ್ಲಿ</w>
ಇಂಡಿಯ ನ್‌</w>
ಇಂಜಿನಿಯ ರ್</w>
ಇಂಗ್ಲೆಂಡ ್‌ಗೆ</w>
ಇಂಗ್ಲಿ ಷ್
ಇ ವಿ
ಇ ಲ್ವಾ</w>
ಇ ಂಚು</w>
ಆ್ಯ ಂಬು
ಆ್ಯ ಂಡ
ಆಹಾರ ದಲ್ಲಿ</w>
ಆಸ್ ತಿಯ</w>
ಆಸಕ್ತ ಿದಾಯಕ</w>
ಆಶೀರ್ ವಾದವು</w>
ಆವರಿಸ ಿದೆ</w>
ಆರೋಪ ದಡಿ</w>
ಆರೋಗ್ಯ ವು</w>
ಆರೆ ಸ್
ಆರೆ ಂಜ್</w>
ಆರಾ ಮದ
ಆರಂಭ ಿಸಿದ್ದು</w>
ಆರಂಭ ವಾಗಿತ್ತು</w>
ಆಯ್ಕ ೆಯಾಗಿದ್ದಾರೆ</w>
ಆಯೋಗ ವು</w>
ಆಫ್ರ ಿಕಾ
ಆಫ್ಘಾನಿಸ್ ತಾನ</w>
ಆಫ್ಘಾನಿಸ್ ತಾನ
ಆನಂದ ದಿಂದ</w>
ಆದೇಶ ಕ್ಕೆ</w>
ಆದಿತ್ಯ ನಾಥ</w>
ಆಟಗಾರ ರಲ್ಲಿ</w>
ಆಜ್ಞ ೆಗಳನ್ನು</w>
ಆಗ್ರಹ ಿಸಿ</w>
ಆಗಮ ಿಸುವ</w>
ಆಗಮ ಿಸಿದರು</w>
ಆಗ ಿರುವುದಿಲ್ಲ</w>
ಆಗ ಿದ್ದೇನೆ</w>
ಆಗ ಿದ್ದನು</w>
ಆಗ ಲಿದ್ದಾರೆ</w>
ಆಕ್ರಮಣ ಕಾರಿ</w>
ಆಕಾಶ ದ</w>
ಆಕಸ್ ಮಿಕ
ಆಂಬು ಲೆನ್ಸ್</w>
ಆಂಬ ್ಯು
ಆ ಸೆ
ಆ ವೃತ್ತಿ
ಆ ಮೆ
ಆ ಪ್‌</w>
ಆ ಕಾರ</w>
ಆ ಕಾರ
ಅಸ್ ತ್ರ</w>
ಅಷ್ಟು ಮಾತ್ರವಲ್ಲದೆ</w>
ಅಷ್ಟ ೂ</w>
ಅಷ್ಟ ಕ್ಕೇ</w>
ಅವರ ಿದ್ದ</w>
ಅವಧ ಿಗೆ</w>
ಅವಘ ಡ</w>
ಅವ ್ಯವ
ಅವ ಸರ
ಅವ ಲೋಕ
ಅವ ರೇ
ಅವ ರ</w>
ಅವ ನಿಂದ</w>
ಅವ ತ್ತು</w>
ಅಳಿಸ ು</w>
ಅಳಿಸ ಿಹಾಕ
ಅಳಿಸ ಿ</w>
ಅಲ್ಲ ಿಗೇ</w>
ಅಲ್ಲ ಗಳೆಯ
ಅಲು ಗಾಡ
ಅಲ ಂಕಾರ
ಅರ್ಧ ಶತಕ</w>
ಅರ್ಥ ೈಸ
ಅಯ್ಯ ರ್</w>
ಅಮ್ಮ ೋ
ಅಮೆರಿಕ ನ್</w>
ಅಭಿಷೇ ಕ್</w>
ಅಭಿರು ಚಿ
ಅಭಿಯ ಾನ</w>
ಅಭಿಪ್ರಾಯ ಗಳು</w>
ಅಭ ಯಾರ
ಅಬ್ರಹಾಮ ನಿಗೆ</w>
ಅಬ್ರಹಾಮ ನ</w>
ಅಬ್ರ ಾಮ
ಅಪ್‌ ಡೇಟ್</w>
ಅಪ್ಲ ಿಕೇ
ಅಪ್ಪ ನ</w>
ಅಪಾರ ವಾದ</w>
ಅಪಹ ರಿಸಿ</w>
ಅಪರಿ ಪೂರ್ಣ</w>
ಅಪ ೀ
ಅನೌ ಪಚಾರ
ಅನುಮಾನಾ ಸ್ಪದ</w>
ಅನುಭವ ಿಸುತ್ತಿದ್ದಾರೆ</w>
ಅನುಭವ ಿಸಿದ</w>
ಅನುದ ಾನ
ಅನುಕೂಲ ಗಳು</w>
ಅನರ್ ಹ</w>
ಅಧ್ಯಕ್ಷ ೀಯ</w>
ಅಧಿಸೂ ಚನೆ</w>
ಅಧಿಕಾರಿ ಗಳೊಂದಿಗೆ</w>
ಅಧಿಕಾರ ಕ್ಕಾಗಿ</w>
ಅದ ್ರ
ಅದ ೊಂದೇ</w>
ಅದ ೇನ
ಅದ ಕ್ಕಿಂತಲೂ</w>
ಅತ್ಯುನ್ನ ತ</w>
ಅತ್ಯಾಚಾರ ವೆಸಗ
ಅತ್ಯ ದ್ಭು
ಅತೀ ವ</w>
ಅತಿ ಹೆಚ್ಚು</w>
ಅಡ್ಡ ಾದಿ
ಅಟ್ಟ ಹಾಸ</w>
ಅಜ್ಞಾ ತ</w>
ಅಚ್ಚ ರಿ
ಅಖಿ ಲ
ಅಂಥ ವರ</w>
ಅಂತ್ಯ ದಲ್ಲಿ</w>
ಅಂತಾರಾಷ್ಟ್ರ ೀಯ</w>
ಅಂ ಬೇಡ್
ಅಂ ಜ
ಅ ಸ್ಥ
ಅ ಸಾಧಾರಣ</w>
ಅ ಸಲಿಗೆ</w>
ಅ ಶ್ವ
ಅ ವಿವಾಹಿತ</w>
ಅ ರೆ</w>
ಅ ಮಾ
ಅ ಬ್
ಅ ಬ
ಅ ಪಾ
ಅ ನಾಥ
ಂದಿ ರಿಗೆ</w>
ಂಡು ಗಳಲ್ಲಿ</w>
ಂಟ ೆ
ಂಜ ಾ</w>
ಂಚ ಿ</w>
ಂಗ ಾ</w>
ಂಗ ದ</w>
ಂ ಧ</w>
ಂ ಜನ
r o
o n
m a
b ran
U R
:3 ,
: 4</w>
9 99</w>
9 9
9 7</w>
8 5</w>
6 50</w>
5 ಕ್ಕೆ</w>
4, 5</w>
3 ರಷ್ಟು</w>
20 12</w>
2 40</w>
17 5</w>
14 0</w>
12 8</w>
10 :3
10 7</w>
1 ರ</w>
. 1</w>
, 000
” ಎಂದು</w>
“ ಯೇಸು</w>
“ ಏನು</w>
‘‘ ನಾನು</w>
‘ ನಾವು</w>
​ ​​</w>
್ಯಾ ಕ್ಟ್</w>
್ಯಾ ಕೆ</w>
್ಯ ರು</w>
್ ಲೂ</w>
ೋಪ ಕರಣ
ೋದ ಯ</w>
ೋತ್ಸವ ದ</w>
ೋ ದೇ</w>
ೋ ಣ
ೊ ಡ್ಡ</w>
ೆಯಲ್ಲ ಿ…</w>
ೆನ ಿಸಿತು</w>
ೆಗೊಳ ಗಾದ</w>
ೆಂದ ರಲ್ಲಿ</w>
ೆ ಡ್ಡಿ</w>
ೂಗ ಸಾದ</w>
ುವುದ ಲ್ಲ</w>
ುವದ ಕ್ಕಾಗಿ</w>
ುವ ಾಗಲೂ</w>
ುವ ವರೇ</w>
ುವ ವರೆ
ುವ ವರ
ುದ ಕ್ಕೂ</w>
ುತ್ತೀ ರೋ</w>
ುತ್ತಿದ್ದ ೀರಿ</w>
ುತ್ತಾರ ೋ</w>
ುತ್ತಾರ ೆಂದು</w>
ುತ್ತ ಿರುವುದರಿಂದ</w>
ುತ್ತ ಾನೋ</w>
ುತ್ತ ಲೆ</w>
ು ರಿ</w>
ು ತಿತ್ತು</w>
ು ಣ
ು ಂಬ
ೀ ನ</w>
ೀ ಕರಣದ</w>
ೀ ರಾ</w>
ಿಸ್ ಮರಣ
ಿಸುವ ಷ್ಟ
ಿಸುತ್ತ ಿದ್ದಾನೆ</w>
ಿಸಿದ್ದ ಾನ
ಿಸಿದ್ದ ಳು</w>
ಿಸಿಕೊಳ್ಳ ಿರಿ</w>
ಿಸಿಕೊಂಡ ನು</w>
ಿಸಲ್ಪಟ್ಟ ು</w>
ಿಸಲ್ಪಟ್ಟ ನು</w>
ಿಸಲ ಷ್ಟೇ</w>
ಿಸದ ಸ್ಯ</w>
ಿಸ ೊ</w>
ಿಸ ಬೇಕಿತ್ತು</w>
ಿಸ ತಕ್ಕದ್ದು</w>
ಿರುವುದ ಕ್ಕಾಗಿ</w>
ಿರ ೆ</w>
ಿಯಾಗ ಲಿ</w>
ಿಯಲ್ಲ ಿನ</w>
ಿಯ ಿಂದ
ಿದ್ದೇ ವೆಂದು</w>
ಿದ್ದೇ ನೆಂದು</w>
ಿದ್ದಾರ ೋ</w>
ಿದ್ದಾರ ೆ’</w>
ಿದ್ದಾರ ೆ
ಿದ್ದ ುದರಿಂದ</w>
ಿದ್ ಲು</w>
ಿದ ್ಯ
ಿದ ೀನಿ</w>
ಿದ ಾ
ಿದ ಂಥ</w>
ಿತ ೋ
ಿತ ರಾದರು</w>
ಿಗಳಾಗ ಿದ್ದರು</w>
ಿಗಳ ಷ್ಟು</w>
ಿಕೊಳ್ಳ ುತ್ತಾನೆ</w>
ಿಕೊಟ್ಟ ರು</w>
ಿಕೊಂಡ ಿದ್ದು</w>
ಿಕೊ ಡಲು</w>
ಿಕೊಂಡ ಿದೆ</w>
ಿಕ ೆಯಾಗಿತ್ತು</w>
ಿಕ ಾರಿ</w>
ಿ ಡಲು</w>
ಿ ಗಳೇ</w>
ಾರ್ಪ ಣೆ</w>
ಾರ ್ಯ
ಾರ ೆಂದು</w>
ಾರ ಂ</w>
ಾಯ ರು</w>
ಾಯ ನ</w>
ಾಯ ದ</w>
ಾದ ದ್ದು</w>
ಾಣ ಿಕೆ</w>
ಾಗ ಿದ್ದಾನೆ</w>
ಾ ಸ್</w>
ಾ ಪುರ</w>
ಾ ಧಿಕಾರ
ಾ ಚಾರ
ಹೋದ ವರು</w>
ಹೋಗ ುವಾಗ</w>
ಹೋಗ ುತ್ತೆ</w>
ಹೋಗ ಿದ್ದಾನೆ</w>
ಹೋಗ ಲಿ</w>
ಹೋ ಲ್ಡರ್</w>
ಹೊಳೆಯ ಲಿಲ್ಲ</w>
ಹೊರಬೀಳ ಲಿದೆ</w>
ಹೊತ್ತ ುಕೊಂಡಿದೆ</w>
ಹೊತ್ತ ಿನ</w>
ಹೊತ್ತ ಿದೆ</w>
ಹೊಗಳ ಿಕೊಳ್ಳ
ಹೊಂದ ಿರ
ಹೊಂದ ಿ</w>
ಹೊ ರಾ
ಹೈ ಕೋರ್ಟ್
ಹೈ ಕೋರ್
ಹೇಳುವುದ ೇನು</w>
ಹೇಳಿದ್ದೇ ನಂದರೆ</w>
ಹೇಳ ುತ್ತೀರಿ</w>
ಹೇಳ ಿಕೊಂಡು</w>
ಹೇಳ ಲ್ಲ</w>
ಹೇಳ ಬೇಕೆಂದು</w>
ಹೇಗೆ ಂದು</w>
ಹೇ ಬೆಲ
ಹೋ ಳುಗಳಾಗಿ</w>
ಹೊಂದ ಿರುತ್ತವೆ</w>
ಹೆಲ್ಮೆ ಟ್</w>
ಹೆನ್ ರಿ</w>
ಹೆದರ ುವುದಿಲ್ಲ</w>
ಹೆದ ರಿಸ
ಹೆದ ರಿಕೆ</w>
ಹೆದ ರಿಕ
ಹೆಣ್ಣು ಮಕ್ಕಳ</w>
ಹೆಣ್ಣ ಿನ</w>
ಹೆಚ್ಚು ಕಡಿಮೆ</w>
ಹೆಂಗ ಸು</w>
ಹೆ ೖ
ಹೆ ಪ್ಪು
ಹೆಪ್ಪು ಗಟ್ಟ
ಹೆ ಟ್
ಹೆ ಕ್ಟರ್</w>
ಹುಲ್ಲು ಗಾವ
ಹುದ್ದ ೆಯಿಂದ</w>
ಹುಡುಗ ಿಯನ್ನು</w>
ಹುಡುಗ ನ</w>
ಹುಡುಕಾ ಟ
ಹುಡುಕ ುತ್ತಾ</w>
ಹುಟ್ಟ ುತ್ತದೆ</w>
ಹೀಗ ಂದ
ಹೀ ರೋ
ಹಿತ ಕರವಾದ</w>
ಹಿಡ ಿದರು</w>
ಹಿಜ್ ಕೀಯ
ಹಿಂಭಾಗ ದ</w>
ಹಿಂಬ ದಿಯ</w>
[...]
