the	994608
.	874341
,	795555
of	682300
and	515791
to	448798
in	341493
a	305624
is	264826
for	171386
-	166669
that	155883
The	130148
&apos;	129816
you	129011
be	123905
)	121916
(	121864
not	110692
are	106142
on	105264
with	103270
it	101241
:	100802
as	97937
or	94749
by	90918
s	89679
was	88551
have	85232
they	84120
from	83736
will	80094
this	74816
them	73892
has	68137
which	66863
I	65786
;	65122
who	63791
&quot;	63510
his	63139
an	60525
their	60464
He	58733
he	55590
at	54327
And	50193
We	49935
all	49893
?	49104
Allah	46459
%	44462
/	43771
India	43202
your	42689
one	38814
but	38799
we	38253
been	36643
were	36251
had	35958
It	34477
can	34345
do	33965
him	33947
people	33588
@-@	33337
those	32879
said	32632
any	32401
when	31817
shall	30951
A	30477
its	30302
!	30176
also	29533
In	29334
our	29281
other	28994
what	28658
there	28462
if	28056
Lord	27727
God	27461
so	27459
This	27048
no	26852
_	26625
may	25537
”	25514
only	24813
would	24624
“	23757
time	23694
out	23300
up	23125
then	21834
made	21552
1	21526
about	21202
such	21165
into	21143
more	21140
should	20974
They	20493
like	20339
But	20306
us	20062
my	19270
under	18850
than	18532
some	18501
these	18409
me	18403
two	18297
’	17601
before	17187
over	17127
new	17012
&#91;	16986
&#93;	16943
So	16839
after	16628
His	16559
life	16482
day	16174
Indian	15852
If	15324
You	15092
being	15009
President	14947
her	14929
t	14836
say	14738
&amp;	14533
good	14460
through	14352
2	14349
used	14080
world	14018
make	13940
between	13649
un@@	13639
could	13481
well	13423
first	13418
way	13220
Government	13155
There	12995
very	12983
know	12872
many	12808
down	12808
country	12804
come	12763
most	12644
years	12522
All	12378
upon	12308
work	12291
did	12285
am	11905
against	11776
O	11711
earth	11711
man	11465
see	11447
take	11239
even	11112
year	10920
because	10840
must	10714
where	10607
given	10554
Him	10479
right	10475
i	10471
State	10443
use	10313
believe	10263
among	10260
When	10195
Our	10098
sent	10038
place	10021
To	9992
does	9982
section	9948
own	9865
every	9854
great	9853
Act	9755
Day	9662
give	9615
away	9596
how	9562
get	9557
set	9478
part	9468
water	9418
now	9408
number	9362
For	9350
3	9284
system	9136
same	9071
per	9009
file	9006
As	8986
name	8954
back	8954
while	8830
ye	8790
Then	8687
during	8672
each	8617
go	8577
development	8562
called	8536
person	8507
power	8473
both	8437
able	8392
What	8362
in@@	8350
things	8274
S@@	8248
indeed	8238
help	8163
case	8135
another	8123
just	8043
here	8037
came	8033
order	7985
long	7871
without	7867
she	7830
three	7805
men	7756
K@@	7748
National	7743
different	7729
OF	7725
means	7672
No	7670
land	7656
nor	7645
want	7629
On	7537
knowledge	7518
Do	7511
information	7495
much	7464
B@@	7380
...	7374
whom	7311
That	7306
found	7279
‘	7273
4	7227
5	7221
message	7203
C@@	7163
account	7146
D@@	7098
My	7082
k@@	7037
re@@	7036
Shri	7015
G@@	7013
need	6994
—	6990
form	6983
cannot	6946
state	6891
created	6870
e	6855
P@@	6787
A@@	6769
important	6736
unto	6722
truth	6718
–	6716
end	6712
etc	6687
become	6686
T@@	6679
These	6602
let	6582
o	6576
never	6572
period	6529
taken	6527
find	6520
known	6478
surely	6414
y@@	6382
times	6367
public	6334
company	6319
days	6312
&gt;	6295
today	6288
going	6284
best	6242
children	6239
except	6223
body	6220
b	6178
various	6147
re	6121
evil	6082
done	6075
age	6065
human	6046
too	6011
women	6008
L@@	6007
d	6007
Say	6001
fear	5989
last	5978
&lt;	5943
H@@	5940
m	5927
present	5921
within	5913
business	5913
education	5910
themselves	5899
small	5897
process	5876
M@@	5867
window	5863
al	5779
others	5775
An	5738
New	5729
better	5727
government	5721
d@@	5688
n@@	5669
Bhavan	5622
available	5610
large	5598
language	5587
list	5582
One	5571
ing	5564
high	5556
F@@	5547
s@@	5534
due	5530
old	5526
again	5523
R@@	5481
value	5472
Indeed	5445
something	5423
social	5417
left	5415
heavens	5387
bring	5368
N@@	5361
Rashtrapati	5359
towards	5358
punishment	5341
put	5306
Central	5295
brought	5289
e@@	5287
open	5287
think	5286
amount	5276
family	5255
0	5247
data	5236
t@@	5233
Rs	5201
change	5194
g@@	5189
p@@	5183
less	5166
turn	5164
E@@	5163
law	5155
call	5142
Who	5133
thou	5125
x	5120
income	5119
tax	5114
er	5103
service	5090
sub	5083
economic	5073
b@@	5034
full	5028
true	5018
book	5002
cause	4984
already	4981
ers	4980
10	4972
Book	4972
off	4936
four	4931
matter	4904
based	4900
support	4867
ate	4867
area	4865
services	4855
an@@	4838
6	4833
clear	4829
gave	4818
little	4815
Your	4806
{	4795
u	4793
action	4781
Delhi	4776
}	4775
far	4773
al@@	4771
death	4767
following	4755
l@@	4753
himself	4747
level	4736
areas	4715
might	4706
together	4706
type	4702
words	4696
ed	4693
countries	4674
signs	4668
Minister	4659
self	4651
above	4633
folder	4632
group	4626
nation	4625
Those	4620
non	4617
mind	4614
m@@	4598
provide	4590
few	4566
provided	4563
food	4557
free	4544
dis@@	4536
love	4535
whole	4529
respect	4520
making	4500
W@@	4497
thing	4486
view	4477
society	4471
always	4445
still	4428
son	4425
interest	4419
ar@@	4418
return	4414
fact	4414
national	4408
around	4399
project	4396
night	4395
sector	4394
hand	4393
es	4391
members	4384
took	4381
ation	4342
including	4341
though	4336
C	4335
PRESIDENT	4333
ever	4319
V@@	4312
Please	4312
O@@	4311
five	4303
growth	4298
seen	4297
worship	4297
light	4296
therefore	4291
policy	4291
having	4268
create	4260
date	4243
i@@	4238
y	4235
whether	4232
point	4223
Show	4217
THE	4217
common	4216
certain	4208
7	4207
capital	4202
show	4169
Hindi	4168
nothing	4163
house	4159
ar	4155
hearts	4136
How	4129
deeds	4124
selected	4111
I@@	4110
follow	4110
ask	4106
political	4104
8	4093
control	4088
whose	4082
faith	4074
cent	4073
am@@	4072
en@@	4072
She	4072
British	4071
yet	4063
j@@	4059
address	4055
r@@	4051
line	4043
At	4043
J@@	4040
clause	4039
industry	4025
believers	4025
health	4023
became	3996
side	3994
path	3991
next	3981
required	3980
thee	3976
States	3968
equal	3967
local	3948
After	3946
Most	3936
c@@	3935
until	3925
error	3922
keep	3913
nature	3905
held	3897
home	3894
along	3880
received	3867
religion	3865
word	3856
h@@	3855
possible	3848
child	3842
main	3841
term	3840
a@@	3825
S	3817
ated	3816
Singh	3814
further	3812
look	3805
wrong	3784
o@@	3781
later	3753
activities	3750
production	3746
English	3741
went	3740
application	3739
000	3737
rate	3729
heart	3729
using	3727
er@@	3711
act	3705
thought	3700
field	3687
certainly	3675
research	3673
second	3669
ch@@	3663
money	3661
Ministry	3654
ab@@	3647
technology	3640
several	3635
occasion	3634
special	3629
quality	3623
v@@	3610
total	3596
working	3595
Messenger	3585
position	3569
ad@@	3569
current	3565
leave	3557
kind	3557
n	3556
financial	3541
University	3536
files	3530
father	3529
reward	3528
itself	3524
war	3517
th@@	3515
meeting	3508
Moses	3508
course	3507
young	3504
By	3503
history	3499
image	3496
Muhammad	3493
market	3492
Court	3492
f@@	3481
led	3478
In@@	3474
Some	3466
live	3464
authority	3460
k	3451
foreign	3450
Congress	3450
read	3435
written	3427
at@@	3423
save	3423
website	3420
st@@	3415
knows	3413
asked	3404
either	3403
once	3394
necessary	3390
started	3388
Now	3387
works	3383
ant	3382
Development	3371
higher	3369
institutions	3364
Could	3362
established	3359
related	3358
example	3348
living	3342
king	3341
play	3322
near	3318
General	3316
got	3313
future	3313
scheme	3310
u@@	3309
12	3309
face	3308
purpose	3302
Hindu	3299
di@@	3298
mercy	3288
soul	3286
anything	3282
question	3279
therein	3279
property	3277
fire	3276
peace	3275
List	3269
art	3268
understand	3258
city	3257
Thus	3253
sure	3252
students	3252
cost	3248
security	3242
major	3240
send	3238
Surely	3236
greater	3235
im@@	3232
told	3219
key	3213
goods	3212
as@@	3208
story	3205
server	3201
forth	3199
*	3197
bank	3192
court	3190
thy	3189
command	3186
15	3186
comes	3185
RRB	3183
ones	3179
With	3177
behind	3170
community	3169
computer	3168
Committee	3166
INDIA	3163
Verily	3156
problem	3152
since	3152
l	3151
c	3150
doing	3147
hands	3142
paid	3132
LRB	3131
verily	3129
http	3123
role	3122
ating	3121
w@@	3121
share	3118
office	3116
why	3115
Is	3114
subject	3108
pay	3108
don	3107
hath	3105
p	3104
eyes	3101
soon	3099
head	3093
tree	3091
messages	3078
whatever	3073
Pradesh	3069
problems	3064
start	3062
g	3058
enter	3058
ap@@	3057
turned	3057
Select	3053
individual	3053
Open	3048
however	3047
basis	3034
needs	3033
guidance	3030
result	3029
revealed	3029
trade	3013
9	3012
considered	3010
changes	3006
parts	3002
management	2988
Department	2986
Union	2985
plant	2977
House	2977
ts	2973
movement	2971
Parliament	2970
believed	2968
months	2964
20	2963
really	2962
Whether	2961
ro@@	2961
External	2948
task	2947
ya	2946
often	2946
Cannot	2943
progress	2942
energy	2941
building	2939
remember	2933
File	2931
text	2930
Information	2927
However	2927
B	2920
sense	2920
appointed	2920
D	2917
single	2913
is@@	2912
U@@	2911
thus	2907
Let	2904
specified	2897
village	2894
visit	2893
mother	2893
on@@	2888
size	2888
persons	2881
opens	2874
effect	2872
terms	2871
Constitution	2868
blood	2866
Error	2863
America	2863
issued	2862
party	2856
Gandhi	2855
or@@	2850
30	2846
provisions	2846
school	2842
saying	2824
natural	2817
&apos;@@	2795
everything	2795
Bengal	2794
class	2791
conditions	2786
close	2783
source	2782
Bank	2782
till	2780
international	2776
ha@@	2775
ve	2771
books	2771
ag@@	2769
it@@	2765
Us	2760
force	2758
sign	2758
strong	2755
contact	2753
passed	2751
matters	2748
general	2747
Fire	2744
freedom	2740
gives	2736
meet	2735
previous	2729
Such	2728
reason	2726
short	2722
disease	2722
alone	2721
Mukherjee	2721
creation	2717
taking	2716
manner	2716
none	2714
access	2713
developed	2713
ous	2712
complete	2701
least	2699
function	2692
million	2691
3@@	2689
early	2687
makes	2680
century	2680
religious	2678
operation	2675
training	2674
particular	2669
air	2666
ting	2664
seek	2660
increase	2657
duty	2656
capacity	2654
past	2648
loss	2648
culture	2647
allowed	2643
Even	2641
purposes	2640
neither	2632
Name	2627
wish	2626
referred	2624
eth	2619
z@@	2607
angels	2602
six	2601
literature	2596
Section	2595
resources	2594
ll	2589
mail	2589
h	2588
Council	2588
Or	2586
wife	2586
care	2585
programme	2585
amp	2575
sea	2570
region	2565
according	2558
ti@@	2557
member	2557
Add	2556
mode	2554
deny	2552
population	2549
um	2544
writing	2543
ten	2539
Not	2537
saw	2537
tell	2534
Muslims	2533
11	2530
poor	2525
…	2521
network	2519
es@@	2518
sh@@	2518
modern	2516
space	2508
rights	2507
kept	2506
seven	2503
credit	2501
user	2499
entire	2497
science	2497
write	2496
fully	2493
ia	2492
Sabha	2492
e.	2491
de@@	2491
try	2490
release	2490
cases	2485
products	2484
investment	2481
ana	2480
efforts	2480
enough	2477
followed	2476
outside	2476
wealth	2476
ly	2474
Re@@	2471
Pranab	2470
Y@@	2469
25	2469
district	2469
Asia	2462
ic@@	2459
hard	2452
An@@	2451
Why	2451
ac@@	2450
price	2450
almost	2449
mankind	2447
Merciful	2447
Dr.	2441
Prime	2440
High	2438
continue	2435
ground	2434
en	2433
rest	2429
says	2428
benefit	2428
co	2426
experience	2423
From	2421
ates	2416
People	2416
doubt	2415
M	2414
rule	2412
forward	2410
lot	2401
lost	2390
el@@	2390
private	2388
search	2388
torment	2388
personal	2387
industrial	2387
page	2382
est	2381
half	2380
Muslim	2376
ways	2375
R	2375
rural	2366
condition	2365
Have	2362
E	2361
raised	2354
actually	2353
structure	2352
hold	2352
witness	2347
ic	2342
include	2341
hear	2341
i.	2339
50	2334
failed	2332
16	2332
dead	2331
add	2331
environment	2327
accept	2326
places	2325
economy	2325
character	2324
low	2321
Public	2318
decided	2316
run	2315
brother	2315
earlier	2313
Z@@	2312
18@@	2310
hope	2306
provides	2306
Institute	2305
payment	2304
Use	2302
across	2301
material	2300
top	2299
forms	2299
Prophet	2298
red	2297
speak	2295
happy	2291
Are	2290
Board	2290
4@@	2288
Republic	2286
below	2279
Technology	2278
woman	2276
temple	2276
lead	2274
disbelieve	2274
righteous	2274
relating	2274
guide	2272
ted	2269
il@@	2268
issue	2265
Category	2264
Ram	2260
feel	2257
big	2255
month	2253
real	2252
spread	2252
stage	2251
provision	2250
spirit	2246
news	2243
exchange	2241
April	2239
Sanskrit	2239
ak@@	2236
difficult	2235
ri@@	2232
Y	2231
op@@	2230
letter	2229
demand	2228
Income	2228
projects	2226
astray	2222
decision	2211
ensure	2211
prepared	2211
14	2210
study	2210
groups	2208
report	2207
carried	2206
ii	2204
global	2203
Save	2201
South	2198
remain	2196
values	2191
concerned	2189
March	2187
promise	2187
god	2186
receive	2183
river	2183
success	2182
situation	2178
TO	2177
strength	2177
eat	2176
sound	2175
wrote	2175
details	2173
disbelievers	2170
issues	2167
move	2165
accepted	2161
morning	2160
especially	2158
poet	2158
Commission	2158
ul@@	2157
em@@	2157
physical	2153
Failed	2147
Africa	2144
produce	2144
sp@@	2143
post	2139
Service	2138
6@@	2137
bear	2137
100	2136
published	2135
leaders	2133
desire	2130
device	2129
built	2122
Lo	2121
coming	2121
press	2116
trust	2110
T	2106
besides	2106
relations	2105
easy	2104
While	2102
guided	2100
third	2097
programmes	2096
rules	2094
Al@@	2089
instead	2089
friends	2088
behalf	2087
lives	2085
Their	2085
av@@	2082
plan	2082
die	2082
reach	2079
transfer	2078
sun	2078
giving	2078
le@@	2077
birth	2074
states	2073
providing	2072
prayer	2072
During	2068
caused	2065
opportunity	2064
lies	2063
ON	2060
document	2057
reached	2057
ra@@	2055
test	2054
+	2052
becomes	2050
firm	2050
sub@@	2049
Hell	2044
room	2042
International	2042
fall	2040
specific	2039
patient	2034
ine	2032
ol@@	2031
rather	2030
ha	2025
heard	2025
West	2024
began	2024
pro@@	2022
Project	2020
servants	2020
unbelievers	2018
et@@	2017
Of	2016
ness	2015
om@@	2013
flow	2010
sky	2008
View	2007
x@@	2005
May	2005
importance	2005
Hereafter	2004
copy	2001
facilities	2001
increased	1998
front	1996
status	1995
check	1994
plus	1994
rich	1993
crore	1992
idea	1989
Evolution	1987
method	1986
ings	1983
color	1981
answer	1981
effective	1979
over@@	1978
approach	1978
stand	1974
os@@	1973
be@@	1973
per@@	1972
Pharaoh	1968
justice	1968
treatment	1965
evidence	1963
quite	1963
accounts	1960
wide	1958
infrastructure	1958
East	1954
active	1950
whoever	1947
responsible	1946
loan	1944
activity	1944
beyond	1943
born	1939
lower	1938
United	1936
5@@	1935
P	1934
apply	1931
gone	1931
Chief	1931
placed	1930
belongs	1924
Where	1923
original	1921
assessment	1918
ent	1917
employment	1916
ist	1915
wise	1915
returned	1912
takes	1912
Par@@	1911
video	1911
ad	1911
ur@@	1910
felt	1909
usually	1902
Scheme	1902
existing	1897
cultural	1897
program	1895
ans	1894
ancient	1893
friend	1892
event	1889
goes	1889
charge	1887
record	1886
heaven	1885
languages	1883
fight	1883
World	1879
understanding	1877
scale	1876
Centre	1874
note	1871
wanted	1871
formed	1868
generally	1867
beginning	1864
legal	1864
pass	1863
citizens	1861
speech	1860
basic	1859
Sh@@	1859
id@@	1858
direct	1854
learning	1852
Con@@	1849
deep	1849
13	1847
powers	1847
institution	1847
existence	1846
simple	1845
similar	1841
central	1841
Many	1840
plants	1840
el	1839
assessee	1839
unit	1838
Which	1837
ator	1836
Un@@	1833
names	1833
regard	1832
remove	1829
ex@@	1827
ir@@	1826
eight	1820
white	1819
con@@	1818
cut	1817
Therefore	1815
agricultural	1815
certificate	1814
directory	1813
object	1813
rivers	1813
shown	1810
oc@@	1810
systems	1810
default	1809
practice	1809
li@@	1807
Will	1806
18	1806
deal	1805
Ar@@	1805
connection	1799
units	1797
par@@	1795
s&apos;	1794
agreement	1794
fixed	1793
tried	1793
running	1792
parties	1791
getting	1790
Quran	1788
setting	1787
destroyed	1786
job	1786
industries	1786
Israel	1785
password	1783
boy	1781
meaning	1779
statement	1777
Me	1771
banks	1771
als	1770
added	1769
poetry	1769
ideas	1767
particularly	1767
continued	1765
ill	1765
oil	1765
lie	1765
Search	1764
no@@	1764
responsibility	1763
AND	1762
fast	1760
Supreme	1760
vision	1759
knew	1758
lo@@	1755
carry	1754
Message	1752
January	1752
lakh	1751
Create	1750
generation	1750
Only	1748
North	1748
Research	1748
f	1746
thousand	1746
De@@	1745
Europe	1745
ations	1742
hundred	1737
met	1735
verses	1734
display	1733
aware	1733
yourselves	1733
produced	1732
Ch@@	1730
numbers	1730
r	1730
co@@	1730
companies	1730
Resurrection	1730
parents	1729
December	1728
um@@	1727
Education	1727
workers	1726
pl@@	1725
looking	1725
Calcutta	1725
bad	1724
7@@	1724
farmers	1724
2@@	1720
option	1719
presence	1719
memory	1717
style	1715
ma	1714
ism	1712
potential	1712
se@@	1711
assistance	1707
he@@	1703
2000	1702
Pakistan	1701
id	1700
regarding	1700
version	1697
associated	1696
$	1696
addition	1696
et	1696
notice	1693
contains	1692
hi	1692
2018	1692
direction	1691
painful	1691
thereof	1691
Yet	1690
\	1689
build	1688
inter@@	1687
mentioned	1687
IT	1686
animals	1686
8@@	1685
talk	1685
medical	1680
&apos;s	1680
spiritual	1680
S.	1679
round	1678
tic	1677
software	1676
product	1676
normal	1676
code	1675
scientific	1674
session	1673
famous	1673
ability	1670
wishes	1669
paper	1667
up@@	1667
article	1667
unless	1666
opportunities	1666
essential	1663
step	1661
Abraham	1660
October	1657
Wise	1657
ter	1656
mountains	1656
24	1654
measure	1654
ot@@	1652
film	1652
proper	1651
gods	1650
Folder	1649
base	1649
15@@	1649
Mumbai	1648
please	1647
police	1644
mental	1642
ec@@	1641
music	1639
Every	1639
mis@@	1637
grant	1637
claim	1636
folk	1636
perhaps	1636
successful	1634
us@@	1632
November	1630
fund	1628
denied	1627
immediately	1626
contribution	1626
connected	1625
X	1625
minus	1625
Well	1624
Truth	1624
range	1623
hours	1623
ak	1622
rain	1622
measures	1620
Management	1619
expression	1614
consider	1614
Mar@@	1613
En@@	1612
z	1612
forces	1612
revelations	1612
Go	1610
na	1610
Explanation	1610
content	1608
prescribed	1608
calendar	1606
US	1605
serve	1605
limited	1604
learn	1603
Officer	1602
granted	1601
nations	1600
disc	1598
supported	1598
ment	1596
develop	1594
cast	1593
ur	1593
beautiful	1592
pr@@	1592
opened	1591
Governor	1590
qu@@	1589
changed	1589
Unable	1586
har@@	1586
concerning	1586
agriculture	1583
=	1581
ent@@	1581
A.	1579
bar	1578
anyone	1578
ala	1577
System	1576
ago	1576
separate	1573
ka	1573
Move	1572
Th@@	1572
attention	1569
pranabmukherjee.nic.in	1568
inside	1566
ity	1566
St@@	1564
link	1564
King	1563
includes	1560
ani	1560
sin	1560
stay	1558
highest	1557
types	1556
40	1555
regular	1553
advice	1548
laid	1547
offer	1546
Its	1544
presented	1544
sum	1542
longer	1541
Other	1540
feet	1540
final	1540
Provided	1540
forgiveness	1540
F	1539
Man@@	1539
largest	1539
Last	1537
ors	1537
Commissioner	1537
September	1534
twenty	1534
sides	1534
cooperation	1532
Ex@@	1531
ship	1531
else	1528
ji	1528
popular	1527
steps	1527
female	1527
cities	1527
officers	1527
eye	1525
saved	1524
Mr.	1524
ai	1523
forgive	1521
Krishna	1520
benefits	1520
collection	1519
opinion	1519
administration	1518
June	1517
supply	1516
od@@	1513
judge	1513
Islam	1513
Remove	1512
items	1511
expenditure	1511
balance	1510
laws	1510
format	1509
le	1509
chastisement	1509
directly	1508
stone	1508
cell	1507
town	1507
etc.	1506
H	1504
operations	1504
Here	1504
covered	1504
funds	1503
lines	1502
moon	1502
black	1501
19	1500
Forgiving	1500
employees	1499
mighty	1498
Delete	1497
Nehru	1497
Right	1496
drive	1496
protection	1496
17	1496
implementation	1495
1st	1495
labour	1494
ter@@	1492
obey	1492
species	1492
unjust	1490
spend	1488
table	1487
Children	1486
ut@@	1485
IN	1485
reading	1484
Satan	1484
mean	1483
houses	1483
ons	1481
doers	1481
milk	1481
sufficient	1480
si@@	1479
promised	1479
struggle	1479
drink	1477
August	1475
ally	1473
tr@@	1473
Kashmir	1473
sight	1473
cover	1472
cells	1472
la@@	1471
han	1470
stated	1470
someone	1468
and@@	1467
pre@@	1466
grow	1466
appropriate	1465
located	1465
2014	1465
effort	1465
ks	1464
Thou	1464
completed	1463
fields	1463
Enable	1462
Enter	1462
middle	1461
Indians	1460
location	1457
Under	1457
documents	1455
item	1455
functions	1455
processing	1455
Set	1451
green	1450
ies	1448
favour	1446
taste	1446
hi@@	1445
game	1444
growing	1443
Gandhiji	1443
site	1441
violence	1440
former	1439
significant	1439
stories	1437
entered	1435
Mo@@	1435
Today	1435
performance	1435
extent	1435
severe	1434
relevant	1431
leading	1430
ang@@	1430
partners	1430
trees	1429
ch	1428
gardens	1428
Sri	1427
named	1426
centre	1426
Edit	1423
secure	1423
sins	1423
exists	1422
ready	1422
villages	1422
democracy	1422
north	1421
CD	1420
length	1420
ud@@	1419
v	1418
road	1418
According	1418
Home	1417
Assembly	1417
rise	1416
bit	1416
Bombay	1415
hearing	1411
relation	1410
technical	1410
China	1409
Group	1408
Paradise	1408
assets	1406
Office	1404
Tamil	1404
results	1401
sons	1400
break	1399
week	1399
limit	1398
Finance	1398
schemes	1398
lived	1398
played	1397
9@@	1396
entry	1395
ou@@	1395
south	1395
helped	1395
Messengers	1395
the@@	1394
acts	1394
protect	1394
Time	1393
Image	1391
tions	1391
faces	1391
pleasure	1391
Science	1390
.@@	1390
conduct	1389
questions	1388
21	1388
ing@@	1388
Plan	1388
wills	1387
shows	1386
educational	1386
Sub@@	1385
17@@	1385
committed	1384
hour	1382
registered	1381
thinking	1381
G	1380
storage	1378
appeal	1377
ence	1376
16@@	1376
manifest	1375
adopted	1375
traditional	1374
external	1373
refers	1372
standards	1372
Nath	1372
praise	1371
ical	1369
10@@	1369
friendly	1369
L	1367
leader	1365
divided	1363
useful	1362
straight	1360
Policy	1359
ah	1359
included	1357
ary	1357
asset	1357
harm	1357
accordance	1357
fair	1357
First	1353
standard	1353
ig@@	1353
RE@@	1353
Did	1353
bound	1352
February	1352
involved	1352
Tax	1352
relationship	1351
Sam@@	1350
causes	1350
youth	1350
request	1349
60	1349
2015	1349
ra	1347
powerful	1347
civil	1345
Lok	1345
root	1344
ay@@	1344
Pro@@	1341
enemy	1341
surface	1340
mark	1340
ves	1339
July	1339
official	1339
heavy	1339
looked	1339
tradition	1337
won	1336
needed	1336
1961	1336
Address	1335
average	1335
recent	1334
2013	1334
permission	1333
percent	1332
gets	1332
seems	1331
ble	1331
serious	1331
Because	1329
developing	1329
enable	1327
Ad@@	1327
team	1327
leaves	1327
N	1324
br@@	1324
Am@@	1324
sometimes	1324
C.	1324
man@@	1323
amongst	1323
rejected	1322
voice	1322
bed	1322
promote	1322
appear	1320
machine	1319
P.	1318
domestic	1314
Hindus	1313
distribution	1311
Conference	1311
Any	1309
ev@@	1309
Ram@@	1309
wait	1308
evening	1308
events	1307
model	1307
standing	1307
animal	1307
X@@	1306
ST@@	1305
influence	1305
pe@@	1304
ash@@	1303
trying	1303
images	1301
policies	1301
tive	1300
join	1300
Also	1300
Punjab	1299
consideration	1299
organisation	1299
Dis@@	1298
Corporation	1297
mon@@	1297
Unto	1297
remained	1296
consciousness	1296
officer	1296
hell	1295
unique	1293
increasing	1293
construction	1293
weight	1291
Raj@@	1291
response	1290
ho@@	1290
Bill	1290
ID	1289
Can	1289
staff	1289
stop	1288
achieve	1287
extended	1286
male	1286
additional	1285
circumstances	1285
apart	1284
dated	1284
card	1283
raise	1282
square	1280
died	1280
fruits	1280
warm	1279
worked	1278
forest	1278
objective	1277
shares	1277
levels	1276
ance	1276
2006	1275
truly	1274
medium	1273
Account	1272
establish	1272
Exchange	1272
reference	1271
ling	1271
engaged	1271
earned	1271
media	1270
points	1269
defined	1269
pure	1269
feed	1268
cash	1268
advance	1268
declared	1268
trial	1268
applications	1266
select	1266
otherwise	1266
pur	1266
instrument	1266
fathers	1266
temples	1266
chosen	1265
ara	1265
Chairman	1264
IN@@	1262
improve	1262
car@@	1262
procedure	1261
interests	1261
output	1260
poems	1260
opening	1259
out@@	1259
sectors	1259
Shah	1258
empty	1257
distance	1257
rec@@	1257
crops	1256
Start	1255
likely	1254
described	1254
uses	1253
clearly	1253
connect	1251
export	1251
expected	1251
wall	1251
portion	1250
unity	1250
independent	1249
allow	1249
observed	1249
Su@@	1248
de	1248
choose	1247
difference	1247
removed	1246
elements	1246
Google	1246
blind	1246
23	1245
wind	1245
skin	1244
divine	1243
Sa@@	1240
Tagore	1240
ash	1239
messengers	1239
board	1238
knowing	1238
bi@@	1236
variety	1235
fl@@	1234
Har@@	1234
Secretary	1234
nine	1233
moment	1233
fruit	1232
annual	1231
draw	1230
commercial	1230
expressed	1229
2005	1229
joint	1229
larger	1228
Copy	1227
Nay	1227
ph@@	1226
ish	1226
Bar@@	1226
soil	1225
bl@@	1224
Guru	1223
tidings	1223
independence	1223
philosophy	1223
ties	1222
cr@@	1221
marriage	1221
families	1221
net	1220
31	1220
2007	1219
ir	1219
shape	1219
II	1219
Kerala	1219
poverty	1218
communication	1217
remote	1216
Maharashtra	1216
birds	1216
28	1214
husband	1214
Rama	1214
Type	1213
22	1213
box	1212
touch	1212
profit	1212
lay	1211
army	1210
Director	1210
characters	1208
primary	1208
maximum	1208
ative	1207
Al	1207
ari	1207
abroad	1207
remains	1206
ourselves	1206
12@@	1205
messenger	1205
false	1203
exist	1203
0@@	1203
ne@@	1203
Akbar	1203
cl@@	1202
assigned	1202
26	1201
affected	1201
clean	1200
series	1200
Di@@	1199
Services	1199
Ab@@	1199
gold	1199
wisdom	1199
settings	1198
American	1197
Certificate	1197
Mahatma	1197
Yes	1196
As@@	1196
2008	1196
cattle	1196
beauty	1196
calls	1195
mutual	1195
hidden	1194
Data	1194
ise	1194
secret	1194
Knowing	1193
easily	1192
online	1191
safety	1191
District	1190
throughout	1189
views	1188
ay	1188
minimum	1187
greatest	1187
Had	1187
Western	1186
km	1186
tion	1185
risk	1184
determined	1182
fish	1180
sections	1179
Change	1177
ages	1177
to@@	1176
ology	1176
keeping	1176
History	1175
introduced	1174
Date	1173
European	1173
vi@@	1173
extend	1172
daily	1172
grace	1172
proud	1172
Besides	1170
teachers	1170
13@@	1169
focus	1169
ised	1169
Though	1169
innovation	1169
charges	1169
Ma@@	1168
Sha@@	1168
os	1167
ati	1167
payable	1167
stock	1166
ge	1166
west	1166
returns	1166
affairs	1166
ants	1165
ru@@	1165
literary	1165
ins	1164
Per@@	1164
sale	1164
gr@@	1163
fine	1163
desires	1162
majority	1162
contract	1162
inner	1161
feeling	1161
der	1159
design	1159
Kar@@	1159
Power	1159
waste	1158
under@@	1158
27	1158
launched	1157
teacher	1157
SAW	1157
Make	1156
exercise	1156
moving	1155
studies	1155
associate	1154
taught	1154
namely	1154
Each	1153
recompense	1152
approved	1152
River	1151
14@@	1151
forever	1150
novel	1148
load	1147
00	1147
No.	1147
merely	1146
offered	1145
bill	1144
sha@@	1143
Since	1143
tu@@	1142
mass	1142
articles	1141
Default	1139
door	1139
Programme	1139
honour	1138
journey	1138
ver@@	1137
iii	1137
greetings	1136
safe	1135
sa@@	1134
station	1134
har	1134
Gujarat	1134
belief	1134
petitioner	1133
initiatives	1133
ind@@	1131
context	1130
mainly	1130
Excellency	1129
ents	1128
contain	1128
songs	1128
ite	1127
diseases	1127
welfare	1127
generations	1127
host	1125
Send	1124
ob@@	1124
brings	1124
Be	1123
happened	1122
seed	1122
academic	1122
girl	1121
contained	1120
replied	1120
delivered	1120
Mission	1119
sought	1119
prosperity	1119
completely	1118
belong	1117
folders	1117
email	1116
filled	1116
aid	1116
creating	1114
Islamic	1114
speed	1113
spent	1113
practices	1113
Financial	1112
garden	1111
Fund	1111
Pre@@	1110
branch	1110
Speaking	1109
truthful	1109
Chandra	1109
Text	1107
80	1107
confidence	1107
Both	1106
Bengali	1106
glad	1106
bodies	1105
pleased	1105
suitable	1104
Hour	1103
j	1102
perform	1102
gain	1102
BC	1102
military	1102
ked	1101
positive	1101
enjoy	1100
College	1100
association	1099
plain	1099
Bharat	1099
follows	1098
appointment	1098
po@@	1097
gu@@	1097
resource	1096
listen	1095
whosoever	1095
excellent	1095
vast	1095
drawn	1094
Special	1094
requirements	1094
attack	1094
end@@	1093
complex	1093
pressure	1093
mo@@	1092
learned	1092
partnership	1092
schools	1092
Language	1091
joined	1091
mar@@	1091
degree	1091
proved	1091
Kovind	1091
ful	1090
killed	1090
Qur	1090
Number	1089
installed	1089
ending	1089
visible	1089
challenges	1089
selection	1088
holding	1088
il	1088
highly	1088
deemed	1088
crop	1087
2016	1087
destination	1086
me@@	1086
wherein	1086
delete	1085
screen	1085
Life	1085
Division	1085
web	1084
passing	1084
submitted	1084
dust	1084
height	1083
master	1083
delivery	1083
Gardens	1083
prices	1082
insects	1082
organization	1082
se	1081
maintain	1081
kinds	1081
Invalid	1080
mention	1079
Noah	1079
governance	1079
Rules	1078
tri@@	1078
figure	1077
Peace	1077
daughter	1077
prevent	1076
th	1074
authorities	1074
reality	1073
sur@@	1072
ta	1072
for@@	1071
URL	1070
author	1070
audio	1070
moral	1070
ke	1069
Click	1069
signed	1069
internal	1069
dispute	1069
ER	1068
Cha@@	1068
Would	1068
bo@@	1068
east	1068
du@@	1068
reject	1067
department	1067
2001	1066
title	1065
Kal@@	1065
goal	1065
pattern	1062
late	1062
so@@	1061
probably	1061
regional	1061
Path	1060
planning	1060
resident	1060
Display	1059
correct	1059
M.	1059
cold	1059
insurance	1059
Among	1058
Company	1057
partner	1057
dry	1056
guilty	1056
Mighty	1056
principles	1055
methods	1054
valid	1054
Internet	1054
picture	1054
K	1053
ed@@	1053
2002	1053
carrying	1052
trans@@	1051
moved	1051
va	1051
individuals	1051
Mon@@	1050
Two	1050
reminder	1050
critical	1050
duties	1050
ri	1049
turns	1049
button	1047
Contact	1047
transport	1047
reply	1047
England	1047
examination	1047
theme	1046
minutes	1046
avoid	1045
stood	1045
award	1045
options	1044
target	1044
shared	1043
registration	1043
Nepal	1043
machinery	1043
ens	1042
fill	1041
seem	1041
travel	1041
rates	1041
Governments	1041
ali	1039
V	1038
te@@	1038
cha@@	1038
urban	1038
disbelieved	1037
yourself	1036
warn	1036
Health	1036
Rajasthan	1035
Yoga	1035
ach@@	1034
concern	1034
beings	1034
Color	1033
ma@@	1033
29	1032
orders	1032
Check	1031
teaching	1031
ets	1029
Non	1029
aspects	1029
kar	1028
Authority	1027
wants	1027
destroy	1027
pain	1027
although	1026
seized	1026
background	1025
seeking	1025
chief	1025
contacts	1024
suffer	1024
plugin	1023
treated	1023
Car@@	1022
proof	1022
aim	1022
regions	1022
era	1022
ty	1021
Q@@	1021
fresh	1021
Assam	1021
attached	1020
reasons	1020
agreed	1020
description	1019
ry	1019
materials	1019
Work	1018
myself	1018
changing	1018
convey	1017
actions	1016
centres	1016
Import	1015
dark	1015
blessings	1014
bilateral	1014
Free	1013
successfully	1013
submit	1013
division	1013
Uttar	1013
inspired	1013
Inter@@	1012
features	1012
happen	1012
2012	1012
latter	1012
released	1011
darkness	1010
hide	1009
resolution	1008
ying	1008
Great	1008
Air	1008
seeing	1008
defence	1008
leadership	1008
entitled	1008
participation	1008
impact	1008
min@@	1007
ant@@	1007
ath@@	1007
Assistant	1006
ended	1006
communities	1006
wronged	1006
visited	1005
ama	1005
achieved	1005
enabled	1004
Mal@@	1004
refuge	1004
Rajya	1004
volume	1002
establishment	1002
Before	1001
Water	1001
strengthen	1001
column	1000
burning	1000
200	1000
import	999
lest	999
poem	999
mal@@	998
challenge	998
rupees	998
facility	997
Ganga	997
Next	996
ds	996
marked	996
ata	996
ators	995
500	995
plays	995
suffering	995
promotion	995
climate	995
Application	994
huge	994
element	993
reduced	993
port	992
Official	992
11@@	992
Joseph	992
ized	991
failure	991
20@@	991
engineering	991
DI@@	990
ses	990
fell	990
Khan	990
instance	989
everyone	989
minister	988
tool	987
forget	987
Foreign	987
caste	987
res	986
au@@	986
Sir	985
recorded	985
ice	985
anti	985
grown	985
Remember	984
ches	984
users	984
universal	983
souls	983
undertaking	983
Ac@@	982
situated	982
vital	982
Party	981
constituted	981
Bihar	980
75	979
D.	979
agencies	979
writer	978
requires	977
factors	976
banking	976
ish@@	975
purchase	975
extension	973
avail	973
Don	972
ini	972
Andhra	972
happiness	972
awareness	972
actual	971
ahead	971
Bose	971
election	970
Tribunal	970
warner	969
universities	969
foundation	968
letters	968
ding	968
piece	968
double	967
tonnes	966
guard	966
sources	965
ep@@	965
phase	964
Roy	964
ats	963
heat	963
ang	962
festival	962
waiting	961
ears	960
Bo@@	959
archive	959
IT@@	959
1999	959
looks	958
subjects	957
kingdom	957
interesting	957
containing	956
relief	956
kill	956
homes	956
ideal	956
row	955
bu@@	955
ast@@	955
deduction	955
Another	954
ore	954
bar@@	954
sacrifice	954
AT	953
su@@	953
Members	953
sing	952
helps	952
ends	952
historical	952
weeks	951
Training	950
pray	950
recently	949
walk	949
operating	949
bestowed	949
wives	949
principle	949
facts	948
charged	948
meant	948
warning	947
Once	947
45	946
com@@	946
AL@@	945
records	944
2017	944
Le@@	943
forgiving	943
reduce	942
pi@@	942
friendship	942
Unknown	941
nuclear	941
abode	941
disk	940
negative	940
ST	940
channel	939
K.	939
currently	938
manager	938
library	938
healthy	938
Knower	937
manufacturing	936
tor@@	935
Page	934
ely	934
permanent	934
squared	934
confident	934
currency	933
student	933
Sar@@	932
cross	932
Self	932
choice	932
sending	932
ously	932
served	932
performed	931
thereby	931
adequate	931
Law	930
U	930
Business	930
priority	930
nearly	930
drugs	930
uk@@	929
ik@@	929
Find	928
weak	926
faithful	926
store	925
reports	925
detail.htm	924
track	923
stream	923
Pr@@	923
implemented	922
doesn	922
dec@@	922
joy	922
effects	920
ality	920
doctor	920
afraid	919
35	919
terrible	919
courts	919
scientists	919
sitting	918
uc@@	917
ian	917
lack	917
covenant	917
patience	916
More	916
elected	916
ms	916
escape	916
About	915
married	915
SE@@	914
Sur@@	914
sacred	914
dream	914
mere	914
consists	914
editor	913
ES	913
ge@@	912
smaller	912
ordinary	912
commitment	911
School	911
Web	910
ard	910
cor@@	910
AN@@	910
notes	910
Women	910
width	909
concept	909
drop	908
dr@@	908
offline	907
didn	907
gathered	907
War	907
input	906
decide	906
gas	906
finance	906
Reserve	905
ile	905
bringing	905
unknown	904
AR@@	904
mouth	904
victory	904
operative	904
democratic	904
technologies	904
temporary	903
recognised	903
abide	903
objectives	903
Control	902
punish	902
IC@@	901
suddenly	901
Choose	899
sort	899
ath	899
burden	899
showed	899
Justice	899
proceedings	899
ize	898
classes	898
constant	897
unable	896
discussion	896
la	896
damage	895
af@@	895
B.	895
medicine	895
rent	894
organized	894
aj@@	893
brothers	893
rice	893
Be@@	892
q@@	892
addressed	892
thanks	892
User	891
obtained	891
factor	891
fit	891
merciful	891
followers	891
administrative	891
Qu@@	890
commit	890
2009	890
ada	890
lo	890
Karnataka	890
marketing	890
Legislative	890
watch	889
proposed	889
skills	889
stars	889
notification	888
Si@@	888
supreme	888
branches	887
courage	887
terrorism	887
Export	886
identified	886
pre	886
string	885
DVD	885
ering	885
tasks	885
battle	885
season	885
contents	884
der@@	884
approval	884
agency	884
applied	883
begin	883
1@@	883
cur@@	883
str@@	883
inter	883
maintained	883
officials	883
review	882
covering	882
Security	882
ber@@	882
ists	882
devotion	882
becoming	882
links	881
attempt	880
res@@	880
equipment	880
appeared	880
ING	879
fellow	879
attitude	879
appears	878
Close	877
font	877
eligible	877
ered	876
multiple	876
colour	876
upper	876
organised	876
objects	875
Whoever	875
2019	875
Code	874
do@@	874
les	874
chance	874
profits	874
intellectual	874
ton	873
western	872
maintenance	872
90	871
ically	871
bone	870
configuration	870
Current	869
DE@@	869
ina	868
compared	868
peoples	868
See	867
commanded	867
SA@@	866
designed	866
substance	866
settled	866
conducted	866
IS@@	865
memo	865
solution	864
Bal@@	864
sw@@	864
formation	864
acting	863
Mother	863
minds	863
decisions	863
hy@@	862
hair	862
Take	861
ee	861
initiative	861
ker	860
destruction	859
advanced	858
can@@	858
att@@	858
ments	858
pages	857
magic	857
professional	857
fundamental	856
32	856
whatsoever	856
translation	855
aka	855
Help	854
lose	854
atmosphere	854
thoughts	854
scholars	854
deposit	854
pa@@	853
dance	853
2011	853
actor	852
brain	852
whereas	852
script	851
Scripture	851
welcome	851
occurred	850
ization	850
Flag	850
weather	850
2004	850
gains	850
swear	850
limits	849
bird	849
falsehood	849
debt	849
Amendment	849
Options	848
car	848
Park	848
respective	847
Subhas	847
hrs	847
tic@@	846
union	846
advantage	846
encourage	846
flowers	845
aims	845
log	844
Co@@	844
un	844
aw@@	844
mission	844
deleted	843
ships	843
jurisdiction	843
theory	843
properties	842
menu	842
Settings	842
sleep	842
Independence	842
wage	842
heads	841
Files	841
print	841
register	841
Chinese	841
Network	841
deliver	841
ement	840
Server	840
eve	840
gi@@	840
costs	840
ze	839
Tr@@	839
ut	839
solar	838
Society	838
Pacific	837
forbidden	837
Nature	837
committee	837
ni@@	836
playing	836
Musa	836
pur@@	835
ars	835
R.	835
tomorrow	834
Human	834
announced	834
Social	834
Arabic	833
pollution	833
politics	833
At@@	832
Man	831
properly	831
ner	831
Press	831
anti@@	831
gh@@	831
Article	830
functioning	830
mountain	830
iron	830
servant	830
offices	830
Tri@@	829
closed	829
Industrial	829
seemed	828
Signs	828
Pur@@	827
ics	827
Something	827
ham@@	827
heed	827
ub@@	826
examples	826
phone	826
cry	826
.&apos;	826
reforms	826
Rural	826
Although	824
atory	824
coal	824
Civil	824
bounty	824
capable	823
perfect	823
ide	822
Im@@	822
processes	822
Se@@	820
2003	820
foot	820
J.	820
V.	820
Mr	820
conference	819
frame	818
ps	818
London	818
poets	818
AN	817
Adam	817
corruption	817
Ministers	817
map	816
reported	816
argument	816
verse	815
ER@@	815
toward	815
sees	815
Com@@	814
admit	814
01	813
analysis	813
transaction	813
accused	813
Affairs	813
te	812
70	812
Agriculture	812
Po@@	811
gl@@	811
integral	811
principal	811
multi	810
IS	810
profession	810
Video	809
skill	809
decades	809
sends	808
electricity	808
origin	807
Small	807
expenses	807
hospital	807
Awards	807
displayed	806
els	806
thirty	806
ver	805
Like	804
blessed	804
Limited	804
ved	803
hot	803
sustenance	803
centuries	803
believing	802
mat@@	801
Mad@@	801
thousands	801
cave	801
tha	801
pan@@	800
zero	800
arms	800
spoken	800
stones	800
Bha@@	800
customer	800
arrived	799
backs	799
loans	799
www.presidentofindia.nic.in	799
Print	798
Call	798
extremely	798
val@@	798
efficient	798
alism	798
tw@@	797
Nor	797
gar@@	796
Judgment	796
bottom	795
noted	795
Her	795
Report	794
worth	794
markets	794
finally	794
tissue	794
Orissa	793
absence	793
pride	793
strike	792
blue	792
prayers	792
districts	792
sal@@	791
judgment	791
humanity	791
sc@@	790
latest	790
Environment	789
pane	789
ex	789
Province	789
motion	789
Speaker	789
Babu	789
ging	788
creatures	788
graph	787
category	787
song	787
Regional	787
ning	786
simply	786
citizen	786
rock	786
bones	786
Force	785
asking	785
directed	785
ery	785
dear	785
equity	785
mer@@	784
dedicated	784
fifty	784
iz@@	783
chemical	783
acquired	783
environmental	783
click	782
senior	782
&#124;	782
losers	781
undertaken	781
Buddha	781
onto	780
Jammu	780
entirely	780
territory	780
Line	779
starting	779
layer	779
creative	779
worlds	779
reform	779
sets	778
all@@	778
require	778
fuel	778
refused	777
Best	776
mobile	776
temperature	776
conscious	776
Clear	775
ving	775
scope	775
buy	774
sex	774
employee	774
exports	774
whenever	773
ann@@	772
prostrate	772
runs	771
Chapter	771
mostly	770
war@@	770
Trade	770
ain	770
ball	769
differences	769
holds	768
composed	768
ati@@	767
guides	766
instructions	766
Word	766
gather	766
platform	766
outstanding	766
ingly	765
Divine	765
ass@@	764
Post	764
col@@	764
conflict	764
behold	764
heritage	764
desktop	763
tools	763
Kumar	763
tea	763
AT@@	763
ade	762
happens	762
RA@@	762
wh@@	762
Go@@	761
feature	761
lying	761
Bangladesh	761
Nadu	761
household	761
career	761
university	761
match	760
ci@@	760
cre@@	760
prove	760
Mail	759
grain	759
deeply	759
roads	759
revenue	759
campaign	759
fee	758
improvement	758
sed	757
leads	757
billion	757
sl@@	756
iting	756
instruments	756
char@@	756
ti	755
receipt	755
initiated	755
represents	754
23@@	754
inc@@	754
sit	754
grateful	754
fulfilled	754
witnesses	754
hypocrites	754
plans	754
custom	753
availability	753
Joint	753
informed	753
Garden	753
Urdu	752
transferred	752
grieve	752
est@@	751
block	751
movements	751
center	750
fer@@	750
overall	750
thereafter	750
judicial	750
Window	749
iness	749
personality	749
agree	748
hand@@	748
eggs	748
elections	748
sustainable	748
quickly	747
Library	747
delay	747
PM	747
turning	747
Association	747
figures	747
rising	747
depends	746
ster	746
interested	746
tics	745
proposal	745
towns	745
Year	744
MA@@	744
transactions	744
rare	744
expect	744
equally	744
holy	744
Economic	744
component	742
identity	742
owner	742
extra	742
bow	741
SI@@	741
revelation	741
explained	741
constitution	741
girls	741
drug	741
yield	740
Password	739
ids	739
Eastern	739
Li@@	738
Vice	738
ab	737
immediate	737
throw	737
Deputy	737
Insurance	737
burn	736
pieces	736
equality	736
judgement	736
Later	735
stands	735
applicable	735
apostle	735
Industry	735
Disable	734
Ap@@	734
understood	734
revolution	734
go@@	734
Except	734
glory	734
wrongdoers	734
Manager	733
Editor	733
sa	733
outer	733
Sal@@	733
spot	733
sold	733
star	733
Kolkata	733
housing	733
felicitations	733
organizations	732
explain	732
ow@@	731
Accounts	731
railway	731
Kan@@	731
Just	730
automatically	730
recognition	730
gra@@	730
ded	730
broad	730
ten@@	729
compensation	729
walls	729
Ali	729
dealing	728
aspect	728
sk@@	728
train	728
N.	728
speaking	728
CH@@	727
2010	727
ank@@	727
apostles	727
promoting	727
Award	727
database	726
estimated	726
Tell	726
hor@@	725
hal@@	725
pious	725
admitted	725
possession	725
border	724
Size	724
invited	724
cer@@	723
contribute	723
tourism	723
Out	722
ably	722
core	722
Hyderabad	722
alised	722
City	721
distinguished	721
drama	721
prime	721
French	720
opposition	720
aside	720
deed	720
mor@@	719
count	718
im	718
broken	718
desired	718
ja	718
efficiency	718
ip@@	717
Cor@@	717
respectively	717
Scheduled	717
attend	717
customers	717
Command	716
tongue	716
trading	716
chain	715
Windows	715
ran	715
Br@@	714
ters	714
linked	714
gate	714
U.	714
spoke	714
employed	714
showing	713
consumer	713
1956	713
race	712
w	712
detailed	712
Further	712
Due	711
Japan	711
Calendar	711
seeds	711
steel	711
hardly	711
isation	711
remaining	710
behaviour	710
aged	710
possess	710
deity	710
filter	709
trouble	709
facilitate	709
Sardar	709
obtain	708
33	708
vi	708
fourth	708
Bi@@	708
theirs	708
considerable	708
impossible	707
raw	707
belonging	707
Ne@@	707
ot	706
sugar	706
satisfied	706
preview	705
busy	705
communications	705
prose	705
Dr	705
Gu@@	704
bas@@	704
tor	704
gift	704
arrangement	704
For@@	703
ency	703
replace	703
Ver@@	703
ping	703
leaving	702
kar@@	702
reflect	702
consumption	702
collected	701
falls	701
Trust	700
answered	700
Pan@@	700
recognized	700
्	700
mixed	699
UN@@	699
desert	699
reveal	699
Food	699
writers	699
filed	698
via	698
sell	698
Apostle	698
Woe	698
specify	697
eness	697
affect	697
allowance	697
mine	697
spite	697
upto	697
calling	696
soft	696
Believers	696
recited	696
educated	696
occur	695
Persian	695
tical	695
bri@@	695
FOR	694
icon	694
Mark	694
regarded	694
achievement	694
Committees	694
wood	693
integrated	693
signature	693
advised	693
improving	693
forests	693
marks	692
ratio	692
ched	692
willed	692
hill	692
harmony	692
deposits	692
Ambedkar	692
HTML	691
invalid	691
warned	691
digital	691
Unit	691
settlement	691
sexual	691
edge	690
ines	690
stages	690
contemporary	690
Status	689
numerous	689
diverse	689
Mary	688
beneath	688
meetings	688
Vishnu	688
ta@@	687
Shall	687
EN@@	687
masses	687
framework	687
twice	687
curse	687
drinking	686
Nations	685
excellence	685
soldiers	685
religions	685
silver	684
disbelief	684
hurt	684
celebrated	684
q	683
floor	683
offers	683
contributions	683
survey	683
stored	682
ul	682
ah@@	682
Whatever	682
daughters	682
grew	682
Jawaharlal	682
agent	681
ill@@	681
da	681
und@@	681
Swami	681
Mughal	681
difficulty	680
Ra@@	680
John	680
iv	680
interface	679
@	679
suggested	679
1947	679
DAY	679
enemies	679
ale	678
tab	678
ell@@	678
Na@@	678
remembrance	678
complaint	678
organisations	678
ours	677
Ro@@	677
expansion	677
guidelines	677
teach	677
Army	677
osis	676
identify	676
Credit	676
we@@	676
intended	676
polytheists	676
quantity	676
alization	675
preferred	675
bus	675
sister	675
talking	674
Noble	674
corporate	674
strive	674
comprehensive	674
disabled	673
det@@	673
enjoyment	673
chapter	673
hasten	673
RO@@	672
attachment	672
W	672
Mu@@	672
David	672
earn	672
ire	671
ba	671
farm	671
infection	671
Me@@	670
strategy	670
productivity	670
solutions	669
atic	669
AD	668
facing	668
jinn	668
founded	668
crisis	668
ward	667
horse	667
super@@	667
axis	666
ned	666
flower	666
wa	666
Annual	666
El@@	665
win	665
baby	665
investments	665
Ba@@	664
anger	664
electronic	664
Being	664
Pat@@	663
Audio	663
armed	663
college	663
allows	662
ess	662
alive	662
firmly	662
Jesus	662
Source	661
Left	661
Red	661
dem@@	661
telephone	661
respite	661
fighting	661
recite	661
criminal	661
occurs	660
Lo@@	660
tur@@	660
ring	660
printed	660
Pal@@	660
express	660
penalty	660
Filter	659
transmission	659
Schedule	659
organ	659
27@@	659
believes	659
idols	659
suit	658
fort	658
overcome	658
None	657
helper	657
continuous	657
Police	657
governments	657
NPS	657
tribal	656
irrigation	656
Banks	656
sm@@	655
utter	655
ali@@	655
Char@@	655
sts	655
ure	655
Capital	655
struck	655
zone	654
ram	654
aya	654
H.	653
Asian	653
Over	653
az@@	653
improved	653
enhance	653
Lot	653
Dec@@	652
Min@@	651
sheet	651
ley	651
wild	651
competition	651
wherever	651
Parliamentary	651
Pl@@	650
Part	650
eg@@	650
driven	650
Jews	650
wear	650
formal	650
Binoy	650
Note	649
24@@	648
ture	648
enti@@	648
pointed	648
starts	648
ther@@	648
discharge	648
Member	647
absolute	647
LE@@	647
noble	647
stayed	647
worldly	647
intelligence	647
relative	646
begins	646
Vedic	646
clay	646
whomever	646
Details	645
evolution	645
initial	644
bal@@	644
ease	644
palm	644
valley	644
Mohammed	644
Houses	644
publication	644
Location	643
completion	643
Local	643
Cabinet	643
ising	643
den@@	643
pension	643
Perhaps	643
older	642
Master	642
clouds	642
owned	642
worshipped	642
writings	641
int@@	640
anda	640
Russia	640
bul@@	640
ities	640
Exalted	640
ently	639
architecture	638
ordered	638
prior	638
adi	638
plot	638
mechanism	637
ita	637
legs	637
discussed	637
discipline	637
Ak@@	636
continues	636
distributed	635
launch	635
controlled	635
producing	635
keys	634
saving	634
hit	634
appearance	634
ard@@	634
gradually	634
Ph@@	633
requested	633
recognize	633
respondent	633
cried	633
immense	633
Software	632
assembly	632
Screen	632
300	632
categories	632
crime	632
Himself	632
permitted	631
sweet	631
spring	631
charity	631
narrow	631
buildings	631
millions	631
securities	631
Mode	630
windows	630
ste@@	630
Afghanistan	630
Energy	630
determination	630
Email	629
AL	629
48	629
detail	629
scene	629
planned	629
node	628
36	628
inspiration	628
accident	628
arising	628
Table	627
Rec@@	627
Mah@@	627
proofs	627
judges	627
Gupta	627
Online	626
divide	626
hills	626
remarkable	626
acc@@	625
parent	625
fail	625
tically	625
fly	625
band	625
var@@	625
IP@@	624
hu	624
equals	624
satisfaction	624
emphasis	624
Agricultural	624
ler	623
Dev@@	623
ational	623
demands	623
shaped	623
sick	623
Get	622
addresses	622
covers	622
des@@	622
Earth	622
crores	622
personnel	622
departments	622
Task	621
Key	621
Good	621
reader	621
devices	621
Through	621
bright	621
Madhya	621
Co	620
domain	620
executive	620
duration	619
ls	619
KDE	619
wicked	619
jobs	618
Similarly	618
usual	618
injustice	618
Subject	617
om	617
gre@@	617
oriented	617
cal@@	617
represent	617
suffered	617
difficulties	617
courses	617
End	616
index	615
symbol	615
degrees	615
eternal	615
Certainly	615
boys	615
deals	614
Ask	614
oral	614
representative	614
diversity	614
pal@@	613
twelve	613
lands	613
hum@@	613
Madras	613
Second	612
ari@@	612
wing	612
specially	612
liars	612
universe	612
submission	611
wonder	611
herself	611
awarded	611
voluntary	611
Chaitanya	611
ching	610
ose	610
usage	610
structures	610
sudden	610
socio	610
sensitive	609
Green	609
trained	609
vain	609
counsel	609
sat	609
discussions	609
Universities	609
rulers	608
reasonable	608
faced	608
ear	607
ium	607
Germany	607
esh	607
mu@@	607
observe	607
attended	607
traditions	607
normally	606
increases	606
Knowledge	606
fluid	606
asa	606
succeed	606
rapid	606
Value	605
NAME	605
~	605
components	605
derived	605
ensuring	605
Plugin	604
fore@@	604
guardian	604
devoted	604
greatly	604
regulations	604
Raja	604
conservation	604
Companies	604
Foundation	603
dialog	603
Port	603
programs	603
council	603
faculty	603
eastern	603
realize	603
Bring	602
affair	602
sad	602
mandapa	602
Australia	601
Em@@	601
camel	601
fought	601
significance	601
sites	600
ISO	600
papers	600
computing	600
sorrow	600
competent	600
investors	600
ica	599
repentance	599
decree	599
naught	599
seconds	598
practical	598
Kingdom	598
acceptance	598
worthy	598
repent	598
couple	598
palace	598
Global	597
strengthening	597
inf@@	597
effectively	597
Das	597
Medical	597
hom@@	596
25@@	596
touched	596
achievements	596
CRA	596
Action	595
Does	595
listed	595
receiving	595
ane	595
han@@	595
hur@@	595
jail	595
arrangements	595
Res@@	594
prepare	594
prison	594
Prasad	594
League	594
communal	594
ME@@	593
exceed	593
ceremony	593
Give	592
st	592
strange	592
bridge	592
flag	592
constructed	592
forty	592
widely	592
beside	591
directions	591
65	591
1998	591
aught	591
offence	591
Never	590
stopped	590
Executive	590
Hide	589
dwelling	589
wings	589
cow	589
realise	589
seeks	589
enterprise	589
participate	589
fied	588
ences	588
NA@@	588
bra@@	588
contributed	588
poetic	588
News	587
wi@@	587
Principal	587
recovery	587
Maha@@	587
insect	587
solve	586
Apart	586
sn@@	585
authentication	585
minor	585
removal	585
holder	585
ick	584
Kam@@	584
UR@@	584
Full	583
ute	583
oath	583
faithless	583
violent	583
Selection	582
La@@	582
Col@@	582
sake	582
venture	582
fold	581
bur@@	581
notified	581
sen@@	581
encouraged	581
NABARD	581
Level	580
combination	580
flat	580
alized	580
acted	580
roots	580
exactly	580
Lanka	580
amp@@	580
Courts	580
Raj	580
Program	579
lock	579
refer	579
anniversary	579
Bas@@	579
proportion	579
Forest	579
innovative	579
URI	578
IP	578
generated	578
sentence	578
eli@@	578
ila	578
southern	578
distinct	578
Oh	578
employer	578
Font	577
package	577
proxy	577
haply	577
Template	576
Support	576
inform	576
micro@@	576
Nothing	576
dwell	576
unseen	576
righteousness	576
signal	575
brief	575
Hence	575
carefully	575
rightly	575
goals	575
Keep	574
Mus@@	574
ham	574
ately	574
testing	574
wages	574
vegetables	574
qualities	574
audit	574
draft	573
Sector	573
claimed	573
ocean	573
Mercy	573
admonition	573
Buddhist	573
sharing	572
amb@@	572
waters	572
Ibrahim	572
recommendations	572
cont@@	571
claims	571
substantial	571
urge	571
president	571
authorised	571
ce	570
White	570
monitoring	570
Mount	570
Has	570
Himachal	570
relatives	570
technological	570
quick	569
determine	569
ky	569
Christians	569
steadfast	569
subjected	569
Hearing	569
eminent	569
og@@	568
split	568
terminal	568
Japanese	568
mil@@	568
ises	568
26@@	568
imagine	568
pair	568
raising	568
virtue	568
excess	568
evident	568
depth	567
yellow	567
dependent	567
shrine	567
proposals	567
Gora	567
loaded	566
arguments	566
Forward	566
34	566
accompanied	566
License	565
browser	565
cycle	565
alisation	565
liability	565
adult	565
Minimum	564
Mor@@	564
sions	564
traffic	564
streams	564
realised	564
strategic	564
Sita	564
Governance	564
our@@	563
ick@@	563
MS	563
acid	563
blame	563
constitutional	563
Industries	563
Card	562
#	562
Messages	562
pol@@	562
My@@	562
van	562
ram@@	562
acquisition	562
requirement	562
sive	561
atomic	561
meat	561
lesson	561
representatives	561
drawing	560
gen@@	560
hat	560
OR@@	560
interpretation	560
diet	560
questioned	560
essentially	560
fin@@	559
Rights	559
arranged	559
1992	559
Christian	559
distinction	559
Ramayana	559
transformation	558
update	558
player	558
egg	558
42	558
thr@@	558
bearing	558
legislation	558
cricket	558
Document	557
Sp@@	557
Mag@@	557
Ban@@	557
obvious	557
aries	557
mi@@	557
19@@	557
symptoms	557
ena	556
Look	556
resulting	556
pillars	556
cloth	556
Working	555
Mer@@	555
cap@@	555
CON@@	555
tremendous	555
Chand@@	555
Officers	555
enc@@	554
managed	554
Light	554
cloud	554
regularly	554
Aware	554
Pa@@	553
gn@@	553
30@@	553
Sometimes	553
valuable	553
eating	553
salt	553
elephant	553
Tourism	553
cu@@	552
finished	552
inserted	552
willing	552
Sud@@	552
Nar@@	552
reckoning	552
worst	551
modified	551
printer	551
SH@@	551
minute	551
offering	551
ily	551
extreme	551
recall	551
drowned	551
Selected	550
profile	550
Custom	550
cul@@	550
AM@@	550
conceal	550
sinners	550
affection	550
arise	550
Properties	549
Shi@@	549
tra	549
ATION	549
lam@@	549
constantly	549
fi@@	548
creates	548
ban@@	548
grass	548
yours	548
companions	548
ignorance	548
Shiva	548
tim@@	547
BY	547
clothes	547
back@@	546
Additional	546
non@@	546
counter	546
flight	546
ignorant	546
Truly	546
injury	546
learnt	546
budget	546
kg	545
leaf	545
air@@	545
sin@@	545
bro@@	545
tis	545
collaboration	545
wrath	545
lord	545
feeding	545
clubs	544
ys@@	544
ped	544
Way	544
dreams	544
cultivation	544
cards	543
Five	543
rap@@	543
ger	543
Met@@	543
preparation	543
commonly	543
healthcare	543
Class	542
TV	542
por@@	542
teeth	542
technique	542
wa@@	542
AC@@	542
whomsoever	542
feelings	542
manufacture	542
printing	541
No@@	541
comp@@	541
CC	541
Marathi	541
finding	541
Gita	541
Bur@@	540
istic	540
route	540
hol@@	540
broke	540
missing	539
loading	539
ist@@	539
incurred	539
deities	539
dealt	539
neck	539
emerging	539
northern	539
Maharaja	539
ol	538
computers	538
angle	538
Sun	538
cat@@	538
Engineering	538
Money	538
prominent	538
cotton	538
Hinduism	538
tourist	538
wheat	538
Order	537
DA	537
favours	537
arrogant	537
possessed	537
studied	537
Vis@@	536
resolve	536
consumers	536
humble	536
sincere	536
consequences	536
represented	535
He@@	535
telling	535
delight	535
seats	535
Run	534
execution	534
entity	534
ber	534
imposed	534
pairs	534
Soon	534
aimed	534
parliamentary	534
GNOME	533
Previous	533
Auto	533
plane	533
appoint	533
dignity	533
possibility	533
Ge@@	532
solid	532
representation	532
her@@	532
pu@@	532
responsibilities	532
Pandit	532
radio	531
men@@	531
of@@	531
introduction	531
flowing	531
Up	530
adding	530
ass	530
carbon	530
discovered	530
Pra@@	530
2020	530
Subscriber	530
ap	529
ser@@	529
Protection	529
Aaron	529
lessons	529
secondary	529
instruction	529
attain	529
despite	529
salary	529
rose	528
closely	528
Said	528
midst	528
alternative	527
Quality	527
07	527
depend	527
entrusted	527
customs	527
largely	527
SAYS	527
recommended	526
opposite	526
tional	526
pat@@	526
Chrome	526
causing	526
treat	526
danger	526
Having	526
breast	526
fat	526
roof	526
headed	526
Innovation	526
vehicle	526
client	525
internet	525
ula	525
subsequent	525
produces	525
finds	525
wholly	525
breasts	525
historic	525
Always	524
slow	524
proceed	524
09	524
Railway	524
yesterday	524
caught	524
Majesty	524
IR@@	523
ai@@	523
San@@	523
closer	523
belied	523
Leave	522
dog	522
pen@@	522
Land	522
petition	522
offspring	522
cancer	522
naturally	521
reaching	521
oo@@	521
hosts	521
55	521
elling	521
invoke	521
ites	521
positions	521
honoured	521
consequence	521
biggest	521
Bh@@	521
corner	520
chose	520
France	520
Resource	520
forced	520
00@@	520
Men	520
exalted	520
Come	520
united	520
Empire	520
tube	520
Mahabharata	520
presentation	519
careful	519
Punjabi	519
met@@	519
doom	519
discuss	519
worker	519
Lal	519
panel	518
TH@@	518
aging	518
infinite	518
ological	518
ened	518
prophet	518
lawful	518
fever	518
civilization	518
sequence	517
li	517
Chennai	517
fearing	517
loose	517
patients	517
lab@@	516
ented	516
ong	516
partition	516
lasting	516
hast	516
marry	516
criticism	516
ideals	516
mm	515
summary	515
falling	515
Museum	515
28@@	514
fo@@	514
ca@@	514
ultimate	514
fa@@	514
liquid	514
Sad@@	514
ranks	514
Siva	514
enterprises	514
Up@@	513
integrity	513
Related	513
pound	513
I.	513
lion	513
familiar	513
companion	513
bills	513
64	512
procedures	512
alike	512
ni	512
happening	512
Investment	512
totally	512
Yusuf	512
involving	512
install	511
protected	511
fifth	511
Form	511
threat	511
Mohan	511
decade	511
05	510
ong@@	510
LA@@	510
noise	510
08	510
declare	510
Departments	510
springs	510
maintaining	510
congratulate	510
experiences	510
Should	509
participants	509
thrown	509
Thamud	509
lady	509
EVE	509
organism	509
com	508
fr@@	508
seat	508
dawn	508
bears	508
amounts	508
header	507
algorithm	507
opposed	507
ns	507
ren@@	507
eless	507
tender	507
Phone	506
iv@@	506
pri@@	506
walking	506
hara	506
Election	506
1948	506
Sw@@	505
Ltd	505
Private	505
Shar@@	505
multiply	505
serving	505
putting	505
selling	505
adopt	505
Basava	505
commands	504
Center	504
somebody	504
inclusive	504
ion	504
favor	504
consisting	504
needy	504
privilege	504
endeavour	504
tar@@	503
protocol	503
ey	503
grief	503
cy@@	503
ff	503
mischief	503
Mac@@	502
helping	502
Or@@	502
Her@@	502
fate	502
pertaining	502
rapidly	502
childhood	502
mouse	501
So@@	501
post@@	501
convert	501
acy	501
factory	501
tal@@	501
ene	501
gro@@	501
debate	501
appellant	501
hu@@	500
Space	500
Automatic	500
sec@@	500
Sea	500
ousness	500
had@@	500
ika	500
theatre	500
Indo	500
restore	499
permanently	499
fault	499
permit	499
ED	499
ami	499
imp@@	499
pun@@	498
implementing	498
eng@@	498
killing	498
Ad	498
incident	498
novels	498
Legislature	498
sales	497
Arab	497
Solar	497
tour	497
confined	497
arrested	497
Maximum	496
Configure	496
Des@@	496
driver	496
metal	496
progressive	496
indigenous	496
work@@	495
street	495
CA	495
performing	495
Jag@@	495
Islands	495
Ko@@	495
ungrateful	495
farmer	495
influenced	495
Description	494
Game	494
Temple	494
differ	494
rank	494
terror	494
Almighty	494
constitute	494
revolutionary	494
Rem@@	493
CT@@	493
MO@@	493
circle	493
my@@	493
monthly	493
Greek	492
sy@@	492
Zone	492
fifteen	492
stations	492
slaves	492
describe	492
woe	492
sanction	492
compassion	492
Oft	492
percentage	491
imported	491
Kh@@	491
tion@@	491
squ@@	491
44	491
bond	491
Welfare	491
Chand	491
entrepreneurs	491
Defence	491
lakhs	491
PRO@@	490
III	490
translated	490
periods	490
ft	490
are@@	490
deaf	490
empire	490
assuredly	490
inhabitants	490
humans	490
Professor	490
SHRI	490
Tab	489
interaction	489
manage	489
channels	489
converted	489
ths	489
slowly	489
sheep	489
summer	489
conclusion	489
Labour	489
Three	488
Remote	488
ole	488
ders	488
involves	488
varieties	488
islands	488
dy	488
29@@	488
emerged	488
Read	487
ve@@	487
Nam@@	487
jan	487
lets	487
supposed	487
Link	486
Ob@@	486
ulation	486
sion	486
izing	486
1996	486
Te@@	486
yan	486
boat	486
cas@@	486
AP@@	486
Background	485
sil@@	485
concerns	485
gained	485
dynamic	485
ey@@	485
disputes	485
witnessed	485
achieving	485
techniques	485
organic	485
muscle	485
maybe	484
fallen	484
fed	484
keen	484
commodities	484
separated	483
guarantee	483
quot	483
arm	483
ail	483
08@@	483
Institutions	483
HE@@	482
Trans@@	482
ys	482
enhanced	482
ine@@	482
indicate	482
oaths	482
distress	482
ne	481
passage	481
succeeded	481
collective	481
RBI	481
Z	480
TS	480
photo	480
PO@@	480
www.	480
bonds	480
sand	480
pleases	480
grievous	480
perfection	480
organisms	480
rendered	479
Ser@@	479
47	479
aff@@	479
Vir@@	479
threw	479
returning	479
newspaper	479
emotional	479
remembered	478
dia	478
Judge	478
deceased	478
reduction	477
decreed	477
hence	477
conferred	477
trend	477
repeated	476
Interest	476
Region	476
Ag@@	476
ga	476
contrary	476
quiet	476
paying	476
awards	476
legislative	476
attribute	475
exit	475
Test	475
sti@@	475
ial	475
ki	475
defeat	475
Throne	475
Sucharita	475
declaration	474
cher	474
ff@@	474
imagination	474
farming	474
competitive	474
Cell	473
ord@@	473
umb@@	473
Total	473
ome	473
installation	473
35@@	473
AS@@	473
ography	473
ven@@	473
organs	473
respond	472
grade	472
Britain	472
grounds	472
Road	472
38	472
ruling	472
ess@@	471
ged	471
permissions	471
decline	471
keeps	471
breaking	471
illness	471
s.	470
combined	470
tation	470
ric@@	470
conversion	470
winds	470
wished	470
livelihood	470
strengthened	470
attained	470
knoweth	470
earliest	470
sole	469
ruler	469
Place	469
enting	469
Projects	469
Standard	469
handle	469
German	469
indicated	469
Middle	469
fy	469
pa	469
equivalent	469
02	469
lake	469
vote	469
celebrate	469
winter	469
agreements	469
stability	469
cheque	469
ear@@	468
silent	468
loves	468
nerve	468
supporting	467
SS@@	467
York	467
calculated	467
director	467
societies	467
characteristic	467
plugins	466
unaware	466
protector	466
consultation	466
bha@@	466
generate	465
Directory	465
Insert	465
Creator	465
integration	465
Mur@@	465
forming	465
Telugu	465
classical	465
46	465
cease	465
fees	465
Comp@@	464
ach	464
Fl@@	464
Rel@@	464
Media	464
keyboard	464
fu@@	464
preserve	464
van@@	464
pledge	464
throne	464
Faith	464
reaction	464
Indira	464
topic	463
Wikipedia	463
reserved	463
quarter	463
primarily	463
ava	463
peaceful	463
fulfil	463
Gazette	463
bigger	462
Mil@@	462
consent	462
grants	462
newspapers	462
layout	461
Sol@@	461
module	461
everywhere	461
Organization	461
entering	461
ain@@	461
residence	461
talent	461
mixture	461
duly	461
institutes	461
thread	460
arrive	460
suggest	460
TH	460
ancy	460
innocent	460
Spirit	460
royal	460
shop	460
ious	459
LDAP	459
statements	459
Cal@@	459
snow	459
George	459
distant	459
doors	459
ances	458
pictures	458
ening	458
Bangalore	458
hall	458
NATIONAL	458
accessible	457
Update	457
UL@@	457
depending	457
03	457
fe@@	457
superior	457
sixty	457
Modi	457
stakeholders	457
stri@@	456
Access	456
Area	456
anywhere	456
scheduled	456
Bhutan	456
derivative	456
anta	456
silk	456
Koran	456
binding	455
Child	455
Play	455
diamonds	455
Meeting	455
43	455
models	455
ought	455
weakness	455
Sikh	455
Ministries	455
sounds	454
definition	454
Personal	454
sports	454
thick	454
Cham@@	454
Airport	454
shelter	454
experienced	454
convinced	454
ministers	454
reserve	453
Stop	453
frequently	453
Vi@@	453
ray	453
off@@	453
ink	453
Contacts	453
que	453
39	453
37	453
assist	453
stress	453
Allahabad	453
pen	452
newly	452
Mahal	452
Nir@@	452
Bills	452
crucial	452
chargeable	452
ace	451
fil@@	451
lu@@	451
alist	451
Paper	451
gross	451
tells	451
intention	451
ा@@	451
metres	451
Procedure	451
DA@@	450
ush@@	450
CO@@	450
payments	450
transportation	450
barrier	450
Registration	450
stronger	450
Valley	450
carries	450
tra@@	450
weapons	450
games	449
engine	449
kings	449
quit	449
attractive	449
golden	449
Young	449
Beneficent	449
engagement	449
Rule	448
readers	448
stuff	448
1991	448
resulted	448
amendment	448
commission	448
radiation	448
Format	447
collect	447
85	447
jo@@	447
sanctioned	447
younger	447
audience	447
Himalayas	447
Pune	447
colors	446
Head	446
ory	446
easier	446
41	446
mining	446
financing	446
Pension	446
closing	445
Author	445
parameters	445
52	445
logical	445
aj	445
mel@@	445
transgressors	445
assured	445
undertake	445
Agra	445
tail	444
glass	444
Several	444
Again	444
150	444
tested	444
visits	444
Goa	444
fairly	444
varied	444
sustained	444
Bri@@	443
clipboard	443
1000	443
shade	443
Nagar	443
attract	443
despair	443
Thy	443
surrender	443
apparent	443
Assessing	443
USA	442
Common	442
PA@@	442
Bu@@	442
Ha@@	442
extensive	442
Love	442
precious	442
Devi	442
Bahadur	442
Main	441
51	441
Reminder	441
nearest	441
Family	441
Micro@@	441
Friends	441
itation	441
rid	441
outcome	441
retribution	441
hardship	441
grave	441
ora	440
mal	440
Gr@@	440
noticed	440
perceive	440
fears	440
impression	440
graduate	440
Jam@@	439
head@@	439
miles	439
ions	439
operate	439
Were	439
corporation	439
Centres	439
corresponding	438
tests	438
programming	438
recipients	438
31st	438
til@@	438
rid@@	438
shi@@	438
enjoyed	438
surrounded	438
habit	438
inaugurated	438
render	437
dev	437
Bar	437
True	437
ug@@	437
entrance	437
meal	437
developments	437
conventional	437
atha	437
Nanak	437
Bl@@	436
ple@@	436
nearby	436
2nd	436
hole	436
Black	436
scattered	436
inputs	436
Nav@@	436
Rao	436
worse	436
mistake	436
purity	436
comfort	436
bondmen	436
cutting	436
hundreds	436
Survey	436
ase	435
references	435
faster	435
Sun@@	435
Follow	435
dar@@	435
gap	435
hunger	435
ruled	435
Netaji	435
dev@@	434
Nor@@	434
expand	434
Egypt	434
exposed	434
females	434
settle	434
pest	434
doctors	434
bacteria	434
sy	433
representing	433
Mat@@	433
pool	433
Gujarati	433
gates	433
ae	433
-@@	433
spreading	433
pace	433
rows	432
Natural	432
nam@@	432
vo@@	432
tries	432
testimony	432
flesh	432
loved	432
tourists	432
shift	431
conversation	431
backward	431
arm@@	431
tors	431
watching	431
resistance	431
thi	431
hel@@	431
Behold	431
overseas	431
Employment	431
genus	431
Basic	430
Zoom	430
implement	430
realized	430
elled	430
lamp	430
AR	430
G.	430
aggregate	430
exclusive	430
Secretariat	430
bid	429
illa	429
musical	429
99	429
evolved	429
operational	429
Bharati	429
comm@@	428
download	428
Direct	428
viz	428
actively	428
Sat@@	428
Ja@@	428
abundance	428
appreciation	428
hire	428
exchanges	428
Governors	428
emergency	427
Device	427
somewhat	427
Administration	427
hab@@	427
ON@@	427
calf	427
drew	427
literacy	427
plaintiff	427
Position	426
sol@@	426
arts	426
Iran	426
1997	426
Fort	426
Sab@@	426
Haryana	426
posts	426
jinns	426
experts	426
w.e.f.	426
nodes	425
replaced	425
geographical	425
ides	425
thin	425
delegation	425
Solomon	425
cool	425
artificial	425
vertical	424
warnings	424
VI@@	424
ster@@	424
equation	424
shot	424
exc@@	424
Whenever	424
prevented	424
beneficial	424
villagers	424
institute	424
Switch	423
acceptable	423
expanded	423
SC@@	423
any@@	423
Academy	423
twain	423
Promotion	423
dramatic	423
candidates	423
Railways	423
ID@@	422
ack	422
pretty	422
exp@@	422
occupied	422
answers	422
invented	422
rel@@	422
ular	422
forbid	422
angel	422
engage	422
castes	422
aspirations	422
itis	422
Top	421
Computer	421
wilt	421
66	421
Speech	421
fur@@	421
nearer	421
mad	421
UN	421
thank	421
regards	421
thankful	421
fulness	421
harvest	421
taxes	421
.2013	421
focused	420
Jan@@	420
ie	420
lin@@	420
a.	420
reducing	420
ast	420
SS	420
Ret@@	420
Dar@@	420
disorder	420
bestow	420
blessing	420
intellect	420
breeding	420
prince	420
J	419
Width	419
Branch	419
ese	419
applies	419
star@@	419
ego	419
Planning	419
Glory	419
ruin	419
commencement	419
ishing	418
sharp	418
entries	418
hr@@	418
assumed	418
Manipur	418
borne	418
extraordinary	418
arrest	418
ables	417
fication	417
Without	417
supports	417
Technical	417
Lucknow	417
1950	417
virtuous	417
aircraft	417
Kabir	417
statutory	417
Val@@	416
bug	416
Russian	416
suggestions	416
hardware	416
56	416
Jay@@	416
ax@@	416
texts	416
freely	416
ura	416
gathering	416
characteristics	416
tribes	416
incorporated	416
applicant	416
silence	415
hal	415
virus	415
attracted	415
films	415
MESSAGE	415
Preview	414
SC	414
dangerous	414
lowest	414
executed	414
forgot	414
Father	414
01.html	414
Title	413
MA	413
Process	413
wave	413
ud	413
Brahma	413
colleges	413
correctly	412
ited	412
PC	412
ew@@	412
Agreement	412
electric	412
Som@@	412
imports	412
occasions	412
pursued	412
Moreover	412
Himalayan	412
exploitation	412
Header	411
shell	411
Ber@@	411
NE@@	411
Mand@@	411
appreciate	411
bliss	411
scholar	411
norms	411
aps	410
spades	410
pick	410
ung	410
di	410
Var@@	410
nar@@	410
maturity	410
Vedas	410
Smt	410
Ur@@	409
Anjuta	409
handling	409
fun	409
IL@@	409
Until	409
Thank	409
composition	409
AD@@	409
expert	409
grains	409
afford	409
ishes	408
pressing	408
allocation	408
stamp	408
invite	408
tend	408
indicates	408
ere	408
water@@	408
TE@@	408
strongly	408
Eat	408
disgrace	408
patiently	408
vessels	408
liable	408
genuine	408
POP	407
Over@@	407
Rate	407
Transfer	407
tan@@	407
beat	407
parallel	407
everybody	407
1990	407
ascribe	407
hereafter	407
pregnancy	407
attacks	407
residential	407
MSME	407
recording	406
Do@@	406
Pe@@	406
Reply	406
zed	406
400	406
cho@@	406
obtaining	406
illegal	406
abad	406
vic@@	406
exceeding	406
considering	406
investigation	406
span	405
cle@@	405
oring	405
Ku@@	405
African	405
sinful	405
devil	405
arrival	405
snake	405
form@@	404
mailing	404
camera	404
Sch@@	404
connecting	404
sul@@	404
del@@	404
ow	404
membership	404
productive	404
altogether	404
encouraging	404
Session	403
Integrated	403
cache	403
04	403
Jacob	403
Ganges	403
Prof.	403
dwellers	403
genetic	403
schedule	402
asi	402
Sheikh	402
dies	402
subsidy	402
surgery	402
Configuration	401
decimal	401
Apply	401
CR@@	401
yl@@	401
examine	401
stick	401
600	401
ownership	401
bet@@	401
tru@@	401
Dh@@	401
nagar	401
1995	401
crowd	401
triumph	401
Desktop	400
queen	400
edit	400
sem@@	400
mount	400
Mobile	400
fonts	400
copies	400
excessive	400
acquire	400
reflected	400
forgotten	400
glorify	400
injured	400
resort	400
Back	399
dates	399
seal	399
oon	399
IM@@	399
Pol@@	399
pet@@	399
Lahore	399
hero	399
exclusively	399
obligation	399
evidences	399
coast	399
Durga	399
moves	398
Books	398
ota	398
vis@@	398
balanced	398
defend	398
punished	398
mortal	398
conf@@	397
fying	397
Microsoft	397
tin	397
bag	397
06	397
poly@@	397
1993	397
anga	397
glorious	397
Convention	397
app@@	396
requests	396
77	396
ams	396
Mul@@	396
Tal@@	396
movie	396
intense	396
mothers	396
circuit	396
favors	396
essence	396
Badruddin	396
premises	396
Rename	395
checked	395
AB@@	395
boiling	395
Ran@@	395
ultimately	395
disaster	395
War@@	394
variable	394
ading	394
locked	394
Digital	394
logic	394
ERS	394
plains	394
massive	394
seas	394
wonderful	394
march	394
Standards	394
Commerce	394
adoption	394
Directors	394
bookmarks	393
Gi@@	393
Oc@@	393
errors	393
Sign	393
BO@@	393
74	393
micro	393
TO@@	393
thrust	393
bitter	393
smoke	393
urgent	393
Load	392
sign@@	392
supplied	392
wr@@	392
locations	392
3rd	392
encounter	392
tears	392
zing	392
handed	392
72	392
recognise	392
brave	392
skilled	392
adults	392
Yojana	392
protein	392
Point	391
Disc	391
connections	391
refuse	391
Ash@@	391
scriptures	391
commerce	391
presents	391
tribute	391
flood	391
disposal	391
institutional	391
Log	390
Mis@@	390
SSL	390
players	390
ups	390
Protocol	390
ignore	390
uring	390
top@@	390
epic	390
yas	390
Sikkim	390
Holy	390
cursed	390
stomach	390
gland	390
CE@@	389
Toolbar	389
ake	389
backend	389
Processing	389
ete	389
yer	389
ym@@	389
talks	389
planet	389
Patel	389
defendant	389
realisation	389
ICT	389
updated	388
g.	388
ges	388
wider	388
shadow	388
owing	388
plan@@	388
island	388
awaits	388
allotted	388
lessly	388
stable	388
enhancing	388
Vertical	387
Field	387
oning	387
ners	387
bel@@	387
innovations	387
Regulation	387
ke@@	386
eration	386
descendants	386
ov@@	386
listening	386
clock	386
Bab@@	386
Movement	386
rely	386
merit	386
destiny	386
hari	386
MUKHERJEE	386
capabilities	385
ecting	385
chat	385
den	385
Gar@@	385
pres@@	385
definite	385
owners	385
Praise	385
urged	385
accommodation	385
Loan	385
toolbar	384
sh	384
flags	384
native	384
5th	384
Organisation	384
nose	384
che@@	384
eventually	384
mid	384
ills	384
accounting	384
singing	384
worry	384
49	384
Infrastructure	384
ell	383
gam@@	383
Object	383
Short	383
pending	383
assume	383
UT@@	383
down@@	383
dialogue	383
exact	383
tied	383
leg	383
abundant	383
grows	383
approaches	383
Governorate	383
ports	382
ation@@	382
smooth	382
On@@	382
ils	382
lac@@	382
ordained	382
reminded	382
beach	382
genius	382
developmental	382
preference	381
sav@@	381
fraction	381
necessarily	381
Isaac	381
prayed	381
experiment	381
utilised	381
Unicode	380
MIME	380
bin	380
Out@@	380
painting	380
rooms	380
PDF	380
proceeding	380
Bro@@	380
radi@@	380
circular	380
80@@	380
William	380
estimate	380
flows	380
enormous	380
automatic	379
enables	379
62	379
yn@@	379
tal	379
1986	379
Lake	379
emerge	379
blown	379
dynasty	379
Loc@@	378
tag	378
Pres@@	378
Sk@@	378
identification	378
ater	378
equ@@	378
add@@	378
situations	378
Nation	378
Hall	378
abnormal	378
feared	378
associates	378
mood	378
prof@@	378
examined	378
Ye	378
Narendra	378
couldn	377
asc@@	377
cat	377
DS	377
tank	377
IA	377
Gur@@	377
chiefs	377
nervous	377
ā@@	377
filing	376
Tar@@	376
lists	376
locally	376
PE@@	376
..	376
token	376
comprising	376
bought	376
T.	376
aji	376
explanation	376
dedication	376
Offices	376
aforesaid	376
modify	375
Build	375
Times	375
prefer	375
bits	375
Junk	375
cup	375
makers	375
ony	375
hopes	375
pursue	375
accordingly	375
Rather	375
commodity	375
dividend	375
monitor	374
ple	374
yp@@	374
Connection	374
run@@	374
Fil@@	374
Brasero	374
guess	374
95	374
nest	374
Nag@@	374
sun@@	374
openly	374
Thereafter	374
estate	374
television	374
linkages	374
Assistance	373
Advanced	373
med	373
ining	373
tolerance	373
Able	373
Monotheism	373
park	373
india	373
grievances	373
Ayurveda	373
Normal	372
ode	372
Tra@@	372
qui@@	372
machines	372
liar	372
inspire	372
conveyed	372
saint	372
1987	372
label	371
ote	371
HO@@	371
Malayalam	371
finger	371
ly@@	371
ards	371
waves	371
tape	371
secured	371
horses	371
thinks	371
enquiry	371
therewith	371
rav@@	371
outlook	371
admission	371
reserves	371
risks	371
Saty@@	371
inspection	371
complicated	371
congratulated	371
ect	370
aming	370
tly	370
isn	370
bulk	370
spec@@	370
Instead	370
roll	370
ere@@	370
reaches	370
oxygen	370
Festival	370
sia	370
advise	370
piety	370
Evil	370
ritual	370
cooperative	370
Bureau	370
Guidelines	370
.2019	370
Preferences	369
Re	369
int	369
trac@@	369
puts	369
approximately	369
68	369
tract	369
inal	369
IC	369
ee@@	369
cultures	369
AS	369
coloured	369
passion	369
belonged	369
surprise	369
angry	369
aud@@	369
speeches	369
stem	369
Brahman	369
celebrations	369
fix	368
drag	368
Four	368
IMAP	368
certificates	368
rat	368
uni@@	368
paintings	368
tered	368
ined	368
obligations	368
Abdul	368
Directorate	368
Notification	367
startup	367
syn@@	367
tering	367
Record	367
Str@@	367
op	367
restored	367
eting	367
restricted	367
formula	367
begun	367
ili@@	367
1989	367
Neither	367
creature	367
ENT@@	367
complaints	367
upright	367
wound	367
troops	367
forefathers	367
occupation	367
Warning	366
attach	366
Scale	366
IV@@	366
catch	366
province	366
kal@@	366
tism	366
mud	366
alistic	366
hatred	366
1988	366
Nodal	366
Ben@@	365
brown	365
mineral	365
doubts	365
treasure	365
allied	365
appreciated	365
slightly	365
acute	365
festivals	365
Culture	365
expertise	365
Consumer	365
Bel@@	364
connectivity	364
tons	364
describes	364
Star	364
Literature	364
visiting	364
peak	364
terrorist	364
routine	364
Corporate	364
revision	363
targets	363
Entry	363
spell	363
wheel	363
4th	363
chest	363
discovery	363
Oil	363
plastic	363
hon@@	363
ton@@	363
vitamin	363
exception	362
Allow	362
bol@@	362
meters	362
au	362
alo@@	362
Fi@@	362
electrical	362
Hal@@	362
semi	362
breath	362
ela	362
Ka@@	362
continuously	362
habits	362
pilgrimage	362
countrymen	362
packages	361
utility	361
OS	361
rev@@	361
mer	361
ret@@	361
Hol@@	361
tom@@	361
mas@@	361
feels	361
travelled	361
inevitable	361
hotel	361
Bhagat	361
ue	360
margin	360
foot@@	360
trash	360
ming	360
tro@@	360
exceeds	360
separately	360
processed	360
ok@@	360
reg@@	360
ech@@	360
Major	360
pos@@	360
murder	360
foods	360
economies	360
savings	360
sel@@	359
`	359
trusted	359
transparency	359
ail@@	359
anc@@	359
za	359
Tur@@	359
ost@@	359
eted	359
ements	359
necessity	359
helpers	359
fortune	359
obedience	359
garments	359
criminals	359
vary	359
seriously	359
ier	358
pixels	358
resolved	358
login	358
transmitted	358
ric	358
wine	358
slope	358
ban	358
flying	358
nobody	358
plenty	358
esh@@	358
seize	358
1980	358
premium	358
formulation	358
kers	357
switch	357
lights	357
59	357
ba@@	357
Hon@@	357
AM	357
repair	357
ith	357
nath	357
goodness	357
speaks	357
invested	357
visitors	357
Can@@	356
ashes	356
headers	356
transform	356
repeat	356
Transport	356
Hi@@	356
CE	356
PA	356
volumes	356
patterns	356
pregnant	356
protecting	356
grand	356
preceding	356
Prem	356
conducting	356
paths	355
cursor	355
Super@@	355
Ti@@	355
eous	355
oph@@	355
continuing	355
goddess	355
dominion	355
sovereignty	355
righteously	355
Singles	355
ave	354
Er@@	354
HTTP	354
videos	354
discover	354
dly	354
Taste	354
cop@@	354
rains	354
experiments	354
lah	354
RA	354
Art	354
increasingly	354
lease	354
arises	354
EX@@	353
themes	353
Queen	353
enabling	353
artist	353
ailing	353
visual	353
Island	353
mol@@	353
timely	353
Taj	353
Rabindranath	353
Changes	352
Cap@@	352
LE	352
blo@@	352
colours	352
compassionate	352
cooking	352
regulation	352
vimana	352
atta	352
fertilizers	352
Quit	351
insert	351
tone	351
bs	351
Bul@@	351
tales	351
utmost	351
oldest	351
shareholders	351
generating	350
dress	350
contrast	350
accurate	350
alarm	350
Mi@@	350
eleven	350
wal	350
Market	350
harmful	350
establishing	350
evildoers	350
shops	350
inaugurate	350
Men@@	349
aut@@	349
Icon	349
Authentication	349
cancel	349
ori@@	349
71	349
heights	349
believer	349
earthquake	349
Bal	349
incentives	349
itable	348
Loading	348
symbolic	348
hin@@	348
keeper	348
54	348
Mas@@	348
Amount	348
rit@@	348
nice	348
functional	348
addressing	348
mix	348
generous	348
therefrom	348
Jain	348
MW	348
tissues	348
Brahmin	348
Indus	348
PRANAB	348
Inf@@	347
Replace	347
occurrence	347
Rev@@	347
partial	347
attempts	347
SE	347
emails	347
managing	347
tar	347
lots	347
IF@@	347
pec@@	347
sar@@	347
mit@@	347
Conservation	347
guests	347
duc@@	347
males	347
levied	347
attacked	347
surrounding	347
ition	347
enacted	347
originally	347
endra	347
chemicals	347
Radhakrishnan	347
Property	346
Ri@@	346
blow	346
Memory	346
Building	346
dium	346
ride	346
Iraq	346
partly	346
agenda	346
striving	346
bearer	346
tribe	346
viable	346
searching	345
affects	345
idity	345
Pi@@	345
Proc@@	345
ands	345
afterwards	345
expiry	345
promises	345
nigh	345
imprisonment	345
advances	345
conviction	345
lending	345
mad@@	345
Sahib	345
retirement	345
Toggle	344
dial	344
checking	344
wont	344
SO@@	344
referring	344
Golden	344
camp	344
withdrawal	344
1957	344
Swaraj	344
judiciary	344
execute	343
Implementation	343
suggestion	343
segment	343
storm	343
kha	343
Death	343
Sindhi	343
flame	343
wherewith	343
furnished	343
ananda	343
Long	342
Sub	342
sum@@	342
dic@@	342
administrator	342
ignored	342
designated	342
Paul	342
E.	342
relate	342
Monitoring	342
Till	342
satisfy	342
devotees	342
teachings	342
Gracious	342
Accordingly	342
aram	342
Rani	342
Urban	342
BAR	341
interval	341
Photo	341
alize	341
Primary	341
preparing	341
Canada	341
measured	341
lam	341
L.	341
networks	341
Know	341
disputed	341
gran@@	341
obviously	341
Agency	341
paddy	341
GNU	340
possibly	340
Far@@	340
Resources	340
em	340
motor	340
Vietnam	340
monetary	340
defeated	340
picked	340
rebellious	340
Compassionate	340
losses	340
doth	340
Aurobindo	340
Saving	339
XML	339
ate@@	339
invitation	339
slave	339
gan@@	339
Ocean	339
Sen@@	339
ola	339
76	339
oid	339
Patna	339
63	339
Fear	339
elsewhere	339
laugh	339
utterly	339
calm	339
tenant	339
muscles	339
Dwarkanath	339
Block	338
Clean	338
comments	338
license	338
mandatory	338
anyway	338
od	338
restrictions	338
alia	338
sam@@	338
loc@@	338
helpful	338
sup@@	338
Cooperation	338
Judgement	338
rainfall	338
Kanpur	338
credited	338
Vivekananda	338
,@@	338
Is@@	337
rename	337
retrieve	337
bil@@	337
una	337
LO@@	337
medi@@	337
Administrative	337
endeavours	337
bath	337
Nokia	337
ette	336
Very	336
land@@	336
junk	336
ju@@	336
Turkey	336
Ham@@	336
Ta@@	336
Station	336
alms	336
denial	336
invest	336
afternoon	336
ancients	336
manpower	336
amended	336
enthusiasm	336
railways	336
vehicles	336
ection	335
log@@	335
query	335
Fa@@	335
rocks	335
Village	335
250	335
SI	335
Rai	335
compliance	335
earning	335
dwellings	335
succession	335
Whom	335
Buddhism	335
Download	334
ails	334
transparent	334
09@@	334
oting	334
bi	334
definitely	334
bounties	334
Viceroy	334
incidents	334
parliament	334
proviso	334
empowerment	334
Event	333
Version	333
Try	333
Manual	333
pressed	333
Chi@@	333
ich	333
Unseen	333
Mun@@	333
qualified	333
Whosoever	333
confusion	333
worshipping	333
belie	333
involvement	333
philosophical	333
स@@	333
Summit	333
Housing	333
borrower	333
15th	332
quest	332
ty@@	332
Northern	332
agents	332
proclaim	332
ruined	332
Arabs	332
spr@@	332
subsequently	332
relatively	332
magnetic	332
Languages	331
incomplete	331
onic	331
lit@@	331
PR@@	331
substituted	331
writes	331
prosperous	331
prisoners	331
serves	331
Religion	331
jointly	331
imperialism	331
ologist	331
path@@	330
hard@@	330
substitute	330
Ni@@	330
Bad@@	330
sha	330
Vas@@	330
Was	330
residents	330
studying	330
1974	330
Acts	330
bio	330
Tool	329
Active	329
ran@@	329
Secondary	329
chamber	329
rejoice	329
rewarded	329
spending	329
sympathy	329
Budget	329
Uttarakhand	329
Gram	329
Horizontal	328
quoted	328
forwarded	328
Ray	328
ans@@	328
Seeing	328
passes	328
withdraw	328
idolaters	328
purify	328
whereof	328
OK	327
mi	327
Azad	327
tively	327
enters	327
inherit	327
Believe	327
elephants	327
Thee	327
prosecution	327
consist	327
Soviet	327
colonial	327
airports	327
Veda	327
bamboo	327
Output	326
photos	326
oms	326
ential	326
91	326
intensity	326
liver	326
ades	326
accepts	326
mature	326
deeper	326
humility	326
auspicious	326
intimate	326
powder	326
Benefit	326
apur	326
Tilak	326
Municipal	326
tributes	325
horizontal	325
Tasks	325
reception	325
Forces	325
cli@@	325
capture	325
Radio	325
osa	325
pursuit	325
bee	325
absolutely	325
intercession	325
nights	325
prophets	325
beliefs	325
designs	325
pot	325
Menon	325
eshwar	325
Down	324
stores	324
ca	324
chi	324
prevention	324
hat@@	324
winning	324
Forum	324
disciples	324
shame	324
ful@@	324
Abdullah	324
liberty	324
regime	324
si	323
journal	323
19th	323
Ju@@	323
tiny	323
Schemes	323
dollar	323
pardon	323
riches	323
victims	323
monsoon	323
र@@	323
Regulations	323
Initial	322
Tim@@	322
Cur@@	322
sisters	322
Mizoram	322
him@@	322
ank	322
clo@@	322
evaluation	322
afflicted	322
preserved	322
endowed	322
elder	322
Hon	322
Manilal	322
ond@@	321
Mak@@	321
eth@@	321
orientation	321
Persons	321
previously	321
rep@@	321
tness	321
med@@	321
concentration	321
Within	321
barren	321
1976	321
medicines	321
yam	321
Ambassador	321
Studies	321
mechanical	321
liabilities	321
agro	321
Statement	320
Reference	320
Weather	320
virtual	320
hosted	320
stu@@	320
anybody	320
rac@@	320
Audit	320
Torah	320
hearted	320
Tribes	320
framed	320
Indra	320
Chhattisgarh	320
Sciences	320
ust@@	319
Writing	319
pad	319
58	319
Mauritius	319
Jo@@	319
lays	319
talked	319
Plant	319
,000	319
dist@@	318
Write	318
favourite	318
Review	318
coordinate	318
win@@	318
Sil@@	318
modification	318
ny	318
21st	318
cm	318
perception	318
dil@@	318
DNA	318
Bhai	318
hindi	318
professionals	318
Straight	317
Comment	317
para	317
pull	317
Couldn	317
Copying	317
Payment	317
She@@	317
lat@@	317
Systems	317
worm	317
decorated	317
ga@@	317
Gang@@	317
holders	317
descend	317
argue	317
Worship	317
remind	317
carved	317
earnings	317
ranging	317
streets	317
discrimination	317
secular	317
INDIAN	317
tis@@	316
Hel@@	316
Question	316
birthday	316
declined	316
78	316
ther	316
Andaman	316
advantages	316
shore	316
respects	316
1971	316
Bhar@@	316
Sikhs	316
Estate	316
SRI	316
Ed@@	315
Det@@	315
symbols	315
CP@@	315
ei@@	315
sis	315
ron@@	315
Cost	315
legacy	315
Community	315
conc@@	315
scientist	315
concrete	315
81	315
ide@@	315
resting	315
sciences	315
cometh	315
membrane	315
genes	315
Electronics	315
Enterprises	315
02@@	314
Trash	314
colleagues	314
lim@@	314
20th	314
ris@@	314
dri@@	314
tile	314
bounds	314
AI@@	314
nic@@	314
shed	314
Dr@@	314
t.	314
steady	314
bh@@	314
averse	314
kindness	314
pleasant	314
avoided	314
jute	314
GDP	314
Notwithstanding	314
columns	313
Pre	313
Syn@@	313
capability	313
Por@@	313
leg@@	313
tired	313
stra@@	313
frequency	313
UK	313
specifically	313
kids	313
gener@@	313
profound	313
relates	313
marine	313
nationalism	313
liberation	313
Index	312
upgrade	312
oned	312
Put	312
Sak@@	312
artists	312
Kannada	312
Palestinian	312
separation	312
ust	312
edly	312
cement	312
Lok@@	312
retain	312
extending	312
secrets	312
treaty	312
adverse	312
demanded	312
Guardian	312
Penalty	312
Mysore	312
licence	312
pests	312
fac@@	311
Bra@@	311
criteria	311
sch@@	311
comparison	311
solved	311
perspective	311
Muk@@	311
secretly	311
whereon	311
comprises	311
NIOS	311
Almast	311
parse	310
ek@@	310
tap@@	310
GO@@	310
ures	310
tiger	310
far@@	310
rating	310
Kur@@	310
ox@@	310
bread	310
heedless	310
extends	310
absorbed	310
minority	310
revised	310
mailbox	309
Empty	309
Extension	309
Works	309
depreciation	309
Modern	309
ision	309
tac@@	309
sect	309
lesser	309
discourse	309
goodwill	309
Lolita	309
rer	308
comment	308
buttons	308
bon@@	308
ounding	308
exposure	308
controls	308
fal@@	308
rear	308
Sang@@	308
asis	308
fulfill	308
infidels	308
lessness	308
brand	308
mosque	308
wooden	308
greatness	308
expanding	308
involve	308
sman	308
Hearer	308
candidate	308
Emperor	308
Constituent	308
Sharma	308
Install	307
tip	307
ulate	307
assistant	307
simultaneously	307
notifications	307
bing	307
Pen@@	307
gg@@	307
sport	307
tends	307
Fer@@	307
lips	307
speci@@	307
endure	307
perish	307
abiding	307
lofty	307
asts	307
mutually	307
Fir	307
Worlds	307
reservation	307
liberal	307
diabetes	307
hydro@@	307
cum	307
Continue	306
justified	306
Empathy	306
net@@	306
8th	306
meaningful	306
borders	306
Legal	306
breaks	306
MENT	306
dh@@	306
ries	306
beg@@	306
wor@@	306
ella	306
61	306
bent	306
bore	306
immortal	306
palms	306
phenomenon	306
crude	306
1946	306
clauses	306
bles	305
ame	305
Medium	305
icons	305
coffee	305
proc@@	305
Il@@	305
tam@@	305
crossing	305
quar@@	305
Moon	305
Maybe	305
eff@@	305
personally	305
AG@@	305
Banking	305
sealed	305
desist	305
testify	305
laying	305
deficiency	305
shoulder	305
garh	305
nominated	305
boost	305
tendency	305
participated	305
cavity	305
Asutosh	305
ication	304
Q	304
Turkish	304
fails	304
encies	304
encrypted	304
iled	304
collecting	304
Travel	304
divisions	304
ira	304
ik	304
Israeli	304
arch@@	304
seventy	304
graves	304
survive	304
upset	304
threatened	304
territories	304
concepts	304
artistic	304
Samaj	304
sanitation	304
.2016	304
Summary	303
buffer	303
Automatically	303
processor	303
purely	303
ump	303
Large	303
hot@@	303
shar@@	303
é@@	303
dy@@	303
creed	303
Moosa	303
disability	303
minerals	303
scholarship	303
Micro	303
rope	302
confirmation	302
Ki@@	302
ware	302
mechanisms	302
reliable	302
dian	302
Chandigarh	302
whichever	302
115@@	302
calamity	302
tall	302
substances	302
shrines	302
museum	302
uniform	302
1949	302
Ahmedabad	302
Prize	302
subscriber	302
def@@	301
ao	301
Sum@@	301
pit	301
Latin	301
bre@@	301
ration	301
antly	301
Ut@@	301
mur@@	301
lightning	301
rebellion	301
presently	301
79	301
quantities	301
Appellate	301
widget	300
Available	300
Au@@	300
Return	300
Box	300
sion@@	300
Burning	300
ices	300
continent	300
22@@	300
kan@@	300
particles	300
m.	300
boo@@	300
agar	300
rescue	300
confused	300
passengers	300
conceived	300
wake	300
drought	300
intensive	300
ि@@	300
yed	299
mag@@	299
Cl@@	299
rendering	299
spo@@	299
Memo	299
receipts	299
ker@@	299
ref@@	299
bling	299
bor@@	299
oma	299
transformed	299
cou@@	299
buying	299
uncle	299
anxious	299
entertainment	299
formulated	299
provinces	299
enforcement	299
Column	298
Royal	298
Ker@@	298
Input	298
Database	298
Cancel	298
pe	298
arian	298
Pri@@	298
aqu@@	298
classified	298
MAPI	298
ign@@	298
Oriya	298
emp@@	298
88	298
tak@@	298
Tea	298
av	298
accomplished	298
walked	298
worried	298
breed	298
reputation	298
considerably	298
leaflet	298
significantly	298
subordinate	298
inflammation	298
everyday	298
manual	297
edited	297
Final	297
6th	297
wearing	297
Environmental	297
Ay@@	297
behavior	297
Finally	297
likes	297
goodly	297
befall	297
ornaments	297
Everyone	297
deer	297
traders	297
medicinal	297
.01@@	297
haven	296
Base	296
spaces	296
repository	296
encoding	296
US@@	296
factories	296
fol@@	296
ens@@	296
af	296
SU@@	296
compl@@	296
Issue	296
chi@@	296
Arunachal	296
UT	296
satellite	296
but@@	296
Mosque	296
affliction	296
rests	296
neglected	296
enduring	296
deposited	296
welcomed	296
ith@@	296
Gehenna	296
1951	296
therapy	296
funding	296
Securities	296
ou	295
captured	295
tures	295
ET@@	295
ment@@	295
fies	295
ag	295
hic	295
tie	295
Based	295
observation	295
Upon	295
footsteps	295
prosper	295
insight	295
prevalent	295
characterized	295
Despite	295
romantic	295
HIV	295
Acharya	295
electronics	295
hana	295
assessed	295
coastal	295
Senior	295
sender	294
san@@	294
BE	294
ras@@	294
wards	294
marble	294
meter	294
rays	294
oun@@	294
ATE	294
NI@@	294
shirt	294
devils	294
frequent	294
throat	294
undoubtedly	294
cultivated	294
liber@@	294
prevailing	294
alities	294
brilliant	294
proceeds	294
engineers	294
Climate	294
Kittur	294
pr0@@	294
Games	293
Following	293
stretch	293
burnt	293
tiv@@	293
consistent	293
tioning	293
determining	293
zz@@	293
Singapore	293
div@@	293
Pu@@	293
98	293
Kir@@	293
Jal@@	293
AIR	293
deceive	293
excuse	293
weaker	293
receives	293
forged	293
retired	293
Commonwealth	293
rupee	293
Cs	293
surgical	293
Govt.	293
Reset	292
Ren@@	292
CA@@	292
sym@@	292
burst	292
57	292
dam	292
Higher	292
mut@@	292
Nagaland	292
inv@@	292
relationships	292
obedient	292
inmates	292
pit@@	292
FDI	292
Original	291
decrease	291
Paris	291
Revolution	291
Rag@@	291
va@@	291
IL	291
posed	291
Iblis	291
ished	291
Universe	291
headquarters	291
Baba	291
CVS	290
aching	290
Bad	290
controlling	290
ool	290
FROM	290
Old	290
Pand@@	290
blocks	290
bit@@	290
Various	290
Hu@@	290
ich@@	290
ben@@	290
abandoned	290
Ah	290
compulsory	290
sac@@	290
Kalam	290
Hanuman	290
alists	290
coverage	290
Shakti	290
Wildlife	290
RTI	290
backup	289
multi@@	289
Website	289
Bir@@	289
uri	289
ree	289
intelligent	289
scor@@	289
gh	289
honor	289
appa	289
Pun@@	289
kin	289
hear@@	289
dominant	289
exercised	289
tobacco	289
IM	288
Internal	288
Es@@	288
53	288
Third	288
coins	288
°	288
scales	288
boundary	288
lev@@	288
Haz@@	288
Commercial	288
purchased	288
surprised	288
guarded	288
Along	288
outward	288
anas	288
widow	288
Revenue	288
biological	288
ministry	288
conception	288
Paste	287
sessions	287
dra@@	287
allowing	287
somewhere	287
accepting	287
Rom@@	287
97	287
Jaipur	287
awe	287
radical	287
allies	287
praises	287
disturbed	287
deserve	287
grievance	287
nationalist	287
Mahar@@	287
Dep@@	286
atively	286
dictionary	286
Av@@	286
recover	286
tune	286
eries	286
92	286
tel@@	286
dollars	286
limitations	286
Might	286
gracious	286
withdrawn	286
oceans	286
minded	286
Oneness	286
lover	286
protest	286
basically	286
Vish@@	286
envisaged	286
Gl@@	285
Street	285
Specify	285
trace	285
Creating	285
DO@@	285
Night	285
iny	285
wal@@	285
denominator	285
ib@@	285
Nicobar	285
pil@@	285
Little	285
dumb	285
enjoin	285
deprived	285
perpet@@	285
sects	285
Alif	285
absent	285
serpent	285
god@@	285
hospitality	285
entr@@	285
humiliating	285
cure	285
assurance	285
expensive	285
tooth	285
recovered	285
author@@	285
pal	285
1973	285
mango	285
Cooperative	285
statistics	284
hop@@	284
gs	284
handled	284
writable	284
viewed	284
removing	284
Hill	284
Person	284
Myanmar	284
enter@@	284
ranges	284
Hy@@	284
nodal	284
Production	284
homage	284
worn	284
swift	284
ital	284
sad@@	284
1930	284
sculptures	284
plate	284
IIT	284
Sy@@	283
Signature	283
lic@@	283
underlying	283
asks	283
Kat@@	283
sted	283
void	283
existed	283
inclusion	283
gue	283
mus@@	283
craft	283
sand@@	283
Lam	283
nal	283
describing	283
guru	283
grammar	283
wretched	283
guiding	283
disposed	283
amidst	283
Ever	283
crossed	283
concluded	283
weapon	283
र	283
typical	283
Puri	283
clearance	283
Deposit	283
Institutes	283
UTs	283
ef@@	282
OR	282
Introduction	282
initially	282
HA@@	282
Ann@@	282
cable	282
Printer	282
67	282
lakes	282
cows	282
underneath	282
Vol@@	282
Mang@@	282
rational	282
misfortune	282
neglect	282
grand@@	282
thereto	282
empowered	282
arbitration	282
producer	282
Marketing	282
1994	282
spots	281
Recent	281
blank	281
Real	281
acres	281
privileges	281
flu@@	281
boundaries	281
corn	281
Communication	281
ION	281
disobedient	281
guardians	281
everlasting	281
hus@@	281
wrongdoing	281
promoted	281
cult	281
joining	281
governed	281
lectures	281
inflation	281
Examination	281
tens	280
nation@@	280
ied	280
reporting	280
Pul@@	280
11th	280
Prince	280
hap@@	280
batch	280
sphere	280
Mir@@	280
Rep@@	280
pra@@	280
fancy	280
purified	280
approached	280
breathing	280
thereon	280
governing	280
Sarojini	280
rehabilitation	280
penis	280
Farmers	280
canceled	279
associations	279
analy@@	279
score	279
ix	279
notify	279
pond	279
classification	279
introduce	279
pot@@	279
ads	279
anna	279
Saint	279
illing	279
AC	279
wash	279
hun@@	279
Pay	279
rarely	279
possessions	279
narrative	279
sleeping	279
oh	279
directors	279
controversy	279
1972	279
Petroleum	279
Withdrawal	279
org	278
SP@@	278
PIN	278
Notice	278
idle	278
ME	278
subscribe	278
Owner	278
updates	278
define	278
ections	278
strict	278
hak@@	278
neighbours	278
disobedience	278
blast	278
liked	278
travelling	278
adorned	278
vested	278
Narayan	278
reign	278
Political	278
Sri@@	278
psychological	278
Youth	278
commencing	278
Poresh	278
corrupt	277
tivity	277
ander	277
cha	277
eter	277
ous@@	277
coin	277
utilization	277
adjustment	277
Tan@@	277
mir@@	277
Territories	277
iously	277
resurrection	277
Freedom	277
1984	277
Deccan	277
businesses	277
Copyright	276
Java	276
quote	276
Coll@@	276
computed	276
transition	276
publish	276
Answer	276
Bay	276
Ir@@	276
sided	276
Poly@@	276
tem@@	276
Guard	276
slay	276
pour	276
thoroughly	276
immovable	276
mortgage	276
Dhar@@	276
Jinnah	276
regulatory	276
Mod@@	275
determines	275
Cat@@	275
MB	275
dimensions	275
Encryption	275
verified	275
0s	275
We@@	275
Scientific	275
cra@@	275
sor@@	275
ounded	275
armies	275
Independent	275
departure	275
shifted	275
Premchand	275
affordable	275
scenario	275
infected	275
Sind	275
&apos;The	275
laboratories	275
matches	274
push	274
adds	274
paragraph	274
Country	274
Label	274
convenient	274
ron	274
ac	274
73	274
lers	274
confirmed	274
BE@@	274
condemned	274
dying	274
assisted	274
speedy	274
impressed	274
1977	274
dir	273
Welcome	273
Dra@@	273
Gen@@	273
GE	273
des	273
Inspector	273
10th	273
God@@	273
Age	273
ink@@	273
tit@@	273
pic@@	273
participating	273
itra	273
lecture	273
rough	273
annum	273
FC	273
suc@@	273
favoured	273
miracle	273
ancestors	273
invent	273
clothing	273
supplies	273
Brahmins	273
challenged	273
NO@@	272
Important	272
Client	272
verify	272
min	272
eling	272
Cross	272
hub	272
bal	272
gram	272
density	272
counted	272
Gas	272
ective	272
Kap@@	272
dense	272
Jharkhand	272
globe	272
disclose	272
hears	272
breach	272
Mim	272
recompensed	272
lift	272
vessel	272
abuse	272
nursing	272
repayment	272
impressive	272
Himalaya	272
1985	272
1962	272
legislature	272
wildlife	272
publications	272
DAC	272
Sort	271
binary	271
Folders	271
Operation	271
eled	271
mistakes	271
possibilities	271
modes	271
Tu@@	271
WE@@	271
kal	271
uli	271
Tripura	271
Nobel	271
originated	271
valued	271
successors	271
fulfilment	271
bellies	271
planted	271
equitable	271
unfortunate	271
delighted	271
urine	271
shortage	271
elaborate	271
literally	271
rituals	271
coconut	271
tragedy	271
kidney	271
laboratory	271
advancement	271
MSMEs	271
SPEECH	271
supramental	271
read@@	270
expired	270
authorized	270
Appointment	270
zo@@	270
84	270
Az@@	270
grid	270
worms	270
iti@@	270
kh@@	270
confirming	270
IV	270
coat	270
foremost	270
equipped	270
inferior	270
households	270
Preet	270
TOMORROW	270
Currently	269
auto	269
Lu@@	269
boxes	269
val	269
reverse	269
username	269
12th	269
shut	269
intervention	269
hungry	269
Belarus	269
pon@@	269
eco	269
fame	269
mate	269
befalls	269
inclined	269
sung	269
driving	269
strategies	269
Grace	269
labourers	269
Shankar	269
Yamuna	269
Script	268
Bookmark	268
low@@	268
Opening	268
Height	268
tracks	268
Federation	268
Bor@@	268
autonomous	268
guest	268
prevail	268
explains	268
slip	268
mot@@	268
neighbouring	268
indirectly	268
beloved	268
surplus	268
ensured	268
lotus	268
chair	268
compound	268
indirect	268
peculiar	268
batsman	268
renewable	268
1942	268
Convocation	268
Nanalal	268
Documents	267
template	267
oth	267
Log@@	267
Registrar	267
negotiations	267
Job	267
nat@@	267
VI	267
Hor@@	267
Cy@@	267
outs	267
ots	267
corners	267
ji@@	267
Gan@@	267
pro	267
accumulated	267
acknowledged	267
inquiry	267
vegetation	267
devotee	267
Shaitan	267
voting	267
Panchayat	267
accorded	267
PRAN	267
Volume	266
wasn	266
detected	266
Birth	266
ino	266
ush	266
Indi@@	266
ound	266
Nan@@	266
Letter	266
sof@@	266
COMM@@	266
Vic@@	266
dol@@	266
ination	266
rites	266
unjustly	266
likeness	266
asunder	266
sperm	266
deaths	266
striking	266
saints	266
meets	266
contracts	266
indian	266
critics	266
Funds	266
Castes	266
Ter@@	265
aces	265
CL@@	265
Sending	265
servers	265
correspondence	265
aches	265
odd	265
Tel@@	265
Thomas	265
ater@@	265
Range	265
dish	265
mirror	265
Advisory	265
bare	265
bold	265
systematic	265
cluster	265
PL@@	265
je@@	265
dreadful	265
whoso	265
damaged	265
Prophets	265
sickness	265
kitchen	265
Bhag@@	265
governmental	265
Gold	264
Sports	264
7th	264
person@@	264
gender	264
87	264
eta	264
varying	264
chains	264
sid@@	264
tain@@	264
inj@@	264
vice	264
Kab@@	264
spon@@	264
04@@	264
obeyed	264
staying	264
vouchsafed	264
tioned	264
evils	264
Cave	264
Laws	264
sponsored	264
alcohol	264
1857	264
chandra	264
aking	263
extract	263
mul@@	263
inch	263
wherefore	263
9th	263
Units	263
Prompt	263
repl@@	263
Territory	263
mid@@	263
vol@@	263
moderate	263
coun@@	263
unlawful	263
judged	263
measuring	263
honourable	263
winners	263
committees	263
sentiments	263
Socialist	263
ethical	263
ema	262
DP	262
89	262
ok	262
Tir@@	262
1970	262
sting	262
Guinea	262
MP	262
ulated	262
compromise	262
gifts	262
flies	262
writ	262
ninety	262
custody	262
seated	262
survival	262
rail	262
Padma	262
ankar	262
affecting	262
yoga	262
emotions	262
Addressing	262
ET	261
ests	261
To@@	261
Body	261
edition	261
rotation	261
Hand@@	261
Recovery	261
ida	261
Atlantic	261
canal	261
Del@@	261
impl@@	261
esses	261
Between	261
tle	261
reflection	261
ins@@	261
physics	261
spectrum	261
rises	261
ians	261
ety	261
certainty	261
Wealth	261
copper	261
delicate	261
victim	261
raj@@	261
isolated	261
Vajpayee	261
symbol@@	261
larvae	261
Programmes	261
Seminar	261
Items	260
chart	260
Lim@@	260
publishing	260
orthodox	260
sixth	260
96	260
Du@@	260
clusters	260
gene	260
05@@	260
cogn@@	260
ample	260
gratitude	260
torn	260
availed	260
respected	260
furnish	260
dignitaries	260
Unfortunately	260
Rajendra	260
emperor	260
vibrant	260
Bookmarks	259
conflicts	259
encryption	259
Keyboard	259
random	259
expects	259
ticket	259
abl@@	259
120	259
Ji@@	259
Ul@@	259
bomb	259
wet	259
measurement	259
yar	259
selves	259
senses	259
revival	259
attraction	259
recommendation	259
particulars	259
alling	258
Pass	258
Low	258
disable	258
ashed	258
Request	258
yes	258
ification	258
graphy	258
800	258
Work@@	258
bite	258
ayan	258
Fe@@	258
oper@@	258
Unless	258
rever@@	258
Rav@@	258
das	258
na@@	258
iding	258
fingers	258
desirable	258
destined	258
distressed	258
alleged	258
vii	258
Allowance	258
hospitals	258
relevance	258
Starting	257
Distribution	257
bind	257
expressions	257
KB	257
owed	257
UP	257
Using	257
QU@@	257
Ms.	257
appearing	257
wil@@	257
arrange	257
translations	257
St.	257
mentation	257
ven	257
ble@@	257
smell	257
Standing	257
assure	257
practised	257
prohibited	257
shoes	257
magnificent	257
insul@@	257
amed	257
beneficiaries	257
founder	257
Partnership	257
Armed	257
researchers	257
Module	256
pipe	256
Spec@@	256
Draft	256
ona	256
Film	256
solving	256
03@@	256
SW@@	256
deniers	256
walks	256
wandering	256
seller	256
Ayat	256
क@@	256
Dutt	256
DH@@	256
entrepreneurship	256
Single	255
slot	255
popup	255
passwords	255
actors	255
FO@@	255
provider	255
bes	255
ticism	255
coordination	255
mic	255
ared	255
IB@@	255
filling	255
93	255
Machine	255
DD@@	255
Physical	255
law@@	255
Path@@	255
VE@@	255
FE@@	255
meditation	255
rage	255
circulation	255
babies	255
popularity	255
capacities	255
incoming	254
Burn	254
Draw	254
angu@@	254
authors	254
Creation	254
oo	254
ack@@	254
Music	254
drum	254
preservation	254
curve	254
draws	254
edges	254
rad@@	254
DC	254
poison	254
Ha	254
operated	254
shake	254
regret	254
orphans	254
with@@	254
administered	254
ress	254
portal	254
inqu@@	254
linguistic	254
structural	254
constructive	254
trends	254
patent	254
Prevention	254
substantially	254
amendments	254
attributes	253
segments	253
arrow	253
RAM	253
Sel@@	253
issuing	253
storing	253
Week	253
by@@	253
New@@	253
bly	253
uk	253
tension	253
Tam@@	253
Ke@@	253
dam@@	253
aran	253
Washington	253
cord	253
trunk	253
advocate	253
manufactured	253
cro@@	253
comfortable	253
disabilities	253
Memorial	253
GREETINGS	253
Profile	252
aling	252
generic	252
inheritance	252
Portuguese	252
err@@	252
ored	252
grams	252
69	252
onia	252
Still	252
ural	252
riding	252
akh@@	252
band@@	252
TR@@	252
honest	252
bags	252
Everlasting	252
perfectly	252
Nuh	252
ceiling	252
vaccine	252
Jubilee	252
dle	251
graphics	251
zoom	251
sample	251
imal	251
bars	251
Fr@@	251
instant	251
black@@	251
p.	251
Gal@@	251
appointments	251
vulnerable	251
Kol@@	251
ania	251
IG@@	251
amm@@	251
wan	251
Kav@@	251
spar@@	251
modest	251
enlightened	251
livestock	251
objection	251
Pollution	251
favourable	251
1939	251
Hospital	251
exhibition	251
Masters	251
ordinarily	251
auction	251
Generally	251
1975	251
condolences	251
spl@@	250
TA	250
Sen	250
Bus	250
miss	250
ro	250
igh@@	250
Turn	250
Vid@@	250
aki	250
uted	250
Shu	250
abandon	250
gaz@@	250
resurrected	250
shining	250
cautious	250
proceeded	250
lawyer	250
passenger	250
satisfactory	250
Verma	250
taxation	250
Missing	249
Python	249
strings	249
oot	249
Wait	249
Channel	249
Collection	249
topics	249
Player	249
Op@@	249
cri@@	249
Band@@	249
kin@@	249
AA	249
ood	249
sorry	249
weekly	249
Early	249
Customs	249
Sufficient	249
forgives	249
revive	249
udd@@	249
offences	249
practically	249
legitimate	249
cheap	249
fusion	249
Unbelievers	249
prize	249
1965	249
Omitted	249
applying	248
stry	248
finish	248
Cause	248
PS	248
Anniversary	248
18th	248
AK@@	248
Term	248
Democratic	248
strictly	248
lig@@	248
aan	248
real@@	248
Price	248
stroke	248
irrespective	248
tale	248
rained	248
swallow	248
preceded	248
plantation	248
idol	248
cow@@	248
instituted	248
emergence	248
breeds	248
fiscal	248
Highlight	247
watched	247
angles	247
Dictionary	247
Words	247
rob@@	247
Reg@@	247
Maj@@	247
TRA@@	247
don@@	247
boot	247
inger	247
James	247
ken	247
mand@@	247
super	247
persist	247
differed	247
proclaimed	247
mouths	247
smoking	247
retained	247
agitation	247
inherent	247
1960	247
otic	247
Amritsar	247
grassroots	247
Gandharva	247
VISIT	247
Ans	247
Cut	246
thesis	246
Simple	246
ser	246
scroll	246
Face	246
essed	246
distinguish	246
reflects	246
gallery	246
pilot	246
somehow	246
pose	246
Cultural	246
producers	246
suspended	246
MB@@	246
PC@@	246
94	246
aria	246
listened	246
disobey	246
imperative	246
disclosed	246
dependence	246
Varma	246
socialism	246
Goods	246
uation	245
shortcut	245
Progress	245
Das@@	245
worldwide	245
zones	245
rem@@	245
iling	245
indication	245
Arabia	245
Michael	245
pul@@	245
mented	245
ual	245
tia	245
ashi@@	245
Meanwhile	245
remedy	245
unlike	245
revolt	245
laden	245
suggests	245
suppose	245
alise	245
neighbourhood	245
AIDS	245
Lakshmi	245
त@@	245
Ghosh	245
uddin	245
sculpture	245
firms	245
Magistrate	245
signals	244
Balance	244
attachments	244
May@@	244
OC@@	244
Equ@@	244
UR	244
shock	244
may@@	244
Fig	244
flo@@	244
carrier	244
reviewed	244
hood	244
ransom	244
enjoined	244
brethren	244
expectations	244
mock	244
miracles	244
foundations	244
eighty	244
adventure	244
prestige	244
F.	244
1952	244
vit@@	244
NGOs	244
reconstruction	244
pesticides	244
dioxide	244
disciplinary	244
Highness	244
SIDBI	244
rup@@	243
lit	243
recipient	243
ession	243
versions	243
compact	243
rot@@	243
indicating	243
tax@@	243
collections	243
Assamese	243
700	243
Rang@@	243
luck	243
sanctuary	243
caves	243
idi@@	243
appeals	243
airport	243
SION	243
Vaishnava	243
Ganesh	243
magazine	243
intestine	243
Sankara	243
Thir@@	242
Max	242
Attachment	242
Hom@@	242
Track	242
play@@	242
cancelled	242
itude	242
oming	242
flexible	242
seventh	242
smile	242
mathematics	242
Phase	242
Sit@@	242
mun@@	242
hem@@	242
lean	242
County	242
mill	242
varies	242
commun@@	242
avert	242
pearls	242
attainment	242
contempt	242
intercourse	242
innovators	242
supervision	242
onwards	242
Ravana	242
peasants	242
publicity	242
cinema	242
Terrorism	242
compliment	242
nutrition	242
Tools	241
Param@@	241
ATAL	241
prob@@	241
alignment	241
hyper@@	241
EC@@	241
8859	241
credentials	241
ht@@	241
tification	241
Southern	241
Ah@@	241
dness	241
Bod@@	241
Suk@@	241
faults	241
devoid	241
disappeared	241
conclude	241
pus	241
quarters	241
Tender	241
subsidiary	241
BJP	241
Surya	241
1981	241
dairy	241
ows	240
Contents	240
bookmark	240
Subversion	240
ution	240
Fo@@	240
Pas@@	240
....	240
conver@@	240
bat@@	240
Saudi	240
Palestine	240
tent	240
finest	240
Study	240
trap	240
NC@@	240
marginal	240
votes	240
Earlier	240
disobeyed	240
helpless	240
treasures	240
buried	240
tenth	240
bun@@	240
tomb	240
cus	240
Saraswati	240
chronic	240
न@@	240
Staff	240
recruitment	240
Europeans	240
formally	240
accountability	240
Brahmo	240
tabs	239
tips	239
key@@	239
initi@@	239
crash	239
Friday	239
aster	239
Pad@@	239
Rat@@	239
Italy	239
deb@@	239
identical	239
tible	239
Cisco	239
realistic	239
willingly	239
argued	239
veil	239
couches	239
landlord	239
Satyagraha	239
Theme	238
Cyrillic	238
break@@	238
Others	238
ison	238
voices	238
permits	238
attempted	238
Sunday	238
Spain	238
calculation	238
Electricity	238
safely	238
trains	238
long@@	238
mak@@	238
mounted	238
eter@@	238
fourteen	238
ye@@	238
Chit@@	238
aun	238
aer@@	238
part@@	238
clients	238
doubled	238
praised	238
fabricated	238
atom	238
poses	238
flee	238
Witness	238
utilisation	238
swelling	238
wars	238
Cricket	238
demonstrated	238
economically	238
Ps	238
apex	238
Navy	238
SELECTED	238
Package	237
Tree	237
ature	237
Net@@	237
Character	237
pp@@	237
Days	237
ett@@	237
meanings	237
leather	237
cles	237
eager	237
Sin@@	237
suppl@@	237
oli@@	237
ects	237
Dal@@	237
ea	237
mines	237
pocket	237
bred	237
reveals	237
magicians	237
gentle	237
skins	237
fibre	237
seizure	237
hut	237
dict@@	237
interference	237
undergo	237
rubber	237
1938	237
facilitating	237
upgradation	237
Manage	236
Sound	236
Style	236
ude	236
Italian	236
frames	236
notation	236
array	236
Div@@	236
multiplication	236
Rain	236
improvements	236
slo@@	236
Sank@@	236
magnitude	236
cap	236
cabinet	236
rush	236
beasts	236
loving	236
considers	236
paradise	236
heavily	236
honey	236
essays	236
PAO	236
Absolute	235
gent	235
fs	235
Ru@@	235
editing	235
apped	235
detection	235
Given	235
gar	235
zes	235
vegetable	235
communicate	235
losing	235
Bag@@	235
abstract	235
mod@@	235
explore	235
Kun@@	235
holiday	235
hostile	235
await	235
liness	235
widespread	235
fond	235
textile	235
thermal	235
allotment	235
humour	235
oneness	235
convocation	235
AWARDS	235
Tre@@	234
Terminal	234
alizing	234
smart	234
dual	234
assa@@	234
instances	234
Archive	234
bers	234
asting	234
Ste@@	234
Nil@@	234
consume	234
misdeeds	234
mocked	234
asleep	234
cour@@	234
restraint	234
civilisation	234
undivided	234
Varanasi	234
centers	234
manufacturers	234
1963	234
Wor@@	233
Stock	233
Checking	233
chil@@	233
Model	233
termination	233
ured	233
MP@@	233
`@@	233
oes	233
Boards	233
eaten	233
oration	233
tables	233
rat@@	233
hil@@	233
floating	233
aa	233
Provinces	233
Bhopal	233
aug@@	233
hya	233
sword	233
journals	233
07@@	233
misery	233
acious	233
cla@@	233
rag@@	233
conscience	233
socialist	233
Expenditure	233
rao	233
wara	233
qualifications	233
emotion	233
realization	233
investor	233
Excise	233
Jagannatha	233
Kolhatkar	233
directories	232
libraries	232
Sup@@	232
Py@@	232
dropped	232
configured	232
Reading	232
Learning	232
ek	232
unusual	232
yers	232
Ang@@	232
magician	232
Jordan	232
pipes	232
sle@@	232
Burma	232
gun	232
82	232
mobil@@	232
scr@@	232
strayed	232
overtook	232
orphan	232
exemption	232
raj	232
depression	232
variations	232
bride	232
Odisha	232
valuation	232
VAJPAYEE	232
CALLS	232
tain	231
Register	231
Fore@@	231
doc@@	231
Web@@	231
Room	231
GroupWise	231
Roman	231
ko	231
marking	231
grey	231
impose	231
Hand	231
has@@	231
osh	231
vis	231
pronounced	231
dried	231
guards	231
cooked	231
shalt	231
pillar	231
ceased	231
Arabian	231
requisite	231
kilometres	231
chromosomes	231
Employees	231
Saha	231
HIS	231
.12@@	231
Border	230
static	230
sync	230
MM@@	230
lip@@	230
Organ@@	230
izes	230
lap	230
tish	230
stor@@	230
rolled	230
expl@@	230
asp@@	230
asi@@	230
convention	230
Meghalaya	230
Hum@@	230
limitation	230
Grant	230
announcement	230
pagans	230
rooted	230
CALL	230
prosec@@	230
Joshi	230
jewellery	230
puri	230
equipments	230
Khadi	230
uterus	230
Double	229
comb@@	229
ashing	229
assign	229
paste	229
Blue	229
STR@@	229
uti	229
iter	229
py@@	229
acre	229
Sand@@	229
horizon	229
dre@@	229
PM@@	229
TB	229
fare	229
maker	229
amazing	229
unfair	229
mandate	229
snakes	229
temper	229
apparently	229
1978	229
alam	229
comparatively	229
Nand@@	229
petroleum	229
Ananda	229
Tag	228
apping	228
burned	228
spare	228
roles	228
Areas	228
eable	228
tations	228
Fax	228
mos@@	228
Dam@@	228
Finland	228
ef	228
tran@@	228
iri	228
PP@@	228
MAN@@	228
sor	228
hes@@	228
rewards	228
underground	228
hunting	228
collectively	228
म@@	228
athi	228
assess	228
Councils	228
tenure	228
SPEECHES	228
1.@@	228
highlight	227
eld	227
Frame	227
Setting	227
Complete	227
compiler	227
FA@@	227
cleared	227
ouse	227
ental	227
Tor@@	227
ape	227
CS@@	227
speaker	227
subtract	227
ect@@	227
Wh@@	227
pap@@	227
ja@@	227
shoot	227
Dev	227
strain	227
pleasing	227
pursuing	227
wool	227
sacrifices	227
touching	227
founding	227
ridicule	227
stressed	227
priorities	227
recalled	227
Democracy	227
Ayodhya	227
neuro@@	227
patriotism	227
Browser	226
Content	226
IBM	226
Lab@@	226
Tab@@	226
Restore	226
lining	226
Cr@@	226
inviting	226
Devanagari	226
da@@	226
chron@@	226
dividing	226
Sweden	226
delta	226
pan	226
battery	226
providers	226
aja	226
IES	226
LY	226
heir	226
Living	226
bat	226
regulated	226
hereby	226
......	226
Ramalinga	226
medieval	226
compositions	226
horticulture	226
BIHARI	226
Role	225
scal@@	225
Series	225
Hun@@	225
Design	225
Coun@@	225
Bat@@	225
hang	225
codes	225
UID	225
feeds	225
yard	225
hectares	225
Church	225
sively	225
lighting	225
spe@@	225
Cash	225
Meh@@	225
URE	225
Sacred	225
necks	225
rightful	225
parable	225
poured	225
lovely	225
stup@@	225
prospects	225
occasionally	225
Goddess	225
poultry	225
lateral	225
185@@	225
electoral	225
य@@	225
Students	225
Bezbaroa	225
Viewer	224
activated	224
Wat@@	224
SMTP	224
ongoing	224
ager	224
TE	224
enn@@	224
new@@	224
operator	224
Liber@@	224
86	224
isa	224
DE	224
sit@@	224
rab@@	224
tongues	224
enmity	224
assembled	224
sigh@@	224
devised	224
ishment	224
prolonged	224
fashion	224
camels	224
nay	224
dealer	224
fruitful	224
shipping	224
develops	224
planting	224
Nagpur	224
Presidency	224
discretion	224
climatic	224
Undo	223
Target	223
Hebrew	223
detect	223
fetch	223
placing	223
Setup	223
gri@@	223
Proxy	223
physically	223
Indonesia	223
Kon@@	223
Ty@@	223
intervals	223
assuming	223
ility	223
arose	223
een	223
hoo@@	223
subtle	223
doctrine	223
borrowed	223
क	223
Panchayats	223
Upanishads	223
Century	223
i.e.	223
Korean	222
overwrite	222
Priority	222
app	222
precise	222
Telephone	222
30th	222
if@@	222
ender	222
broadcast	222
carriage	222
bunch	222
Aj@@	222
ck@@	222
Ancient	222
anth@@	222
sever@@	222
occurring	222
devotional	222
adversity	222
prone	222
slain	222
alien	222
dismissed	222
Ved@@	222
aur	222
contributing	222
influences	222
Dharma	222
Inter	222
premier	222
NITs	222
RASHTRAPATI	222
.2018	222
Split	221
threshold	221
authenticate	221
stretched	221
Dig@@	221
remainder	221
convenience	221
soci@@	221
digit	221
Switzerland	221
numerator	221
io	221
del	221
ided	221
velocity	221
The@@	221
cars	221
Skill	221
Arts	221
Ishmael	221
abh@@	221
burdens	221
excuses	221
dissolution	221
fodder	221
Prayer	221
rejection	221
exceptional	221
warming	221
Alone	221
shoulders	221
व@@	221
interview	221
tackle	221
babu	221
Akademi	221
sentiment	221
Ahmed	221
Palace	221
annually	221
irrit@@	221
Vidyasagar	221
Bhavabhuti	221
Everything	220
Function	220
Main@@	220
Translation	220
pping	220
iz	220
phrase	220
Bah@@	220
Amar@@	220
gy	220
aded	220
uv@@	220
aci@@	220
aver@@	220
oured	220
Blessed	220
Eden	220
similarly	220
forehead	220
lend	220
opinions	220
godfearing	220
dung	220
rolling	220
Chak@@	220
federal	220
1931	220
Nat@@	220
PRESENTS	220
selecting	219
explo@@	219
compiled	219
Domain	219
verification	219
construct	219
momentum	219
counting	219
scenes	219
Busy	219
confirm	219
16th	219
La	219
mem@@	219
yr@@	219
eller	219
MT	219
CC@@	219
violation	219
robust	219
Abu	219
som@@	219
victorious	219
hate	219
grasp	219
celebration	219
Lut	219
differently	219
resignation	219
observations	219
Tata	219
1945	219
Balarama	219
matching	218
Serial	218
Increase	218
Host	218
ected	218
Sim@@	218
painted	218
akes	218
tun@@	218
ori	218
uda	218
py	218
unt@@	218
abilities	218
ARE	218
Ka	218
cosmic	218
dom	218
Bang@@	218
circum@@	218
Cri@@	218
sou@@	218
Gand@@	218
she@@	218
ii@@	218
aright	218
transgress	218
accord	218
illustrious	218
Hud	218
races	218
charitable	218
occupy	218
mentality	218
trip	218
Blood	218
dose	218
mills	218
Hari@@	218
Subhash	218
lal	218
employers	218
Meherally	218
Bug	217
activate	217
Info	217
itor	217
embedded	217
Sent	217
regi@@	217
matrix	217
Dem@@	217
schema	217
websites	217
Notes	217
Outlook	217
compressed	217
tot@@	217
eer	217
mes	217
Iranian	217
house@@	217
thro@@	217
eighteen	217
alter	217
Va@@	217
Jewish	217
adi@@	217
ney	217
knowingly	217
rebel	217
illusion	217
infant	217
defect	217
miserable	217
ranking	217
Salih	217
admiration	217
wedding	217
1908	217
Hindustani	217
utilized	217
wire	216
Aut@@	216
lib@@	216
configure	216
alert	216
filters	216
Safety	216
Groups	216
unexpected	216
titled	216
posting	216
Mexico	216
awn	216
Records	216
MS@@	216
Kum@@	216
ament	216
coll@@	216
legend	216
ger@@	216
Nevertheless	216
exalt	216
heap	216
wary	216
loos@@	216
tum@@	216
omy	216
washing	216
sap@@	216
remarks	216
lawyers	216
tragic	216
yan@@	216
spinal	216
leprosy	216
launching	215
Under@@	215
lay@@	215
Taking	215
Fixed	215
sized	215
cel@@	215
Kabul	215
iti	215
Express	215
Pos@@	215
tured	215
sheets	215
Half	215
fan	215
successive	215
ENCE	215
sunrise	215
attributed	215
exclusion	215
stray	215
strikes	215
luminous	215
fitting	215
compelled	215
salvation	215
readily	215
deliberately	215
challenging	215
refund	215
elementary	215
merchant	215
Kes@@	215
Sahitya	215
Vidy@@	215
demonstration	215
fertilizer	215
16.html	215
Bottom	214
Menu	214
og	214
zer	214
ore@@	214
Panel	214
DPI	214
sustain	214
PH@@	214
Aviation	214
bot@@	214
Da@@	214
entities	214
Martin	214
aur@@	214
Gop@@	214
dep@@	214
tropical	214
par	214
Bac@@	214
Supply	214
escence	214
ledger	214
fled	214
hoped	214
aided	214
ity@@	214
sovereign	214
satan	214
Salat	214
acquiring	214
mechan@@	214
unemployment	214
1935	214
campus	214
disciplines	214
dissemination	214
census	214
ADDRESSES	214
remuneration	214
iser	213
CPU	213
Traditional	213
graphic	213
icated	213
Disk	213
stre@@	213
tin@@	213
Resolution	213
Multiple	213
chat@@	213
Provide	213
UTF	213
Universal	213
uta	213
dar	213
ums	213
gas@@	213
Din@@	213
kms	213
oted	213
initiate	213
NL	213
Comm@@	213
Submission	213
layers	213
tified	213
1928	213
denying	213
arrogance	213
monks	213
floods	213
fts	213
sanctum	213
treas@@	213
lovers	213
prey	213
renowned	213
zeal	213
debts	213
manifestation	213
dozen	213
workshops	213
propaganda	213
Bhakti	213
ह@@	213
curriculum	213
diplomatic	213
turnover	213
Regular	212
documentation	212
Smart	212
restart	212
lined	212
apt	212
Mc@@	212
fig	212
agon	212
portions	212
multiplied	212
shapes	212
Mic@@	212
Visit	212
prevents	212
stat@@	212
nav@@	212
Articles	212
spouse	212
fearful	212
pushed	212
oppose	212
perceived	212
fashioned	212
aband@@	212
pel	212
crimes	212
comply	212
advent	212
shr@@	212
insisted	212
Hindustan	212
Criminal	212
Maharshi	212
Purana	212
Teachers	212
sophisticated	212
impetus	212
industri@@	212
INAUGURATES	212
Wing	211
asth@@	211
Fre@@	211
Debug	211
erate	211
Journal	211
entation	211
inst@@	211
arrives	211
dor@@	211
San	211
ambi@@	211
ept	211
nut	211
umps	211
projected	211
consult	211
touches	211
Controller	211
Charge	211
wari	211
ENT	211
dur@@	211
estimates	211
variation	211
encompasses	211
consumed	211
fighters	211
surrendered	211
elderly	211
metre	211
े@@	211
disciple	211
aesthetic	211
Reforms	211
insured	211
fullscreen	210
whilst	210
Case	210
wrapped	210
signing	210
aying	210
Otherwise	210
Yahoo	210
Snow	210
Mut@@	210
clearing	210
Educational	210
Korea	210
une	210
Reality	210
Demand	210
Fair	210
vel@@	210
oppressed	210
progeny	210
divorce	210
dious	210
pilgrims	210
sail	210
decisive	210
furniture	210
itary	210
dinner	210
pulses	210
1921	210
forum	210
prompt	209
separ@@	209
cured	209
pack	209
categor@@	209
evolve	209
sums	209
isi@@	209
ican	209
Heavy	209
wel@@	209
Um@@	209
bow@@	209
arch	209
imper@@	209
repaid	209
lump	209
committing	209
Anglo	209
amy	209
tum	209
economics	209
vir@@	209
Forests	209
filename	208
atable	208
SM@@	208
Chat	208
Ek@@	208
cleaning	208
Rotate	208
und	208
RSS	208
Pet@@	208
Nas@@	208
200@@	208
Sec@@	208
pha@@	208
dpi	208
intend	208
decay	208
repeatedly	208
infl@@	208
Nation@@	208
teams	208
acquainted	208
successor	208
derive	208
mindful	208
Therein	208
fic@@	208
barriers	208
mortality	208
reliance	208
Almost	208
vul@@	208
bleeding	208
Heritage	208
stocks	208
ascetic	208
Highway	208
edible	208
ISRO	208
undertakings	208
MyGov	208
Fast	207
Lock	207
validity	207
Spanish	207
behave	207
Anti@@	207
Tun@@	207
introducing	207
Pass@@	207
utes	207
CMS	207
powered	207
circles	207
bra	207
1955	207
ext@@	207
persistent	207
loses	207
reduces	207
ough	207
ight	207
ARY	207
wid@@	207
traced	207
laughed	207
drinks	207
blazing	207
Wherefore	207
concentrate	207
care@@	207
procession	207
suited	207
secretary	207
Brah@@	207
concentrated	207
NHS	207
endranath	207
Ghose	207
Recruitment	207
trekking	207
Dated	207
.2012	207
.03@@	207
DI	206
unt	206
aks	206
ector	206
indicator	206
parameter	206
boun@@	206
Users	206
photograph	206
FOR@@	206
unhappy	206
pain@@	206
experimental	206
pin@@	206
£	206
Electronic	206
unbelief	206
greeted	206
priests	206
intends	206
anxiety	206
regulate	206
commendable	206
eighth	206
Communist	206
stimul@@	206
lungs	206
inception	206
chromosome	206
quantum	206
Rajiv	206
borrowing	206
Vigyan	206
.02@@	206
14.html	206
accessibility	205
agged	205
Saying	205
locate	205
Speed	205
Login	205
greeting	205
mark@@	205
pers@@	205
Animal	205
apple	205
vers	205
Wi@@	205
tains	205
globally	205
GP	205
apati	205
beware	205
disbelieving	205
inherited	205
rescued	205
pulled	205
hanging	205
masters	205
frustrate	205
hollow	205
organizing	205
Actually	205
ु@@	205
Tiger	205
artisans	205
tenants	205
lung	205
Swachh	205
Applications	204
unc@@	204
Cre@@	204
tab@@	204
Appl@@	204
outgoing	204
Bon@@	204
ories	204
Jan	204
gen	204
annuity	204
Currency	204
sar	204
Gol@@	204
coc@@	204
udi	204
iy@@	204
atra	204
eliminate	204
responded	204
prisoner	204
night@@	204
lifted	204
supporters	204
blindness	204
inspiring	204
aggression	204
naked	204
tox@@	204
warfare	204
dedicate	204
reproduction	204
itated	204
borrow	204
ा	204
freight	204
Maulana	204
qualification	204
intuitive	204
minorities	204
gle	203
anch@@	203
incorrect	203
Den@@	203
17th	203
sage	203
Chair	203
Team	203
mates	203
Charles	203
Han@@	203
oul@@	203
giant	203
Performance	203
Rob@@	203
vel	203
BBC	203
Cer@@	203
Deb@@	203
dimension	203
Assessment	203
wander	203
Whose	203
edness	203
imagined	203
palaces	203
withhold	203
inscribed	203
embrace	203
awful	203
Protector	203
fle@@	203
prov@@	203
invention	203
Certain	203
viii	203
panic	203
cough	203
innumerable	203
anus	203
Desai	203
Arjuna	203
Judicial	203
ayana	203
Provincial	203
creativity	203
biotechnology	203
flora	203
Purusha	203
Refresh	202
Cam@@	202
glo@@	202
Questions	202
excluded	202
postal	202
onal	202
nec@@	202
Virtual	202
cred@@	202
dig@@	202
orange	202
boards	202
brush	202
FF@@	202
allocated	202
ox	202
distances	202
denies	202
disorders	202
jur@@	202
harder	202
immunity	202
sincerely	202
assumption	202
completing	202
lifetime	202
spirits	202
ves@@	202
morality	202
giveth	202
fertile	202
LINK	202
ी	202
textiles	202
specialized	202
Moh@@	202
nineteenth	202
floral	202
procurement	202
Bharatiya	202
findings	202
Appeals	202
handicrafts	202
06@@	202
葉he	202
BHAVAN	202
fre@@	201
bye	201
Requ@@	201
displaying	201
Images	201
slight	201
Ali@@	201
balances	201
Suppl@@	201
Lower	201
decides	201
Australian	201
Wal@@	201
Robert	201
Sap@@	201
pitch	201
Rad@@	201
ksh@@	201
computation	201
arg@@	201
goat	201
VPN	201
Settlement	201
retreat	201
expel	201
protectors	201
depart	201
spouses	201
Much	201
hostility	201
aforetime	201
ologists	201
terrorists	201
न	201
Ki	201
aksh@@	201
implications	201
ideology	201
certified	201
certification	201
Duty	201
IITs	201
ICAR	201
Interface	200
Recently	200
Mailbox	200
Uni@@	200
typically	200
animation	200
brightness	200
Conditions	200
14th	200
ert	200
day@@	200
Congo	200
tower	200
rhythm	200
landscape	200
Sid@@	200
icity	200
IE@@	200
reads	200
W.	200
1937	200
dom@@	200
MINISTER	200
Hind	200
shaken	200
expend	200
sorcery	200
weigh	200
breathed	200
spreads	200
preaching	200
smo@@	200
approaching	200
Wisdom	200
Sanctuary	200
deth	200
concessions	200
professor	200
pulse	200
exploration	200
traditionally	200
Shri@@	200
wastes	200
1964	200
sensation	200
1983	200
1967	200
essay	200
simplicity	200
.html	200
Browse	199
Relations	199
Powerful	199
mask	199
modifications	199
IR	199
gal@@	199
Phot@@	199
Anti	199
expelled	199
escaped	199
ays	199
hs	199
stra	199
Gor@@	199
RI	199
tus@@	199
Ark	199
safeguard	199
adornment	199
divinity	199
discer@@	199
herein	199
resist	199
Adv@@	199
conspiracy	199
stiff	199
plea	199
loyalty	199
amalgamation	199
exploited	199
reactor	199
API	198
Printing	198
evaluate	198
emission	198
combine	198
distribute	198
Coo@@	198
Big	198
pas@@	198
ols	198
ache	198
sen	198
var	198
beds	198
primitive	198
counter@@	198
translate	198
delayed	198
Trumpet	198
Leg@@	198
Hem@@	198
sors	198
Aff@@	198
Chromium	198
stal@@	198
human@@	198
receiver	198
shout	198
doub@@	198
publicly	198
semen	198
ever@@	198
vein	198
Judges	198
Consequently	198
Thereupon	198
discre@@	198
doer	198
hav@@	198
renewed	198
gradual	198
unprecedented	198
pupils	198
abdomen	198
oda	198
constituent	198
alli	198
1929	198
buyer	198
Portal	198
fauna	198
Personnel	198
.04@@	198
Statistics	197
Ignore	197
Convert	197
container	197
Focus	197
texture	197
Sm@@	197
exceeded	197
assi@@	197
jun@@	197
enclosed	197
Che@@	197
harmon@@	197
altitude	197
shadows	197
fting	197
tight	197
quick@@	197
Federal	197
andi	197
cham@@	197
Cup	197
Deep@@	197
announce	197
reverence	197
Punishment	197
brotherhood	197
surroundings	197
grandfather	197
retail	197
sugarcane	197
Lal@@	197
Hills	197
1919	197
Arjun	197
Ashram	197
CO	197
Establishment	197
tri	197
outlay	197
Jadunath	197
aba	196
Sym@@	196
wn	196
gle@@	196
Gadu	196
delivering	196
Gre@@	196
compare	196
assignment	196
dal	196
Van@@	196
feedback	196
DR	196
ired	196
itting	196
Saf@@	196
acity	196
chur@@	196
ras	196
Gulf	196
UG@@	196
identifying	196
utation	196
icant	196
amend	196
deluded	196
elders	196
uous	196
treating	196
need@@	196
steadily	196
threats	196
pursuance	196
Dominion	196
oneself	196
lak@@	196
gun@@	196
prejudice	196
cin@@	196
Venkat@@	196
Saheb	196
sal	196
multilateral	196
Manik	196
13.html	196
tut@@	195
Inc@@	195
ome@@	195
Nov@@	195
lic	195
Saturday	195
accidents	195
Guide	195
imposing	195
Fac@@	195
uck	195
smallest	195
Brazil	195
dic	195
Bil@@	195
PRE@@	195
Sus@@	195
Afghan	195
vari@@	195
orbit	195
attendance	195
discount	195
agony	195
requited	195
mastery	195
keepers	195
humbled	195
motive	195
multitude	195
frag@@	195
Gods	195
humiliation	195
loyal	195
barred	195
conducive	195
worshipers	195
dome	195
dominated	195
biology	195
shopping	195
cook	195
sang	195
1969	195
Jodhpur	195
heating	195
banyan	195
Nivedita	195
Tatya	195
Sahdev	195
Priyobroto	195
preferences	194
Debugger	194
patch	194
sizes	194
Ind@@	194
drives	194
ket	194
cellular	194
Years	194
gers	194
alternate	194
viol@@	194
ligh@@	194
arity	194
lan@@	194
replacement	194
din	194
ense	194
lar	194
Diu	194
ure@@	194
ateral	194
atives	194
routes	194
tened	194
solemn	194
aversion	194
lied	194
attaining	194
revol@@	194
rig@@	194
Mecca	194
cleanliness	194
mould	194
Majestic	194
phases	194
heartfelt	194
Godwary	194
tribunal	194
allowances	194
manuscripts	194
congress	194
Mahadevi	194
hilly	194
optim@@	193
revert	193
invisible	193
inging	193
book@@	193
Backup	193
13th	193
tol@@	193
sk	193
Think	193
chers	193
tanks	193
partially	193
aters	193
merged	193
Steel	193
01@@	193
Course	193
itch	193
Capacity	193
alphabet	193
alli@@	193
Dur@@	193
ren	193
Sir@@	193
IAL	193
beli@@	193
chlor@@	193
rum@@	193
Care	193
creator	193
fabric	193
Gabriel	193
Christ	193
oppression	193
incumbent	193
preventing	193
warrant	193
moments	193
absorption	193
Americans	193
Keeping	193
municipal	193
1920	193
maritime	193
harvesting	193
banquet	193
S.@@	193
Inflammation	193
Pla@@	192
GTK	192
corrupted	192
Possible	192
hierarchy	192
Map	192
Emergency	192
Tom	192
pled	192
pi	192
Je@@	192
performs	192
lec@@	192
nucleus	192
berg	192
indecency	192
plead	192
Alas	192
deliberate	192
mockery	192
valleys	192
township	192
warmth	192
defects	192
commenced	192
wouldn	192
repairs	192
Mohammad	192
krishna	192
proteins	192
1932	192
ं@@	192
Prakash	192
1936	192
consultancy	192
examinations	192
fraternity	192
holistic	192
Layer	191
Item	191
Cursor	191
ints	191
Open@@	191
arer	191
itations	191
vector	191
eh@@	191
sli@@	191
aves	191
passive	191
loud	191
dancing	191
Above	191
Ev@@	191
Ma	191
Town	191
asses	191
crow@@	191
incidence	191
sorts	191
conjecture	191
itate	191
transgression	191
pity	191
unite	191
insult	191
washed	191
wore	191
merits	191
territorial	191
hygiene	191
Haplogroup	191
PRODUCTNAME	191
Veer@@	191
partnerships	191
reproductive	191
competence	191
patriotic	191
Vir	191
Pothana	191
02.html	191
Stat@@	190
JavaScript	190
Mol@@	190
ains	190
deleting	190
folded	190
prints	190
Complex	190
pers	190
attending	190
visu@@	190
Upper	190
pass@@	190
iya	190
sixteen	190
planes	190
cam@@	190
ck	190
ANCE	190
DG@@	190
TI	190
Dhan@@	190
assemble	190
revenge	190
rejoicing	190
explaining	190
tide	190
preach	190
complain	190
Guidance	190
Christianity	190
reactions	190
proposition	190
twin	190
cane	190
club	190
Diwali	190
chal@@	190
excitement	190
1954	190
1982	190
encouragement	190
telecom	190
1A	190
DATED	190
scripts	189
jack	189
clicking	189
Completed	189
Direc@@	189
info	189
uro@@	189
PG	189
Mouse	189
Storage	189
ores	189
Maldives	189
ells	189
ograph	189
Grid	189
matic	189
aus@@	189
Kul@@	189
ffs	189
entary	189
let@@	189
fun@@	189
posted	189
ock	189
harb@@	189
sper@@	189
conv@@	189
Construction	189
practise	189
eful	189
diagnosis	189
presenting	189
2A	189
dislike	189
fabricate	189
ponder	189
incline	189
monuments	189
lamps	189
foster	189
injuries	189
basket	189
Obama	189
1958	189
provincial	189
Bachchan	189
cler@@	189
ration@@	189
ecological	189
deliberations	189
constitutes	189
ASEAN	189
Excellence	189
Empowerment	189
Joze	189
ulating	188
Alpha	188
Row	188
Cop@@	188
Permission	188
authentic	188
altered	188
colored	188
kes	188
deciding	188
nan@@	188
placement	188
cling	188
ws	188
mislead	188
rang@@	188
Patt@@	188
WITH	188
inadequate	188
Permanent	188
aar	188
habitation	188
youths	188
averted	188
clan	188
stern	188
saith	188
precisely	188
citizenship	188
socially	188
Aryan	188
organising	188
dividends	188
PAN	188
CONVOCATION	188
Red@@	187
Circular	187
newer	187
Layout	187
orate	187
way@@	187
typing	187
lens	187
migration	187
CH	187
ML	187
Sessions	187
linking	187
photographs	187
Ghana	187
shower	187
pump	187
ually	187
hos@@	187
pig@@	187
exercises	187
abol@@	187
politicians	187
sanc@@	187
ascribed	187
jungle	187
instruc@@	187
insur@@	187
phy@@	187
landed	187
suffices	187
exemplary	187
eas@@	187
embodied	187
Gos@@	187
adopting	187
priest	187
Bush	187
Rajput	187
Puranas	187
interact	187
Guarantee	187
Rammohun	187
Auto@@	186
tags	186
Simulation	186
Cont@@	186
accuracy	186
aph@@	186
Mrs.	186
recurring	186
Rest@@	186
1934	186
Relief	186
CP	186
test@@	186
chooses	186
vil@@	186
Nuclear	186
Ras@@	186
Tribal	186
concealed	186
sty	186
heirs	186
obeys	186
restrained	186
crying	186
justly	186
caravan	186
rated	186
anguish	186
arid	186
mystery	186
solely	186
Remembrance	186
rainy	186
securing	186
dances	186
pollutants	186
Syed	186
virtually	186
♫	186
architectural	186
pea	186
damages	186
lender	186
reputed	186
Kisan	186
illary	186
nutrients	186
Celebrations	186
Pause	185
itors	185
Release	185
highlighted	185
Drag	185
Required	185
oter	185
Retrieving	185
credits	185
125	185
transfers	185
pop@@	185
Kit@@	185
Antarctica	185
Tomorrow	185
gram@@	185
Ra	185
lia	185
Fir@@	185
du	185
NR@@	185
dro@@	185
wat@@	185
Nay@@	185
Med@@	185
tless	185
Soil	185
whereby	185
invoked	185
exhausted	185
wonders	185
tarried	185
exchanged	185
likewise	185
quarrel	185
tough	185
Hast	185
solitary	185
impugned	185
stake	185
Charter	185
racial	185
philosopher	185
singh	185
spices	185
Coal	185
Gandhian	185
Facility	185
Revision	184
De	184
Sn@@	184
composite	184
2022	184
quota	184
Mel@@	184
lab	184
ffer@@	184
monkey	184
CF@@	184
83	184
avi	184
SA	184
ference	184
cos@@	184
Def@@	184
roughly	184
ensures	184
orous	184
Gate	184
iring	184
bec@@	184
Swar@@	184
specimens	184
excited	184
knees	184
gently	184
possesses	184
worshippers	184
distinctive	184
Proclaim	184
compreh@@	184
inward	184
gradation	184
dangers	184
contributes	184
wells	184
pore	184
spheres	184
conferences	184
singer	184
ambitious	184
vagina	184
Jail	184
polity	184
inder	184
secret@@	184
Schools	184
aller	183
digits	183
suff@@	183
diff@@	183
fatal	183
Lar@@	183
Moving	183
Tru@@	183
nails	183
them@@	183
gt	183
sentences	183
á@@	183
Sc@@	183
privileged	183
astr@@	183
astic	183
ump@@	183
Kot@@	183
Kha@@	183
ford	183
beam	183
missions	183
trustworthy	183
arti@@	183
offerings	183
goats	183
disp@@	183
thirst	183
prostrating	183
notion	183
crushed	183
backed	183
Bounty	183
honesty	183
regulating	183
dissolved	183
motions	183
Englishman	183
1966	183
tiveness	183
IGNCA	183
medic@@	183
biography	183
Annuity	183
HPCL	183
Acc@@	182
titles	182
Picture	182
hiding	182
Bis@@	182
Moscow	182
tionally	182
mill@@	182
kilograms	182
arrows	182
SD	182
plac@@	182
ffer	182
rying	182
Pap@@	182
ATM	182
Ghaz@@	182
hai	182
aman	182
lucky	182
Advance	182
trials	182
broad@@	182
lodging	182
approve	182
humiliated	182
bark	182
guile	182
crystal	182
empower	182
thine	182
Purchase	182
conquest	182
yielding	182
Emer@@	182
shaping	182
Suddenly	182
soldier	182
memories	182
episode	182
considerations	182
theories	182
Institution	182
ceremonial	182
Radha	182
deducted	182
bonus	182
St	181
Back@@	181
Shared	181
Step	181
realm	181
see@@	181
gateway	181
26th	181
delegates	181
fire@@	181
Extract	181
Ger@@	181
adjoining	181
Strong	181
uni	181
LL@@	181
BR@@	181
Obey	181
OCCASION	181
enders	181
Decision	181
PER@@	181
inevitably	181
obstruc@@	181
scourge	181
inous	181
scripture	181
artic@@	181
fat@@	181
sheer	181
eyed	181
discharged	181
suicide	181
Sinha	181
vag@@	181
Guwahati	181
Gopal	181
tionable	180
Generic	180
intermediate	180
Doc@@	180
manually	180
Links	180
Product	180
consecutive	180
cali@@	180
IF	180
GE@@	180
logged	180
icate	180
ask@@	180
IVE	180
holes	180
vest	180
disappear	180
nor@@	180
chapters	180
Ud@@	180
ö@@	180
dimensional	180
unfortunately	180
udra	180
overtake	180
merchandise	180
devour	180
originates	180
stabil@@	180
relieved	180
virtues	180
प@@	180
Tibet	180
esvara	180
admissible	180
impe@@	180
IFCI	180
interactive	179
Bak@@	179
teen	179
ounds	179
aning	179
Destination	179
downloaded	179
Preparing	179
Unexpected	179
labels	179
eu@@	179
Sender	179
formats	179
adjusted	179
managers	179
icked	179
banana	179
Period	179
ult	179
Lak@@	179
synthesis	179
tala	179
alis	179
slew	179
AB	179
aring	179
uttered	179
insol@@	179
distr@@	179
perpetual	179
madness	179
hay	179
appealed	179
preached	179
shine	179
chastise	179
scar@@	179
imitation	179
cadre	179
competitiveness	179
dge	179
Shastri	179
critic	179
congratulations	179
alumni	179
respondents	179
gic	179
Deal	178
dental	178
Usage	178
mac@@	178
graphical	178
TLS	178
ces	178
Binding	178
Rol@@	178
Certification	178
potato	178
Round	178
rop@@	178
idal	178
hid	178
inity	178
neutr@@	178
gia	178
thi@@	178
materi@@	178
nominal	178
shameful	178
alliance	178
habitations	178
admonished	178
exciting	178
lifestyle	178
effected	178
ल@@	178
exporters	178
1940	178
canvas	177
gesture	177
fier	177
MC	177
earing	177
AP	177
utting	177
Feed	177
Bol@@	177
copyright	177
not@@	177
Sav@@	177
lowly	177
requiring	177
trader	177
requ@@	177
ITY	177
capit@@	177
tifying	177
Crown	177
esis	177
foolish	177
consum@@	177
pleaded	177
hinder	177
Jud@@	177
trumpet	177
comparable	177
allegations	177
Zalimun	177
Verses	177
extensively	177
obstacles	177
pale	177
passport	177
nag@@	177
YouTube	177
Alliance	177
etics	177
cope	177
chairman	177
flexibility	177
renunciation	177
Quick	176
pile	176
wrap	176
Headers	176
setup	176
accessing	176
Late	176
slide	176
BA	176
36@@	176
Qatar	176
oz@@	176
converting	176
scre@@	176
Pakistani	176
é	176
Intelligence	176
fishing	176
Ca@@	176
ner@@	176
Shak@@	176
plates	176
math	176
Expl@@	176
Atomic	176
Hari	176
DR@@	176
sible	176
etic	176
cent@@	176
Sul@@	176
pay@@	176
Respon@@	176
atri@@	176
brick	176
Seven	176
Leader	176
roc@@	176
insolent	176
seldom	176
isms	176
plots	176
surprising	176
splendour	176
swollen	176
testi@@	176
deserves	176
inscription	176
orship	176
Poet	176
rit	176
harmonious	176
assent	176
pup@@	176
indra	176
Societies	176
Santiniketan	176
infectious	176
interim	176
Shivaji	176
Neuro@@	176
debit	176
preliminary	176
learners	176
emphasized	176
Anundoram	176
CONDOLES	176
hint	175
Star@@	175
Lin@@	175
trigger	175
tear	175
compatible	175
optical	175
choices	175
Detailed	175
exported	175
ean	175
paint	175
tre@@	175
Us@@	175
icker	175
Maintenance	175
neighbour	175
guy	175
elevated	175
interpreted	175
wireless	175
gases	175
Surat	175
diameter	175
accountable	175
fasting	175
depths	175
Whereas	175
wealthy	175
granting	175
legends	175
celebrating	175
1979	175
educate	175
Naidu	175
Gaj@@	175
linga	175
0th	175
prestigious	175
Textiles	175
.05@@	175
Bre@@	174
Functions	174
Discard	174
Dutch	174
complexity	174
utter@@	174
Ekiga	174
LI@@	174
Prot@@	174
oding	174
Jerusalem	174
ze@@	174
Exc@@	174
AY@@	174
fixing	174
ph	174
Egyptian	174
ub	174
Os	174
Loss	174
chan@@	174
Sur	174
frontier	174
Usually	174
portrait	174
ailed	174
appe@@	174
misled	174
climb	174
nurse	174
spur@@	174
Aad	174
examining	174
volunteers	174
Aye	174
notable	174
rushed	174
bodily	174
appraisal	174
moisture	174
gov.	174
ventures	174
modern@@	174
vocational	174
vigour	174
interventions	174
Regulatory	174
viewing	173
usable	173
eon	173
aren	173
Identity	173
Accept	173
Conver@@	173
renamed	173
Canc@@	173
anim@@	173
ested	173
unavailable	173
ll@@	173
ua	173
Dakota	173
bo	173
album	173
arium	173
achi@@	173
Norway	173
shor@@	173
vent	173
Kas@@	173
inge	173
kh	173
Mes@@	173
ruins	173
common@@	173
Memorandum	173
punc@@	173
tasted	173
iate	173
handsome	173
patron	173
encompassed	173
commandment	173
devise	173
gaining	173
Praiseworthy	173
reliant	173
laughter	173
glucose	173
memorable	173
Championships	173
curiosity	173
Loans	173
journalism	173
whe@@	173
Harijan	173
graduates	173
Bapu	173
Kama	173
Entrepreneurship	173
	173
Blank	172
Core	172
generator	172
patches	172
readable	172
MD5	172
memos	172
Grand	172
adh	172
Vil@@	172
maps	172
Daily	172
knee	172
lot@@	172
ounce	172
Reports	172
ka@@	172
XX@@	172
samples	172
mast@@	172
Air@@	172
proving	172
PRODUCT	172
redemption	172
devi@@	172
ailment	172
wasted	172
succour	172
requite	172
tigh@@	172
beg	172
Assuredly	172
notices	172
obligatory	172
chaste	172
summoned	172
wrought	172
Firaun	172
disappointed	172
Whoso	172
that@@	172
guaranteed	172
meals	172
presided	172
shifting	172
awakening	172
peasant	172
tooth@@	172
sabha	172
Resident	172
bac@@	172
commentary	172
monopoly	172
Ji	172
deficit	172
intuition	172
larva	172
tuberculosis	172
Vigilance	172
Khandekar	172
Match	171
Reload	171
uting	171
Documentation	171
web@@	171
PE	171
Calcul@@	171
set@@	171
Consul@@	171
Author@@	171
restriction	171
tas	171
arithmetic	171
yards	171
descriptions	171
red@@	171
olo@@	171
Mos@@	171
Different	171
lav@@	171
cups	171
All@@	171
UNESCO	171
tionary	171
ower	171
electr@@	171
heter@@	171
Son@@	171
similitude	171
plotted	171
EE@@	171
skies	171
landmark	171
connects	171
deceived	171
impatient	171
trick	171
superiority	171
sighted	171
troubled	171
bowl	171
statue	171
recommend	171
attitudes	171
expressing	171
chances	171
cab@@	171
Citizens	171
tap	171
wicket	171
Anand	171
Taliban	171
personalities	171
Contract	171
Vedanta	171
glaciers	171
hybrid	171
Subsequently	171
Drop	170
modules	170
SID@@	170
diction	170
elect	170
Cas@@	170
bab@@	170
Gibraltar	170
ALL	170
crown	170
ops	170
Making	170
mam@@	170
enhancement	170
geography	170
Zak@@	170
Sultan	170
inn@@	170
NH@@	170
Savings	170
Bodies	170
5000	170
Nobody	170
sim@@	170
departed	170
mustard	170
embryo	170
flav@@	170
indispensable	170
refined	170
persuade	170
Likewise	170
princes	170
expedition	170
dirty	170
ladies	170
consolidated	170
nerves	170
peaks	170
abha@@	170
Elections	170
pand@@	170
anath	170
ordination	170
Valmiki	170
legally	170
ethnic	170
1953	170
Bench	170
computer@@	170
Contribution	170
CHAPTER	170
Accessible	169
Include	169
implied	169
Declaration	169
Categories	169
prompted	169
merge	169
ules	169
serial	169
NT@@	169
Temporary	169
Launch	169
adjust	169
Meg@@	169
defines	169
browsing	169
Multi	169
calendars	169
ached	169
Month	169
gor@@	169
Twenty	169
chang@@	169
strip	169
ales	169
teaches	169
precision	169
Greater	169
ather	169
mit	169
mini	169
Wil@@	169
Net	169
Commun@@	169
fam@@	169
planets	169
observing	169
conquered	169
acknowledge	169
commits	169
confer	169
seasons	169
contended	169
propagation	169
warners	169
grip	169
disclosure	169
fatigue	169
advis@@	169
harsh	169
Companions	169
narrated	169
mentally	169
hind	169
talented	169
Kala	169
Nana	169
maternal	169
PRIME	169
patronage	169
nematode	169
fertility	169
Growth	169
Agencies	169
Farid	169
RRBs	169
2.@@	169
Ctrl	168
oss	168
debugging	168
Store	168
threads	168
anks	168
ifying	168
cing	168
bler	168
maxim@@	168
responsive	168
Names	168
cosine	168
interpret	168
PART	168
Expert	168
there@@	168
icle	168
Communications	168
diagram	168
fur	168
ogy	168
Soul	168
dest@@	168
Kak@@	168
revived	168
suffice	168
vow	168
befell	168
wrongfully	168
preparations	168
repay	168
awake	168
disregard	168
visitor	168
Towards	168
stairs	168
vague	168
improper	168
ponds	168
transgressing	168
crooked	168
lik@@	168
bes@@	168
veness	168
yas@@	168
absorb	168
concerted	168
seasonal	168
hil	168
Farm	168
buffalo	168
aon	168
specialist	168
akar@@	168
Unlike	168
Brahm@@	168
subscribers	168
Grievances	168
Subscribers	168
Connect	167
optional	167
^	167
uated	167
duplicate	167
Overwrite	167
quietly	167
shorter	167
Lat@@	167
discard	167
offset	167
enforce	167
oe	167
unexpectedly	167
operates	167
vert	167
metric	167
gal	167
Coast	167
ICC	167
figured	167
Tibetan	167
noon	167
interior	167
frac@@	167
Alexander	167
gling	167
eding	167
trav@@	167
peripheral	167
than@@	167
Kumb@@	167
dare	167
visi@@	167
BAN@@	167
sq	167
jer@@	167
haste	167
flaming	167
disbelieves	167
icating	167
pledged	167
domination	167
aining	167
cruel	167
dressed	167
maintains	167
compete	167
inscriptions	167
sometime	167
Marine	167
robot	167
invariably	167
tras	167
Bagh	167
1922	167
CI	167
donation	167
Shiv@@	167
surveys	167
ophy@@	167
sikhara	167
Chancellor	167
Vijay	167
rub	166
Running	166
Merge	166
Spe@@	166
auto@@	166
mbox	166
eing	166
adap@@	166
irs	166
Q.	166
Postal	166
anno@@	166
enced	166
pm	166
Ros@@	166
Mid@@	166
vable	166
ril@@	166
expense	166
agon@@	166
Thailand	166
Richard	166
Radi@@	166
Ten@@	166
Sing@@	166
Ubuntu	166
movies	166
Around	166
tory	166
metals	166
Lam@@	166
acids	166
rod	166
lad	166
shy	166
praying	166
resses	166
bidding	166
sooner	166
petty	166
allegiance	166
embracing	166
thereupon	166
crow	166
enlightenment	166
tend@@	166
broadly	166
elite	166
gifted	166
vara	166
jit	166
bha	166
Bhav@@	166
Ramakrishna	166
amenities	166
heart@@	166
Jai	166
heroic	166
concession	166
taxable	166
developers	165
Attach	165
Fol@@	165
extensions	165
endless	165
resi@@	165
Fit	165
taining	165
arbitrary	165
owe	165
tray	165
rail@@	165
inary	165
sine	165
fri@@	165
rog@@	165
act@@	165
bud@@	165
Hard@@	165
Gun@@	165
demon@@	165
amid	165
Hydro@@	165
bell	165
Countries	165
Grand@@	165
ling@@	165
mati	165
thal@@	165
grades	165
AI	165
xing	165
pouring	165
monument	165
adequately	165
sely	165
bosom	165
valour	165
useless	165
dues	165
guideth	165
justification	165
refugees	165
ench	165
survived	165
motherland	165
Henry	165
fascinating	165
Savarkar	165
Consolidated	165
consensus	165
aquatic	165
bio@@	165
sensi@@	165
mantra	165
infrastructural	165
attracting	165
eldest	165
Grievance	165
corpus	165
stipulated	165
DIT	165
CDDO	165
.2015	165
rol@@	164
styles	164
Results	164
append	164
CSV	164
posing	164
reasoning	164
kindly	164
44@@	164
intent	164
spinning	164
INE@@	164
ITS	164
BI@@	164
tan	164
expose	164
tify	164
dered	164
Treatment	164
bowed	164
dull	164
charm	164
plague	164
embraced	164
HA	164
mentions	164
uded	164
caus@@	164
abst@@	164
inning	164
sowing	164
Pallava	164
Harishchandra	164
Ghats	164
OI	164
Philosophy	164
ethics	164
collaborative	164
scrutiny	164
emphasised	164
Ashoka	164
seminars	164
UNIVERSITY	164
ectomy	164
DTO	164
Method	163
Eli@@	163
Really	163
terminated	163
Searching	163
Visual	163
Thai	163
YO@@	163
pointing	163
Angle	163
temporarily	163
DF	163
consistency	163
verbal	163
ark	163
oke	163
mic@@	163
serv@@	163
GU@@	163
uno@@	163
ele	163
lap@@	163
thunder@@	163
Iron	163
evil@@	163
Chamber	163
accomplish	163
dark@@	163
OL	163
50@@	163
draw@@	163
fellows	163
transgressed	163
hastened	163
severely	163
afflict	163
plight	163
enrich	163
fulfilling	163
invites	163
highway	163
hall@@	163
recitation	163
inheritors	163
degradation	163
suspicion	163
stuck	163
ordinance	163
hik@@	163
ede	163
tedness	163
Ravi	163
Mahabharat	163
steam	163
organise	163
imperialist	163
Raman@@	163
Grants	163
camps	163
parasites	163
levy	163
entrepreneur	163
Fundamental	163
facilitates	163
phy	163
envisages	163
Redressal	163
Gurbakhsh	163
Fullscreen	162
Exec@@	162
jump	162
ject	162
debug	162
Recon@@	162
Post@@	162
lasts	162
ind	162
Presence	162
initiation	162
bases	162
divisible	162
esting	162
main@@	162
Rus@@	162
Uttar@@	162
oy@@	162
gir@@	162
travellers	162
conj@@	162
frightened	162
healing	162
inhabited	162
smiled	162
sab@@	162
prostrated	162
sculp@@	162
Provision	162
populations	162
uncertain	162
nom@@	162
mystic	162
preventive	162
psych@@	162
consisted	162
Nalanda	162
storeyed	162
aceae	162
Cards	161
Indic@@	161
Hyper@@	161
Miscellaneous	161
exed	161
es.	161
scaling	161
Lib@@	161
copying	161
Opens	161
Play@@	161
Average	161
encountered	161
dragged	161
Key@@	161
phones	161
Toggles	161
blocked	161
balls	161
numbered	161
centric	161
ouring	161
appl@@	161
thunder	161
Mam@@	161
HAN@@	161
ib	161
oli	161
fera	161
elevation	161
bull	161
depend@@	161
sing@@	161
blamed	161
protects	161
grapes	161
isolation	161
proclamation	161
deem	161
unconscious	161
well@@	161
beating	161
jury	161
obstruction	161
eship	161
fighter	161
Nizam	161
litigation	161
linkage	161
Narmadashankar	161
condoled	161
Six	160
Diff	160
anese	160
magni@@	160
dupl@@	160
asing	160
Hold	160
25th	160
Jun@@	160
omin@@	160
Bud@@	160
destinations	160
ral	160
110	160
locks	160
mathematical	160
lar@@	160
Tran@@	160
esia	160
eed	160
Front	160
lime	160
Bet@@	160
winding	160
v.	160
tech@@	160
Policies	160
blowing	160
cot@@	160
ington	160
Peninsula	160
Naz@@	160
Ven@@	160
you@@	160
pink	160
sounded	160
Bs	160
pays	160
cum@@	160
devout	160
wounded	160
assert	160
stature	160
flung	160
enjoying	160
swore	160
aped	160
heated	160
creditors	160
&apos;I	160
luxury	160
loveth	160
undertook	160
harm@@	160
vast@@	160
cru@@	160
goddesses	160
attaches	160
adapted	160
communist	160
Haran	160
capita	160
Rahul	160
Ashok	160
Academic	160
Babasaheb	160
nursery	160
Matters	160
tonnage	160
respiratory	160
Monitor	159
ound@@	159
Framework	159
Exit	159
local@@	159
extr@@	159
TER@@	159
issu@@	159
ashi	159
Imperial	159
sink	159
Zealand	159
180	159
Conc@@	159
coo@@	159
Infinite	159
chro@@	159
bed@@	159
21@@	159
Srinagar	159
constellation	159
TA@@	159
rival	159
statistical	159
Bihari	159
exceptions	159
shelf	159
omen	159
immune	159
posterity	159
gaze	159
spontaneous	159
wax	159
diversion	159
legi@@	159
believeth	159
commissioned	159
charming	159
rations	159
harmdoers	159
alties	159
riots	159
calcium	159
door@@	159
beetle	159
alchemist	159
convicted	159
spra@@	159
arh	159
conventions	159
rama	159
fiction	159
aksha	159
Kali	159
vacancies	159
Reddy	159
Panch@@	159
beetles	159
implements	159
incentive	159
chemistry	159
debentures	159
.09@@	159
kit	158
dog@@	158
macro	158
viewer	158
heading	158
replying	158
1f	158
grow@@	158
linear	158
Button	158
Vari@@	158
organize	158
Ric@@	158
Karachi	158
loads	158
sweat	158
multiplying	158
kilometers	158
strengths	158
Normally	158
correction	158
Structure	158
Okay	158
belt	158
MAR@@	158
Opposition	158
ship@@	158
opponent	158
yearly	158
stic	158
aggressive	158
intim@@	158
lightened	158
dread	158
fore	158
esteem	158
prec@@	158
consciously	158
sendeth	158
mild	158
sticks	158
uity	158
sufficiently	158
undergoing	158
tuous	158
bank@@	158
hydrogen	158
vam@@	158
exporter	158
efficiently	158
glands	158
ो@@	158
workforce	158
Penal	158
advertisement	158
consolidation	158
imparting	158
heroes	158
aviation	158
Milk	158
selfless	158
telecommunication	158
PIB	158
www.@@	158
Tom@@	157
Sor@@	157
FS	157
Stri@@	157
coding	157
LS	157
Extra	157
compilation	157
Sorry	157
pad@@	157
El	157
anced	157
authoritative	157
owns	157
Mental	157
operators	157
ki@@	157
aint	157
sensitivity	157
portfolio	157
Philippines	157
gi	157
Regarding	157
Wa@@	157
panels	157
31@@	157
bay	157
ener@@	157
informal	157
yields	157
Fight	157
los@@	157
hardships	157
remarked	157
overtaken	157
ascend	157
Eternal	157
moul@@	157
calamities	157
fortunate	157
glance	157
Bliss	157
where@@	157
imparted	157
notwithstanding	157
rels	157
tickets	157
specimen	157
mandapas	157
Poona	157
tious	157
jan@@	157
Parvati	157
evolving	157
cargo	157
effectiveness	157
Consider	156
Fifth	156
Commit	156
ader	156
Design@@	156
Vietnamese	156
Plain	156
eal	156
Delay	156
Scroll	156
Speci@@	156
choosing	156
Issued	156
executing	156
Num@@	156
replies	156
expiration	156
lapse	156
grading	156
360	156
Malay@@	156
packed	156
rowing	156
wit@@	156
kil@@	156
oni	156
Plus	156
Seer	156
counts	156
ani@@	156
gui	156
locality	156
orus	156
shooting	156
implies	156
Heart	156
versed	156
Economy	156
parti@@	156
spared	156
womb	156
subdued	156
nak@@	156
humbly	156
isha	156
reciting	156
exul@@	156
enjoys	156
ripe	156
drove	156
funeral	156
precip@@	156
residing	156
forge	156
gear	156
dealings	156
flowering	156
contest	156
limbs	156
dogs	156
lions	156
Aryans	156
revolutionaries	156
audited	156
onda	156
Arya	156
fuels	156
Pal	156
Medicine	156
elimination	156
ministries	156
infections	156
depicted	156
Sufi	156
astro@@	156
Principles	156
PI	155
pet	155
Visible	155
Modify	155
Getting	155
tool@@	155
bility	155
Tou@@	155
flash	155
vertically	155
Inte@@	155
Dist@@	155
sorted	155
Voice	155
individually	155
Gra@@	155
fills	155
SpamAssassin	155
fastest	155
osity	155
ax	155
ade@@	155
ech	155
ugly	155
aga	155
Daman	155
inga	155
excluding	155
soever	155
comprehend	155
laughing	155
destitute	155
surety	155
tives	155
sincerity	155
deception	155
blindly	155
supporter	155
reconciliation	155
prot@@	155
Gha@@	155
Masjid	155
ninth	155
harassment	155
pricing	155
colony	155
decentr@@	155
tribals	155
cordial	155
kn@@	155
economical	155
Munshi	155
1968	155
physician	155
Plans	155
Mehta	155
equilibrium	155
termed	155
Biruni	155
magistrate	155
construed	155
parasite	155
leas@@	155
117	155
merger	155
Govt	155
comprise	155
uranium	155
.11@@	155
manip@@	154
Actions	154
ASCII	154
platforms	154
ADDRESS	154
que@@	154
thorough	154
bugs	154
Looking	154
accessed	154
flock	154
Vel@@	154
ption	154
Fish	154
Present	154
periodic	154
Irish	154
bottle	154
pend@@	154
watches	154
scro@@	154
Cro@@	154
vy	154
Gospel	154
Domestic	154
determin@@	154
impart	154
stolen	154
farther	154
eats	154
warriors	154
autonomy	154
tariff	154
memor@@	154
diver@@	154
briefly	154
stoc@@	154
establishments	154
vivid	154
merchants	154
clinical	154
avas	154
gm	154
nitrogen	154
Secondly	154
occupies	154
arial	154
Military	154
Horticulture	154
muscular	154
toHis	154
Repository	153
molecules	153
Wide	153
Off@@	153
Til@@	153
unsupported	153
accelerated	153
transit	153
Circle	153
spool	153
Exp@@	153
Pot@@	153
Activities	153
Ny@@	153
Ly@@	153
2x	153
oded	153
Risk	153
bees	153
ry@@	153
ified	153
Ep@@	153
az	153
California	153
SERVICE	153
magn@@	153
unlimited	153
Club	153
resolutions	153
DU@@	153
ained	153
dispersed	153
wombs	153
weep	153
remark	153
earnest	153
intentions	153
straw	153
fierce	153
eternally	153
Honourable	153
appreh@@	153
farms	153
herd	153
potent	153
descent	153
abdominal	153
woven	153
decent	153
passages	153
gery	153
saffron	153
illiterate	153
vac@@	153
unnecessary	153
kap@@	153
Amitabh	153
menace	153
inath	153
toxic	153
phenomena	153
Gokhale	153
petitioners	153
PRADESH	153
demerged	153
Margin	152
nings	152
scan	152
ew	152
Scal@@	152
posi@@	152
Seek	152
arily	152
hang@@	152
Live	152
NOT	152
listing	152
ook	152
DD	152
bir@@	152
cir@@	152
fro@@	152
tization	152
vacant	152
resol@@	152
amba	152
coral	152
chy	152
controller	152
dition	152
compounds	152
rul@@	152
holidays	152
ANNIVERSARY	152
MU@@	152
concentr@@	152
forsake	152
needle	152
prevailed	152
handful	152
acqu@@	152
Ahmad	152
Sulaiman	152
investigate	152
permissible	152
instrumental	152
1914	152
Advocate	152
intake	152
constituency	152
Bhim@@	152
bridges	152
bhai	152
Scientists	152
morph@@	152
corporations	152
Constitutional	152
Madurai	152
convergence	152
provisional	152
beneficiary	152
LPG	152
Pradhan	152
Watch	151
Length	151
Either	151
crip@@	151
omitted	151
anian	151
acker	151
projection	151
Sync	151
itter	151
resume	151
visibility	151
Car	151
suspected	151
END	151
continuation	151
Nic@@	151
í@@	151
188@@	151
umin@@	151
rings	151
rak@@	151
wan@@	151
Chemical	151
inate	151
church	151
Tourist	151
Udaipur	151
ester	151
Fourth	151
LIFE	151
emi@@	151
administrators	151
Aer@@	151
parks	151
affluent	151
gated	151
temptation	151
captive	151
Haman	151
anism	151
moths	151
avoiding	151
depressed	151
manifold	151
lasted	151
fraud	151
was@@	151
strongest	151
circul@@	151
supplement	151
cheaper	151
idealism	151
ganga	151
Motilal	151
Pari@@	151
magazines	151
1924	151
architect	151
eligibility	151
plasm	151
cater	151
BIS	151
Fill	150
Pil@@	150
Binary	150
Hidden	150
Autom@@	150
Removing	150
Inbox	150
SV@@	150
Distance	150
wind@@	150
acing	150
Facebook	150
iCalendar	150
Beli@@	150
ulu	150
enriched	150
Testing	150
etting	150
ug	150
Kaz@@	150
riya	150
aha	150
alled	150
GR@@	150
ion@@	150
oti@@	150
Sund@@	150
Mountains	150
polluted	150
kinship	150
tyrant	150
extravagant	150
YA	150
prostration	150
profitable	150
Purity	150
proven	150
traits	150
pasture	150
beaten	150
cation	150
verdict	150
therefor	150
bod@@	150
opposing	150
impulse	150
Firon	150
guys	150
stupid	150
flour	150
mobility	150
avenues	150
inauguration	150
alising	150
pak@@	150
Products	150
internationally	150
apparatus	150
iculture	150
forestry	150
complainant	150
.08@@	150
Pati@@	149
ems	149
printers	149
missed	149
atus	149
Aud@@	149
Linux	149
loop	149
pointer	149
echo	149
transmit	149
importing	149
criterion	149
Gallery	149
Query	149
ort	149
inking	149
tual	149
cake	149
manufacturer	149
drops	149
Tw@@	149
Analysis	149
formations	149
Ear@@	149
luc@@	149
chem@@	149
plug	149
spray	149
ques	149
son@@	149
reli@@	149
avan	149
hay@@	149
independently	149
fewer	149
escent	149
bean	149
insti@@	149
hypocrisy	149
essly	149
sow	149
moulded	149
exempt	149
laudable	149
failing	149
assault	149
acies	149
umbrella	149
character@@	149
Benefits	149
superficial	149
skull	149
Captain	149
Disease	149
Olympics	149
mumbai	149
arians	149
viz.	149
े	149
nectar	149
firing	149
Maratha	149
269@@	149
bravery	149
microscope	149
Overseas	149
dramas	149
Visitor	149
Abhiyan	149
amalgamating	149
Charges	149
presidentofindia.nic.in	149
Od@@	148
Receive	148
Secure	148
playlist	148
kis@@	148
DB	148
spacing	148
Thanks	148
gab@@	148
Encoding	148
the.	148
Mozilla	148
passphrase	148
Domin@@	148
fe	148
knife	148
specifies	148
displays	148
halt	148
plat@@	148
Ga@@	148
nail	148
polar	148
Peter	148
eb@@	148
pped	148
UP@@	148
isher	148
Beach	148
SER@@	148
aris	148
bush	148
Nur@@	148
kara	148
aly	148
awa@@	148
icular	148
compass	148
Laboratory	148
shades	148
restoration	148
Ladies	148
guilt	148
Messiah	148
aib	148
waited	148
troubles	148
entertain	148
Rahman	148
adulter@@	148
stir	148
Cities	148
backbone	148
travels	148
Yea	148
didst	148
interfere	148
concluding	148
grandeur	148
temperament	148
pupil	148
politically	148
Surdas	148
tenancy	148
Islamist	148
SAARC	148
Mathura	148
Puducherry	148
1905	148
yani	148
Thackeray	148
Narayana	148
Tendulkar	148
griva	148
oris	148
imperial	148
regul@@	148
redressal	148
formulate	148
Efforts	148
provident	148
warranty	147
Variable	147
Username	147
Id	147
ce@@	147
Installation	147
ryp@@	147
Scanning	147
converts	147
max@@	147
Unsupported	147
navigation	147
Certificates	147
refer@@	147
Future	147
emo@@	147
suppressed	147
Crop	147
dig	147
Summer	147
swimming	147
edi@@	147
ometric	147
tier	147
37@@	147
Fin@@	147
HERE	147
Gul@@	147
elec@@	147
Similar	147
FR@@	147
Often	147
gand@@	147
lows	147
Hir@@	147
arri@@	147
len	147
Monmouth	147
Tat@@	147
short@@	147
cut@@	147
ACT	147
stops	147
1500	147
gravity	147
Theirs	147
rein@@	147
hardened	147
imprisoned	147
risen	147
seekers	147
impartial	147
tening	147
outset	147
Blaze	147
hitherto	147
letting	147
Presently	147
bran@@	147
poisonous	147
labor	147
crazy	147
structured	147
costly	147
peacock	147
apar@@	147
Kus@@	147
popularly	147
drums	147
TED	147
betel	147
manure	147
visa	147
popular@@	147
Chola	147
civic	147
funded	147
basin	147
campaigns	147
hoc	147
pioneer	147
formulating	147
biomass	147
Providing	147
demerger	147
eigh@@	146
Scor@@	146
sev@@	146
Sign@@	146
age@@	146
PGP	146
Expand	146
failures	146
Drive	146
IST	146
specifying	146
SL	146
Termin@@	146
Jabber	146
favorite	146
zip	146
Land@@	146
responses	146
pepper	146
Bot@@	146
1927	146
grap@@	146
chip	146
ARD	146
phot@@	146
lac	146
Shr@@	146
Simon	146
icul@@	146
Sr@@	146
MN@@	146
pel@@	146
vocabulary	146
shan	146
Victoria	146
shield	146
Theatre	146
rounded	146
mosques	146
clever	146
overwhelmed	146
exile	146
devising	146
disrup@@	146
WORLD	146
bid@@	146
rigid	146
purification	146
Citizen	146
complications	146
Subhashbabu	146
Presidential	146
Satish	146
cart	146
Holi	146
emic	146
maize	146
substantive	146
Puran	146
officially	146
consistently	146
ecosystem	146
Ladakh	146
Literacy	146
probationers	146
Welcoming	146
Chancellors	146
Mandali	146
Cle@@	145
sters	145
Encrypt	145
Success	145
nia	145
port@@	145
cycles	145
Stage	145
Eye	145
subscribed	145
Revi@@	145
Kin@@	145
bon	145
Christmas	145
uru	145
inations	145
etary	145
Ho@@	145
fer	145
SP	145
ace@@	145
sages	145
badly	145
Multi@@	145
lip	145
3D	145
declining	145
butterfly	145
wed	145
Things	145
voc@@	145
Gh@@	145
jar@@	145
FIRST	145
alas	145
migrated	145
drain	145
ko@@	145
logy	145
sacrificed	145
envy	145
flocks	145
erly	145
instructed	145
overwhelming	145
hurry	145
slander	145
penance	145
militant	145
tled	145
priv@@	145
kno@@	145
whence	145
lunar	145
crafts	145
propose	145
joins	145
malaria	145
treasury	145
chand	145
procedural	145
Shiv	145
poorest	145
mainstream	145
feudal	145
Census	145
Vais@@	145
sustainability	145
entrepreneurial	145
Lion	145
dram@@	145
incomes	145
Awareness	145
lym@@	145
Bhawan	145
CONFERENCE	145
&apos;S	145
console	144
Restart	144
Colors	144
Modified	144
dot	144
High@@	144
grouping	144
Dom@@	144
normal@@	144
Duration	144
Less	144
ced	144
alongside	144
WA	144
thers	144
remembering	144
mani	144
Compensation	144
brigh@@	144
mits	144
minim@@	144
stly	144
mana	144
emia	144
Pondicherry	144
mahal	144
ana@@	144
acle	144
asted	144
constraints	144
Gentlemen	144
pret@@	144
rier	144
Sabbath	144
breadth	144
vengeance	144
hymns	144
relieve	144
sinner	144
scatter	144
proves	144
seeming	144
doubtful	144
conqu@@	144
canst	144
afterward	144
curious	144
shre@@	144
memorial	144
cottage	144
Dharm@@	144
NEW	144
1944	144
hazards	144
Rashtriya	144
bowler	144
Nawab	144
Bhu@@	144
1959	144
Agni	144
avati	144
Jog@@	144
undergone	144
Ceremony	144
Secretaries	144
Siyaramsharan	144
.10@@	144
.2014	144
COVID	144
Plugins	143
Monte	143
Carlo	143
Inline	143
ango	143
Simplified	143
otes	143
Subscribe	143
sent@@	143
Effect	143
tes	143
Rain@@	143
Album	143
probability	143
Cau@@	143
combat	143
ulates	143
joints	143
Develop@@	143
Ms	143
Oriental	143
Din	143
wala	143
ENG@@	143
outline	143
sunset	143
multipl@@	143
asser@@	143
Professional	143
persevere	143
aggres@@	143
slaughter	143
idation	143
incar@@	143
empha@@	143
questioning	143
joyous	143
deserving	143
Ya	143
aspiration	143
cherished	143
courtyard	143
truths	143
Conduct	143
accountant	143
throwing	143
prospect	143
Mitra	143
pine	143
अ@@	143
Hotel	143
indifference	143
casual	143
tisation	143
Mahab@@	143
1925	143
demonstrate	143
untouchability	143
characterised	143
advisory	143
assimil@@	143
ysis	143
gauge	143
remittance	143
MCX	143
葉@@	143
Shift	142
Ten	142
Eight	142
Cel@@	142
reset	142
aths	142
erer	142
Supported	142
Talk	142
delegate	142
Vad@@	142
Specific	142
row@@	142
collapse	142
OM	142
aser	142
Swiss	142
loo@@	142
list@@	142
Vision	142
erated	142
tings	142
enforced	142
sisting	142
zation	142
istan	142
Shah@@	142
tir@@	142
Der@@	142
atti	142
peri@@	142
yav@@	142
Son	142
vic	142
extrem@@	142
160	142
uman	142
antagon@@	142
submissive	142
lords	142
induced	142
hesitate	142
earns	142
threaten	142
employ	142
ascertain	142
aloud	142
recep@@	142
fru@@	142
descends	142
demon	142
purchasing	142
uries	142
turn@@	142
cited	142
liquor	142
sympathetic	142
conducts	142
reformer	142
duct	142
nuts	142
pockets	142
1860	142
hadra	142
Bharat@@	142
gha	142
optimum	142
Gobind	142
onion	142
Atal	142
Sale	142
demographic	142
rearing	142
anterior	142
A.D.	142
Events	141
Too	141
arranging	141
FILE	141
authorization	141
Parallel	141
filtering	141
×	141
porter	141
Listen	141
aled	141
vCard	141
Indiana	141
Coc@@	141
Option	141
ometer	141
gues	141
Nepali	141
Vy@@	141
tices	141
classic	141
freezing	141
inda	141
chol@@	141
oun	141
rela@@	141
Darjeeling	141
adjacent	141
mythology	141
flag@@	141
tempted	141
Measures	141
booking	141
Shipping	141
obliged	141
doings	141
cool@@	141
folly	141
weeping	141
garment	141
sublime	141
ees	141
vener@@	141
maidens	141
secre@@	141
widows	141
submits	141
Trustee	141
caring	141
glimpse	141
artery	141
immensely	141
associ@@	141
accession	141
honored	141
antic	141
Divinity	141
Residence	141
inged	141
diary	141
sentenced	141
horns	141
scored	141
manship	141
torate	141
Ball@@	141
Thakur	141
Shakespeare	141
inated	141
thirds	141
Ek	141
pharmaceutical	141
unions	141
tery	141
Irrigation	141
Premises	141
Devendranath	141
Sustainable	141
Mahavira	141
otomy	141
variables	140
Skip	140
spin	140
spelling	140
whit@@	140
Sou@@	140
bury	140
timezone	140
Ol@@	140
Importing	140
sil	140
diesel	140
Kor@@	140
Chile	140
Flo@@	140
networking	140
engines	140
Jos@@	140
fired	140
Gran@@	140
Prec@@	140
odes	140
ord	140
Preparation	140
hopefully	140
periodically	140
nucle@@	140
Jack@@	140
packaging	140
ify	140
plas@@	140
vap@@	140
leap	140
Sant@@	140
Af@@	140
UM	140
Rana	140
siveness	140
Guest	140
NP@@	140
lag	140
protective	140
intri@@	140
sorcerer	140
suffers	140
thieves	140
usher	140
drunk	140
perfected	140
erstwhile	140
revives	140
fraudulent	140
flourished	140
necess@@	140
barely	140
comprised	140
nurtured	140
maid	140
Poetry	140
Laughter	140
cheques	140
1933	140
brah@@	140
och@@	140
coinc@@	140
PAR@@	140
Corporations	140
meanwhile	140
disturbances	140
crick@@	140
emat@@	140
Pandavas	140
nutritional	140
Assemblies	140
electro@@	140
245@@	140
Petitioner	140
Tier	140
Relating	140
Cover	139
diff	139
esp@@	139
Repeat	139
Branches	139
Activate	139
anal@@	139
A1	139
geometry	139
unch	139
Example	139
titude	139
cookies	139
subscription	139
importer	139
urs	139
Failure	139
kut@@	139
Om@@	139
Recogn@@	139
rea	139
Lotus	139
inches	139
traction	139
Tar	139
specification	139
wolf	139
sian	139
gall@@	139
Throw	139
switching	139
ML@@	139
RC	139
Mines	139
Audacity	139
tense	139
Sev@@	139
stan	139
Suri	139
THE@@	139
nit@@	139
oxide	139
ict	139
ond	139
3000	139
Kann@@	139
arbitr@@	139
curved	139
gambling	139
bewitched	139
marvel	139
mixing	139
weaken	139
withdrew	139
bend	139
fountain	139
devote	139
sporting	139
Resp@@	139
meantime	139
graced	139
adversely	139
flew	139
admired	139
demise	139
affiliated	139
upta	139
politician	139
Bharatpur	139
scholarships	139
Prab@@	139
Chairperson	139
Trading	139
Didi	139
Maharaj	139
Chatrik	139
seedlings	139
outcomes	139
Biotechnology	139
Anandamoyi	139
num@@	138
dock	138
recur@@	138
Camera	138
Fog	138
Birthday	138
cell@@	138
attempting	138
Transaction	138
shouldn	138
apps	138
plo@@	138
HP	138
AO	138
ridge	138
CS	138
3A	138
identally	138
blu@@	138
allo@@	138
EC	138
ege	138
Govern@@	138
urg@@	138
Autonomous	138
swe@@	138
finite	138
acks	138
intr@@	138
reck@@	138
designing	138
Sales	138
earthly	138
delusion	138
Doom	138
penet@@	138
communicated	138
drown	138
reclining	138
fountains	138
demanding	138
creations	138
aked	138
illustrated	138
Stories	138
appetite	138
consuming	138
tful	138
dings	138
stating	138
stepped	138
preserving	138
solidarity	138
diamond	138
blood@@	138
Islam@@	138
Banaras	138
Chemicals	138
Khand@@	138
subsi@@	138
salaries	138
Medal	138
.06@@	138
Confirm	137
staged	137
Yesterday	137
pid	137
Beg@@	137
triple	137
Adding	137
ried	137
repudi@@	137
Khar@@	137
Chicago	137
Pit@@	137
Nec@@	137
tom	137
Computing	137
dw@@	137
pounds	137
Argentina	137
Bolivia	137
Mozambique	137
ographic	137
Preamble	137
ru	137
Quar@@	137
clou@@	137
MIN@@	137
shortest	137
lust	137
descended	137
theft	137
exclaimed	137
his@@	137
raging	137
complained	137
grandson	137
amends	137
Thamood	137
asserted	137
belongeth	137
fora	137
climbed	137
diversified	137
assisting	137
ambition	137
abh	137
motivated	137
globalization	137
Sind@@	137
abha	137
Legislatures	137
lyrical	137
exploit	137
misuse	137
school@@	137
Airlines	137
1941	137
1900	137
Plate	137
erosion	137
bhar@@	137
Highways	137
defendants	137
borrowers	137
banknotes	137
Ath@@	136
mes@@	136
Enabled	136
Inst@@	136
Hard	136
Developer	136
abor@@	136
directs	136
AIM	136
SO	136
27th	136
Arctic	136
Types	136
shortly	136
Provider	136
hung	136
Below	136
oa	136
Gab@@	136
altern@@	136
Blair	136
dit	136
Accounting	136
Flor@@	136
inverse	136
Bridge	136
Bec@@	136
proportions	136
alit@@	136
350	136
Someone	136
CN@@	136
O.	136
graphs	136
kind@@	136
arded	136
hoping	136
blasph@@	136
vine	136
strives	136
heels	136
impress	136
rebels	136
steep	136
slavery	136
assed	136
prop@@	136
discussing	136
glasses	136
ONS	136
STATE	136
engineer	136
Drugs	136
endorsement	136
endo@@	136
dum	136
pollen	136
ksha	136
invasion	136
manuscript	136
incidental	136
Asiatic	136
Mantri	136
sati@@	136
Krishi	136
quarterly	136
PRESENT	136
EIA	136
Vermaji	136
Albert	135
anj@@	135
inform@@	135
copied	135
CDs	135
TRUE	135
OP@@	135
Offline	135
Ful@@	135
scores	135
Anyway	135
awa	135
ickly	135
sep@@	135
hides	135
wav@@	135
anded	135
explosion	135
usion	135
Accel@@	135
Pras@@	135
Rab@@	135
Rak@@	135
Shimla	135
Krish@@	135
summit	135
Sher@@	135
ATIONS	135
omed	135
transc@@	135
Rud@@	135
incl@@	135
usury	135
pleasures	135
possessing	135
opponents	135
doomed	135
coarse	135
incapable	135
throws	135
succeeding	135
feeble	135
degraded	135
dignified	135
perf@@	135
tenderness	135
leisure	135
cuts	135
neighbors	135
veins	135
guarantees	135
departmental	135
emissions	135
Mishra	135
spectacular	135
secretion	135
bail	135
mercury	135
acharya	135
Lala	135
adol@@	135
nurture	135
collector	135
simplify	135
Contracts	135
Promote	135
Redo	134
Square	134
nel	134
simul@@	134
Song	134
Gener@@	134
DT@@	134
Add@@	134
Join	134
disconnected	134
Long@@	134
comic	134
28th	134
ases	134
Cu@@	134
daemon	134
KS	134
con	134
lin	134
eye@@	134
lyrics	134
Ireland	134
Croatia	134
900	134
ough@@	134
Ground	134
traces	134
ü@@	134
bom@@	134
Desert	134
tility	134
Fed@@	134
SB	134
discharging	134
conservative	134
utor	134
awan	134
nov@@	134
edes	134
north@@	134
sey	134
advertising	134
spine	134
begotten	134
contr@@	134
delivers	134
Am	134
trusts	134
claiming	134
penitent	134
slender	134
fury	134
convince	134
amusement	134
colonies	134
predecessors	134
chambers	134
slightest	134
shocked	134
rigorous	134
countless	134
hesitation	134
cious	134
promptly	134
etted	134
sensible	134
muk@@	134
fortnight	134
workshop	134
Amar	134
ethos	134
Obviously	134
Terms	134
contractor	134
heartening	134
religi@@	134
rats	134
jaw	134
centenary	134
cholesterol	134
vata	134
pandemic	134
Initiative	134
disadvantaged	134
Inspection	134
amalgamated	134
Annexure	134
Venture	134
Bhagavatha	134
exec@@	133
Mem@@	133
ove	133
ires	133
reate	133
discarded	133
creators	133
calculate	133
TT@@	133
burg	133
Berlin	133
composer	133
hook	133
regardless	133
Reader	133
Kr@@	133
omet@@	133
Practice	133
Ethiopia	133
glos@@	133
Plan@@	133
eps	133
gon	133
bus@@	133
thirteen	133
Forms	133
eland	133
anya	133
Yog@@	133
PRA@@	133
moon@@	133
stranger	133
dha	133
PPP	133
essor	133
UPS	133
umble	133
Khal@@	133
beneficent	133
truthfulness	133
roast	133
Forgive	133
reap	133
lame	133
falsely	133
encompassing	133
furnishing	133
thanked	133
Recall	133
happily	133
pains	133
ership	133
willingness	133
sadness	133
realities	133
Yash@@	133
consulted	133
punishable	133
Sagar	133
ब@@	133
princely	133
Raman	133
orderly	133
aristoc@@	133
retro@@	133
aids	133
Sangh	133
famili@@	133
Bhak@@	133
araja	133
Swamiji	133
Congressmen	133
puppet	133
novelist	133
foodgrains	133
archaeological	133
Telangana	133
CELEBRATIONS	133
Inc.	132
Fields	132
pause	132
lice	132
Dest@@	132
rectangular	132
40@@	132
ms@@	132
Determines	132
23rd	132
sel	132
xed	132
And@@	132
Netherlands	132
gov@@	132
ratic	132
Day@@	132
ingredients	132
GA	132
Warn	132
pole	132
Ther@@	132
alay@@	132
gregation	132
milestone	132
obli@@	132
requital	132
bestows	132
absol@@	132
rebelled	132
deadly	132
wrong@@	132
jest	132
nobles	132
ducing	132
niggardly	132
brass	132
boats	132
promising	132
subservient	132
Forgiver	132
revealing	132
erring	132
crowds	132
infer@@	132
assumes	132
longing	132
Serve	132
nevertheless	132
ashamed	132
bla@@	132
alien@@	132
dead@@	132
Deemed	132
offensive	132
performances	132
classroom	132
Hey	132
soap	132
bench	132
yarn	132
insulin	132
interactions	132
hag@@	132
Mirza	132
inequality	132
buyers	132
Commissioners	132
gon@@	132
royalty	132
Constitu@@	132
orr@@	132
sensory	132
deductions	132
NeGP	132
RFP	132
Dipu	132
Rs.@@	132
sunlight	131
Icons	131
orial	131
minimal	131
Pack@@	131
Resol@@	131
Instant	131
Must	131
Slo@@	131
check@@	131
suite	131
Adjust	131
logging	131
By@@	131
Random	131
modifying	131
locking	131
gies	131
Prior	131
maj@@	131
privately	131
alarms	131
rest@@	131
ano	131
upload	131
ares	131
Ster@@	131
litres	131
indigo	131
Bed@@	131
Slovenia	131
sat@@	131
nana	131
Lev@@	131
focal	131
stro@@	131
Dri@@	131
tural	131
isc@@	131
itive	131
SM	131
Ken@@	131
ig	131
bag@@	131
rah	131
south@@	131
tech	131
Grade	131
adver@@	131
chant	131
complement	131
BS@@	131
hypothesis	131
refrain	131
dispen@@	131
fortunes	131
fairness	131
horror	131
parting	131
conceited	131
belly	131
daw@@	131
Taurat	131
foul	131
Herald	131
knot	131
cle	131
chasti@@	131
narrow@@	131
mans	131
achiev@@	131
indifferent	131
foreigners	131
accompany	131
juice	131
persuaded	131
nowadays	131
ी@@	131
missionary	131
Vikram@@	131
Kapil	131
ISBN	131
vimanas	131
proactive	131
Lt.	131
Chatur@@	131
intellectuals	131
Mandir	131
missile	131
autobiography	131
Shank@@	131
specialised	131
Narmada	131
Chatterjee	131
syndrome	131
turmeric	131
Prat@@	131
hav	131
Consideration	131
Swadeshi	131
hazardous	131
Bio@@	131
OUR	131
Anand@@	131
Manufacturing	131
enrolment	131
Same	130
Kill	130
Mac	130
mail@@	130
Incoming	130
ues	130
Already	130
Used	130
submitting	130
Enables	130
uniformity	130
compose	130
banned	130
protocols	130
Accep@@	130
stances	130
Individual	130
apura	130
bour@@	130
Delivery	130
Sheet	130
lacking	130
ato	130
Profit	130
Fran@@	130
Green@@	130
Prac@@	130
Rock	130
idence	130
ald	130
dum@@	130
generates	130
gos@@	130
haz@@	130
roman@@	130
Cad@@	130
Bonds	130
rang	130
Hast@@	130
dur	130
ece	130
Kashmiri	130
Evaluation	130
fake	130
karma	130
IST@@	130
simpler	130
adaptation	130
destroying	130
husbands	130
decrees	130
cradle	130
mites	130
accuse	130
spoils	130
frontiers	130
destructive	130
Sust@@	130
afar	130
lain	130
Beloved	130
persecution	130
iss	130
reckoned	130
pronoun@@	130
thereunder	130
trick@@	130
declares	130
purchases	130
attracts	130
ceases	130
marriages	130
harness	130
vigorous	130
exercising	130
amounting	130
swing	130
junior	130
स	130
Sik@@	130
1917	130
opathy	130
astronom@@	130
pura	130
Proclamation	130
awar	130
1926	130
extant	130
Institutional	130
contrac@@	130
bladder	130
Managing	130
injection	130
Sarala	130
deduc@@	130
A.@@	130
	130
SARDAR	130
detached	129
Limit	129
byte	129
vian	129
Swedish	129
brasero	129
Fav@@	129
wo@@	129
xes	129
tex	129
predic@@	129
downloads	129
Deleting	129
PF@@	129
TY	129
SHA	129
Cambridge	129
amar@@	129
Stan@@	129
tus	129
host@@	129
Ar	129
Poor	129
combining	129
Syria	129
queries	129
Electric	129
Pak@@	129
Say@@	129
acking	129
tet@@	129
zzle	129
lad@@	129
advisable	129
Os@@	129
iner	129
tos@@	129
Better	129
PW	129
traveller	129
formidable	129
fool	129
luggage	129
tracts	129
fitted	129
tangible	129
confront	129
gation	129
chaos	129
trem@@	129
struggles	129
coupled	129
adher@@	129
fats	129
supplying	129
fringe	129
abolished	129
suppliers	129
periodical	129
gum	129
Stadium	129
booklet	129
focusing	129
Yadav	129
missionaries	129
safeguards	129
Mahasabha	129
ozone	129
energies	129
romance	129
forefront	129
agni	129
fracture	129
vacancy	129
vide	129
Shows	128
TP	128
Submit	128
Filename	128
call@@	128
ule	128
finger@@	128
FTP	128
forwarding	128
Spell	128
splitting	128
Flash	128
sworn	128
ocation	128
24th	128
Monday	128
Has@@	128
fox	128
ogram	128
Malaysia	128
alls	128
erous	128
Mass	128
ts@@	128
aving	128
tracking	128
predominantly	128
lid	128
ench@@	128
Natal	128
Ve@@	128
Sinai	128
Sem@@	128
Mahan@@	128
itan@@	128
hydro	128
nic	128
petitions	128
excel	128
grieved	128
precautions	128
oblivious	128
swallowed	128
Midian	128
Heaven	128
ims	128
splendid	128
heavenly	128
bathing	128
stam@@	128
colourful	128
commemor@@	128
wast	128
iders	128
hen	128
Alamin	128
habitat	128
objections	128
cad@@	128
Uncle	128
pathy	128
donor	128
modernisation	128
cereals	128
retention	128
द@@	128
yam@@	128
sulphur	128
Strategic	128
fisheries	128
Madan	128
tubes	128
cataly@@	128
happenings	128
Asaf	128
workman	128
Provisions	128
Curcuma	128
PFRDA	128
Alt	127
spider	127
Kings	127
thre@@	127
Lines	127
folds	127
formatted	127
Fi	127
02i	127
Ds	127
bet	127
MSN	127
synchron@@	127
stan@@	127
Maya	127
FT	127
fir@@	127
Rot@@	127
Tag@@	127
yal	127
Teacher	127
Hans	127
vie	127
Water@@	127
Swe@@	127
aligned	127
Luc@@	127
ART	127
amma	127
step@@	127
fet@@	127
poll@@	127
pes	127
vor@@	127
dus	127
gang@@	127
bular	127
itr@@	127
rum	127
Einstein	127
visions	127
deployment	127
COMP@@	127
justify	127
deceit	127
restrain	127
behaved	127
contend	127
intoxication	127
convincing	127
deserted	127
admits	127
pig	127
Mutual	127
Kath@@	127
Orders	127
trivial	127
circulated	127
Aw@@	127
nas@@	127
tolerate	127
Fortunately	127
flute	127
Claims	127
Cotton	127
sewage	127
Ganesha	127
synthetic	127
psychology	127
Judiciary	127
continental	127
Dad@@	127
haw@@	127
nomination	127
1910	127
Broadcasting	127
Ninth	127
Treaty	127
Buddhists	127
historian	127
closure	127
subcontinent	127
promotional	127
investing	127
debenture	127
DDO	127
Prakriti	127
suits	126
prefix	126
Cher@@	126
upgrading	126
bian	126
caution	126
gli@@	126
Waiting	126
Firefox	126
Anonymous	126
checks	126
nir@@	126
Alarm	126
tokens	126
removes	126
umber	126
bytes	126
rolls	126
photograp@@	126
iah	126
Cos@@	126
dians	126
spor@@	126
vas	126
Iceland	126
Kand@@	126
Physics	126
Stone	126
tag@@	126
Gateway	126
Mountain	126
seventeen	126
rod@@	126
Sag@@	126
Sac@@	126
Lakshadweep	126
Makkah	126
observ@@	126
faint	126
Cancer	126
lonely	126
despised	126
Reckoning	126
debtor	126
bargain	126
obstinate	126
shook	126
customary	126
momentous	126
deter@@	126
itous	126
rant	126
mocking	126
rivals	126
deserved	126
renounce	126
Forbearing	126
mortals	126
landing	126
Meem	126
oor	126
scarce	126
passionate	126
spiration	126
ateness	126
instinct	126
transforming	126
continually	126
loom	126
councils	126
waist	126
butter	126
captain	126
oils	126
Advaita	126
Auditor	126
rick@@	126
Chalukyan	126
ornamental	126
Vidya	126
drying	126
appellate	126
slogan	126
weed	126
unified	126
modernization	126
heroine	126
Paras@@	126
ardi@@	126
trainees	126
noteworthy	126
prospective	126
AWAY	126
apol@@	125
statusbar	125
mar	125
ull	125
bis@@	125
ags	125
fiable	125
Effects	125
Resize	125
ushes	125
thumb@@	125
additions	125
elop@@	125
SOCKS	125
Fun@@	125
existent	125
DB@@	125
Authorities	125
leopard	125
enum@@	125
rabbit	125
exponent	125
1906	125
Identification	125
Kazakhstan	125
slides	125
gan	125
yle	125
objec@@	125
Gri@@	125
Commander	125
Comprehensive	125
y.	125
eman@@	125
Effective	125
calculating	125
aram@@	125
kas	125
Bank@@	125
ampur	125
elev@@	125
resign	125
contention	125
whisper	125
zakat	125
dowry	125
forbade	125
vanity	125
burdened	125
exposition	125
knowledgeable	125
vou@@	125
suspect	125
delicious	125
dispose	125
repents	125
antry	125
Bible	125
manifested	125
commence	125
swept	125
neem	125
maketh	125
voluntarily	125
resembling	125
indic@@	125
migrant	125
govern	125
integrate	125
bled	125
detention	125
selfish	125
cage	125
grandmother	125
kid	125
115	125
sulph@@	125
moth	125
invaluable	125
surfaces	125
Wimbledon	125
enactment	125
apathy	125
mysterious	125
investigations	125
rabbits	125
rish@@	125
Bho@@	125
dressing	125
Gaya	125
anthropol@@	125
pillared	125
astronomy	125
sharply	125
Powers	125
legendary	125
hea	125
visionary	125
inland	125
hak	125
currents	125
139	125
Disputes	125
encephal@@	125
circuits	125
U.@@	125
IARI	125
PASSING	125
Off	124
Altern@@	124
Disabled	124
searched	124
PLA@@	124
composing	124
Count	124
cancellation	124
ICQ	124
34@@	124
bad@@	124
pop	124
Receipt	124
import@@	124
AW@@	124
Operations	124
conclusions	124
ulus	124
numer@@	124
Liqu@@	124
Envelope	124
ep	124
Satellite	124
bic@@	124
tian	124
Bin	124
Lad@@	124
proximity	124
aker	124
askar	124
Chin@@	124
Fri@@	124
eri	124
ayan@@	124
Salt	124
KING	124
unciation	124
dos@@	124
VER@@	124
casts	124
tee	124
treacherous	124
eternity	124
feast	124
qualify	124
expectation	124
sadd@@	124
rous	124
Phar@@	124
bearers	124
avar@@	124
curtain	124
recourse	124
declaring	124
phon@@	124
narration	124
afflictive	124
seer	124
isha@@	124
­	124
favored	124
honorable	124
landlords	124
resigned	124
simpl@@	124
arteries	124
frog	124
shallow	124
actu@@	124
disturbance	124
ं	124
Arthur	124
clerk	124
Parsi	124
Brahmaputra	124
vogue	124
GANDHI	124
ingual	124
indi@@	124
automobile	124
hotels	124
substitution	124
unemployed	124
renewal	124
voters	124
underwent	124
corpor@@	124
Agro	124
Depository	124
NSIC	124
ICE	123
fits	123
URIs	123
INS	123
Head@@	123
izer	123
sticky	123
Valid	123
cryp@@	123
clean@@	123
Pointer	123
identifier	123
Waste	123
Glo@@	123
conversations	123
SMS	123
Canadian	123
1600	123
ener	123
pher@@	123
Indian@@	123
Cape	123
Permissions	123
appro@@	123
Mari@@	123
berry	123
ographer	123
builder	123
akh	123
chicken	123
enger	123
vid@@	123
robots	123
raises	123
ui	123
righ@@	123
Frontier	123
Mong@@	123
hia	123
shah	123
mala	123
tog@@	123
kk@@	123
mus	123
satellites	123
sanskrit	123
Veget@@	123
comparative	123
movable	123
ign	123
deferred	123
ditionally	123
trustee	123
mansions	123
shun	123
lifeless	123
blows	123
molten	123
bracelets	123
roofs	123
faction	123
lighted	123
vely	123
formerly	123
relied	123
nurses	123
adviser	123
corrup@@	123
pearl	123
shel@@	123
administer	123
porters	123
erup@@	123
resorted	123
itating	123
contemporaries	123
longest	123
undertakes	123
fervour	123
clarity	123
Marriage	123
Dam	123
documentary	123
felic@@	123
uram	123
reiterated	123
affidavit	123
JSA	123
Dynasty	123
excavations	123
प	123
excise	123
managerial	123
contagious	123
collabor@@	123
vigilance	123
hereditary	123
asthma	123
fan@@	123
convertible	123
Gwalior	123
SCs	123
lobe	123
seeding	123
.07@@	123
Wood	122
Revert	122
Parameters	122
insufficient	122
onian	122
eeds	122
ROM	122
Artist	122
ogeneous	122
mapping	122
anymore	122
Enjoy	122
Critical	122
Initially	122
ued	122
rey	122
Avoid	122
Gir@@	122
metrical	122
endor@@	122
boss	122
pling	122
ased	122
IO@@	122
Per	122
Male	122
skeleton	122
ampl@@	122
Ari@@	122
wand@@	122
Cul@@	122
charging	122
glow	122
casting	122
theta	122
bre	122
lax@@	122
rai	122
olog@@	122
Qur@@	122
Ho	122
SCO@@	122
Mars	122
BS	122
imaginary	122
ially	122
know@@	122
forgiven	122
seeker	122
harbour	122
repose	122
wanting	122
incur@@	122
highways	122
erected	122
foregoing	122
saddened	122
dering	122
sway	122
shaking	122
fear@@	122
here@@	122
fort@@	122
alteration	122
prohibition	122
remit	122
volcan@@	122
occup@@	122
jew@@	122
restless	122
similarity	122
exhibited	122
warrior	122
crew	122
coalition	122
oy	122
estates	122
1907	122
Archaeological	122
vati	122
eti@@	122
hib@@	122
Prith@@	122
wad	122
olic	122
Ratna	122
Yatra	122
secularism	122
Jahan	122
Vaishnavism	122
individuality	122
IZ@@	122
Dasa	122
deepen	122
inability	122
occupational	122
viability	122
civilizational	122
allus	122
INDEPENDENCE	122
Kamban	122
ettes	121
unsuccessful	121
config	121
App@@	121
Archives	121
translator	121
CSS	121
Max@@	121
Rotation	121
tex@@	121
limb	121
Lati@@	121
multiplier	121
CII	121
ectors	121
goo@@	121
decom@@	121
DO	121
drafts	121
Construct	121
Apple	121
float	121
zer@@	121
lane	121
Don@@	121
Goo@@	121
GS@@	121
stopping	121
Bin@@	121
EE	121
oti	121
ORT@@	121
Sham@@	121
eva	121
gy@@	121
Dehradun	121
sett@@	121
how@@	121
EM@@	121
Lecture	121
enic	121
Panjabi	121
BA@@	121
Rich	121
PF	121
MT@@	121
HAR@@	121
Wherever	121
teous	121
confronted	121
compel	121
understands	121
wounds	121
giver	121
betray	121
sings	121
obscure	121
redress	121
toil	121
ing.&apos;	121
Ours	121
envoys	121
motionless	121
herbs	121
beast	121
benefited	121
pursuits	121
forging	121
kindred	121
timber	121
flights	121
hibiting	121
aspir@@	121
ariya	121
stricken	121
myths	121
traded	121
accelerate	121
govern@@	121
plantations	121
itely	121
myriad	121
imperfect	121
penetration	121
cooperate	121
avoidance	121
rel	121
Hitler	121
toilet	121
advocated	121
Bollywood	121
colleague	121
republic	121
legislatures	121
financed	121
इ@@	121
Directive	121
Jainism	121
stimulate	121
kumar	121
tele@@	121
eradication	121
upward	121
Sachin	121
aggre@@	121
approximate	121
maternity	121
hra	121
leverage	121
turpentine	121
arisen	121
Taxes	121
NIT	121
Courses	121
Boston	120
valu@@	120
pag@@	120
vious	120
Analy@@	120
delegated	120
ply	120
suspicious	120
256	120
onset	120
screens	120
Unique	120
Cogl	120
zy	120
participant	120
Topics	120
Agent	120
DL	120
laim	120
rics	120
centi@@	120
Geography	120
adjustments	120
rical	120
centr@@	120
quad@@	120
CG@@	120
Tub@@	120
inkle	120
Psych@@	120
nu@@	120
Sanc@@	120
Maha	120
continents	120
jection	120
Sain@@	120
anic	120
atmospheric	120
meth@@	120
Investi@@	120
Not@@	120
Rabi	120
follower	120
dou@@	120
ATI@@	120
firm@@	120
idol@@	120
vines	120
inflicted	120
martyrs	120
desp@@	120
sailed	120
fragments	120
gush	120
weary	120
betterment	120
dissem@@	120
journeys	120
abundantly	120
breath@@	120
arbitrator	120
shaft	120
greed	120
tryst	120
gating	120
univers@@	120
flourish	120
shouted	120
acknowled@@	120
bas	120
diplom@@	120
Nagar@@	120
dynamics	120
Panc@@	120
ocar@@	120
Sah@@	120
fibres	120
Bach@@	120
Pratap	120
mis	120
Kangra	120
Malabar	120
Bana	120
ferous	120
boycott	120
superstructure	120
Charan	120
drainage	120
humanitarian	120
Puja	120
influential	120
bacterial	120
Banerjee	120
HRD	120
Lakshmana	120
Assets	120
refinance	120
150th	120
indentation	119
aborted	119
Gtk@@	119
brackets	119
encrypt	119
VE	119
brow@@	119
dx	119
graph@@	119
Zones	119
ascending	119
ilit@@	119
Learn	119
bicycle	119
ml	119
phere	119
001	119
jumped	119
packet	119
Architecture	119
dra	119
osphere	119
Gad@@	119
craw@@	119
Partition	119
ador@@	119
Cla@@	119
resembles	119
sla@@	119
Chitr@@	119
aras	119
Mall@@	119
abi	119
shi	119
depended	119
myth	119
gotten	119
put@@	119
best@@	119
tones	119
canopy	119
overlook	119
compulsion	119
famine	119
admon@@	119
aping	119
plaint	119
kle	119
forfe@@	119
WH@@	119
facilitated	119
utterance	119
turmoil	119
reproach	119
clot	119
demons	119
accompanying	119
bundle	119
threatening	119
abiders	119
teth	119
Workers	119
conven@@	119
kidn@@	119
advantageous	119
battles	119
refusal	119
promotes	119
conson@@	119
occasional	119
accumulation	119
suggesting	119
Kaus@@	119
voted	119
sweets	119
Mrs	119
Ex	119
injunction	119
ज@@	119
Organizations	119
alla	119
exotic	119
devi	119
marrow	119
Bhagav@@	119
NGO	119
pox	119
dialect	119
etal	119
handloom	119
oder@@	119
verbal@@	119
gratuity	119
SHGs	119
lon@@	118
animate	118
Armenian	118
Pages	118
Strike	118
mation	118
DVDs	118
Spacing	118
horizontally	118
Tol@@	118
anonymous	118
Transparency	118
interrupted	118
29th	118
Signing	118
reminders	118
Lag@@	118
Kuwait	118
rati@@	118
tunnel	118
ginger	118
TION	118
Correc@@	118
amps	118
Ori@@	118
Ray@@	118
gaps	118
Meas@@	118
ulum	118
CER@@	118
poss@@	118
oping	118
mitting	118
Ris@@	118
Manchester	118
Dha@@	118
ANT	118
Repe@@	118
exam	118
enia	118
stit@@	118
andra	118
mon	118
refuses	118
Folk	118
watch@@	118
Against	118
aned	118
variance	118
FA	118
BH@@	118
midnight	118
ULT@@	118
targeted	118
indulge	118
divert	118
fabric@@	118
adhere	118
repel	118
advancing	118
obeisance	118
vows	118
umbled	118
lodged	118
icants	118
isations	118
counselling	118
lodge	118
scarcity	118
honours	118
ardent	118
talents	118
hey	118
Sovereignty	118
fires	118
civilizations	118
resh	118
apprehension	118
aments	118
unmarried	118
deputation	118
engaging	118
telegram	118
Dravidian	118
algorithms	118
representations	118
SEBI	118
consequent	118
yana	118
130	118
fiel@@	118
Presidents	118
buffaloes	118
bagh	118
spotted	118
1912	118
psychic	118
viruses	118
parasitic	118
Provident	118
motto	118
shareholder	118
supermind	118
Component	117
Develop	117
Shell	117
Whole	117
Mark@@	117
Received	117
subfolders	117
Reverse	117
Downloading	117
Win@@	117
sorting	117
logs	117
Rating	117
confidential	117
unlock	117
Customer	117
PKCS	117
yar@@	117
Rome	117
Grap@@	117
authenticity	117
domains	117
tennis	117
Louis	117
Austria	117
gin@@	117
tire	117
sketch	117
Generation	117
nar	117
athan	117
flames	117
ris	117
Bes@@	117
lazy	117
unic@@	117
Tap@@	117
elium	117
Lod@@	117
eper	117
thal	117
friend@@	117
tari@@	117
infr@@	117
irregular	117
oner	117
nour@@	117
scrutin@@	117
perdition	117
forbids	117
admonish	117
grud@@	117
narrate	117
disagreement	117
ming@@	117
uphold	117
tant	117
essness	117
clam@@	117
evac@@	117
intact	117
crowded	117
occupations	117
cultivate	117
batting	117
erect	117
pots	117
s.&apos;	117
seest	117
aroused	117
road@@	117
reth	117
clarified	117
impres@@	117
opt	117
Perfection	117
durable	117
ologically	117
esti@@	117
satisfying	117
voyage	117
tours	117
racy	117
vial	117
Retirement	117
Diwan	117
qualifying	117
Kish@@	117
Humayun	117
tuber@@	117
catering	117
continuity	117
renal	117
Parties	117
Vallabhbhai	117
Corona	117
exhibitions	117
impulses	117
arena	117
Bio	117
Profits	117
RuPay	117
CPWD	117
.2017	117
Jump	116
Soft	116
String	116
Sources	116
parsing	116
Side	116
Alignment	116
socket	116
Duplicate	116
Anyone	116
archy	116
Skype	116
expun@@	116
KS@@	116
d.	116
ho	116
eman	116
cropping	116
stand@@	116
Comb@@	116
Gambia	116
Namibia	116
ples	116
Seychelles	116
thumb	116
upside	116
adv@@	116
blend	116
illi@@	116
Peti@@	116
arc	116
asy	116
observance	116
unda	116
Kis@@	116
Raipur	116
Agar@@	116
Ass@@	116
aul	116
uga	116
Unity	116
lun@@	116
VAL@@	116
VL@@	116
bert	116
phosph@@	116
rain@@	116
Citrus	116
sterling	116
mang@@	116
33@@	116
cup@@	116
rejecting	116
disbeliever	116
sustaining	116
confirms	116
factions	116
disdain	116
assing	116
arrogantly	116
tablet	116
succ@@	116
forthcoming	116
bless	116
disasters	116
elabor@@	116
shri@@	116
rash	116
atro@@	116
struggling	116
enrolled	116
framing	116
Yeah	116
metallic	116
vascular	116
Graduate	116
motivation	116
sits	116
vitality	116
famed	116
verandah	116
Baj@@	116
Godavari	116
Politics	116
ayya	116
conformity	116
econom@@	116
diarrhoea	116
phil@@	116
respiration	116
digestive	116
hazard	116
pressures	116
reactors	116
1882	116
Corps	116
Telecom	116
inculcate	116
ographical	116
Appar	116
Disabilities	116
BIRTH	116
PAYS	116
tents	115
ools	115
ake@@	115
eline	115
Mailing	115
Material	115
Soc@@	115
functionality	115
eters	115
nowhere	115
directing	115
mat	115
22nd	115
ville	115
Mont@@	115
Kash@@	115
Inv@@	115
led@@	115
football	115
dening	115
ancing	115
Mim@@	115
custom@@	115
enes	115
command@@	115
Scro@@	115
Silver	115
Aqu@@	115
Bhubaneswar	115
galaxy	115
junction	115
respon@@	115
acknowledgement	115
750	115
Battle	115
weighing	115
watered	115
freed	115
wart	115
purview	115
enlarged	115
drawer	115
excre@@	115
Elephant	115
literate	115
cries	115
evenings	115
sco@@	115
registering	115
respecting	115
ateth	115
sta@@	115
orable	115
faulty	115
Qa@@	115
cream	115
ancestral	115
Kalpana	115
1916	115
nationals	115
Sindhu	115
khan	115
diagnosed	115
utilize	115
Kalyan	115
perceptions	115
coach	115
functionaries	115
perme@@	115
Oste@@	115
Kapoor	115
preferably	115
Facilities	115
GAN@@	115
Ficus	115
Laksh@@	115
pioneering	115
supplementary	115
chiefly	115
Engineers	115
collaborations	115
deployed	115
ghee	115
Durg@@	115
liquid@@	115
Daar	115
alongwith	115
epilepsy	115
Fee	115
Teja	115
JO@@	114
Progressive	114
executable	114
debugger	114
python	114
ros	114
Created	114
Sample	114
GT@@	114
integer	114
allocate	114
scanning	114
Presentation	114
Cache	114
pered	114
okay	114
Publishing	114
Dil@@	114
erase	114
poor@@	114
eric	114
Mathematics	114
cast@@	114
deviation	114
Vac@@	114
eem	114
rib@@	114
fi	114
Near	114
lations	114
Laun@@	114
manners	114
Deep	114
optic	114
Dol@@	114
cav@@	114
Activity	114
uran	114
vern@@	114
ima	114
emer@@	114
Dun@@	114
iva	114
DST	114
terrain	114
ladder	114
garbage	114
affir@@	114
persisted	114
oft	114
terrified	114
paradigm	114
percei@@	114
exal@@	114
entertained	114
Maryam	114
rehear@@	114
revi@@	114
aim@@	114
bitterness	114
anticipated	114
decor@@	114
pigs	114
probable	114
gentleman	114
Gurudev	114
esman	114
·	114
NI	114
pradesh	114
restaurant	114
SAT	114
Deshbandhu	114
Granth	114
1918	114
buses	114
fascism	114
digestion	114
millet	114
Rajaraja	114
journalists	114
1943	114
constituencies	114
Religious	114
Sexual	114
NRIs	114
Publications	114
coordinating	114
princip@@	114
Chall@@	114
Hussain	114
tensions	114
revenues	114
integr@@	114
Dairy	114
ballot	114
watershed	114
diaspora	114
Bhagwati	114
Organisations	114
rankings	114
legislations	114
biogas	114
Chandu	114
Vrindavana	114
COP@@	113
Dou@@	113
folding	113
dir@@	113
flowed	113
Ready	113
Share	113
DG	113
tiles	113
singular	113
upwards	113
inactive	113
metadata	113
ng	113
vanished	113
Hav@@	113
reside	113
tracted	113
Pic@@	113
Gross	113
Dollar	113
atorial	113
VIII	113
tist	113
Super	113
Points	113
stamps	113
eption	113
Wales	113
ski	113
disks	113
extraction	113
eeding	113
ju	113
shad@@	113
Eth@@	113
Bij@@	113
ae@@	113
OFFIC@@	113
Wild	113
icy	113
hip	113
ATT@@	113
weaving	113
adoration	113
thief	113
martial	113
swiftly	113
plainly	113
crush	113
herds	113
manifestations	113
insist	113
Recompense	113
pilgrim	113
dost	113
sack	113
swim	113
endeth	113
touch@@	113
vicious	113
portents	113
commitments	113
design@@	113
motivate	113
beautifully	113
youngest	113
Doctor	113
mutation	113
Electrical	113
weavers	113
tumor	113
hir	113
Sush@@	113
incarnation	113
facade	113
civilian	113
episodes	113
commented	113
philosop@@	113
liberated	113
untouchables	113
Plants	113
convened	113
liaison	113
biotic	113
organ@@	113
Jat@@	113
broadcasting	113
Technologies	113
pp.	113
abstr@@	113
Kaur	113
1913	113
Sansk@@	113
Kalidasa	113
moneys	113
paralysis	113
banker	113
irreparable	113
repo	113
MMP	113
Cru@@	112
rupt	112
Contin@@	112
Tags	112
Patch	112
Popup	112
Root	112
lex@@	112
Dynamic	112
Wi	112
queue	112
Competition	112
List@@	112
RSA	112
spelled	112
PO	112
Gren@@	112
san	112
Immediately	112
termin@@	112
extracted	112
adapt	112
hunter	112
drawings	112
1923	112
Daniel	112
identifies	112
tes@@	112
Flu@@	112
radius	112
refl@@	112
HOST	112
bli@@	112
suppress	112
mom@@	112
packing	112
fiber	112
fa	112
model@@	112
repro@@	112
ury	112
hydr@@	112
breathe	112
Vall@@	112
dah	112
focuses	112
Vikas	112
pin	112
Pain@@	112
Ultimately	112
rita	112
Transactions	112
elt	112
conce@@	112
ceremonies	112
intercede	112
hamstrung	112
stretches	112
intercessor	112
climbing	112
faiths	112
desiring	112
ascent	112
disbursement	112
metaph@@	112
reinforce	112
sore	112
promis@@	112
Him@@	112
vigilant	112
entre@@	112
Hath	112
atin	112
emerges	112
evidently	112
blanket	112
Understanding	112
NAT@@	112
endence	112
pilasters	112
Caves	112
tician	112
schooling	112
abhai	112
‎	112
poisoning	112
Fisheries	112
Chow@@	112
dip	112
Harvard	112
barley	112
Collector	112
Soci@@	112
guns	112
Provisional	112
vedi	112
holdings	112
Parishad	112
func@@	112
finances	112
PMO	112
idhi	112
tized	112
mammals	112
feasible	112
nominee	112
fairs	112
idae	112
phar@@	112
pitta	112
Intellectual	112
Allows	111
Mine	111
Deleted	111
sour@@	111
retrieved	111
fon@@	111
view@@	111
mim@@	111
disposition	111
monitored	111
Site	111
crashed	111
Trace	111
ped@@	111
terminals	111
kie	111
responding	111
Dav@@	111
hical	111
Result	111
Rupee	111
Motor	111
1909	111
show@@	111
Kut@@	111
drivers	111
bis	111
Restric@@	111
nutrient	111
phrases	111
Written	111
particle	111
Hur@@	111
bel	111
kets	111
reg	111
Ta	111
Naval	111
Khat@@	111
Kri@@	111
REG@@	111
Pran@@	111
1200	111
Approval	111
Shel@@	111
sedition	111
immature	111
ordin@@	111
conveyance	111
nourishment	111
ingratitude	111
hasty	111
yielded	111
gulf	111
boy@@	111
child@@	111
commander	111
piercing	111
induce	111
munificence	111
unwillingly	111
grat@@	111
attains	111
mour@@	111
weakened	111
sown	111
weighed	111
hob@@	111
innocence	111
aye	111
willeth	111
reminds	111
advocates	111
shortcomings	111
venue	111
accommodate	111
magical	111
reasonably	111
Teresa	111
Vijay@@	111
sniffing	111
VIC@@	111
immun@@	111
capitals	111
Bhushan	111
apuram	111
sq.	111
Mahendra	111
Tulsi	111
journalist	111
disseminate	111
Dal	111
philosophers	111
atis@@	111
sucking	111
ayu	111
presiding	111
Princess	111
glacier	111
supplier	111
Seva	111
Indore	111
Haribhau	111
thyroid	111
Clearance	111
indicative	111
Kirgi@@	111
CONGRATULATES	111
Lady	110
Thread	110
Symbol	110
modi@@	110
chooser	110
tempt	110
Done	110
exing	110
MiB	110
eep	110
reproduce	110
time@@	110
Drawing	110
Timeout	110
ORS	110
cipher	110
Anything	110
Requested	110
storms	110
Distinguished	110
popul@@	110
Swit@@	110
But@@	110
Andro@@	110
Greece	110
Tanzania	110
Noise	110
Lebanon	110
infinity	110
Sas@@	110
dishes	110
airs	110
ension	110
Nine	110
gul@@	110
emy	110
Pha@@	110
CO2	110
mony	110
CT	110
lor@@	110
Kathmandu	110
ukh	110
opol@@	110
Kend@@	110
kab@@	110
kav@@	110
endent	110
AV@@	110
LD	110
CL	110
saturated	110
prays	110
jj@@	110
112	110
conditional	110
ardly	110
simplest	110
booked	110
versa	110
RECE@@	110
liv@@	110
forbearing	110
settling	110
destroys	110
alternation	110
unted	110
calumny	110
affirm	110
Jonah	110
seduce	110
straying	110
summon	110
confluence	110
WE	110
thirsty	110
straigh@@	110
rejects	110
accep@@	110
stead	110
lieu	110
deepest	110
hunt	110
relaxation	110
shattered	110
distribut@@	110
dilemma	110
quake	110
awaiting	110
summons	110
ved@@	110
accomplishment	110
lunch	110
disciplined	110
speculation	110
realizing	110
pick@@	110
thir@@	110
fic	110
temporal	110
contraction	110
accrue	110
Achiev@@	110
flu	110
bhu@@	110
avali	110
Kutch	110
Jobseeker	110
Chakra	110
Baroda	110
Ganesa	110
genital	110
surveillance	110
tactics	110
Jhansi	110
senti@@	110
ogical	110
endangered	110
stanzas	110
cen@@	110
patri@@	110
octagonal	110
Ramesh	110
Presiding	110
conserve	110
abolition	110
Ashutosh	110
CB@@	110
bereaved	110
Considering	110
ventr@@	110
NIC	110
CSR	110
M.@@	110
H.E.	110
Anim@@	109
Bear	109
Franklin	109
Baltic	109
kernel	109
Lic@@	109
Initi@@	109
ospace	109
eed@@	109
atoms	109
Copies	109
AGE	109
Axis	109
acceleration	109
Zero	109
Classic	109
exclude	109
simplified	109
upgraded	109
liqu@@	109
cub@@	109
False	109
fiers	109
hala	109
54@@	109
Probably	109
mounting	109
Bap@@	109
escope	109
Pop@@	109
langu@@	109
Seed	109
moti@@	109
gop@@	109
Tech@@	109
Satur@@	109
shells	109
Thermal	109
umes	109
eli	109
Kud@@	109
wit	109
VISI@@	109
Fur@@	109
EU	109
TER	109
wrongly	109
encing	109
BB	109
olds	109
Originator	109
calcul@@	109
correc@@	109
CRE@@	109
joke	109
amity	109
watchful	109
Saleh	109
kill@@	109
breakfast	109
boon	109
restricts	109
dul@@	109
intox@@	109
intercessors	109
rebu@@	109
bondman	109
sells	109
proudly	109
extinction	109
meritorious	109
escap@@	109
earth@@	109
whereupon	109
after@@	109
itory	109
thri@@	109
cau@@	109
nests	109
Eventually	109
passions	109
poles	109
contingent	109
desk	109
Naren	109
offender	109
ORT	109
timeless	109
constituents	109
pav@@	109
irony	109
fossil	109
clinic	109
veena	109
event@@	109
1911	109
emphasize	109
Mangal	109
judic@@	109
Janata	109
medication	109
restructuring	109
abled	109
Appeal	109
smith	109
Bhima	109
Bulhe	109
Care@@	108
snippet	108
Se	108
Norwegian	108
spect	108
pati@@	108
Flip	108
constraint	108
USB	108
lou@@	108
eys	108
migrate	108
multic@@	108
Enh@@	108
epi@@	108
lookup	108
Phoenix	108
BCC	108
Deli@@	108
Receipts	108
atures	108
Batch	108
Comments	108
eds	108
rot	108
divides	108
Kenya	108
weights	108
associating	108
PS@@	108
Tray	108
oscope	108
Cold	108
Pay@@	108
West@@	108
snow@@	108
waking	108
abs	108
Magnetic	108
ros@@	108
yo	108
Edward	108
Lac@@	108
Gil@@	108
pt@@	108
Cent@@	108
anal	108
ground@@	108
lighter	108
stration	108
own@@	108
Monthly	108
RO	108
cumulative	108
Gram@@	108
tresp@@	108
condemn	108
bands	108
rushing	108
distinctly	108
cruci@@	108
edifice	108
hast@@	108
lowered	108
violently	108
diminished	108
prudent	108
Prostrate	108
haj@@	108
nur@@	108
preach@@	108
headache	108
Abode	108
fro	108
uplift	108
desperate	108
obs@@	108
illed	108
fast@@	108
doeth	108
ceas@@	108
Muttaqun	108
admir@@	108
compensate	108
steeped	108
vicinity	108
toll	108
ishable	108
overnight	108
wai@@	108
scared	108
constituting	108
twentieth	108
heredity	108
Chalukyas	108
abai	108
conditioned	108
indica	108
broker	108
humane	108
Birla	108
ayal	108
Rupees	108
kti	108
icans	108
monk	108
humidity	108
enthusiastic	108
donations	108
butterflies	108
त	108
depicts	108
Mountbatten	108
auc@@	108
fluctu@@	108
employing	108
pharmaceuticals	108
Producers	108
Membership	108
gnosis	108
Lending	108
lymph	108
ASH@@	108
nic.	108
CLICK	108
B.@@	108
Navalram	108
ft@@	107
aced	107
Unrecognized	107
Activ@@	107
Signal	107
Appearance	107
Decrease	107
widgets	107
cue	107
alpha	107
picking	107
icks	107
Expected	107
Pidgin	107
Epiphany	107
advertisements	107
attendee	107
SOC@@	107
ston	107
collapsed	107
pact	107
equations	107
defining	107
ainer	107
triangle	107
algebra	107
1885	107
Regions	107
sailing	107
Eng@@	107
Nep@@	107
editorial	107
err	107
itan	107
Pash@@	107
accommod@@	107
aud	107
mann	107
alt	107
cardi@@	107
cy	107
uel	107
fresh@@	107
Bhut@@	107
Teaching	107
DM	107
fledged	107
Conven@@	107
dissi@@	107
molecular	107
pes@@	107
nan	107
aza	107
bru@@	107
vas@@	107
sto@@	107
NA	107
laun@@	107
conquer	107
OCR	107
habad	107
recre@@	107
88@@	107
teen@@	107
tridge	107
confuse	107
Scriptures	107
reckon	107
eloquent	107
prote@@	107
salute	107
consec@@	107
WILL	107
observes	107
governor	107
lings	107
desirous	107
fertil@@	107
chew	107
blest	107
necked	107
bringeth	107
ferment	107
omes	107
bery	107
generosity	107
Cour@@	107
respectable	107
hypo@@	107
dealers	107
progressively	107
Throughout	107
anom@@	107
Sonia	107
subjective	107
Pant	107
interpre@@	107
Bikaner	107
chand@@	107
Organic	107
genic	107
epidemic	107
Palestinians	107
capitalist	107
kingdoms	107
Bhatt	107
1915	107
1800	107
technic@@	107
groundnut	107
monarch	107
eering	107
vocal	107
Centrally	107
Dayal	107
pep@@	107
Jati	107
compost	107
coriander	107
thorium	107
trekker	107
Passport	107
P.@@	107
Fakirmohan	107
Aurangzib	107
Condition	106
good@@	106
etter	106
presses	106
Filters	106
Minutes	106
Vo@@	106
Wrong	106
playback	106
stays	106
https	106
Pow@@	106
blog	106
Fetching	106
Objectives	106
tu	106
ario	106
Proposal	106
Factory	106
Engine	106
gru@@	106
1&apos;	106
Chal@@	106
ician	106
Yam@@	106
Lee	106
omb@@	106
molecule	106
azi	106
tz	106
handicapped	106
pH	106
showers	106
Shir@@	106
Shillong	106
ipur	106
Mot@@	106
plotting	106
MAN	106
COUR@@	106
ISH@@	106
Enterprise	106
builds	106
unlikely	106
diagnostic	106
Metro	106
DEL@@	106
reformers	106
heal	106
firmness	106
chastity	106
dazz@@	106
pulling	106
itant	106
carpet	106
curb	106
Yaj@@	106
beforehand	106
delightful	106
Emplo@@	106
strove	106
phal@@	106
icket	106
bushes	106
ulent	106
defective	106
Ish@@	106
counterparts	106
dams	106
mind@@	106
attributable	106
incredible	106
enclosure	106
fixation	106
uncommon	106
Eleph@@	106
gentlemen	106
Colon@@	106
Drug	106
beaches	106
Payments	106
Dalit	106
Doordarshan	106
Tour	106
thinker	106
refining	106
Amrit@@	106
aditala	106
aemia	106
oste@@	106
Heads	106
kerosene	106
Exhibition	106
vill@@	106
khadi	106
inspec@@	106
enzyme	106
Hamid	106
HU@@	106
disbursed	106
memorandum	106
rist	106
bacterium	106
enshrined	106
mechanics	106
ecstasy	106
pluralism	106
practitioners	106
kapha	106
horticultural	106
Lym@@	106
.00	106
Fonts	105
Att@@	105
loader	105
dat@@	105
investigating	105
Contrast	105
GL	105
Quali@@	105
GRA@@	105
Dim@@	105
Boolean	105
Stand@@	105
coordinates	105
potentially	105
Konqueror	105
Modi@@	105
essing	105
Miss	105
Maz@@	105
Gaza	105
indicators	105
canc@@	105
archives	105
Sep@@	105
Quad@@	105
hectare	105
duck	105
shire	105
horn	105
Motion	105
ero	105
SQL	105
reas@@	105
Whe@@	105
Ide@@	105
synthe@@	105
equi@@	105
aper	105
Mast@@	105
tl@@	105
uploaded	105
bias	105
modem	105
Mans@@	105
icing	105
aly@@	105
Deva	105
Hai	105
conjunc@@	105
oe@@	105
opportun@@	105
decreased	105
classi@@	105
oppress	105
perverse	105
disgraced	105
eph@@	105
inquire	105
trunks	105
perennial	105
paired	105
commemorate	105
tily	105
straightforward	105
builders	105
intrinsic	105
assemblies	105
bloss@@	105
conveying	105
uncertainty	105
consequently	105
bother	105
belongings	105
courageous	105
betrayed	105
mayest	105
speak@@	105
lent	105
recei@@	105
yc@@	105
incur	105
grim	105
Patri@@	105
invaded	105
combines	105
intimacy	105
ayb	105
lively	105
icles	105
imposition	105
sympath@@	105
moist	105
debates	105
BI	105
arming	105
Ombudsman	105
Saj@@	105
tability	105
bombs	105
Sex	105
Coastal	105
depicting	105
frozen	105
strides	105
fitness	105
humanism	105
thetic	105
Ansari	105
spiritu@@	105
tendencies	105
essions	105
musicians	105
tial	105
patents	105
Compliance	105
adherence	105
agri	105
coordinated	105
Responsibility	105
celery	105
RAJ@@	105
NRE	105
Floor	104
tories	104
Generate	104
Jav@@	104
Found	104
Scan	104
Response	104
Depth	104
ellipse	104
turing	104
GL@@	104
blending	104
bration	104
245	104
SL@@	104
typed	104
Hi	104
recurrence	104
jam@@	104
curr@@	104
porting	104
acked	104
Dark	104
Outstanding	104
Oper@@	104
pris@@	104
obeying	104
kam	104
itions	104
Fu@@	104
Far	104
Conversion	104
persists	104
CLO@@	104
environments	104
class@@	104
english	104
Ot@@	104
summar@@	104
program@@	104
tika	104
Districts	104
rol	104
toral	104
Rum@@	104
kan	104
ocy@@	104
mute	104
simultaneous	104
utely	104
otypes	104
pens	104
mite	104
MD	104
FIN@@	104
ranked	104
sanctity	104
domin@@	104
tingly	104
fail@@	104
dwelt	104
supremacy	104
irrigated	104
loudly	104
statues	104
sunshine	104
gence	104
notions	104
carpets	104
spacious	104
enched	104
fores@@	104
fullest	104
Pain	104
bondage	104
battlefield	104
expresses	104
crushing	104
sufferings	104
grazing	104
releases	104
paramount	104
denomin@@	104
chariot	104
anam	104
alal	104
rah@@	104
Shree	104
Govind	104
Sis@@	104
atal	104
mucous	104
ayam	104
akshi	104
urb@@	104
Vijayanagar	104
eleventh	104
deficiencies	104
excavation	104
musician	104
irritation	104
ya@@	104
IPC	104
plural	104
fronts	104
enlargement	104
pivotal	104
ardha	104
culmin@@	104
Visva	104
Economics	104
warehouse	104
Stations	104
infants	104
liquidity	104
1,@@	104
JUN	104
wins	103
Chang@@	103
SDL	103
merges	103
inher@@	103
puzzle	103
hec@@	103
postpone	103
estimation	103
dim	103
Sets	103
ellip@@	103
Stand	103
Break	103
switched	103
peer	103
Tem@@	103
conferencing	103
saves	103
outing	103
Graphics	103
Daw@@	103
fax	103
overdue	103
differs	103
figuring	103
Yellow	103
Gam@@	103
closest	103
aero@@	103
Benin	103
Stu@@	103
Coordin@@	103
Female	103
decoration	103
Know@@	103
tops	103
power@@	103
agn@@	103
brid@@	103
nah	103
CHAN@@	103
Vind@@	103
practiced	103
ket@@	103
pions	103
replacing	103
LAN@@	103
cand@@	103
recogn@@	103
sty@@	103
frustration	103
punishes	103
inflict	103
tance	103
meaningless	103
cheer	103
haughty	103
prom@@	103
counsel@@	103
origin@@	103
concei@@	103
aspire	103
Ayy@@	103
arriving	103
knock	103
baked	103
allowable	103
cultiv@@	103
intensely	103
ffed	103
Rivers	103
appreciative	103
daring	103
clim@@	103
accum@@	103
vigorously	103
Mind	103
theater	103
bowling	103
remedies	103
Harsha	103
veda	103
colonialism	103
recognizes	103
genous	103
Meerut	103
spark	103
sni@@	103
bazaar	103
mahar@@	103
fluctuations	103
calculus	103
epics	103
satyagraha	103
Crime	103
wadi	103
imaginative	103
polio	103
miniature	103
Diseases	103
auditor	103
cholera	103
profitability	103
Rice	103
Kargil	103
Chandras@@	103
Tegh	103
Chennamma	103
ashram	103
Ajmer	103
morale	103
AK	103
spindle	103
Deduction	103
Panchayati	103
commerci@@	103
ATES	103
receivable	103
Cyber	103
Transvaal	103
tableau	102
Diamond	102
cross@@	102
Glade	102
wizard	102
profiles	102
Buil@@	102
caption	102
ewed	102
Align	102
manipulation	102
timeout	102
packets	102
[...]
