के	746249
है	622491
।	577630
में	501168
,	499906
और	496870
की	427880
से	336500
को	302752
का	275869
(	251052
)	250636
.	233051
-	207023
हैं	192485
कि	174161
पर	169192
लिए	167182
एक	158826
नहीं	144658
तो	139179
जो	128992
भी	124317
हो	112149
ने	107223
किया	104243
कर	104024
यह	103304
ही	103108
इस	90858
वह	86998
करने	85259
या	82274
अपने	71481
न	69767
था	69167
"	63482
तथा	61590
वे	60195
गया	58769
कुछ	57053
तुम	56727
किसी	53282
हम	52409
साथ	50638
कोई	50637
थे	47382
उनके	47252
रूप	45709
द्वारा	45447
/	44364
करते	43945
लोगों	43608
दिया	42756
लोग	42508
जब	42217
भारत	41950
ये	41662
क्या	41219
'	40587
तक	39924
?	39757
करें	39295
फिर	38052
जा	37621
करना	36752
जाता	36544
%	36537
उसके	35812
अपनी	35530
कहा	35354
मैं	34899
अल्लाह	34888
उस	33578
रहे	33405
;	32673
होता	32494
उन्हें	32466
ख़ुदा	32093
करता	31636
आप	31612
हुए	31609
थी	30889
सकता	30809
रहा	30663
उसे	30259
उन	29506
बहुत	28857
समय	28681
:	27833
दो	26879
तरह	25575
वाले	25542
अधिक	25133
उन्होंने	25116
हमने	24749
हुआ	24623
पहले	24589
बाद	24545
बात	24475
राष्ट्रपति	24129
_	23985
उनकी	23737
दिन	23503
पास	23338
होगा	23244
यदि	23110
सभी	22625
हमारे	22546
गई	22524
गए	22159
s	21961
होने	21865
दी	21618
सकते	21478
चाहिए	21474
ओर	21350
तुम्हारे	21132
कार्य	20839
प्रकार	20618
काम	20444
इसके	20211
ऐसे	20189
प्राप्त	20168
इन	20100
होती	20006
अन्य	19910
उसकी	19661
ऐ	19542
किए	19381
क्षेत्र	19078
एवं	19059
व	18931
जाने	18801
मुझे	18684
ऐसा	18270
भारतीय	18222
ले	18195
1	17855
!	17800
विकास	17600
नाम	17382
कारण	17374
अब	17290
अगर	17228
सरकार	17157
कम	16662
दे	16560
उसने	16540
हुई	16513
लेकिन	16509
सब	16377
देश	16370
लिया	16246
करो	16147
दोनों	15796
प्रदान	15784
जाती	15405
राज्य	15388
व्यक्ति	15362
हर	15357
रसूल	15177
तुम्हें	15029
जीवन	14863
होते	14811
वाला	14793
अ@@	14770
बारे	14657
जैसे	14655
रही	14633
जिस	14507
बीच	14484
वर्ष	14479
ऐसी	14279
आ	14098
उसका	13710
मेरे	13692
केवल	13227
हमें	13155
उनका	12997
रब	12904
वही	12758
जाएगा	12702
हूँ	12437
बार	12405
हमारी	12384
ईमान	12369
अपना	12331
वाली	12172
जिसमें	12135
प्रयोग	12094
जाना	12090
प्रति	12039
सी	11970
इसे	11910
ताकि	11898
बड़ा	11883
पैदा	11883
सबसे	11814
देने	11720
उसी	11686
उपयोग	11551
राष्ट्रीय	11492
दूसरे	11485
2	11435
क्योंकि	11403
जाते	11400
क	11253
अथवा	11241
इसमें	11180
कभी	11108
संदेश	11046
देता	11030
भाग	10946
श्री	10878
आज	10839
तब	10752
बना	10687
स्थान	10664
सकती	10624
जिसे	10598
सूचना	10583
जी	10399
उससे	10390
स्थिति	10381
उनसे	10310
जाए	10241
इसलिए	10169
परवरदिगार	10167
पूर्व	10151
होना	10125
सहायता	10064
बस	10036
बड़ी	10004
शिक्षा	9965
मेरी	9958
करती	9915
हूं	9812
फ़ाइल	9723
पता	9675
चीज़	9607
अलग	9499
न@@	9492
बल्कि	9480
अधिनियम	9421
क@@	9395
होगी	9364
सूची	9323
कई	9285
इससे	9282
ली	9217
विशेष	9183
विभिन्न	9146
यही	9125
योजना	9110
यहाँ	9095
धारा	9085
स@@	9084
शामिल	9079
विचार	9001
उनमें	8985
करके	8973
आगे	8926
कहते	8925
सेवा	8918
आपको	8859
दौरान	8859
होंगे	8713
आ@@	8707
वि@@	8696
इसका	8674
सामने	8625
पूरा	8593
मे	8579
लिये	8562
उनको	8546
संबंधित	8525
उपलब्ध	8484
अनुसार	8431
अच्छा	8427
आधार	8404
बाहर	8402
जिन	8385
पूर्ण	8380
कह	8362
तैयार	8359
चाहते	8350
जहां	8341
संबंध	8299
याद	8267
देते	8266
जिसके	8245
इसी	8242
हों	8212
उसमें	8185
नई	8153
तरफ	8124
प्रत्येक	8105
घर	8099
बड़े	8037
निर्माण	8023
करे	7924
विषय	7892
दुनिया	7876
प्रक्रिया	7853
करेगा	7851
”	7844
अवसर	7840
निश्चय	7828
मार्ग	7794
आपके	7782
ना	7766
>	7737
गये	7737
म@@	7731
जारी	7713
संख्या	7685
3	7646
हेतु	7644
बनाने	7634
ए@@	7575
ए	7512
विश्व	7449
पत्र	7448
ब@@	7418
लगे	7396
भवन	7390
स्तर	7379
पानी	7366
अनेक	7350
अज़ाब	7308
पूरी	7293
व@@	7276
रखा	7233
ऊपर	7189
बनाया	7178
भाषा	7176
ठीक	7141
ता	7135
अधीन	7130
शुरू	7115
शक्ति	7115
महत्वपूर्ण	7099
स्वयं	7095
मैंने	7093
यहां	7052
ल@@	7049
तीन	7037
आदि	6989
प्रौद्योगिकी	6979
‘@@	6968
मुख्य	6963
ज्ञान	6943
ला	6887
आय	6874
बन	6858
सामान्य	6849
र@@	6846
आर्थिक	6832
तुम्हारा	6831
ई	6814
देना	6796
उच्च	6792
तुम्हारी	6791
बैंक	6787
क्षेत्रों	6772
जिसने	6770
दूर	6752
लगा	6734
सं@@	6729
प्रतिशत	6715
खुदा	6687
करेंगे	6681
बिना	6680
नीचे	6667
प@@	6647
स	6643
गयी	6640
चाहता	6639
देखा	6622
अच्छे	6608
ध्यान	6596
बेशक	6575
त@@	6570
जिसका	6569
किन्तु	6541
धरती	6537
अधिकार	6515
मदद	6492
विज्ञान	6485
मगर	6485
सके	6477
ः	6472
अतः	6431
ना@@	6418
जनता	6415
पीछे	6410
होकर	6377
&	6376
का@@	6366
फ़ोल्डर	6357
नि@@	6341
कृषि	6297
सारे	6282
ज़मीन	6281
इसकी	6257
सु@@	6230
प्रमुख	6212
लाभ	6199
जानकारी	6198
दिए	6170
विश्वास	6144
मेरा	6131
अर्थ	6112
प्रणाली	6097
माध्यम	6096
प्र@@	6054
लेकर	6053
रंग	6034
स्पष्ट	6021
उत्तर	6015
काफी	6014
बे@@	6012
जबकि	6009
ल	5997
किताब	5993
सामाजिक	5989
कंपनी	5979
इनकार	5977
धर्म	5906
कार्यक्रम	5905
अभी	5902
उद्योग	5889
समूह	5874
लगभग	5871
ज	5856
समाज	5853
दें	5848
आने	5848
म	5847
क्यों	5843
अच्छी	5796
ज्यादा	5785
स्थापित	5778
माल	5762
मूल	5699
रह	5680
परिवर्तन	5679
को@@	5677
दर	5673
रखते	5657
मन	5639
आवश्यक	5634
आया	5621
हाथ	5614
नी	5613
ं@@	5596
लागू	5582
च@@	5562
मामले	5542
देख	5536
चाहे	5527
मूल्य	5497
अवधि	5492
र	5486
नया	5484
कहीं	5476
ग@@	5466
5	5433
नीति	5429
आवश्यकता	5419
बराबर	5418
उत्पादन	5414
जल	5406
जानते	5405
रहने	5394
जैसा	5391
लो	5387
तू	5378
जिससे	5375
ऋण	5375
द@@	5374
जगह	5371
द	5352
य@@	5351
ज@@	5329
मा@@	5323
सिवा	5313
प्रभाव	5312
सही	5312
आई	5308
संपर्क	5305
यातना	5304
क़ौम	5290
देशों	5283
सुरक्षा	5271
वालों	5269
कु@@	5268
जानता	5262
4	5246
सा	5209
बा@@	5203
#	5200
इ@@	5186
समान	5179
वहां	5173
नए	5158
अतिरिक्त	5157
मिल	5155
जाएगी	5153
तुमसे	5152
ट@@	5150
आदेश	5135
क्षमता	5126
रखने	5124
प्रयास	5124
विभाग	5113
यात्रा	5098
रहते	5075
परियोजना	5069
कुल	5068
स्वीकार	5031
राशि	5027
चुके	5007
अनुसंधान	5007
मूसा	5001
वर्तमान	4993
’	4993
आकार	4983
ह@@	4982
रात	4976
लेने	4970
अंतर्गत	4966
उसको	4950
सिर्फ	4939
सा@@	4937
जमा	4937
व्यापार	4934
छोड़	4933
नही	4933
मान	4905
थीं	4905
सभा	4897
वास्तव	4890
वहाँ	4885
आए	4876
44	4865
य	4852
चार	4847
व्यवस्था	4825
ट	4824
त	4815
कहने	4808
हमेशा	4802
किस	4800
काल	4796
ला@@	4791
पी	4790
न्यायालय	4786
कौन	4784
रा@@	4783
मानव	4766
खंड	4754
तुमने	4749
जिन्हें	4740
शरीर	4732
दूसरी	4728
0	4727
निर्धारित	4719
kgm	4718
ओ@@	4706
सदस्य	4704
उद्देश्य	4701
स्वास्थ्य	4696
ड	4694
सहयोग	4685
वा@@	4676
दिल्ली	4674
डर	4665
पा@@	4660
लाए	4658
चुका	4637
रि@@	4635
के@@	4633
वर्ग	4633
वक्त	4630
वर्षों	4628
इतिहास	4627
छोटे	4624
ड@@	4613
देखते	4613
मे@@	4604
स्थित	4601
ती	4598
बच्चों	4595
<	4586
निर्णय	4564
सीमा	4563
हमारा	4562
कैसे	4559
तौर	4527
आग	4524
विधि	4521
सि@@	4521
विश्वविद्यालय	4506
शब्द	4504
परिणाम	4502
दृष्टि	4501
भूमि	4486
सुधार	4483
समझ	4471
टी	4465
बनाए	4460
संबंधी	4459
जिन्होंने	4451
अंतिम	4449
संस्थान	4445
ई@@	4436
बदला	4429
छवि	4407
उ@@	4401
दिल	4398
जिनके	4382
लगता	4377
हाल	4373
प्रस्तुत	4367
अधिकारी	4364
केंद्र	4362
परन्तु	4362
विदेशी	4359
भेजा	4358
वस्तु	4357
स्थानीय	4351
चल	4350
कोर्इ	4350
आधारित	4343
सिंह	4342
निस्संदेह	4335
भर	4326
खोज	4312
डी	4306
जान	4298
विशिष्ट	4287
विकसित	4286
ता@@	4284
देगा	4278
किये	4277
प्रदेश	4270
बेहतर	4267
सका	4263
परंतु	4258
बाहरी	4254
सी@@	4250
लि@@	4244
साल	4235
लें	4232
ग	4225
मौजूद	4224
राष्ट्र	4224
कृपया	4212
स्@@	4208
निश्चित	4195
बंद	4179
न्@@	4179
नियंत्रण	4175
वित्तीय	4172
सरकारी	4163
आरंभ	4157
सक्रिय	4155
तुमको	4153
ले@@	4144
ख	4133
कर्म	4133
समाप्त	4132
रे@@	4125
स्थापना	4121
त्रुटि	4110
निवेश	4089
वृद्धि	4087
रहता	4087
सहायक	4086
6	4075
से@@	4071
प्रबंधन	4066
रो@@	4064
युद्ध	4058
माना	4056
लोक	4041
बल	4033
नियम	4028
सर्वर	4017
मनुष्य	4014
10	4012
जिसकी	4009
प्रथम	4000
पाया	3997
डाक	3997
तहत	3993
खाता	3993
श@@	3992
वास्ते	3991
मि@@	3981
प्रवेश	3979
समिति	3969
मी	3967
परिवार	3959
मंत्रालय	3949
भूमिका	3942
अनु@@	3916
योग्य	3906
मिला	3904
मु@@	3894
मो@@	3888
संयुक्त	3888
ते	3879
लेते	3876
संविधान	3870
विंडो	3868
सत्य	3868
पहली	3856
ने@@	3853
दिशा	3851
जाओ	3848
डि@@	3847
लक्ष्य	3845
हुक्म	3827
जाएँगे	3816
प	3815
अमेरिका	3809
लाख	3806
सामग्री	3794
बी	3791
पड़े	3789
भाई	3775
भुगतान	3768
बाजार	3767
संघ	3765
हैः	3760
उत्पन्न	3755
पद	3755
मध्य	3754
एस	3751
दिनों	3750
अलावा	3738
आदमी	3730
अनुमति	3726
रा	3722
अध्ययन	3722
समर्थन	3718
भिन्न	3716
इस्तेमाल	3715
“@@	3707
राम	3702
पिछले	3700
अंत	3689
in	3688
बच्चे	3688
उदाहरण	3681
निर्दिष्ट	3670
विकल्प	3665
मात्रा	3661
नाज़िल	3660
विवरण	3659
दक्षिण	3657
खेल	3656
ख@@	3655
अनुभव	3650
मृत्यु	3647
आसमान	3645
सहित	3644
मत	3643
इतना	3642
कल	3640
प्रशिक्षण	3637
मंदिर	3634
साहित्य	3631
जरूरत	3624
प्रारंभ	3621
प्रति@@	3619
दिखाएँ	3617
जहाँ	3617
प्रगति	3611
वेबसाइट	3602
जांच	3600
सुनिश्चित	3595
आम	3594
परि@@	3592
राह	3592
चुनें	3591
जाएँ	3591
क़यामत	3588
फ@@	3580
हिस्सा	3558
रोग	3558
शासन	3542
पाठ	3535
8	3533
अभि@@	3529
प्रेम	3524
भीतर	3513
{	3510
मंत्री	3496
}	3490
वापस	3485
खाते	3484
या@@	3483
प्रश्न	3482
मामलों	3478
प्रकृति	3474
पि@@	3471
ऊर्जा	3471
बि@@	3469
सार्वजनिक	3464
अत्यन्त	3459
दृश्य	3455
उनपर	3445
विस्तार	3439
जैसी	3430
गांधी	3425
देखने	3424
वो	3420
नदी	3420
कमी	3419
–	3419
7	3418
रखता	3414
क्रिया	3412
री	3411
उप@@	3406
मालूम	3401
कोशिश	3396
उचित	3393
जा@@	3392
समस्या	3389
a	3385
तंत्र	3385
राज्यों	3381
वे@@	3372
कांग्रेस	3370
फाइल	3368
ग्रामीण	3366
सक्षम	3365
बदल	3356
लिखा	3356
धन	3356
बातें	3349
निर्धारण	3347
दा@@	3345
सदस्यों	3345
चयनित	3342
बढ़	3339
जिनमें	3327
ज़	3325
पूरे	3323
जी@@	3321
जन	3315
शायद	3315
जन्म	3311
संगठन	3305
ति@@	3304
कार	3304
क्@@	3292
उपधारा	3291
पी@@	3289
र्@@	3288
संसद	3288
पृष्ठ	3275
सेट	3273
S	3267
डाल	3267
निजी	3258
डिस्क	3253
लो@@	3250
कि@@	3228
पालन	3213
सत्ता	3208
बातों	3206
निर्यात	3200
लाल	3198
किंतु	3198
मांग	3192
जवाब	3190
पहचान	3171
बाप	3169
हक़	3166
यक़ीनन	3165
पुनः	3160
कों	3156
पड़ा	3153
स्वतंत्रता	3152
संभव	3150
नों	3149
पा	3149
ो	3146
केंद्रीय	3141
रखना	3136
दिखाई	3135
मुँह	3131
महान	3129
ओ	3125
देती	3115
रक्षा	3113
मुखर्जी	3113
टि@@	3110
शहर	3102
औद्योगिक	3101
राजा	3099
गो@@	3096
अव@@	3091
सर	3090
d	3084
व्यापक	3084
इनमें	3082
पुरस्कार	3082
रहेंगे	3076
मुक्त	3075
ब	3066
कानून	3066
करोड़	3064
वा	3052
साफ	3051
खुद	3047
स्रोत	3043
कार्यालय	3038
कला	3036
पिता	3031
पूंजी	3031
वाद	3026
योगदान	3024
व्यक्तियों	3023
लाने	3016
पे@@	3014
रुप	3006
चले	2991
समारोह	2987
पुस्तक	2984
प्रभावित	2981
रहो	2979
सुविधा	2978
सफल	2978
पश्चात	2967
टन	2960
बने	2960
चि@@	2959
आपकी	2953
ऊण्श्छ्ष्	2953
चला	2952
आर	2948
उपकरण	2947
रिपोर्ट	2945
संरचना	2943
टे@@	2940
वन	2937
पो@@	2925
प्रकाश	2924
आयतों	2922
http	2918
बदले	2914
आवेदन	2911
महा@@	2911
संदर्भ	2908
शा@@	2904
ंग	2902
प्रकट	2902
देंगे	2900
चाहिये	2899
भविष्य	2894
निधि	2887
भारी	2886
कहो	2881
भ@@	2879
वजह	2879
बोर्ड	2875
गति	2871
जि@@	2869
अप@@	2868
हिन्दी	2865
प्रस्ताव	2864
आयोजित	2864
श	2863
नो@@	2863
आयात	2863
हा@@	2860
पर्याप्त	2858
गैर	2857
रख	2856
डाला	2856
वास्तविक	2852
आधुनिक	2851
उत्पाद	2850
वी	2847
टी@@	2845
बयान	2845
पक्ष	2844
बी@@	2840
]	2837
12	2835
निम्नलिखित	2834
सेवाओं	2833
प्रकाशित	2832
दिवस	2827
प्रधानमंत्री	2827
i	2822
मा	2822
लागत	2820
15	2813
संसाधन	2808
बुरा	2807
बंगाल	2805
है@@	2803
बो@@	2799
हासिल	2799
सो@@	2798
दूसरा	2798
केन्द्र	2797
ढंग	2796
स्कूल	2796
A	2793
सुरक्षित	2792
चुकी	2790
सफलता	2787
बन्दों	2785
राय	2777
सीधे	2776
छोटी	2776
आता	2768
ली@@	2762
नी@@	2761
सन्	2761
एम	2758
भावना	2757
यद्यपि	2755
शख्स	2751
ह	2750
कहना	2750
गा@@	2746
निकल	2744
प्रणब	2744
प्रमाणपत्र	2733
सेना	2733
समुदाय	2733
बधाई	2732
सारी	2730
शब्दों	2726
ध@@	2720
अवश्य	2715
जल्दी	2711
प्राकृतिक	2707
लेखा	2707
संस्कृति	2707
उपस्थित	2705
ं	2704
केन्द्रीय	2702
3@@	2698
रखो	2697
आते	2696
लेना	2690
पर@@	2689
Name	2687
खा@@	2686
संरक्षण	2684
सकें	2680
बनी	2677
रू@@	2676
नेटवर्क	2675
मुद्रा	2674
निकट	2670
nic	2660
जोड़ें	2658
पु@@	2658
दु@@	2657
घटना	2653
आकाश	2650
राजनीतिक	2650
आशा	2643
कंप्यूटर	2640
अगले	2639
चिकित्सा	2638
आख़िरत	2636
धीरे	2635
वैज्ञानिक	2633
C	2632
रखें	2628
मै	2627
कवि	2624
ओं	2623
शि@@	2620
मेल	2619
जे@@	2615
जरूरी	2615
पश्चिम	2613
रचना	2607
आपका	2605
चयन	2603
अता	2602
व्यक्त	2601
शक	2600
बैठक	2599
पेश	2599
रखी	2596
मित्र	2593
तरीके	2593
छोड़कर	2589
एक्स	2586
टो@@	2580
गु@@	2580
@	2578
संस्थानों	2575
भाव	2568
खुलती	2563
30	2561
व्यवहार	2556
सम्मान	2554
पाने	2553
ऑफ	2552
भोजन	2552
महत्व	2548
आयोग	2546
अधिकारियों	2545
प्रभावी	2543
सच्चे	2538
बनाना	2535
ज़@@	2531
विंडों	2531
[	2530
9	2527
बिल्कुल	2526
गुण	2523
नगर	2523
अन@@	2519
हि@@	2519
मिलता	2511
एशिया	2503
परीक्षा	2502
वर्णन	2501
निर्मित	2498
हित	2497
संस्था	2497
त्@@	2486
आपने	2485
दि@@	2484
करनी	2483
ड़	2481
कै@@	2480
मौजूदा	2479
चर्चा	2470
वीडियो	2467
समझते	2467
जिला	2466
अधिकांश	2466
सम@@	2465
संशोधन	2462
शीघ्र	2462
थ@@	2460
दशा	2460
जो@@	2459
रखे	2459
डेटा	2456
बताया	2453
आती	2452
यू@@	2445
कार्यों	2442
कदम	2438
सम्मेलन	2437
अवस्था	2436
सख्त	2435
ज़रूर	2435
ब्रिटिश	2434
चा@@	2432
छ@@	2431
गुणवत्ता	2431
20	2431
पहुंच	2430
संसार	2429
पांच	2427
ईश्वर	2427
बैठे	2426
धार्मिक	2420
शेष	2415
शैतान	2414
म्@@	2412
अध्यक्ष	2412
सन	2411
उन्हीं	2409
वित्त	2408
करनेवालों	2407
डी@@	2400
नाथ	2400
अंग्रेजी	2399
जाति	2398
रहती	2397
आत्मा	2397
संपत्ति	2396
हो@@	2391
स्थायी	2390
इबराहीम	2384
छोटा	2381
जहन्नुम	2370
पट्टी	2369
प्रमाण	2369
प्रदर्शन	2364
ऐ@@	2364
पुलिस	2364
च	2363
खर्च	2363
फल	2363
उठा	2358
रु@@	2351
लघु	2351
विरुद्ध	2350
री@@	2349
मानते	2343
पुरुष	2341
सीमित	2340
शुल्क	2340
अपेक्षा	2336
विचारों	2336
आंदोलन	2331
गलत	2330
लगी	2330
डा	2329
तुलना	2328
व्यक्तिगत	2324
रहना	2324
चित्र	2323
संस्कृत	2323
देखो	2323
नये	2318
अत्यंत	2318
श्रेणीः@@	2317
दल	2316
मजबूत	2316
सदैव	2310
आकाशों	2304
जाये	2302
मिली	2300
मै@@	2294
पर्यावरण	2289
युक्त	2287
की@@	2286
मुसलमानों	2284
पहुँचा	2279
तकनीकी	2276
संकेत	2273
देखें	2269
गुना	2266
अंदर	2264
प्राचीन	2263
समाधान	2261
कठिन	2258
खड़े	2256
प्रदर्शित	2249
संगीत	2249
े@@	2248
अनिवार्य	2248
हालत	2247
महिला	2247
विशाल	2245
ब्याज	2243
मार्च	2241
निर्भर	2241
दर्शन	2240
यों	2237
अनुच्छेद	2234
नमाज़	2234
टर	2233
ग़रज़	2228
्	2226
भेज	2221
ल्@@	2218
ीय	2216
लगाया	2215
शैली	2214
सिस्टम	2214
एन	2214
मालिक	2212
मार	2208
शांति	2208
तेजी	2204
जन@@	2203
बाज़	2203
टा	2200
क्षमा	2198
उल्लेख	2196
पड़ता	2194
जु@@	2192
हिदायत	2192
वी@@	2191
समझा	2191
लोड	2190
हस्ताक्षर	2187
डे@@	2185
बु@@	2185
राज@@	2184
प्रधान	2183
स्थल	2179
खोलें	2179
इं@@	2179
निशानियाँ	2177
कुंजी	2174
अधिकतम	2169
रहेगा	2168
खाली	2167
ग्रहण	2164
रोजगार	2163
लों	2162
स्वामी	2161
रोज़ी	2159
अर्थव्यवस्था	2156
D	2153
इनके	2152
फि@@	2151
पहला	2150
पति	2150
पार	2149
अप्रैल	2149
प्रोग्राम	2145
कर@@	2145
खोल	2144
हृदय	2144
वस्तुओं	2140
सम्मिलित	2140
विधान	2140
मिलने	2139
पद्धति	2138
मात्र	2138
अधिकतर	2137
साधारण	2137
दस	2135
हाँ	2135
16	2135
विवाह	2133
ति	2131
तु@@	2124
क्षेत्रीय	2123
25	2122
निकाल	2120
लग	2120
डा@@	2118
हालाँकि	2117
बनाकर	2117
इतनी	2115
अंग	2115
मर	2113
खाना	2113
शताब्दी	2113
x	2112
योग	2112
18@@	2111
सलाह	2110
पहुँच	2109
जिनका	2108
पथ	2107
अंतरराष्ट्रीय	2106
नियत	2105
अधि@@	2105
हे@@	2102
रोक	2102
नसीहत	2100
स्वरूप	2096
असफल	2095
न्याय	2095
खाद्य	2095
आयु	2094
चलते	2093
रु	2093
महिलाओं	2093
अनुप्रयोग	2092
दार	2092
तुमपर	2092
सम्बन्ध	2091
बावजूद	2090
पै@@	2089
प्रतीक	2088
लेता	2087
भा@@	2087
व्यय	2086
प्राप्ति	2084
बढ़ाने	2083
दिये	2082
उपयुक्त	2081
दा	2081
रों	2076
ण	2075
50	2075
दृष्टिकोण	2074
भू@@	2073
गांव	2071
विरोध	2069
क्लिक	2067
सात	2067
रकम	2066
कता	2065
कहानी	2065
रे	2064
महीने	2060
प्रशासन	2060
बुरी	2059
वार्षिक	2050
पन	2049
क़ुरान	2048
हा	2047
हिन्दू	2047
R	2045
विस्तृत	2045
सबको	2044
श्रेणी	2043
मिट्टी	2041
घ@@	2038
परिषद	2036
बचा	2035
कर्मचारियों	2035
सांस्कृतिक	2033
भला	2031
पड़	2028
हे	2025
रक्त	2024
युवा	2023
लेखक	2019
पसंद	2016
बीमा	2012
2@@	2011
प्रयुक्त	2008
यन	2008
यो@@	2006
करनेवाला	2006
बढ़ावा	2003
“	2002
11	1997
बनाई	1994
लिखने	1992
जीवित	1992
दिलों	1991
संघर्ष	1990
क्रम	1989
गत	1989
घोषणा	1988
सामान	1988
निम्न	1986
शक़	1985
कविता	1984
बाल	1982
14	1982
कहेंगे	1982
बिजली	1979
कं@@	1978
प्रयासों	1978
प्रयोजनों	1977
माता	1973
इच्छा	1972
तुममें	1971
प्रत्यक्ष	1968
समुद्र	1967
स्व@@	1966
अवैध	1964
समक्ष	1963
सहेजें	1961
सच	1960
तिथि	1960
चलो	1958
्@@	1957
तारीख	1957
शून्य	1956
चलता	1956
इंडिया	1955
हालांकि	1949
वादी	1947
रुपये	1945
महसूस	1943
तों	1942
नाटक	1942
यी	1941
लु@@	1940
ग्राम	1939
नियमों	1939
मार्गदर्शन	1937
वातावरण	1935
पदार्थ	1933
युग	1932
झुठलाया	1929
आसान	1927
डॉ	1927
4@@	1926
तेल	1925
निरंतर	1921
नियमित	1919
सामना	1918
पाक	1917
कारी	1916
फ	1913
सिर	1910
कितने	1907
सरल	1906
पार्टी	1905
वायु	1904
नागरिक	1904
गणराज्य	1903
सिद्ध	1903
परीक्षण	1902
खुशी	1900
पत्नी	1899
बै@@	1898
खाने	1896
अफ्रीका	1896
वर्@@	1895
दी@@	1891
जे	1890
आख़िर	1890
पंचांग	1889
ख़बर	1889
ऋ@@	1888
दीन	1887
बनाएँ	1886
तय	1885
टा@@	1884
ईसा	1884
जोर	1884
शिकायत	1883
समस्याओं	1881
अपील	1880
जानी	1877
मिलकर	1876
स्वागत	1875
अभिलेख	1875
पश्चिमी	1874
ंग@@	1874
नियुक्त	1874
शुभकामनाएं	1873
मतलब	1872
ट्स	1872
गतिविधियों	1871
इत्यादि	1869
वेतन	1867
भेजे	1866
एवोल्यूशन	1864
गिरोह	1864
कार्रवाई	1862
निर्देशिका	1862
वैश्विक	1862
नामक	1862
हवा	1861
वितरण	1855
प्रसन्नता	1855
उपाय	1855
विद्यार्थियों	1854
चरण	1853
संग्रह	1845
हानि	1845
हिसाब	1845
निर्धारिती	1845
गंभीर	1843
जनवरी	1843
खड़ा	1842
बदलें	1840
+	1839
इन्हें	1837
संचार	1837
बजे	1837
उपचार	1837
प्रसिद्ध	1836
परस्पर	1832
इबादत	1831
M	1830
7@@	1830
F	1829
6@@	1829
राज	1828
हरगिज़	1826
स्वतंत्र	1824
विद्युत	1824
मिलती	1822
संपूर्ण	1819
संस्थाओं	1818
आर@@	1816
विदेश	1815
सिद्धांत	1815
बुद्धि	1814
कर्ता	1812
कार्यक्रमों	1811
स्त्री	1811
भली	1811
अक्सर	1811
लाइन	1810
ू	1808
T	1806
पुराने	1805
जिनकी	1805
वायदा	1805
दिखाया	1804
मिटाएँ	1804
5@@	1801
उम्मीद	1801
साधन	1801
दस्तावेज	1799
P	1798
निगम	1798
लगाने	1796
मी@@	1795
वर	1792
मोड	1790
कार्ड	1788
चारों	1788
लिख	1788
कितनी	1787
बैंकों	1787
मुस्लिम	1786
मिले	1785
तत्व	1785
काव्य	1785
एं	1784
सर@@	1784
करनेवाले	1784
सह@@	1784
देकर	1783
जिसको	1782
पंक्ति	1781
तो@@	1781
उत्तम	1781
वार	1778
कराने	1777
होनी	1777
गर्इ	1776
ठ@@	1775
ु	1775
मीटर	1773
बहु@@	1773
एफ	1771
दावा	1771
चे@@	1769
रहें	1768
तर	1768
पाकिस्तान	1768
गुनाह	1767
संस्करण	1766
चुनाव	1765
तर्क	1764
ों	1764
अंतर्राष्ट्रीय	1763
प्रा@@	1762
तौबा	1762
आपस	1761
पैग़म्बर	1761
घरों	1754
सदन	1754
ण@@	1753
मूल्यांकन	1752
ि	1751
अंतर	1751
चु@@	1751
आदर्श	1751
ख़ास	1751
स्पष्टीकरण	1751
पढ़ने	1750
यूरोप	1749
किसानों	1748
सत्र	1747
जीव	1747
एल	1745
जायेगा	1745
बता	1745
कोड	1744
डो@@	1743
अं@@	1742
S@@	1740
तरफ़	1737
सज़ा	1736
व्यवसाय	1734
वै@@	1734
100	1734
लाया	1734
स्क्रीन	1733
पात्र	1731
कठोर	1730
नेता	1730
परियोजनाओं	1726
सू@@	1725
अत्यधिक	1724
समाचार	1724
दायित्व	1723
महत्त्वपूर्ण	1723
निशानी	1719
पीठ	1717
खेती	1715
प्@@	1713
मानक	1713
अनुवाद	1711
आयोजन	1708
इस्लाम	1707
शीर्ष	1706
प्रेरित	1706
संबंधों	1706
लिंग	1705
सप्ताह	1705
8@@	1704
अद्यतन	1703
फ़@@	1702
ii	1702
देखभाल	1700
बिल	1698
न्यूनतम	1695
भागों	1693
ज़ुल्म	1692
n	1690
नेतृत्व	1690
सुन	1689
कर्मचारी	1688
ठिकाना	1688
तेरे	1687
13	1687
उप	1686
जाँच	1685
लिखित	1685
बिक्री	1685
कीमत	1685
वेब	1684
जाएं	1684
उसपर	1684
कौशल	1680
ड़ा	1678
हिंदू	1678
ें	1677
आंतरिक	1674
माँ	1674
कल्याण	1674
फेर	1672
खुले	1671
पेज	1667
स्थानों	1666
पूज्य	1666
भि@@	1663
ड़@@	1663
सवाल	1663
गुमराही	1662
इन्@@	1660
प्रायः	1659
बुराई	1657
हल	1656
जोड़	1656
पश्चात्	1656
शख़्श	1655
बातचीत	1652
2018	1652
सेवाएं	1650
जून	1649
दे@@	1649
बे	1648
यू	1647
इतने	1647
हाथों	1647
उपबंध	1647
संसाधनों	1646
घरेलू	1645
कल्पना	1643
ो@@	1642
रद्द	1641
चीन	1641
हार	1641
ध्वनि	1639
बनाते	1638
मिशन	1637
ते@@	1636
पुर	1634
भरोसा	1633
ब्@@	1633
भय	1633
थोड़ा	1631
खूब	1631
वादा	1631
विनिर्दिष्ट	1631
मुंबई	1631
I	1630
दूरी	1630
थ	1630
मौसम	1630
ज्ञापन	1629
संभावना	1629
अस्तित्व	1629
सुबह	1629
ित	1628
विन्यास	1627
फे@@	1626
पुस्तिका	1626
अर्थात	1625
पकड़	1625
पूजा	1625
कक्ष	1623
जाकर	1622
शीर्षक	1619
ढ@@	1619
झूठ	1619
पर्यटन	1619
व्य@@	1618
दो@@	1617
प्रोत्साहन	1617
html	1615
अनुसरण	1614
शाखा	1614
सकेगा	1613
ऑ@@	1611
ऑनलाइन	1611
तभी	1611
इकाई	1610
डरते	1610
10@@	1609
बुनियादी	1609
हद	1607
तरीका	1605
द्@@	1605
सम्@@	1605
भलाई	1603
सुना	1602
मानो	1601
संचालन	1600
मानसिक	1600
e	1599
बर@@	1597
P@@	1597
उम्र	1597
सहकारी	1596
सोच	1594
अज्ञात	1593
लगातार	1590
9@@	1590
उपयोक्ता	1589
बढ़कर	1589
लेंगे	1589
चीज	1588
कानूनी	1587
स्मृति	1586
गवाह	1584
डाटा	1583
गीत	1583
गंगा	1583
रास्ता	1582
दूध	1582
मई	1581
हिंदी	1581
y	1580
विफल	1579
ी@@	1579
क़@@	1579
अभियान	1579
करण	1578
एन@@	1577
पूछा	1576
दूसरों	1576
पुत्र	1576
पस	1576
कमांड	1575
फा@@	1575
क्स	1574
शेयर	1574
Comment	1572
खास	1571
रास्ते	1568
pranabmukherjee	1568
टों	1565
कॉ@@	1565
आयतें	1565
चेतना	1563
नष्ट	1562
लिंक	1562
माबूद	1562
देखकर	1561
s@@	1560
तुझे	1560
C@@	1558
निदेशक	1556
विश्लेषण	1553
कूटशब्द	1552
मेहरबान	1552
बनने	1550
मां	1550
ग्@@	1549
आये	1549
परिस्थितियों	1549
निर्@@	1548
विषयों	1548
अभिप्रेत	1548
यु@@	1547
उपयोगी	1546
फसल	1546
साफ़	1545
लेखन	1545
ख़@@	1545
ज़ालिम	1545
विवाद	1543
प्राथमिक	1542
पूर्वी	1542
अर्थात्	1542
बन्द	1541
दयावान	1540
गुप्त	1539
हजार	1539
लड़के	1538
पहल	1536
ऐतिहासिक	1536
ताओं	1534
तमाम	1534
प्रार्थना	1532
बढ़ा	1532
ा@@	1530
लर	1529
निर्देश	1528
बा	1526
नागरिकों	1526
मं@@	1525
करीब	1523
बोले	1523
उत्पादों	1523
लिखी	1515
गृह	1515
खा	1515
सीधा	1514
आपूर्ति	1514
राजनैतिक	1511
महामहिम	1510
लोगो	1509
ध	1509
अपराध	1509
चलने	1508
आग्रह	1508
Z@@	1507
‍@@	1507
स्वतः	1506
E	1505
जुड़े	1503
जाएंगे	1502
नु@@	1502
फ़ैसला	1502
नेहरू	1502
प्रारूप	1501
करार	1500
जाओगे	1500
ष@@	1498
ि@@	1498
समस्त	1497
पाई	1496
कटौती	1496
तेज	1495
सूर्य	1495
१	1494
अधिकारों	1493
भाषाओं	1491
लाना	1491
ऋ	1491
भागीदारी	1490
चुने	1489
हीन	1489
कहता	1488
प्रशंसा	1487
किनारे	1486
सर्वोच्च	1486
बीमारी	1486
देवी	1485
खो@@	1483
ख्याल	1483
कहाँ	1482
बन्दगी	1482
तट	1482
पाए	1481
2000	1481
गठन	1481
अगस्त	1480
वें	1479
लाते	1478
तः	1477
पंजीकरण	1476
संबोधित	1476
मशीन	1475
मू@@	1474
मौत	1472
सौ	1470
भाषण	1469
नूह	1468
कारबार	1468
N	1467
सिवाय	1467
पत्थर	1466
ग़ालिब	1466
खुली	1464
18	1464
मीडिया	1463
दान	1462
गी	1461
o	1460
खु@@	1460
रेखा	1460
वहीं	1460
यक़ीनी	1460
मुसलमान	1459
आध्यात्मिक	1457
देखता	1456
नर	1455
कार्य@@	1455
दस्तावेज़	1454
सर्वाधिक	1454
तथ्य	1454
ईमानदारों	1454
वर्षा	1453
क़सम	1453
गि@@	1450
साबित	1448
आई@@	1447
झ@@	1447
भगवान	1445
दयालुता	1444
दंड	1444
12@@	1441
ख़र्च	1440
भौतिक	1438
खरीद	1438
घोषित	1436
उठाने	1436
उद्योगों	1436
फैसला	1435
बदलाव	1432
T@@	1432
सरदार	1432
हैंः	1430
भूल	1427
जोखिम	1427
कान	1426
उद्यम	1425
विविध	1423
तर@@	1423
एकल	1422
शन	1419
=	1419
प्रयोजन	1419
प्रतीक्षा	1418
नयी	1417
फोन	1417
गुरु	1417
स्त्रियों	1417
कितना	1416
अनुरूप	1416
प्रचार	1416
…	1415
बोल	1415
अनुकूल	1414
निर्वाचन	1414
दुआ	1413
जनसंख्या	1413
दास	1413
t	1412
शुरुआत	1412
द्वार	1410
B@@	1409
उपन्यास	1407
पंजाब	1407
लौट	1406
यर	1405
चर	1404
अरब	1403
कार्@@	1402
देर	1402
एकता	1402
ंस	1401
गे@@	1400
बाग़	1400
अंतरण	1399
मामला	1399
परिवहन	1398
औसत	1397
लक्षण	1397
बेटे	1395
फ़	1394
सुविधाओं	1394
एम@@	1393
२	1393
लोकतंत्र	1392
उद्घाटन	1392
नक़ल	1391
पड़ी	1390
सुंदर	1389
आना	1389
कड़ी	1388
शारीरिक	1388
कलकत्ता	1388
श्रम	1388
सूक्ष्म	1387
हालॉकि	1387
पाते	1386
संकल्प	1386
चाल	1385
उच्चतम	1384
अनुरोध	1384
B	1383
घंटे	1383
परामर्श	1382
प्रभु	1382
घड़ी	1380
विशेषकर	1380
सजदा	1380
मुझसे	1379
दर्ज	1378
आओ	1378
सै@@	1377
खिलाफ	1377
काफ़ी	1377
अर्@@	1376
कथा	1376
भाँति	1376
वैसे	1375
रुपए	1375
यो	1372
टे	1372
करेगी	1372
जमीन	1370
जहन्नम	1370
पुनर्@@	1368
सच्चा	1368
अनुमान	1367
व्या@@	1366
ा	1366
जितना	1366
कार्यान्वयन	1363
40	1363
घ	1363
अध्याय	1363
विभाजन	1362
L	1361
ड़ी	1361
इंटरनेट	1360
m	1359
बटन	1357
दिखा	1356
आसानी	1356
हु@@	1355
लेख	1355
हमसे	1354
विजय	1354
d@@	1352
दोबारा	1351
फिरऔन	1350
मद	1349
प्रो@@	1349
तथापि	1349
L@@	1347
त्रि@@	1347
मुक़ाबले	1347
चौ@@	1345
उपभोक्ता	1344
भेजें	1342
सामर्थ्य	1342
अकबर	1342
ती@@	1341
सरकारों	1341
गणना	1338
सार	1338
संगठनों	1338
c@@	1337
प्रतीत	1336
मों	1336
वृक्ष	1336
हिस्से	1335
कू@@	1335
अक्षम	1334
मूल्यों	1334
बिलकुल	1334
ख़ूब	1334
होंगी	1333
17@@	1332
सृजन	1331
परिणामस्वरूप	1331
एल@@	1329
A@@	1329
लै@@	1329
चालू	1328
विरोधी	1328
शैक्षिक	1327
प्रतिनिधित्व	1326
निगरानी	1325
सॉफ्टवेयर	1325
ग्राहक	1325
मुद्दों	1324
विपरीत	1322
रहमत	1320
मंडल	1319
फिल्म	1318
मान्यता	1318
0@@	1317
आवाज़	1317
पृथ्वी	1317
िक	1316
छह	1316
परिवर्तित	1316
़@@	1316
कृत	1316
संवाद	1315
युक्ति	1315
निक	1315
अगला	1314
विद्यमान	1314
ज्ञात	1314
सागर	1314
कनेक्शन	1313
O	1313
इसको	1313
ँ@@	1313
दशक	1313
प्रोत्साहित	1313
F@@	1312
समाप्ति	1312
समर्थित	1312
निहित	1312
राज्यपाल	1312
बदलने	1311
1961	1311
मस्तिष्क	1309
उठाया	1309
कराया	1309
प्रसार	1308
पूर्वक	1307
गा	1306
24	1305
अचानक	1305
शुद्ध	1303
जरिए	1303
जिले	1303
भार	1302
बोझ	1302
नबी	1300
हटा	1299
बद@@	1299
कीट	1299
दाखिल	1298
अति@@	1298
कब	1298
आर्@@	1297
मुलाकात	1297
जल्द	1297
पारित	1297
पृष्ठभूमि	1296
एक@@	1296
समझौता	1294
बजाय	1293
आनंद	1293
विनिमय	1293
समा@@	1293
पेट	1292
ज़िन्दगी	1292
प्रेरणा	1291
संसदीय	1291
a@@	1290
उठाए	1290
M@@	1289
छूट	1289
नो	1288
प्रयत्न	1287
श्@@	1286
इनका	1286
कारों	1286
मिनट	1285
जिनसे	1285
विश्वविद्यालयों	1285
मय	1283
इन्कार	1283
मज़ा	1282
दिनांक	1281
जुलाई	1280
सारा	1279
चीज़ों	1279
फै@@	1278
जल@@	1278
अन्ततः	1278
डाउनलोड	1277
एस@@	1276
लोकप्रिय	1276
ऊ@@	1276
दन	1276
महाराष्ट्र	1276
क़ुरआन	1275
शु@@	1272
भावी	1272
पेड़	1271
गवाही	1271
साथी	1269
G@@	1268
भंडारण	1267
कदापि	1267
सर्@@	1266
कुफ्फ़ार	1266
औऱ	1265
शिकार	1265
जैव	1265
आयुक्त	1265
ईमेल	1264
हवाई	1264
किसान	1264
जादू	1263
क़ियामत	1263
रेलवे	1263
महात्मा	1263
घटनाओं	1262
b	1262
ार@@	1262
शुभ	1262
2014	1262
तयशुदा	1261
चीनी	1261
ऑडियो	1261
पवित्र	1261
बस्ती	1261
प्रबंध	1260
मैदान	1259
तूने	1259
लड़ाई	1254
ज़रुर	1254
शहरी	1254
E@@	1253
g@@	1252
जलवायु	1252
प्रारंभिक	1250
31	1250
समृद्ध	1250
ख़ुद	1250
ग्रस्त	1249
जिनको	1249
कश्मीर	1249
H	1248
रेल	1248
आकर्षित	1248
अभिव्यक्ति	1247
अदा	1247
मंच	1247
एफ@@	1245
अनुपात	1244
नेकी	1244
अर@@	1243
कुफ़्र	1243
दादा	1243
योजनाओं	1242
प्राथमिकता	1241
प्रशासनिक	1241
घाटे	1240
पू@@	1239
रहित	1239
मन@@	1238
आसपास	1237
नियंत्रित	1237
i@@	1236
p@@	1236
एच	1236
बू@@	1236
ी	1236
समीक्षा	1235
विधेयक	1235
दों	1234
शे@@	1233
तार	1233
दोस्त	1233
मुख	1233
करा	1232
बढ़ती	1232
व्यावसायिक	1232
हर@@	1231
आमतौर	1231
फरवरी	1231
चलाने	1230
देव	1230
कंपनियों	1230
कुरान	1229
शाह	1228
ज्@@	1228
प्रकाशन	1227
उत्@@	1227
17	1227
प्रभुत्वशाली	1227
संलग्न	1226
नोट	1226
प्रिय	1226
ु@@	1223
संपादक	1223
लिखे	1223
चुनौती	1223
समग्र	1222
अधिसूचना	1221
‎@@	1221
रोगी	1220
खोलने	1219
मुक़र्रर	1219
संदेह	1217
धा@@	1217
19	1217
आठ	1216
कार्यवाही	1216
भु@@	1215
p	1215
बिंदु	1215
समझने	1215
आकर	1215
सचिव	1215
गुजरात	1215
े	1214
अल@@	1214
स्तंभ	1213
अन्दर	1213
2013	1213
कृष्ण	1213
परिचय	1212
प्रतिक्रिया	1212
लगते	1212
जोड़ने	1211
इकट्ठा	1211
नवान्वेषण	1211
असमर्थ	1210
वर्गों	1210
धैर्य	1209
आवास	1209
समर्पित	1208
परा@@	1208
पुरानी	1207
www	1207
लंबे	1206
स्था@@	1206
केरल	1206
सर्वेक्षण	1206
अंश	1205
2015	1204
सो	1202
गुनाहों	1201
था@@	1200
इसने	1200
गैस	1200
उपस्थिति	1199
इनकी	1199
पेंशन	1198
रीति	1198
सुझाव	1197
धारण	1197
भेंट	1196
कम्पनी	1196
सन्तान	1196
प्रबंधक	1195
ंक	1195
संध्या	1195
उत्तरी	1194
दीवार	1194
ज़िन्दा	1194
सों	1193
नज़र	1193
एंड	1193
क्षमाशील	1193
देखना	1192
अल	1192
ंड	1191
मिलेगा	1191
बीज	1190
दुखद	1189
बारगाह	1189
ंत	1188
मानी	1188
आवाज	1187
वान	1187
अस्थायी	1185
संपादित	1184
कारक	1184
भरे	1184
निष्क्रिय	1183
जै@@	1183
रो	1183
सुनने	1182
अपेक्षित	1182
टीम	1182
३	1181
प्रवाह	1181
वचन	1181
c	1179
णी	1179
अन्यथा	1178
मुश्किल	1178
चूंकि	1177
त्याग	1176
दरमियान	1176
एँ	1175
प्राधिकारी	1175
21	1175
न्स	1174
रोकने	1174
ज़ाहिर	1174
तकनीक	1173
शाम	1173
कैसा	1173
फ़ॉन्ट	1172
लंबी	1172
धी	1172
अल्@@	1171
जाय	1170
x@@	1169
डाले	1169
औलाद	1169
बं@@	1168
नेताओं	1168
b@@	1167
संपादन	1167
नीय	1166
कार@@	1166
आस्ति	1166
टैब	1165
रसूलों	1165
प्राधिकरण	1164
तीव्र	1163
सांसारिक	1163
अदालत	1163
D@@	1162
भरी	1161
शहरों	1161
बन्दे	1161
भेजने	1160
सौर	1160
तत्वदर्शी	1159
काट	1157
16@@	1157
ू@@	1157
मान@@	1156
पर्@@	1155
लेन	1155
लता	1155
उदार	1155
छात्रों	1155
नियुक्ति	1154
नैतिक	1154
लू@@	1153
वासी	1153
अन्@@	1152
*	1151
अनक़रीब	1151
स्थिर	1149
नेक	1149
निरीक्षण	1148
ड़े	1148
चौड़ाई	1146
बख्शने	1146
लिमिटेड	1146
सलाम	1145
थोड़े	1145
सुख	1145
शरीक	1145
सर्वोत्तम	1144
सिविल	1144
चली	1144
मिलियन	1144
सफेद	1143
खुला	1143
जेल	1142
आतंकवाद	1141
विभाजित	1139
ईमानवालों	1139
चिह्न	1137
सहज	1137
पूर्ति	1137
बाकी	1136
फ़ाइलें	1135
स्वीकृति	1135
न्यू@@	1135
अनुसूचित	1135
पैग़म्बरों	1135
the	1134
15@@	1134
ट्@@	1134
नुकसान	1134
शिखर	1133
शास्त्र	1133
प्रेषित	1132
पसन्द	1132
पढ़ा	1131
चक्र	1131
दर@@	1131
दैनिक	1131
चन्द	1130
लॉग	1129
पे	1129
स्वचालित	1128
स्वा@@	1128
जानने	1126
सुनता	1126
न्यायाधीश	1126
name	1125
मध्यम	1125
सड़क	1124
तल	1124
परमाणु	1124
खो	1123
चिह्नित	1123
I@@	1123
एकमात्र	1123
60	1123
मिलेगी	1123
हटकर	1123
तुरंत	1121
दिखाने	1121
गोया	1121
बनाता	1120
साम्राज्य	1120
हराम	1120
लूत	1120
संबद्ध	1119
ची@@	1119
सतह	1118
सब्र	1118
इन@@	1117
साझा	1115
अंक	1115
स्ट	1115
हार्दिक	1115
11@@	1114
सां@@	1114
सबके	1114
इ	1113
तें	1113
लियों	1113
नव@@	1112
ज़्यादा	1112
राजस्थान	1112
चेतावनी	1111
शिक्षक	1111
वैध	1110
बुरे	1110
सुदृढ़	1109
डे	1108
इंच	1108
देखे	1108
सीडी	1108
थोड़ी	1108
शक्तियों	1108
लाइ@@	1107
13@@	1107
टै@@	1106
होम	1106
ंगी	1106
पाठ्यक्रम	1106
प्रावधान	1106
त्वचा	1105
सुनते	1104
अति	1103
पुष्टि	1102
म्	1102
अवतरित	1101
ै@@	1100
दोष	1100
विनष्ट	1100
समृद्धि	1099
उन्नत	1098
बाह्य	1098
नंबर	1098
उत्कृष्ट	1098
सकेंगे	1098
सोचा	1098
त्व	1098
परंपरा	1098
सदा	1097
प्लगइन	1096
प्रचलित	1096
भरा	1095
महल	1094
उन्होने	1094
अनुदान	1094
स्ट@@	1092
चुना	1092
लेगा	1092
सम्पूर्ण	1092
आराम	1092
द्वीप	1092
फ़रिश्ते	1092
खराब	1091
त्र	1091
श्रृंखला	1090
खत्म	1089
राज्य@@	1089
ढांचे	1089
ज़रा	1089
कमजोर	1088
देन	1088
नीतियों	1088
अभाव	1088
माह	1087
चू@@	1087
शुरु	1086
रहेगी	1086
दू@@	1086
मार्@@	1085
यां	1084
क्षण	1084
धि@@	1083
प्रतिष्ठित	1083
संकट	1083
दिखाता	1082
टिंग	1082
बोस	1082
आवश्यकताओं	1082
यूँ	1082
विपणन	1082
ंट	1081
प्रविष्टि	1081
में@@	1081
बच्चा	1081
विमान	1081
नेवाले	1081
देय	1081
दोनो	1080
समूहों	1080
कर्@@	1079
भू	1079
कही	1078
बाबत	1078
रानी	1077
प्रतिनिधि	1077
राजधानी	1077
निवास	1076
चिंता	1076
जिम्मेदारी	1076
पूर्ववर्ष	1076
ईमानदार	1075
उधार	1075
सुविधाएं	1075
गै@@	1074
ल्स	1073
व्याख्या	1073
बद्ध	1072
चैनल	1071
परिभाषित	1069
मुसीबत	1069
घटक	1068
डिफ़ॉल्ट	1068
जटिल	1068
मास	1068
आहार	1068
द्विपक्षीय	1068
मारे	1067
मकान	1067
l	1066
क्षति	1066
नेपाल	1066
वीं	1065
t@@	1064
हट	1064
सत्यापन	1063
स्त@@	1062
मिलते	1062
हत्या	1062
निकाला	1061
सैनिक	1060
रौशन	1060
संवर्धन	1060
डेस्कटॉप	1059
14@@	1059
मैने	1059
प्रभार	1059
28	1058
राम@@	1058
k@@	1057
लन	1056
खि@@	1055
मानवीय	1055
बाबू	1055
स्वाभाविक	1054
आत्म@@	1053
सितंबर	1053
श्री@@	1052
सराहना	1052
गिर	1050
समझता	1050
कोशिका	1049
तम	1049
समुद्री	1047
गुज़र	1047
समझौते	1047
पोषण	1047
अ	1046
जन्नत	1046
ठोस	1044
द्वि@@	1043
मोबाइल	1043
नें	1043
ची	1040
मना	1040
शत्रु	1040
हिकमत	1040
राहत	1040
दबाव	1039
पालने	1039
अग्रणी	1039
चाहेंगे	1037
कॉल	1037
निया	1036
प्रदूषण	1036
नेशनल	1036
अक्तूबर	1036
छि@@	1035
शर्तों	1035
करोगे	1033
पौधों	1033
तस्वीर	1032
रंग@@	1032
ष	1032
आरम्भ	1032
2016	1032
गहरी	1031
नौकरी	1030
खान	1029
2006	1028
स्वस्थ	1028
बेहिश्त	1028
सेटिंग	1027
भारतीयों	1027
कामना	1026
विशेषता	1025
प्रेस	1025
कुशल	1025
अंतर्@@	1024
पूर्वावलोकन	1024
चेहरे	1024
पान	1023
सीधी	1023
आजादी	1023
स्टे@@	1022
किस्म	1022
त्	1021
मछली	1021
ँ	1021
बिहार	1021
शिक्षण	1020
भले	1020
मह@@	1019
त्रुटिः	1018
उद्@@	1018
स्वच्छ	1017
गे	1016
स्‍@@	1016
पहुँचे	1015
संविदा	1015
प्रतिभा	1015
गरीब	1014
भेजी	1013
खड़ी	1013
गांवों	1013
युवाओं	1013
2007	1011
मॉडल	1011
बैंकिंग	1011
अमेरिकी	1010
W@@	1009
नेवाला	1009
R@@	1009
ंड@@	1009
इंडियन	1009
गी@@	1008
23	1008
ऊंचाई	1007
यूरोपीय	1007
एक्@@	1007
20@@	1007
रस	1007
खे@@	1006
फूल	1006
अनुग्रह	1006
आक्रमण	1006
आएगा	1005
सरकशी	1005
Y	1004
यें	1004
शी	1004
देवता	1004
हितों	1004
पर्वत	1003
अन्तर्गत	1003
f@@	1002
मुक्ति	1002
लेट	1001
m@@	1000
फी@@	1000
संक्रमण	1000
पंजीकृत	999
चरित्र	999
अनुमोदन	999
जनरल	998
उतना	998
द्वितीय	998
प्रान्त	998
सकाः	997
लेती	997
शी@@	997
दर्द	997
एकत्र	996
चाहा	996
कोविन्द	996
बनाये	995
अंतरिक्ष	993
क्ष@@	992
फ़िरऔन	992
पहुंचा	991
घु@@	991
पं@@	991
22	991
यता	991
डरो	991
यूसुफ	991
उपबंधों	991
कल@@	990
लाई	990
ण्@@	989
दिसंबर	989
यानी	988
सदस्यता	988
पित	988
आदान	988
गरीबी	988
ियों	987
राजनीति	987
जीत	986
आत्म	986
सुभाष	986
ध्वज	985
व्यस्त	985
मिलाकर	985
कुमार	985
सावधान	984
तलाश	984
समन्वय	984
रहमान	984
असर	983
बजट	983
क्ति	982
चाय	981
विरासत	981
उल्लेखनीय	981
ये@@	980
नै@@	980
press	980
औरतों	980
मूलभूत	979
पक्षों	979
टुकड़े	978
लाइसेंस	977
1@@	977
गुमराह	977
लाओ	976
नजर	976
मानना	975
कर्तव्य	975
क़िस्म	974
उद्यान	974
26	973
बोली	973
विमर्श	973
hi	972
मल	972
आश्चर्य	972
लगाए	972
पहाड़	972
दाख़िल	972
सभ्यता	971
तत्काल	970
उपक्रम	970
अपनाया	970
u	969
टिक	968
उपकरणों	968
2005	967
लानेवालो	967
वाणिज्यिक	967
निष्पादन	966
फु@@	965
भक्ति	965
e@@	964
टिप्पणी	964
ंगा	964
नहरें	964
फो@@	963
४	963
कपड़े	963
राजस्व	963
पौधे	962
घाटी	962
जितनी	961
उतारा	961
सम्बन्धी	960
अना@@	960
htm	960
presidentofindia	960
प्यार	958
release	958
आयी	957
सामूहिक	957
कौ@@	956
80	956
आमाल	956
ारी	955
यूनिट	955
निशानियों	955
अस्पताल	955
ज़ालिमों	954
अवसरों	954
बौद्ध	954
बचाव	953
आउटपुट	952
विविधता	952
बर्@@	951
कागज	950
detail	950
पार@@	949
तियों	949
असाधारण	949
मिसाल	949
कारणों	948
सहमत	948
शुक्र	948
उ	948
लय	948
दि	948
पढ़	947
विभागों	947
अरबी	946
देखी	946
दुख	946
साहित्यिक	946
संयंत्र	946
कर्नाटक	946
केंद्रित	945
o@@	945
वकील	945
पुकार	944
क्रांति	944
पैमाने	943
काफिरों	943
फ्@@	942
चन्द्र	942
रिक्त	941
धन्यवाद	941
गहरा	941
मक्का	941
तेरी	941
गुफा	941
X	940
समानता	939
27	939
रवीन्द्रनाथ	939
विनिर्माण	939
2017	939
पारंपरिक	938
डिजाइन	938
अग्रिम	938
फ़ि@@	936
सीमाओं	935
पड़ती	934
प्रतिभूति	934
क़्@@	933
जोड़ा	932
पहलू	932
तीसरे	932
निकाय	931
r	930
लगाना	930
भेद	930
प्रवृत्ति	930
यंत्र	929
आं@@	928
शो@@	928
तत्वों	928
सदी	927
कथन	926
विरूद्ध	926
तुम्हे	926
मंदिरों	926
झा@@	925
दृढ़	925
u@@	923
साइ@@	923
01	923
2001	923
नृत्य	923
वस्त्र	923
ऊपरी	922
बौद्धिक	922
इनसे	922
पीढ़ी	921
काश	921
मर@@	920
गठित	920
करा@@	918
वर्ण	917
छोड़ा	917
खाओ	917
पशु	917
आदम	916
l@@	915
जानवरों	915
उतार	915
मुझ	915
संगम	915
दर्दनाक	915
वृ@@	914
परिसर	914
रिया	914
वरिष्ठ	914
कामों	914
नामः	913
कां@@	913
फ़िल्म	913
बस्तियों	913
कुफ्र	913
हिमालय	913
प्रविष्ट	912
तोड़	912
मनो@@	912
आइ@@	911
लॉ@@	911
पत्रों	911
जायेगी	910
योग्यता	910
हमको	910
ग़ौर	910
जातियों	910
U	909
साइट	909
विद्यार्थी	909
स्तरीय	909
रुचि	908
इल्म	908
सफलतापूर्वक	906
पोर्ट	906
पासवर्ड	906
कराना	906
गढ़	906
फ़रिश्तों	905
अहले	905
r@@	904
चो@@	904
दया	904
मोमिनीन	904
असम	904
यान	903
ै	903
बेटा	903
आरोप	902
अगली	901
मनुष्यों	901
बहुतेरे	901
आरंभिक	900
प्राण	900
आनन्द	900
धु@@	899
छुटकारा	899
चाहती	899
समुचित	898
ौ@@	898
व्यक्तित्व	898
पदार्थों	897
विद्यालय	897
कन	896
2012	896
बनकर	896
कारोबार	896
ख़ा@@	895
हिंसा	895
चा	894
O@@	894
देव@@	894
शोक	894
पीने	894
पाल	893
ीं	893
कॉलेज	893
चेक	892
लना	892
ज़ि@@	890
info	890
संभावित	889
मरने	889
स्वर	889
H@@	888
चाहें	888
ठ	888
हरे	887
तन	887
जम्मू	887
चीजों	886
अप	886
सम्पर्क	886
स्टेशन	886
पिछली	885
स्वीकृत	885
डॉलर	885
बारी	885
पुस्तकों	884
पना	884
गहन	884
शिव	884
छु@@	883
कमरे	883
एन्@@	883
संस्थापित	882
वर@@	882
शोथ	882
सहमति	882
बढ़ने	881
कठिनाई	881
उपलब्धि	881
शक्तिशाली	880
धर्म@@	880
अक्षर	879
मुंह	879
वों	879
पैसे	879
परसतिश	879
शिशु	878
छा@@	878
भंग	878
लगती	878
छात्र	878
उपयोगकर्ता	876
प्रतियोगिता	876
अवि@@	876
साहस	876
मासिक	874
संचालित	873
हम@@	873
कोष	873
सामान्यतः	873
दुर्@@	873
वंश	873
समाहित	872
ः@@	872
खुश	872
संहिता	872
पड़ेगा	871
शोध	871
णा@@	870
श्रेष्ठ	870
किंग	869
अमल	869
न्यायिक	869
जानकर	869
संक्षिप्त	868
फर्म	868
ीकरण	867
न्यास	866
जहाज	866
खतरा	866
प्रसाद	866
आउट	865
इसीलिए	865
मेंट	864
आपसे	864
23@@	864
दक्षिणी	864
बिगाड़	864
प्रतिदिन	862
झुठला	861
दिव्य	861
नौ	860
बचत	860
निवासी	860
आचरण	859
जर	859
s”	858
उन्@@	858
कोलकाता	858
्र@@	858
द्र@@	857
इसराईल	857
कम्@@	856
ेंगे	856
मार@@	856
सूत्र	856
डराने	856
संरक्षक	856
iii	856
ईसाई	856
परे	856
टल	855
रोका	855
पक	852
सब@@	852
2008	852
समझे	852
खण्ड	852
माने	852
पुरुषों	852
चुनौतियों	852
प्रसंग	851
क्र@@	851
सर्व@@	851
इलाज	851
इनपुट	850
शील	850
ग्राहकों	850
सन्@@	849
अंतराल	849
पत्रिका	849
विशेषज्ञ	849
कहेगा	849
धान	849
अमरीकी	848
अधिकरण	848
ट्रैक	847
पूर्व@@	847
पहुंचने	847
स्कीम	847
आबादी	847
जयंती	847
f	846
बॉ@@	846
याची	846
रेडियो	845
पुस्तकालय	845
नवंबर	845
औ@@	845
साथियों	845
मोहम्मद	845
जुड़ा	844
इसपर	844
प्रशांत	844
परिवारों	844
संशोधित	843
नियों	843
महीनों	843
सिफारिश	842
सकी	842
त्मक	842
हिंदुस्तान	842
बाग़ों	841
पार्क	840
दूरस्थ	839
नवम्बर	839
सौ@@	839
29	839
आंध्र	839
सरकश	839
सिद्धांतों	839
शिक्षकों	839
दौर	838
1,@@	838
भो@@	838
प्रथा	838
घात	837
क़ुबूल	837
नेअमत	837
कोशिकाओं	837
हटाएँ	836
सूचित	836
सोने	835
अकेले	834
जनक	834
५	834
ग़@@	834
प्रकाशना	834
सिंचाई	834
वंचित	833
पते	832
उक्त	832
भंडार	831
ही@@	831
गहराई	830
डॉ@@	830
थि@@	830
टो	830
नौ@@	830
परम	830
पहाड़ी	829
समितियों	829
ग्रा@@	828
0.@@	828
quot	828
आज्ञा	828
लिपि	827
लिखें	827
साझी	827
वैसा	826
पहुंचे	826
जों	825
मानता	825
अनाज	825
वैज्ञानिकों	825
निकलने	824
अभिदाता	824
v@@	823
जू@@	823
ज़ा@@	823
ताकत	822
बढ़ते	821
इन्सान	821
बुद्ध	821
g	820
लोक@@	820
ब्र@@	820
मौलिक	820
भर्ती	820
सशक्त	820
कृति	819
y@@	818
णों	818
कायम	818
हाज़िर	818
बैठा	818
दुर्घटना	818
सचेत	817
क्ष	817
ीन	817
थो@@	817
मुगल	817
आमंत्रित	816
सवार	816
महाराजा	816
एकीकृत	815
देशी	815
बादशाह	814
बां@@	814
महाभारत	814
फोटो	813
सिस	813
प्लस	813
`	812
बर	812
सिं@@	811
तै@@	811
काफ़िर	811
ट्रे@@	810
लड़की	810
पदों	810
in@@	809
पाँच	809
सह	809
एच@@	809
ख्वाह	809
व्यापारी	809
अर्जित	808
n@@	807
यहीं	807
जानवर	807
राजभाषा	807
मर्@@	806
गुणों	805
जायें	805
समर्थ	805
बोलते	805
साहब	805
तरीकों	804
धातु	804
अली	804
क़ायम	804
पद@@	803
डों	803
बचाने	803
स्वर्ण	803
दावे	803
जिहाद	802
क़ादिर	802
मिटा	801
किलोमीटर	801
विक्रय	801
मानों	800
देश@@	800
चीज़े	800
क्रिकेट	800
फैला	799
गहरे	799
होगे	799
परत	798
हरा	798
फ़िल्टर	797
र्स	797
प्रे@@	797
लकड़ी	797
मित्रों	796
500	796
विद्वान	796
जापान	795
जिसपर	795
बोला	795
गिरफ्तार	795
छो@@	794
रू	794
चैन	793
कला@@	792
200	792
निकालने	792
गर्म	792
बिन्दु	791
अंकित	791
सम्मानित	791
फज़ल	791
वाहन	791
एं@@	790
६	790
तसबीह	790
आसमानों	790
संपन्न	789
पैकेज	789
८	789
रसायन	789
मिश्रण	788
चीजें	788
अमरीका	788
पक्षी	788
प्रसन्न	788
चैतन्य	788
पाता	786
भी@@	786
देगी	786
वो@@	785
बडी	785
संतुलन	785
खून	785
लं@@	784
अर्ज़	784
लिखना	783
प्रक्रियाओं	783
देगें	783
ताएं	782
विश्व@@	782
तारा	782
उत्तरदायी	782
क़	782
उद्देश्यों	782
रूपों	782
डीवीडी	781
हमे	781
पैरवी	781
v	780
लंबाई	780
75	780
अनुपालन	780
आकलन	780
यथा	780
फलस्वरूप	780
’@@	780
वॉ@@	779
फ़ा@@	779
रन	779
रत	779
सच्ची	779
संपदा	779
जाल	778
सहारा	777
उत्साह	777
मांस	777
तैयारी	776
तापमान	776
हैदराबाद	776
रै@@	775
टना	775
पों	775
दिसम्बर	775
प्रसंस्करण	775
ज़ा	775
दौड़	775
प्रश्नों	775
विनय	775
90	774
उल्लंघन	774
प्रजनन	774
सचमुच	773
रोगों	773
परिवेश	773
काफ़िरों	773
साक्ष्य	773
मददगार	772
वापसी	772
संग्रहालय	772
मोमिन	772
स्वामित्व	771
भूत	771
अन्त	771
वृत्ति	771
गांधीजी	771
रखकर	770
2019	770
एकदम	769
फायदा	769
जायेंगे	768
परिचित	768
लने	768
कीजिए	767
उच्चतर	767
कृ@@	767
बुलाया	766
G	765
प्रमाणित	765
जोड़े	765
मुद्दे	765
त्र@@	765
न्यायालयों	765
डाय@@	764
संभवतः	764
कीय	764
हलाक	764
अंग्रेज	764
संलग्नक	763
एका@@	763
०	763
दर्@@	763
राष्ट्र@@	763
अत्याचार	763
जवाहरलाल	763
मूर्ति	763
श्रीमती	762
N@@	762
2002	762
बच	762
अन्तिम	761
कहां	761
जड़	761
तंग	761
भांति	761
ॅ@@	760
सतत	760
2.@@	760
45	760
35	760
तंत्रिका	760
औपचारिक	760
ढांचा	759
ड़ना	759
उर्दू	759
आख़ेरत	759
हाथी	759
अनुसूची	759
व्यवस्थित	758
करेंः	757
घा@@	757
अकेला	757
रह@@	757
तेरा	757
राहे	757
ज़रिए	757
चिकित्सक	757
जंगल	756
व्@@	756
जादूगर	756
तं@@	756
प्रभाग	756
डालें	755
भे@@	755
ग्रे@@	755
छत	755
टर@@	755
दर्जे	755
लिखते	754
गणित	754
ग्रह	754
भ	754
विहित	754
चुकता	754
जीवों	753
स्तरों	753
डिजिटल	752
शर्त	752
ारा	752
शानदार	752
औरत	750
शंकर	750
हरी	749
वैकल्पिक	749
सकारात्मक	749
भौगोलिक	749
कैसी	749
संगठित	747
नवीन	746
कह@@	746
prh@@	746
वाई	745
चुन	745
पैर	745
पूर्णता	745
बैठ	745
छा	744
वास	744
मंजूरी	744
इस@@	743
V	743
छाया	743
ष्ट	743
सरपरस्त	743
आलोचना	743
उपायों	742
अत्याचारी	741
पुकारा	741
हॉ@@	740
दिखायें	740
फोल्डर	740
आंकड़ा	740
पलट	740
लानत	740
अपराधी	740
गर्मी	740
पाना	739
आपसी	739
मादा	738
ब्रिटेन	738
वाणी	738
कचरा	737
लाएँ	737
क़दम	737
सम्बन्धित	736
सकेगी	736
सार@@	736
बहु	735
जितने	735
तता	735
अभिगम	734
27@@	734
वैदिक	734
बोध	734
वाक़िफ	734
कीटों	734
ग्रंथ	733
सना	733
फू@@	732
इकाइयों	732
पॉ@@	731
वर्णित	731
साधनों	731
झूठे	731
डिग्री	730
बह	730
धारणा	730
ब्रा@@	729
शैक्षणिक	729
पंडित	729
वाद्य	728
३@@	728
नेट	727
हन	727
काले	727
लगाते	727
of	726
h@@	726
क्रमशः	726
सावधानी	725
विज्ञप्ति	725
आधारभूत	725
समुदायों	725
आद	725
असली	724
1999	724
लग@@	724
शास्त्री	724
प्रोजेक्ट	723
ट्री	723
यल	723
ज़कात	723
ज़ोर	723
ढूंढें	722
चलाया	722
झु@@	721
लक	721
पुस्तकें	721
बाँ@@	720
टाइप	720
कूट	720
ग्राफ	719
हां	719
हस्तक्षेप	719
एजेंसी	719
तमिलनाडु	719
हें	718
मौ@@	717
सक@@	717
क्रेडिट	717
अतीत	717
याँ	717
ra@@	716
मान्य	716
पक@@	716
/@@	716
पुकारते	716
नः	715
1.@@	715
त्व@@	714
उत्पादक	714
वेद	714
चोट	713
स्मरण	713
२@@	713
शिक्षित	713
स्वप्न	713
रिजर्व	712
बुक	712
सम्पन्न	712
ेगा	712
दिमाग	712
मंडप	712
प्रयोक्ता	711
छ	711
आफ	711
उपा@@	711
मशीनरी	711
प्रतिवादी	711
सम्भव	710
उन्होनें	710
अग्र@@	709
कष्ट	709
कक्षा	709
भरने	708
प्रस्तावित	708
ढ़@@	708
गाय	708
राष्ट्रों	708
2011	708
काल@@	707
रिकार्ड	707
फार्म	707
नाक	707
पल	707
नदियों	707
नायक	707
मानवता	707
योजनाएं	707
तार@@	706
नाते	706
शरण	706
जिम्मेदार	706
अखिल	706
आंशिक	705
पसंदीदा	704
शीर्षिका	704
दम	704
तीनों	704
लम्बी	704
अंग्रेजों	704
कम्प्यूटर	703
उतनी	703
डिंग	702
जुड़ी	702
आह्वान	702
ईंधन	702
प्रतिदान	702
फ़ाइलों	701
k	701
उपलब्धता	701
सीखने	701
अर्पित	700
साक्षी	700
दोज़ख़	700
उपखंड	700
दर्शाता	699
प्रोटोकॉल	699
पैसा	699
आईडी	698
गंतव्य	698
गूगल	698
पूछ	698
लि	698
रहम	698
पुराना	697
गो	697
ईमानवाले	697
बहस	697
क़रार	697
ण्ड	696
भाष्	696
पीड़ित	695
बिन	695
निष्@@	695
खतरे	695
बाक़ी	695
न्त	695
उठाना	694
आएगी	694
तकलीफ़	694
कार्यरत	694
गर्व	694
भगवान्	694
व्यावहारिक	694
गल	693
लंबा	693
शांत	693
सम्पत्ति	693
1956	693
देवताओं	692
अनुमोदित	692
निष्कर्ष	692
कुशलता	692
70	691
घनिष्ठ	691
शेयरों	691
जाया	690
अंततः	690
पनाह	690
दवा	690
कार्यालयों	690
अभिभाषण	690
पिछला	689
चित्रण	689
भरपूर	689
डालते	689
तबाही	689
मज़बूत	689
अपनाने	689
पारस्परिक	689
जागरूकता	689
आज्ञाकारी	688
पूछो	688
रोकते	688
बेहश्त	688
मोहन	688
श्वर	688
हटाने	687
ऑफ़लाइन	687
24@@	687
भावनाओं	687
लिक	686
बाहम	686
हजारों	686
टर्मिनल	685
्य	685
नेवालों	685
दक्षता	685
गतिविधि	685
निधन	685
टॉ@@	684
U@@	684
लड़का	684
समूद	684
रखती	684
फसलों	684
‘‘@@	684
V@@	683
सकल	683
गईं	683
व्यापारिक	683
घटित	682
पीछा	682
क़ाबू	682
दारी	682
कना	682
परिवर्तनों	681
कार्यान्वित	681
अक्ष	681
पृथक	681
निकाले	681
1947	681
यत	681
सेक्टर	681
लेबल	680
धूप	680
शराब	680
सम्राट	680
कोर्ट	680
लोकतांत्रिक	680
डु@@	679
क्त	679
वस्तुएं	679
रोज़	679
देखोगे	679
नारायण	679
दीजिए	678
ma@@	678
बाधा	678
ंडी	678
बार@@	677
ड्@@	677
मॉ@@	677
प्लगिन	676
ड्राइव	676
जानना	676
तीस	676
गद्य	676
नकारात्मक	675
शोर	675
श्र@@	675
स्वभाव	675
कन्@@	674
सारणी	674
बनना	674
अंडे	674
बॉक्स	673
32	673
क्यू@@	672
लगाकर	672
क़त्ल	672
डालने	671
गारंटी	671
बचने	671
19@@	671
फौरन	671
उपर	670
समापन	670
जर्मनी	670
करम	670
तथ्यों	670
तीसरा	669
बीस	669
अंशदान	669
राव	669
देशवासियों	669
सेंट	668
बताता	668
प्रभावशाली	668
दरिया	668
दरबार	668
शासक	667
विफलः	667
बल@@	667
25@@	667
वीर	667
धा	667
वाणिज्य	667
कथित	667
शों	666
र्ड	666
महत्त्व	666
बनता	666
बीमार	666
निष्ठा	666
विद्वानों	666
वसूली	666
h	665
टूट	665
टाइ@@	665
स्थितियों	665
असल	665
काला	664
अर्थ@@	664
आस	664
आँखों	664
चावल	664
काली	663
वां	663
लंदन	663
अभ्यास	663
ऊ	662
ड़ा@@	662
वार@@	661
à¤ª@@	661
शै@@	661
रियों	661
कुदरत	661
रामायण	660
चै@@	659
उन्हे	659
क़रीब	659
मनपसंद	658
गुरू	658
गाड़ी	658
वास्तविकता	658
उठे	658
जिलों	658
कलाकार	657
la@@	657
बन@@	657
यातायात	657
अधिकारिता	657
अनुज्ञात	657
परोक्ष	656
चलती	656
चे	655
फलक	655
तू@@	655
संधि	655
सूचक	654
एक्स@@	654
वृत्त	654
अधिकृत	654
नकद	654
सिरे	653
अधिसूचित	653
संगणक	653
इंजीनियरी	652
$	651
हिमाचल	651
जैन	650
चित	650
केंद्रों	650
डो	649
एड@@	649
ट्रि@@	649
नता	649
प्रसारण	649
खनिज	649
छुट्टी	649
विद्रोह	649
परिभाषा	648
संदेशों	648
दाहिने	648
अग्नि	648
2009	648
रूस	648
नमूना	647
टिकट	647
स्थ@@	647
दूँगा	647
क़समें	647
प्रतिष्ठा	647
अवज्ञा	646
निकले	645
अपनाई	645
पहलुओं	645
मुल्क	645
वर्मा	645
जरूर	644
कोण	644
ज़ी	644
कालीन	644
मुकदमा	644
लक्ष्यों	644
उद्यमों	644
बडे	643
रता	643
2004	643
पहाड़ों	643
ब्राह्मण	643
सवाब	642
गाँव	642
प्रोफेसर	642
स्रोतों	641
बह@@	641
प्रावधानों	641
तक@@	640
ख़ौफ	640
भरें	639
किन	639
ारा@@	639
आईटी	639
प्राणी	639
लेखकों	639
प्रणालियों	639
वितरित	638
ंस@@	638
पंजाबी	638
गोरा	638
राज़ी	638
क्रय	638
मुहम्मद	638
हँसी	638
प्रतिकूल	638
मानकों	638
रॉ@@	637
झील	637
चीज़ें	637
झूठा	637
फैल	637
अलबत्ता	637
धर	637
सें@@	636
खिलाड़ी	636
१५@@	636
ताल	636
2003	635
फरिश्ते	635
गर	634
शा	634
लू	634
गं@@	634
ष्ट@@	634
धनराशि	634
उत्कृष्टता	634
बना@@	633
ारों	633
शाखाओं	633
क़ा@@	633
मन्@@	633
अपेक्षाकृत	633
कॉपी	632
अंग्रेज़ी	632
सच्चाई	632
कालेज	632
एजेंसियों	632
बेकार	631
सेन	631
इन्हीं	631
यक़ीन	631
कैंसर	631
निवारण	631
स्वच्छता	631
प्रदर्शक	630
असामान्य	630
मौका	630
घास	630
क़ुदरत	630
पटल	629
माइ@@	629
सफाई	629
दस्तावेजों	629
ंगे	629
रचनात्मक	629
ऊतक	629
विधिक	629
सेल	628
काम@@	628
धो@@	628
देखेंगे	628
ड़ों	628
इजरायल	628
नल	627
उत्पा@@	627
कर्मों	627
लीग	627
अध्यक्षता	627
दीक्षांत	627
कराता	626
पुरी	626
कृत्रिम	626
१८@@	626
संयोजन	625
रिक	625
यम	625
लम	625
सूरज	625
पूर्णतः	625
दुश्मन	625
यहूदी	625
खेत	625
विनाश	625
सैन्य	625
निपटान	625
re@@	624
गलती	624
पाये	624
मिलना	624
ख़ैर	624
तापूर्ण	624
पर्व	624
विकासशील	624
पौ@@	624
टु@@	623
सामान्यतया	623
समझना	623
कृतज्ञता	623
दुःख	623
टर्@@	622
मुख्यतः	622
रूपये	622
लौ@@	622
बताते	622
उत्पादकता	622
साझेदारी	621
वल	621
ंद	621
सुन्दर	621
आजीविका	621
परिश्रम	621
कुबूल	621
स्ट्रिंग	620
लौटा	620
चार@@	620
बंदी	620
शर्तें	620
आदत	620
K@@	619
en@@	619
व्यर्थ	619
लिन	619
निय@@	619
ग्र@@	619
उधर	619
बंबई	619
ंक@@	618
ड्स	618
होगें	618
शाही	618
समर्पण	618
इंदिरा	618
टैग	617
संजाल	617
गन	617
इताअत	617
कवियों	617
मद्रास	617
डोमेन	616
भूख	616
नोड	615
पड़ने	615
नि	615
सबका	615
कट@@	614
पूर्ववर्ती	614
फरमाया	614
प्रवर्तन	613
मिश्रित	612
कम@@	612
पट	612
४@@	612
कमाई	612
प्ला@@	611
स्त	611
ठा@@	611
ज़िक्र	611
यात्री	611
रचनाओं	611
सकने	610
गू@@	610
पाठक	610
न्द	609
आरक्षित	609
हरि@@	609
पढ़ते	609
उतर	609
गार	609
बहादुर	609
कानूनों	609
ट्रा@@	608
2010	608
बाग	608
स्थ	608
गवर्नर	608
मेमोरी	607
कोयला	607
सं	607
अफसोस	607
होटल	607
विष्णु	607
अक्टूबर	606
१०	606
प्रिंटर	606
कहे	606
दत्त	606
भागीदार	606
सत्यापित	605
अंतर@@	605
ष्@@	605
इस्लामी	605
आयकर	605
शू@@	604
सहयोगी	604
संचित	604
बादल	604
चुपके	604
रक्त@@	604
संवेदनशील	603
दिखाना	603
मरम्मत	603
इरादा	603
जरूरतों	603
स्कूलों	603
भा	603
ढेर	602
जान@@	602
अम्@@	602
लित	602
कृपा	602
आदर	602
डरता	602
पचास	602
नाबार्ड	602
प्रतिलिपि	601
चलना	601
एशियाई	601
कार्बन	601
कराई	601
सीता	601
बताने	600
टने	600
जग@@	600
26@@	600
बगैर	600
गुणा	600
थे@@	600
à¤¾	600
मतदान	600
डाली	600
पथभ्रष्ट	600
आशय	600
पुराण	600
उपज	599
बैकअप	599
कतिपय	599
विनियमन	599
जनों	598
सलाहकार	598
करी	598
उतारी	598
नस्ल	598
घाटा	598
दलों	598
जगत	598
दार्शनिक	598
ऊंची	598
पुनः@@	597
यक	597
्या@@	597
28@@	597
प्राधिकार	597
नियंत्रक	597
नॉ@@	597
परंपरागत	597
घो@@	597
६@@	597
रासायनिक	597
सन्देह	597
उठ	597
आजाद	597
दशकों	597
हकदार	597
ब्रि@@	596
लाइब्रेरी	596
मैन	596
उन@@	596
मध्य@@	596
प्रासंगिक	596
रखनेवालों	596
दलील	596
चाहूंगा	596
नकदी	596
सारांश	595
हू@@	595
९	595
जीन	595
मारा	595
लम्बे	595
माउस	594
नामों	594
मृत	594
सहन	594
बेटी	594
ण्ड@@	593
ti@@	593
पह@@	593
अनुचित	593
प्रशिक्षित	592
आँखें	592
इंग्लैंड	592
मस्जिद	592
सैनिकों	592
वजन	592
वस्तुतः	592
लियां	591
कनेक्ट	591
मिटाना	591
तियां	591
केडीई	591
हमपर	591
ॉ@@	590
नोडल	590
करों	590
सऋ	590
ह्@@	589
संतुष्ट	589
लते	589
बचपन	589
वारिस	589
लाभों	589
बख्श	589
सोचते	589
टेलीफोन	589
प्रतिबद्धता	589
निवेदन	588
मिस्र	588
अस@@	588
80@@	588
खोजें	587
प्रेषक	587
आंकड़े	587
प्रदत्त	587
व्याख्यान	587
देनेवाला	587
सूर	587
उल्लिखित	587
आमदनी	587
शक्तियां	587
अधिवेशन	587
स्क्रिप्ट	586
बर्फ	586
अन्तर्@@	586
W	585
त्वरित	585
किमी	585
गौ@@	585
बेटों	585
नजात	585
प्रि@@	584
चखो	584
आदमियों	584
विदेशों	584
टक	583
वाल	583
अध@@	583
ंद@@	583
खी	583
ठहराया	583
मुख@@	582
प्रॉक्सी	582
प्रचालन	582
लाकर	582
शासित	582
बरी	581
नं	581
किन्हीं	581
शिर्क	581
गयीं	581
घोष	581
प्रतिफल	581
w@@	580
टेड	580
सृष्टि	580
यानि	580
कविताओं	580
खातों	579
आखिर	579
लोकसभा	579
—@@	579
सृजित	578
स्मारक	578
गण@@	578
ज्ञ	578
मानने	578
व्यष्टि	578
स्टा@@	577
कोर	577
खतरनाक	577
बिट	577
असं@@	577
उपेक्षा	577
सल	577
पशुओं	577
७	576
वत	576
बहुमत	576
फ्रेम	575
स्व	575
चित्र@@	575
मोटे	575
जंगली	575
अनिवासी	575
सुसंगत	574
तिक	574
गौरव	574
सुनकर	574
पढ़ाई	574
याचिका	574
क्रे@@	573
माइक्रो@@	573
बुला	573
मराठी	573
करूँ	573
ऊंचे	573
पड़ते	573
एहसान	573
उड़ीसा	573
X@@	572
सम्बद्ध	572
णीय	572
प्राधिकृत	572
पल@@	572
सुनाई	572
वस्तु@@	571
जय@@	571
सिर्फ़	571
ca@@	570
विश्वसनीय	570
आवरण	569
भत्ता	569
गले	569
परिस्थिति	569
दूँ	569
3.@@	568
पहुँची	568
ज़बान	568
साझीदार	568
माननीय	568
ID	567
तमिल	567
वैसी	567
गण	567
.0@@	567
अकादमी	567
39	567
रहकर	567
पाकीज़ा	567
शादी	567
लाखों	567
आस्तियों	567
मील	566
दृष्टि@@	566
इबरत	566
टैगोर	566
संगत	565
मुद्रित	565
इंजीनियरिंग	565
पाती	565
फिरते	565
मोमिनों	565
मजदूरी	565
इलाकों	565
सभापति	565
शुरूआत	564
भाव@@	564
खबर	564
उत्सव	564
हुकूमत	564
उपलब्धियों	564
स्वाधीनता	564
प्रांत	563
आकर्षण	563
संदाय	563
ज़े@@	562
प्रतिबंध	562
न्यू	562
गीता	562
जीव@@	561
प्रारम्भ	561
ing	560
प्रेषण	560
फेंक	560
लगने	560
बढ़ता	560
अंग@@	560
निवेशकों	560
क्रांतिकारी	560
वैयक्तिक	560
w	559
अनुक्रम	559
तीसरी	559
उन्नयन	559
बांग्लादेश	559
सियों	559
बहन	559
व्युत्पन्न	559
संदेय	559
गिनती	558
तल@@	558
ओपन	558
बाध्य	557
आएँ	557
नू@@	557
मि	557
सद@@	557
लौटने	557
चारी	557
चिन्ह	556
नाइ@@	556
परेशान	556
म्ब@@	556
00	556
बचे	556
29@@	556
इलेक्ट्रॉनिक	556
मित्रता	556
चोरी	556
जाएँगें	556
फायदे	556
पोत	556
रिज़र्व	556
आँकड़ा	555
रजिस्टर	555
विद्या	555
झुठलाओगे	555
बालक	555
ऊँचाई	554
कः	554
मुखी	554
बों	554
भड़कती	554
रहीं	554
रखरखाव	554
पक्षियों	553
Q@@	552
दिखा@@	552
टिव	552
रद्दी	552
रिकॉर्ड	552
फॉर्म	552
क्रि@@	552
माप	552
दीं	552
सूजन	552
बढ़ाना	551
कार्यकारी	551
नुसार	551
माहौल	551
नमक	551
’’	551
धारक	550
लाएँगे	550
पीड़ा	550
हाइ@@	549
प्राप्तकर्ता	549
फॉ@@	549
अवकाश	549
à¤@@	549
नन	549
अतएव	549
प्रोटीन	549
अर्जन	549
धन@@	548
अजीब	548
स्प@@	548
आधे	548
प्रबल	548
अगरचे	548
निचले	547
कुं@@	547
तुर्की	547
विज्ञापन	547
परवाह	547
घाट	547
सितम्बर	546
ल्ला	546
इस्पात	546
बतौर	545
खोजने	545
हिस्सों	545
अल्प	545
ढ़	545
बाढ़	545
व्य	545
पादप	545
कोने	544
टू@@	544
वर्गीकरण	544
एक्सचेंज	544
अटल	544
आय@@	543
क्टर	543
फ्रांस	543
भार@@	543
स्थलों	543
अफगानिस्तान	543
सीख	543
2,@@	543
जित	543
फूलों	543
दिखाए	542
गोपन	542
मण्डल	542
मेहनत	542
परिकल्पना	542
ऊँची	542
वहन	542
मंत्रियों	542
प्रवासी	542
पहुँचने	541
36	541
NAME	541
आकर्षक	541
धारी	541
डाक्टर	541
सिद्धान्त	541
शिव@@	541
नाम@@	540
स्टै@@	540
असंभव	540
300	540
सर्वथा	540
मतभेद	540
इमारत	540
देख@@	539
नवा@@	539
गणतंत्र	539
प्स	538
डाटाबेस	538
लाता	538
८@@	538
चंद्र	538
तरल	538
मजदूर	538
छोड़ें	537
na@@	537
4.@@	537
चढ़	537
हममें	537
अज्र	537
दुर्लभ	537
चर@@	536
यथा@@	536
दिखाते	536
बारह	536
दीवारों	536
संग्राम	536
समायोजन	535
गेंद	535
संकल्पना	535
ऊंचा	535
फलों	535
वनस्पति	535
सुचरिता	535
न्या@@	534
कस	534
दौरा	534
अर	534
करनेवाली	534
रण	534
हलाल	534
किले	534
प्रवाहित	533
साम@@	533
ंडा	533
कच्चे	533
एकत्रित	533
गर्@@	533
परक	533
नतीजा	533
आंखों	533
समस्याएं	533
बनाओ	531
पाओगे	531
अवधारणा	531
धार	530
केस	530
संकेतक	530
उत्तर@@	530
00@@	530
न्	530
काफिर	530
प्ले@@	529
वन@@	529
à¤¾à¤@@	529
तत्त्व	529
à¤	528
मल@@	528
आजकल	528
नेताजी	528
नियोजन	528
क्षैतिज	527
डालो	527
क्रो@@	527
विक	527
मोटर	527
बोलने	527
खुल्ला	527
ज़िम्मे	527
भाइयों	527
चाँद	527
कर्म@@	527
रास्त	527
कारगर	527
चिंतन	527
ईंट	526
–@@	526
उत्तरदायित्व	526
कबीर	526
बदलना	525
कैश	525
क्रा@@	525
अम@@	525
वार्ता	525
हारून	525
चित्रों	524
बालों	524
न्याय@@	524
तत्कालीन	524
कार्यपालिका	524
पूर्वोत्तर	524
विवरणी	524
छिपा	523
रूपरेखा	523
ब्राउज़र	523
अस्वीकार	523
सौंपा	523
संकलन	523
उल्@@	523
हाउस	523
पूर्णतया	523
अर्ध@@	523
बसव	523
औज़ार	522
ज्यादातर	522
अप्रत्याशित	522
5.@@	522
तियाँ	522
़	522
आधा	522
बनाती	522
संत	522
कमज़ोर	522
॰	522
खरीदने	522
सर्वश्रेष्ठ	522
गीतों	522
लोप	521
मित	521
टेनिस	521
शास्त्रीय	521
पुरूष	521
नाहक़	521
र्ट	520
टॉगल	520
१@@	520
टकर	520
सेवा@@	520
घोड़े	520
सुनी	520
तकलीफ	520
मौजिज़े	520
साक्षरता	520
रहस्य	519
निर्देशों	519
ंके	519
समावेश	519
चाहो	519
मुकाबले	519
निपटने	519
र्इ	519
es	518
संक्रिया	518
ज़रूरत	518
प्रतिज्ञा	518
निराश	518
अपराधियों	518
सजा	518
कहानियों	518
स्नातक	518
परियोजनाएं	518
खनन	518
पब्लिक	517
एगा	517
यार	517
चारा	517
साकार	517
देनी	516
टरी	516
ar@@	516
रख@@	516
विभेद	516
शान	516
किराया	516
~	515
ट्र@@	515
टीवी	515
संवैधानिक	515
अवसंरचना	515
स्टि@@	514
शपथ	514
केन्द्रित	514
मक	514
निर्माता	514
खासकर	514
यि@@	514
48	513
हमला	513
स्टर	513
केन्द्रों	513
उच्च@@	512
छः	512
हरित	512
वैष्णव	512
मोदी	512
जीवन@@	511
वाहक	511
कलाम	511
सीआरए	511
छुपाएँ	510
खोला	510
हैसियत	510
किताबों	510
नज़दीक	510
सौंदर्य	510
जैविक	510
फिल्टर	509
दुकान	509
पक्का	509
परहेज़गारों	509
सुनवाई	509
्य@@	509
मुहैया	509
नींव	508
ज़्@@	508
श्वेत	508
स्वी@@	508
छिपी	508
मर्द	508
मैत्री	508
तापूर्वक	508
नाटकों	508
ह्य@@	508
पर्यावरणीय	508
विधियों	507
बडा	507
मजबूर	507
तालिका	507
स्टेट	507
परिचालन	507
ताप	507
सोचने	507
प्रस्तावों	507
ब्रह्म	507
or@@	506
अग@@	506
स्टो@@	506
महि@@	506
पूरक	506
शं@@	506
घेरे	506
सरदारों	506
दूरसंचार	506
यथास्थिति	506
पायी	505
ऑफ़	505
000	505
५@@	505
समकालीन	505
अपितु	505
क्रोध	505
मोहलत	505
अफ़सोस	504
कर्ताओं	504
मनाया	504
ङ्@@	504
सशस्त्र	504
मंत्रालयों	504
2020	504
संकाय	504
निंग	503
कल्@@	503
भेजना	503
मोड़	503
à¥	503
वरन्	503
सुधारों	503
अस्थि	503
.2013	503
किला	502
सौभाग्य	502
हस्तांतरण	502
वांछित	502
ठहराते	502
सचिवालय	502
खी@@	501
ऍ@@	501
जन्@@	501
डॉक्टर	501
राजाओं	501
सोसाइटी	501
मेन्यू	500
जोड़ना	500
सेंटर	500
माँग	500
निभाई	500
गतिशील	499
छोड़ने	499
किलोग्राम	499
सको	499
परहेज़गार	499
मामूली	499
अन्जाम	499
सबकी	498
30@@	498
तारों	498
02	498
मैत्रीपूर्ण	498
उपर्युक्त	497
खों	497
भक्त	497
भारती	497
इलाहाबाद	497
उर्वरक	497
काएं	496
क्लिपबोर्ड	496
चाह	496
33	496
पहुंचाने	496
वाय@@	496
दायी	496
समीकरण	496
हथियार	496
गिर@@	496
उपग्रह	496
नमूने	496
श्रीलंका	496
दादाओं	496
स्वीकार्य	495
अक@@	495
श्रमिक	495
वरीयता	494
अनि@@	494
तनाव	494
स्ता@@	494
पोस्ट	493
à¤°@@	493
जरा	493
लिका	493
छू	493
झुठलाते	493
प्रतिवर्ष	493
di@@	492
ब्रे@@	492
हर्@@	492
मत@@	492
बम	492
आँ@@	492
प्रयोगशाला	492
समझ@@	492
खुल्लम	492
पाँव	492
ज़बरदस्त	492
जाहिर	492
यथार्थ	492
इधर	491
आकृति	491
गान	491
बताना	491
एहद	491
सरीही	491
आस्था	491
क़्योंकि	491
र्थ	491
अभिलाभ	491
स्पे@@	490
बनाएं	490
दक	490
सुधारने	490
ॉ	490
सूरत	490
वक्तव्य	490
मज़े	490
हक	490
सड़कों	490
णा	490
आगमन	490
विख्यात	490
ल्ट	489
बढ़ाया	489
दशमलव	489
स्क	489
ठहरा	489
मिक	489
त्य	489
मिलन	489
संगणना	489
डेटाबेस	488
नवीनतम	488
गों	488
पुष्प	488
केट	487
नली	487
लड़@@	487
भूटान	487
दाऊद	487
दाता	487
निकला	487
बेहद	487
जिंदगी	487
1948	487
विटामिन	486
सन्देश	486
सर्वप्रथम	486
औजार	485
सल@@	485
कुफ्फार	485
नीतिगत	485
किनारा	484
एल्@@	484
शोषण	484
उद@@	484
इजाज़त	484
उन्मूलन	484
रेशम	484
दं@@	484
बेचने	484
औषधि	484
er@@	483
परिणामों	483
क्स@@	483
बता@@	483
लकर	483
स्थिरता	483
श्रद्धा	483
डै@@	482
कॉन्फ़िगर	482
निशान	482
वाइ@@	482
अवयव	482
कमा@@	482
भुला	482
ख़ुश	482
मुकदमे	482
prh0@@	482
भर@@	481
महासागर	481
जानों	481
सहानुभूति	481
फीस	481
साझीदारी	481
:@@	480
अंतः@@	480
दरवाजे	480
स्तान	480
प्रकोप	480
याक़ूब	480
रोशनी	480
टें	479
आप@@	479
पीडीएफ	479
माँगता	479
उपभोग	479
मधुमेह	479
प्रतिनिधियों	479
कट	478
प्री@@	478
विडियो	478
टू	478
चं@@	478
सर्वज्ञ	478
लोगे	478
अवगत	478
परिषद्	478
फाइ@@	477
ारि@@	477
कने	477
लैंड	477
नव	477
वश	477
iv	477
फरिश्तों	477
रोज	477
अपीलार्थी	477
बलों	476
बंधन	476
हार्डवेयर	476
रं@@	476
शाला	476
ड़ने	476
भटक	476
ठाकुर	476
पर्यटकों	476
रोचक	476
समेकित	476
देह	475
फा	475
लौटकर	475
बाज़ार	475
सभाओं	475
छपाई	474
वाक्य	474
सूचीबद्ध	474
color	474
स्विच	474
पिंग	474
35@@	474
वर्षगांठ	474
धार@@	474
ईरान	474
पड़@@	474
सोचता	474
किलो	474
कमीशन	474
माल@@	473
टाल	473
क्ट	473
रूपांतरण	473
विचार@@	473
ंश	473
न्द@@	473
बही	473
रूचि	473
पेट्रोलियम	473
पंख	472
सुदूर	472
विस्तारित	472
च्छ@@	472
हल्का	472
संग	472
नानक	472
पैनल	471
Y@@	471
बजाए	471
ख़बरदार	471
दरवाज़े	471
समाजवादी	471
ed	470
फट	470
हुये	470
्रा@@	470
अप्र@@	470
अरे	470
न्यायपालिका	470
टरों	469
पट@@	469
गोली	469
हज़ार	469
खपत	469
आबाद	469
प्रवृत्त	469
कर्ण	469
मुख्यालय	469
रंगमंच	469
अंगों	469
संस्थागत	469
पड़ोसी	468
नकल	468
धीमी	468
रूप@@	468
सेनाओं	468
उत्तराधिकारी	468
बच्चन	468
बगल	467
ल्ड	467
लेखों	467
पैदावार	467
पुणे	467
to@@	466
टः	466
सांस	466
नम	466
प्राय	466
डियों	466
नेत्र	466
घि@@	466
खैर	466
धर्मों	466
कमेटी	466
यौन	466
प्रौद्योगिकियों	466
चक्कर	465
ंकी	465
नर@@	465
स्वाद	465
घमंड	465
ऊँचे	465
सुलेमान	465
वसा	465
मधु@@	465
विचारधारा	465
महान्	465
उपभोक्ताओं	464
अन्य@@	464
राइ@@	464
तरीक़े	464
द्ध	464
दौ@@	464
इनको	464
पंच@@	464
वती	464
बल्@@	463
—	463
सहेजने	463
करूँगा	463
चेहरा	463
सर्विस	463
weather	463
पुल	463
मारने	463
छिपाते	463
प्रदेशों	463
परम्परा	463
चलाएँ	462
क्षमताओं	462
क्रियान्वयन	462
वेल	462
इसमे	462
तन@@	462
पुकारो	462
घरवालों	462
मज़दूरी	462
खुशख़बरी	462
हिन्दुओं	462
उपाधि	462
दमन	462
अहिंसा	462
राष्ट्री	462
सत@@	461
वर्ष@@	461
धी@@	461
हू	461
संतान	461
मंजूर	461
आगरा	461
es@@	460
जमा@@	460
सिया	460
बाल@@	460
कर्मियों	460
मजदूरों	460
अवस्थित	460
इंजन	459
कैमरा	459
पढ़ी	459
निका@@	459
बन्@@	459
गोल	459
करो@@	459
घेर	459
अपमान	459
प्रभुत्व	459
झुठलाने	459
क़ब्ल	459
सालों	459
गरीबों	459
आवृत्ति	458
लाभांश	458
1000	458
फूट	458
निर्णायक	458
सार्थक	458
प्राणियों	458
ध्@@	458
यात्रियों	458
महफूज़	458
वन्य	458
सामुदायिक	458
धारित	458
ऑपरेशन	457
मनोरंजन	457
भीड़	457
अनुशासन	457
कृतियों	457
संघीय	456
बग	456
अनुमानित	456
लिख@@	456
संग्रहण	456
ारे	456
त्री	456
लती	456
निकलते	456
बाई	456
सालेह	456
भाग्य	456
विगत	456
बरस	456
मुशरेकीन	456
राजमार्ग	456
टर्स	455
कान्@@	455
URL	455
संभा@@	455
ंच@@	455
द्रव	455
खोलकर	455
लीजिए	455
गिर्द	455
पेशेवर	455
वनों	455
गतिविधियां	455
टते	454
नक	454
सुनो	454
रण@@	454
वं@@	454
अँ@@	454
द्व@@	454
जंग	454
प्रजातियों	454
आकस्मिक	454
फ्रे@@	453
er	453
à¤¸@@	453
समर्थक	453
नौका	453
पतन	453
परहेज़गारी	453
अशोक	453
होस्ट	452
मुद्रण	452
हमले	452
बारिश	452
मरियम	452
०००	452
राजकुमार	452
श्रद्धांजलि	452
शेख	452
.2016	452
ठा	451
जर्मन	451
सादा	451
जानेवाले	451
निर्देशित	451
इच्छुक	451
चलाए	451
सिफ़ारिश	451
काबा	451
इसहाक़	451
बरबाद	451
बातिल	451
–इस	451
जापानी	450
गर@@	450
जाएँगी	450
जं@@	450
डिया	450
दाम	450
कानों	450
धोखा	450
अनुस्मृति	450
दरख्त	450
अनुभूति	450
म्स	449
समझी	449
विलोपित	449
नस	449
मास्टर	449
ठहरे	449
आपदा	449
पोषक	449
कार्यकलापों	449
1992	449
संस्था@@	448
उपहार	448
भगत	448
निधियों	448
क्रमांक	447
ताज़ा	447
परेशानी	447
रखेगा	447
रंगों	447
आधिकारिक	447
पाद	447
optional	447
माला	447
गोवा	447
शिकायतों	447
आतंकवादी	447
सदनों	447
अनुदेश	447
प्रगतिशील	446
स्टी@@	446
प्रत्या@@	446
गुजराती	446
ग्रिड	446
à¤®@@	446
कीं	446
जहाँन	446
गुलाम	445
रिमोट	445
विक्रेता	445
सौंप	445
z	445
हार@@	445
झो@@	445
जॉन	445
समझो	445
पेय	445
अनुभवों	445
दीर्घकालिक	445
खिसकाएँ	444
रिंग	444
मेनू	444
सीसी	444
मक@@	444
२०	444
कपड़ा	444
दित	444
अन्याय	444
इष्ट	444
अध्यापक	444
नोटिस	444
प्रतिबद्ध	444
वर्धन	444
अधिकाधिक	444
उद्यमियों	444
नीतियां	444
लायक	443
रूट	443
,@@	443
‘	443
शर@@	443
रुजू	443
संतोष	443
,000	443
संस्थाएं	443
मास्टर्स	443
जीवाणु	443
आश्रम	443
संदत्त	443
आवा@@	442
जिसमे	442
नाग@@	442
किताबें	442
मजबूती	442
पटेल	442
अनुभाग	442
हिंदुओं	442
दरों	442
कें	441
टाइम्स	441
ब्रैसेरो	441
पाएगा	441
बो	441
बैक	441
पारदर्शी	441
निरन्तर	441
आंकड़ों	441
निर्गम	441
पूजते	441
ईमानदारी	441
आश्वासन	441
ञ्@@	441
सिंग	440
नियां	440
काना	440
वर्तनी	440
उस@@	440
उलट	440
दोपहर	440
माफ	440
धू@@	440
42	440
इन्होंने	440
उठता	440
निर्वाचित	440
अनन्त	440
पारदर्शिता	439
दांत	439
मॉड्यूल	439
z@@	439
श्रेणियों	439
चक	439
काओं	439
आइए	439
कंपनियां	439
लेखापरीक्षा	439
Z	438
पाठ@@	438
स्थानांतरित	438
à¤¿à¤@@	438
बढ़े	438
हीनता	438
झोंक	438
ज़लील	438
सेवन	438
निरपेक्ष	437
कहें	437
हैं@@	437
लगा@@	437
त्तर	437
गिरा	437
उठाकर	437
सुर	437
बताए	436
रोग@@	436
घटा	436
क्षय	436
ज्यादती	436
वर्ण@@	435
मार्क	435
रना	435
वली	435
अवज्ञाकारी	435
धमकी	435
दोषी	435
फी	435
पोर्टल	435
एनपीएस	435
टस	434
प्रो	434
लक्षणों	434
ख़ु@@	434
रौ@@	434
युद्ध@@	434
मृ@@	434
कठिनाइयों	434
स्टॉक	433
गुण@@	433
प्रपत्र	433
चरणों	433
बसे	433
नींद	433
स्टार	433
निर्वाह	433
चूक	433
बरसाया	433
अन्तर्राष्ट्रीय	433
हरियाणा	433
अपवाद	432
लियन	432
बदलते	432
ंग्@@	432
नारी	432
बांध	432
त्य@@	432
एण्ड	432
निमित्त	432
नुक़सान	432
दारों	432
वग़ैरह	432
बाजी	432
मणिपुर	432
34	431
फ़्@@	431
रक्षक	431
आगामी	431
al@@	430
ba@@	430
लिस	430
लियाँ	430
à¤¬@@	430
शेर	430
बताओ	430
प्रबन्ध	430
वाक़िफकार	430
कीमतों	430
आशुतोष	430
प्रभार्य	430
कुल@@	429
K	429
रस्@@	429
पूर्वा@@	429
र्क	429
वल@@	429
आधी	429
पूछते	429
पाबन्दी	429
नाओं	429
आन्दोलन	429
तारे	428
सूचनाओं	428
डालना	428
यूसुफ़	428
मौके	428
फैसले	428
न्द्र	428
आहरण	428
अंत@@	427
खुल	427
असत्य	427
कते	427
पुरा@@	427
पैरों	427
तदनुसार	427
धता	427
चना	426
ऑन	426
विशेषाधिकार	426
शान्ति	426
ज़िम्मेदारी	426
विशेषज्ञों	426
रोगियों	426
विनियम	426
स्तम्भ	425
बाएँ	425
निकलता	425
टेप	425
संक्षेप	425
तु	425
धोखे	425
श्रमिकों	425
‍य	425
मिटाने	424
इंतजार	424
बरसात	424
à¤²@@	424
धूल	424
पंथ	424
ड़ियों	424
उन्नति	424
or	423
पढ़ना	423
घातक	423
सिटी	423
निकालना	423
निदान	423
मुफ्त	423
९@@	423
आज़माइश	423
वर्षो	423
भव्य	423
आयुर्वेद	423
दौरे	423
अभिन्न	423
.2019	423
it	422
lo@@	422
ur@@	422
URI	422
भ्रम	422
जातीय	422
55	422
दिवसीय	422
6.@@	422
संतुलित	422
65	422
उपदेश	422
वाह	422
कहती	422
रुए	422
कर्ज	422
आवेदक	422
गेट	421
अग्रेषित	421
एंगे	421
मूल@@	421
à¤¨@@	421
ज़ी@@	421
च्@@	421
टिस	421
प्रजाति	421
कहकर	421
नाना	421
पर्यटक	421
बाबा	420
डालर	420
अर्ध	420
नुमा	420
ब्यूरो	420
दायरे	420
एमएसएमई	420
de@@	419
मुताबिक	419
वर्ती	419
सित	419
वेग	419
मां@@	419
स्टाफ	419
दुखी	419
बनते	419
जज़ा	419
तीं	419
वापिस	419
आचार्य	419
कार्यकाल	419
समावेशी	419
हुकुम	418
स्टाक	418
ष्ठ@@	418
अद्वितीय	418
तरा@@	418
तीय	418
परिदृश्य	418
चलकर	418
वादियों	418
समझाने	418
साक्षात्कार	418
निकायों	418
भेदभाव	418
वार्षिकी	417
1950	417
गर्भ	417
एख्तेयार	417
बदौलत	417
लड़कियों	417
तस्बीह	417
तान	417
चुनने	416
अनुप्रयोगों	416
अवतार	416
वर्गीकृत	416
हरेक	416
यस	416
गिरोहों	416
तेज़	416
विवेक	416
स्था	416
तटीय	416
गेहूं	416
प्रतिभूतियों	416
ro@@	415
अपशिष्ट	415
आबंटित	415
ड़े@@	415
धिकार	415
चमक	415
नत	415
एंव	415
ऊन	415
भ्रष्टाचार	415
जुड़	414
उपयोगिता	414
ारो@@	414
पात	414
पें@@	414
मारी	414
शन@@	414
न्य	414
अतिथि	414
प्रेमी	414
स्वैच्छिक	414
ताः	413
विष@@	413
रात्रि	413
ंको	413
१२	413
प्रतिस्पर्धा	413
à¤@@	413
किनारों	413
आवश्य@@	413
सेवक	413
संख़्या	413
नवाचार	413
ताजा	412
चिड़ी	412
संपर्कों	412
खींच	412
लघु@@	412
नात्मक	412
भेजता	412
लड़ने	412
कर्ण@@	412
लाहौर	412
पाठकों	412
to	411
उठा@@	411
07	411
प्रशासक	411
फर@@	411
पन@@	411
स्	411
न्त@@	411
गर्दन	411
दुबारा	411
घाव	411
प्रगाढ़	411
गुम	410
चलाना	410
ंगे@@	410
स्थाई	410
आबंटन	410
कॉन्@@	410
पिन	410
टीका	410
प्रवास	410
स्नान	410
फ़ा	410
लौटना	410
अग्रसर	410
बुद्धि@@	410
पारिश्रमिक	410
लगेगा	410
तौरेत	410
ऋतु	410
आंबेडकर	410
जोड़ी	409
संरक्षित	409
1998	409
दार@@	409
रोज़े	409
फसाद	409
आनुवंशिक	409
अब्दुल	409
ध्येय	408
रुक	408
अध्य@@	408
जाननेवाला	408
सिखाया	408
अपमानित	408
ज़रूरी	408
लोहे	408
धनी	408
कामयाबी	408
हालात	408
अर्जुन	408
सतर्कता	408
लखनऊ	408
वर्ड	407
प्रोफ़ाइल	407
ंगा@@	407
दिलचस्प	407
अप्रिय	407
हिम्मत	407
उद्यमी	407
सूचकांक	406
पार्@@	406
à¥à¤@@	406
पावर	406
एकीकरण	406
7.@@	406
झगड़े	406
ख़ुशी	406
खाई	406
रूए	406
बदरूद्दीन	406
प्रख्यात	406
राजकीय	406
ग्रंथि	406
जांचें	405
अपूर्ण	405
देरी	405
गुरू@@	405
टियां	405
पाएंगे	405
अवलोकन	405
ख़	405
आवासीय	405
खाड़ी	405
निर@@	404
छापें	404
ढा@@	404
श्रेय	404
प्रत्यर्थी	404
वि	404
व्यास	404
आघात	404
सिंहासन	404
जानती	404
न्यायाधीशों	404
तिहाई	404
काटने	403
लॉगिन	403
मिट	403
मापन	403
विशेषताओं	403
यूनियन	403
संचरण	403
भ्रमण	403
कहलाता	403
जमे	403
झिल्ली	403
हड्डी	403
निर्माताओं	403
न्ट	402
ड़ी@@	402
मौज़ूदा	402
हटाना	402
हौ@@	402
न्द्र@@	402
माफ़	402
पत्तियों	402
पूछें	401
डर@@	401
भेजते	401
दोहरा	401
स्टोर	401
यर@@	401
अभिव्यक्त	401
मौखिक	401
विषयक	401
3,@@	401
किसने	401
कमाया	401
गर्भाशय	401
तालाब	401
जय	401
ज्ञान@@	401
जनजातीय	401
09	400
व्यक्ति@@	400
चरम	400
माध्यमिक	400
सौदा	400
विकार	400
परजीवी	400
सहेज	399
सेकेंड	399
स्थगित	399
th@@	399
निदेश	399
उत्सर्जन	399
बाइ@@	399
पढ़कर	399
बढ़ना	399
बंगाली	399
मंगल	399
नेवाली	399
दै@@	399
भयानक	399
ड़ो	399
छोर	399
शरारत	399
मेहरबानी	399
फौज	399
पेटेंट	399
श्वसन	399
शीट	398
जॉ@@	398
शो	398
छाप	398
०@@	398
कनाडा	398
चन	398
अनुयायी	398
औरतें	398
जगहों	398
वाज़ेए	398
पत्तन	398
राजदूत	398
is@@	397
उलटे	397
रोकें	397
धिक	397
हार्@@	397
ृ@@	397
जनन	397
कोश	397
जिनपर	397
बला	397
उड़ान	397
अद्भुत	397
tion	396
निंदा	396
काई	396
क्षतिपूर्ति	396
रूह	396
बढ़ी	396
सूखे	396
हानिकारक	396
दिलचस्पी	396
शासकों	396
बिलियन	396
प्रतिरोध	395
सीमा@@	395
ंज	395
वाँ	395
विशुद्ध	395
रातों	395
वाक़िफ़	395
छे@@	394
लाइट	394
क्रियाओं	394
ंगों	394
ट्यूब	394
षा@@	394
08	394
कामयाब	394
ऍं	394
दिनांकित	394
संव्यवहार	394
न’	394
सोना	393
स्मार्ट	393
डीपीआई	393
मो	393
सृ@@	393
करे@@	393
त्रा@@	393
शक्ति@@	393
सत्य@@	393
आव@@	393
ग्रंथों	393
ललिता	393
सहभागिता	393
गिन	392
तीर	392
जाँचें	392
जरुरी	392
150	392
ंका	392
कम्प@@	392
भयंकर	392
तूर	392
अहमद	392
संवेदना	392
सुभाषबाबू	392
जमाने	391
खुलने	391
कोट	391
पूछताछ	391
संभावनाएं	391
हेक्टेयर	391
चल@@	391
ियां	391
झगड़ा	391
खेतों	391
तुरन्त	391
ta@@	390
हाई	390
हस्त@@	390
सम	390
घटकों	390
स्वर्ग	390
बुतों	390
इंकार	390
सिख	390
अभिनय	390
एकजुट	390
ख्@@	389
ज्ञा@@	389
एकड़	389
लगाई	389
ठहरने	389
भूभाग	389
पोशीदा	389
संचिका	389
राजपत्र	389
बाएं	388
प्रदाता	388
संभावनाओं	388
गणेश	388
बाजारों	388
दर्शक	387
कॉन्फ़िगरेशन	387
अन्वेषण	387
सटीक	387
क्रम@@	387
तने	387
नाई	387
चुंबकीय	387
जीवंत	387
बीमारियों	387
जाय@@	386
co@@	386
जक	386
वाकई	386
ट्रै@@	386
चित्रित	386
मसौदा	386
घे@@	386
स्पर्श	386
03	386
कर्त्ता	386
मोह@@	386
स्थूल	386
देखिए	385
प्रबंधित	385
आखिरी	385
पाप	385
जरुरत	385
क्षित	385
बनायी	385
मोटी	385
विलियम	385
मना@@	385
पारिवारिक	385
आदेशों	385
गुमान	385
बोहतान	385
यूं	385
बग़ैर	385
रूसी	384
पूछे	384
अक्ष@@	384
फर	384
कन@@	384
व्याकरण	384
रवाना	384
मंदी	384
महर्षि	384
केन्द्र@@	384
छिपे	383
छू@@	383
बैठकों	383
गिरावट	383
षी	383
कब्जा	383
निवासियों	383
लाभदायक	383
उत्पत्ति	383
प्रदर्शनी	383
कारकों	383
निरूपित	383
दायित्वों	383
क्लब	382
कवर	382
निष्पादित	382
दया@@	382
वालो	382
ड़ि@@	382
रोज़ा	382
ताजमहल	382
वित	381
रसीद	381
करेगें	381
दुर्भाग्य	381
नर्@@	381
फैली	381
११	381
मुर्दों	381
पहलों	381
त्त	381
दवाओं	381
परिपत्र	381
पटना	381
निर्णयों	381
सांप्रदायिक	381
स्नातकोत्तर	381
मद@@	380
64	380
मुद्दा	380
संख्या@@	380
स्तंभों	380
घन	380
08@@	380
पाएँगे	380
१६@@	380
मूल्यवान	380
झा	380
सिक्किम	380
रोकथाम	380
बंदरगाह	380
ऊतकों	380
पीछला	380
बैठने	379
कामकाज	379
अला@@	379
.@@	379
इसलिये	379
सफ@@	379
इल@@	379
दूत	379
बशर्ते	379
ज्वर	379
मानस	379
षित	378
गां@@	378
महत्व@@	378
पेड़ों	378
चिन्@@	378
रुख़	378
झूठी	378
नस्लों	378
पुनर्वास	378
द्वारकानाथ	378
समुच्चय	377
विशेषज्ञता	377
शब्दावली	377
दर्जा	377
प्लास्टिक	377
फैले	377
हल्की	377
कप	377
बकाया	377
38	377
जैसाकि	377
आशंका	377
अत्याचारियों	377
कदाचित	377
घायल	377
तौ@@	377
बीवी	377
क्षा	377
स्वदेशी	377
समायोजित	376
विशेष@@	376
असफलता	376
शिया	376
क्रियाकलाप	376
मंड@@	376
ज़्यादती	376
फिल्मों	376
आर्य	376
राज़्य	376
विपक्ष	376
आरक्षण	376
बाज	375
कित	375
नेको	375
ाइ@@	375
द्	375
विधि@@	375
सोचना	375
शुष्क	375
अभिवृद्धि	375
घने	375
वायदे	375
निस्बत	375
बहुमूल्य	375
काश्मीर	375
भाषा@@	374
प्रस्तुति	374
ग्रेड	374
ंकन	374
टेबल	374
आईसी@@	374
मंद	374
तया	374
हल्के	374
शिल्प	374
दंत	374
क़बूल	374
सजदे	374
कहानियाँ	374
प्रचुर	374
मोती	374
नेअमतों	374
समन्वित	374
१९@@	374
महानिदेशक	374
दिखाएं	373
गाने	373
सहभागी	373
फारसी	373
निक@@	373
वियतनाम	373
लीन	373
फर्@@	373
वासियों	373
तनिक	373
अपार	373
अमर	373
बंध@@	373
जूट	373
प्रतिवेदन	373
विधानसभा	373
हस्ताक्षरित	372
एम्@@	372
उत्पादित	372
सिल	372
सख्ती	372
कोमल	372
चुप	372
बाज़ी	372
नरम	372
भागवत	372
साधना	372
डिस्@@	371
जिंग	371
दिशाओं	371
चन्द्र@@	371
अफ़@@	371
दाना	371
सबूत	371
सभा@@	371
समता	371
बलिदान	371
अंतरित	371
क्षेत्रक	371
टिका	370
सेटअप	370
गल@@	370
वु@@	370
सोसायटी	370
पकड़े	370
गिनी	370
बेख़बर	370
मश@@	370
स्य	370
इज्ज़त	370
वयस्क	370
व्रत	370
ध्या@@	370
विज्ञानी	370
पद्धतियों	370
पत्@@	369
51	369
विशेषताएं	369
पिक्सेल	369
एट	369
पहचाना	369
रणनीति	369
यों@@	369
पाकर	369
8.@@	369
आस@@	369
घोर	369
टेक	369
चुपचाप	369
बहती	369
उड़ा	369
जहन्नुमी	369
ऑंखें	369
सदियों	369
तना	369
मुकाबला	369
मृतक	369
विधायिका	369
दबा	368
an@@	368
सें	368
३०	368
पिछ@@	368
बीत	368
दायक	368
क्त@@	368
दानों	368
आगाह	368
सिंधु	368
महिलाएं	368
जगत्	368
अनुक्रिया	367
IN@@	367
त्या@@	367
नजदीक	367
फिरे	367
बढ़ाकर	367
कराते	367
कत	367
खाद	367
तिलक	367
जगन्नाथ	367
जनजातियों	367
वार्तालाप	366
पठन	366
टाइम	366
अपलोड	366
रोड	366
१५	366
काँ@@	366
भीतरी	366
दृढ़ता	366
रहोगे	366
खजूर	366
जना	366
खंडों	366
विचित्र	366
पर्वतीय	366
चालीस	365
निकालें	365
वार्@@	365
ढ	365
आंख	365
यं@@	365
भौतिकी	365
उपहास	365
विश्राम	365
हॉल	365
किराए	365
शर्मा	365
ईस्ट	364
उल@@	364
नियोजित	364
ष्टि	364
परिपूर्ण	364
रिस	364
मध्यवर्ती	364
मंत्र	364
सीखा	364
णु@@	364
काउंसिल	364
अस्थि@@	364
मृदा	364
विराम	363
बनावट	363
ंच	363
प्रमाणन	363
गें	363
बागवानी	363
ज़ु@@	363
वक्र	363
ऊँचा	363
साय@@	363
43	363
लक@@	363
न्न	363
वादे	363
दिखायी	363
बढ	363
अनु	363
आदर्शों	363
लार्वा	363
देवनागरी	362
अनुस्मारक	362
प्रत्य@@	362
विन	362
पॉलिसी	362
विकिरण	362
शाश्वत	362
यज्ञ	362
जनजाति	362
म्य	362
अपरिचित	361
ब्लॉक	361
लॉक	361
धों	361
क्षेत्रफल	361
à¤@@	361
तृतीय	361
र्य	361
दीर्घ	361
दल@@	361
फॉर	361
मुहर	361
इच्छाओं	361
निकालकर	361
इकट्ठे	361
मधुर	361
करूंगा	361
घट	361
मुख्यमंत्री	361
कर्तव्यों	361
चुनावों	361
प्रेरक	361
पत्ते	360
सक	360
मैच	360
sa@@	360
स्केल	360
तेलुगु	360
लैण्ड	360
गुरु@@	360
बेच	360
प्रसव	360
मुर@@	360
पदक	360
उत्थान	360
धीन	360
सनातन	360
विलय	360
बम्बई	360
ch@@	359
ज़ूम	359
रेशन	359
मदों	359
ट्यू@@	359
टेली@@	359
सकताः	359
निमंत्रण	359
द्ध@@	359
अप्रत्यक्ष	359
दरगुज़र	359
जीने	359
प्रजा	359
णु	359
यकीन	358
आँख	358
ष्ठ	358
लीटर	358
नाव	358
चार्@@	358
श्रेष्ठता	358
मुहलत	358
जिन्नों	358
नेत्र@@	358
कियों	358
नूर	358
उतने	358
शिष्य	358
साँचाः@@	358
ऋषि	358
पेशी	358
राई	357
प्रिंट	357
गॉ@@	357
चम@@	357
मेन	357
प्लेट	357
दिख@@	357
झगड़ते	357
नगरों	357
रेगिस्तान	357
विवादों	357
दाएँ	356
te	356
यूनानी	356
पथ@@	356
समी@@	356
याना	356
à¤@@	356
à¤à¤°à¥à¤	356
वायु@@	356
स्त्रोत	356
शांतिपूर्ण	356
पत्नियों	356
डराओ	356
सल्तनत	356
मजिस्ट्रेट	356
चंद्र@@	356
याचिकाकर्ता	356
निदेशकों	356
पाठ्य	355
बढ़ा@@	355
रल	355
HTML	355
अलार्म	355
world	355
दय	355
बनो	355
ख्वाहिश	355
मेला	355
परंपराओं	355
अधिग्रहण	355
तन्@@	355
पाओ	354
एक्सटेंशन	354
शीलता	354
प्रमाणीकरण	354
वाना	354
हं@@	354
मशीनों	354
कृतज्ञ	354
मुनासिब	354
पडा	354
अंडमान	354
मेनन	354
जाएंगी	353
शृंखला	353
और@@	353
forecast	353
विजेता	353
एयर	353
सरस्वती	353
निगमित	353
अनुपस्थित	352
ha@@	352
स्थानांतरण	352
ब्रो@@	352
डाइ@@	352
पुत्री	352
लौटाए	352
योग@@	352
फिटकार	352
बुराइयों	352
कुशादा	352
कारावास	352
राधाकृष्णन	352
कक	352
02@@	351
मलयालम	351
जन्म@@	351
बरकत	351
कड़@@	351
पडे	351
करवाने	351
उत्सुक	351
शोधन	351
आधुनिकीकरण	351
सत्याग्रह	351
कृषक	351
सहेजा	350
मौन	350
षण	350
न्य@@	350
ठहराए	350
इस्@@	350
संग@@	350
बादशाही	350
कानपुर	350
पुनर्गठन	350
चेन्नई	350
चोर	349
अक्षरों	349
लाये	349
प्रातः	349
हॉ	349
pa@@	348
चाहेगा	348
खेलों	348
@@	348
ङ@@	348
रखनेवाला	348
घृणा	348
चूँकि	348
बल्लेबाज	348
वित्तपोषण	348
संस्कार	348
लः	347
इंटर@@	347
पट्@@	347
ट्रस्ट	347
पढ़े	347
रूम	347
कोटा	347
साप्ताहिक	347
चालक	347
प्रतिमा	347
बादलों	347
त्त@@	347
सवारी	347
हफ्ते	347
नारियल	347
खादी	347
अभियुक्त	347
क्वा@@	346
जोड़@@	346
आभासी	346
गंभीरता	346
मत्स्य	346
सांप	346
तबाह	346
शोकाकुल	346
बेटियाँ	346
व्याप्त	346
उम्मत	346
कश्ती	346
रत्न	346
गुट	346
is	345
मुद्रक	345
पैटर्न	345
56	345
मंजिल	345
ंडर	345
ज़र	345
नामित	345
स्ता	345
अधीनस्थ	345
4,@@	345
पट्टे	345
गरिमा	345
अनुकरण	345
रथ	345
कौंसिल	345
निःशुल्क	345
गम	345
बिहारी	345
भंडारित	344
विन्यस्त	344
लड़ी	344
li@@	344
जन्मदिन	344
प्राप्@@	344
47	344
माया	344
छेद	344
1991	344
अत	344
माबूदों	344
एख्तियार	344
राजवंश	344
अभिप्राय	344
निवेशक	344
सब्@@	343
घंटा	343
पंक्तियों	343
होनेवाली	343
्रि@@	343
भाग@@	343
हरा@@	343
शत	343
पत@@	343
नोड्स	343
वस्था	343
चन्द्रमा	343
रखनेवाले	343
करवा	343
ळ@@	343
ङ	343
निर्वहन	343
दिशानिर्देश	343
समूचे	343
पंचायत	343
चुनी	342
बदली	342
ne@@	342
50@@	342
अमान्य	342
निस्@@	342
ठी	342
ज्योति	342
एहसास	342
बैठकर	342
करवाया	342
आपराधिक	342
क्रमिक	342
and	341
खेलने	341
सः	341
लिया@@	341
अपर्याप्त	341
आयातित	341
फ़ोन	341
स्वि@@	341
फर्क	341
सुर@@	341
41	341
नोकिया	341
कोटि	341
लैंगिक	341
स्नेह	341
लक्ष्मी	341
उपक्रमों	341
मंत्रि	341
दिखता	340
आन	340
एल्गोरिथ्म	340
सदृश	340
तर्@@	340
22@@	340
कण	340
à¥@@	340
चलेगा	340
तत्@@	340
ब्रितानी	340
बायो@@	340
46	340
जिबरील	340
युवक	340
ख़ुशख़बरी	340
एसोसिएशन	340
दुग्ध	340
निविदा	340
मणीलाल	340
पुन	339
बेस	339
ड्र@@	339
णी@@	339
पण	339
सेवाएँ	339
लंबित	339
प्रभावों	339
निराशा	339
गौर	339
स्राव	339
प्रौढ़	339
भागीदारों	339
रिया@@	338
सामान्य@@	338
समे@@	338
जात	338
क्रिया@@	338
उज@@	338
आमंत्रण	338
ख़त्म	338
52	338
स्ति@@	338
सॉ@@	338
७@@	338
एँगे	338
कथाओं	338
अपना@@	338
अफ@@	338
तात्कालिक	338
एहकाम	338
मीर	338
चिंतित	338
योनि	338
मैसूर	338
अंतः	337
लाय@@	337
ऑफलाइन	337
जुड़ने	337
व्यव@@	337
डालता	337
र्थ@@	337
प्रकाश@@	337
टाई	337
सीन	337
ग्रन्थ	337
आश्चर्यजनक	337
जोश	337
निर्भरता	337
समझती	337
अहम	337
पुष्@@	337
खोले	336
mo@@	336
चट्टान	336
1/@@	336
आन@@	336
वायरस	336
1990	336
बीबी	336
पैदल	336
दौलत	336
तीर्थ	336
धरोहर	336
लाभकारी	336
BAR	335
फं@@	335
85	335
वर्तन	335
चंद	335
क्	335
सूखा	335
दिलाया	335
झू@@	335
करतूतों	335
लीय	335
सत	335
डरे	335
डरा	335
49	335
लेनी	335
शय	335
1946	335
विधायी	335
पूर्ण@@	334
जाए@@	334
नम्बर	334
अक्@@	334
उदय	334
सत्@@	334
किन्@@	334
बुलन्द	334
छत्तीसगढ़	334
आकांक्षाओं	334
ड्यू@@	333
इंगित	333
शल्य	333
ओह	333
मचा	333
लाती	333
आश्रय	333
ऑंखों	333
राजी	333
परिपथ	333
do@@	332
ri@@	332
विं@@	332
त्मकता	332
मता	332
प्रसारित	332
GenericName	332
तीव्रता	332
condition	332
फिर@@	332
अंधा	332
कराए	332
नाफरमानी	332
रावण	332
वीर@@	332
200@@	331
पृष्ठों	331
त्ता	331
राय@@	331
थल	331
खुशहाली	331
पिछड़े	331
श्रोत	330
ol@@	330
क्लाइंट	330
LDAP	330
गमन	330
मुख्य@@	330
सिनेमा	330
ंदा	330
चिल्@@	329
स्कैन	329
ंकित	329
लु	329
ट्रो@@	329
दायर	329
वसीयत	329
मंग@@	329
विधवा	329
णता	329
दक्ष	329
1957	329
व्यायाम	328
पकड़ने	328
सता	328
गन्@@	328
CD	328
निकाली	328
400	328
Google	328
ल्यू@@	328
क्ति@@	328
	328
à¤¹@@	328
डल	328
दृ@@	328
37	328
लौह	328
प्रीमियम	328
दाने	328
रस्सी	328
वृक्षों	328
क़ी	328
अगलों	328
हकीम	328
कोयले	328
द्वीपों	328
आंखें	328
तिरु@@	328
भाषाएँ	327
ड्राफ्ट	327
पड़ना	327
सजीव	327
मिया	327
यास	327
सरलता	327
ध्य	327
तुम्हीं	327
किशोर	327
साठ	327
बदकार	327
दुर्गा	327
वाजपेयी	327
भ्रूण	327
उपन्यासों	327
विद्वत	327
रित	326
Anjuta	326
इम्@@	326
ग्रुप	326
छवियों	326
मानचित्र	326
रिश्ते	326
raviratlami	326
धक	326
बुलाए	326
कलाकारों	326
अपमानजनक	326
गुज़रे	326
झुक	326
चूर	326
बिस्तर	326
ऋणों	326
बनती	326
1986	326
साख	326
संगोष्ठी	326
निया@@	325
निकास	325
लक्षित	325
टेस्ट	325
एजेंट	325
36@@	325
टिन	325
लाम	325
रें	325
ज़िम्मेदार	325
उपासना	325
सलामती	325
इख्तेयार	325
मौजिज़ा	325
बंधक	325
बलराम	325
सिंधी	325
1987	325
बाजू	324
पड़ेगी	324
पैरामीटर	324
जता	324
र्म	324
समु@@	324
aol	324
ंगल	324
रेत	324
दिलाने	324
परिपक्वता	324
मोचन	324
दूंगा	324
गला	324
सोवियत	324
दर्शाया	324
नीलामी	324
विनिधान	324
साइन	323
फ़ंक्शन	323
भरना	323
1997	323
दिली	323
टुकड़ा	323
आयाम	323
à¤@@	323
चर्च	323
विकलांग	323
धरा	323
मर्दों	323
नैतिकता	323
प्रारम्भिक	323
अपनाना	323
op@@	322
श्रव्य	322
विवश	322
थाः	322
वरण	322
अनंत	322
बौ@@	322
france	322
गुज़@@	322
लगों	322
अमीर	322
भोज	322
सपने	322
मध्यस्थ	322
नील@@	322
बढ़िया	321
डिवाइस	321
संस्@@	321
किट	321
वास्तुकला	321
प्रोग्रामिंग	321
पॉल	321
गिरने	321
सुखद	321
संस्थापक	321
हिंद	321
गर्भवती	321
पागल	321
नौसेना	321
क्रियाकलापों	321
मंडली	321
नवान्वेषी	321
फंक्शन	320
संतति	320
वर्क	320
यूआरएल	320
असफलः	320
काया	320
निगाह	320
अनुयायियों	320
बँ@@	320
मालों	320
इतर	320
धर्@@	320
शौ@@	320
मेले	320
अर्जी	320
हिन्दुस्तान	320
द्रव्य	320
मेडिकल	320
दर्शकों	320
खाका	319
परिवर्धित	319
केशन	319
शब्दकोश	319
धित	319
बैं@@	319
अंतरिम	319
ढो@@	319
मार्गदर्शक	319
नील	319
बहरे	319
उपरोक्त	319
चलाई	319
महत्@@	319
द्र	319
अरु@@	319
पवन	319
पढ़ो	319
वरना	319
रोटी	319
नामांकन	319
1993	319
अहमदाबाद	319
मूलतः	319
मानदंड	319
जायगा	319
आयत	318
फ्लैग	318
हटाया	318
सिन	318
गरम	318
५०	318
ट्रां@@	318
सल्@@	318
प्पा	318
अश्@@	318
अम्ल	318
यहूदियों	318
मूर्तियों	318
इनायत	318
फ़िर	318
दोस्ती	318
नाटकीय	318
निकोबार	318
मुख़्य	318
धियों	318
पूर्वोक्त	318
उद्भूत	318
सांख्यिकी	317
संग्रहित	317
समतल	317
योजना@@	317
हत	317
तुर्@@	317
पाइप	317
अनुबंध	317
जीते	317
पाय@@	317
रहनेवाले	317
लाभप्रद	317
रूपी	317
विभिन्@@	317
.11@@	317
रेखांकित	316
न्ड	316
लेख@@	316
क्लि@@	316
क्ला@@	316
नियाँ	316
मूल्@@	316
à¥à¤@@	316
पकड़ा	316
क्षा@@	316
नेमत	316
हूद	316
वबाल	316
उम्दा	316
हिमनद	316
घटनाएं	315
गायब	315
उद्धरण	315
शर	315
तह	315
दरें	315
हरकत	315
ज़ों	315
यु	315
सुंदरता	315
पंद्रह	315
शुल्@@	315
en	314
आउट@@	314
अखंडता	314
घटा@@	314
ंची	314
स्ट्र@@	314
अल्प@@	314
मनी	314
मुर्@@	314
फ़रमाया	314
तसदीक़	314
रिसालत	314
अभयारण्य	314
जागरूक	314
कटाई	314
जातियां	314
पर्यवेक्षण	314
सशक्तीकरण	314
प्लग	313
थी@@	313
विकल्पों	313
शॉर्टकट	313
II	313
जयपुर	313
लेनदेन	313
वर्गाकार	313
whatsthis	313
क़समों	313
हारी	313
ड़कर	313
पौधा	313
निष्पक्ष	313
तकनीकों	313
केलिए	313
समितियां	313
आईसीटी	313
क्‍@@	313
सापेक्ष	312
\\	312
मैप	312
छोड़ना	312
आस्ट्रेलिया	312
05	312
हिला	312
चाह@@	312
हुईं	312
ख़राबी	312
प्रतिरक्षा	312
फरमाएगा	312
पांव	312
असीम	312
व्यापारियों	312
कार्यकलाप	312
भावों	312
निकासी	312
उद्यमिता	312
क्शन	311
निकलना	311
जरिये	311
पने	311
वक	311
जॉर्ज	311
बुनियाद	311
सुगम	311
बरहक़	311
जिक्र	311
निगेहबान	311
लीला	311
सने	311
तिरू@@	311
१७@@	311
तात्पर्य	311
निवल	311
बांस	311
यमुना	311
सद्भावना	311
1996	310
नाल	310
साफ्टवेयर	310
डू@@	310
बूझ	310
पदा@@	310
अज@@	310
काय@@	310
ज़े	310
उठाते	310
बूढ़े	310
किताबे	310
यकता	310
फरमाबरदार	310
मुम्बई	310
वेदों	310
हृ	310
अभियोग	310
महाकाव्य	310
विधा	310
फंड	310
रोपण	310
कार्यशील	309
सांकेतिक	309
77	309
स्टॉ@@	309
खू@@	309
तृ@@	309
à¤¤@@	309
समेत	309
ंडों	309
आज्ञापालन	309
आत्मनिर्भर	309
कैद	309
नामा	309
सरकारें	309
ट्रेड	309
गाँधी	309
लक्ष्मण	309
आचार	309
कित्तूर	309
सन@@	308
अपडेट	308
रखेंगे	308
संघ@@	308
सान	308
इकाइयां	308
ंतर	308
विस्फोट	308
9.@@	308
सीनों	308
मार्गों	308
हाए	308
बंध	308
विजेताओं	308
सुलभ	308
पंचवर्षीय	308
डब्ल्यू	307
महाद्वीप	307
वरों	307
फुट	307
सुना@@	307
रान	307
सूखी	307
कसौटी	307
ओगे	307
ताक	307
ख्याति	307
सबब	307
पत्थरों	307
स्तन	307
कार्मिक	307
प्रेमचंद	307
देखरेख	307
प्रायोजित	307
प्रेमचन्द	307
ea@@	306
il@@	306
खंड@@	306
चार्ट	306
फाउंडेशन	306
दोस्तों	306
संदर्भित	306
संयोग	306
à¤à¥	306
मार्ग@@	306
पेपर	306
अभिनेता	306
भौ@@	306
अटकल	306
फूँक	306
गुनाहगार	306
इसराइल	306
ताज्जुब	306
बर्तन	306
क़्या	306
ऊंट	306
निदेशालय	306
सुपुर्दगी	306
तिमाही	306
स्के@@	305
as@@	305
पॉपअप	305
बत	305
कारा@@	305
à¤ªà¥à¤°@@	305
पौराणिक	305
आदिवासी	305
04	305
ौ	305
उठते	305
फ़ैसले	305
ज्यों	305
धूम्रपान	305
नियोक्ता	305
ड्रग्स	305
भ्र@@	305
खुदरा	305
यूनिकोड	304
रेट	304
जबतक	304
फल@@	304
खोलना	304
साई	304
59	304
कहा@@	304
पुनरावृत्ति	304
क्षे@@	304
समकक्ष	304
मसीह	304
पीते	304
थक	304
पर्दा	304
ब्या@@	304
भूकंप	304
अब्दुल्ला	304
सिद्धि	304
जीता	303
बचाया	303
लस	303
मिश्र	303
बैठ@@	303
जू	303
सफर	303
OF	303
फ़े@@	303
सिक	303
पाल@@	303
मेह@@	303
Constellation	303
आएँगे	303
बन्दा	303
धे	303
फीसदी	303
सीमेंट	303
जंगलों	303
पात्रों	303
कार्मिकों	303
सतत्	303
विषयवस्तु	302
un@@	302
टम	302
पत	302
आवंटन	302
लैंड@@	302
ब्यू@@	302
सुविधाजनक	302
फीड	302
कमर	302
पीले	302
लानेवालों	302
लड़	302
सुलह	302
बच@@	302
ज़रुरत	302
वर्षीय	302
मानकर	302
हर्ष	302
कामगारों	302
एनआईओएस	302
ड़ता	301
तारा@@	301
नहर	301
रम	301
72	301
बान	301
हज	301
उल	301
लगें	301
अखबार	301
सब्जियों	301
कलात्मक	301
मंत्रिमंडल	301
एकक	301
बोर्@@	300
क्षेत्र@@	300
मिल@@	300
ंसे	300
नशील	300
लाठी	300
बताई	300
सीने	300
फ़साद	300
मायने	300
गोद	300
श्रीकृष्ण	300
नियन्त्रण	300
सिफारिशों	300
विका@@	300
विशिष्ट@@	299
नू	299
ac@@	299
अंतर्वस्तु	299
निशा@@	299
ढाल	299
रोम	299
कतार	299
नित	299
चलन	299
क्वे@@	299
प्रमाण@@	299
उन्मुख	299
फ़ी@@	299
साध्य	299
चर्@@	299
क्री@@	299
डब्ल्यू@@	299
२५	299
सम्बन्धों	299
जुल्म	299
जीवनी	299
हड़ताल	299
1988	299
एक्ट	299
विद्या@@	299
वसूल	299
for	298
कें@@	298
मिनी	298
पेरिस	298
ज़ो@@	298
दगी	298
तदबीर	298
ल्ल@@	298
अन्तः@@	298
बीज@@	297
हल@@	297
सड़@@	297
74	297
सार्वभौमिक	297
उत्तेजित	297
जिया	297
उद्धृत	297
नक@@	297
इटली	297
अभिलेखों	297
सुन@@	297
ंसी	297
चौथे	297
1995	297
जार	297
पूँजी	297
पीढ़ियों	297
मक़सूद	297
सौदे	297
चमत्कार	297
गली	297
पासपोर्ट	297
लेखा@@	297
सम्मुख	297
चार्य	297
बंगला	297
निक्षेप	297
ड्रा@@	296
वस्तुएँ	296
आइ	296
वात	296
ट्रैकिंग	296
दोहरी	296
सवा@@	296
वृह@@	296
सीसी@@	296
गामी	296
बढ़@@	296
ठो@@	296
म्प@@	296
करी@@	296
तना@@	296
गुंजाइश	296
समीप	296
ग्राही	296
जानेवाली	296
बुखार	296
अनुपस्थिति	296
संक्रामक	296
É@@	296
चोटी	295
बिल्ड	295
सदस्@@	295
स्थि@@	295
णि@@	295
अनुज्ञा	295
खाया	295
ञ@@	295
शोभा	295
आधारशिला	295
फरमाई	295
्यता	295
अरुणाचल	295
इलाके	295
ंः	294
रोधी	294
बहाल	294
छोड़े	294
40@@	294
अस्पष्ट	294
धे@@	294
तूफान	294
बैटरी	294
कपास	294
लम्@@	294
जीतने	294
छीन	294
मरयम	294
शस्त्र	294
लाएगा	294
घिरा	294
खरा	294
पतली	294
आपत्ति	294
सपना	294
राना	294
मेगावाट	294
मतदाता	294
पात्रता	294
हुर्इ	294
.2014	294
नीति@@	293
सिंगापुर	293
अनुमतियाँ	293
ग्लोबल	293
लं	293
रेड	293
दानी	293
दूर@@	293
झुका	293
निः@@	293
सीखना	293
कऋ	293
छी@@	293
वाहनों	293
नामे	293
नंद	293
राज्यपालों	293
मानव@@	293
दोष@@	292
मिला@@	292
पाएँ	292
डिरेक्ट्री	292
IMAP	292
हिल	292
पृष्ठ@@	292
घंटों	292
कंद	292
²@@	292
ग्रह@@	292
TRANSLATORS	292
डन	292
आल@@	292
ऑस्ट्रेलिया	292
सूरा	292
बैठते	292
मारते	292
आत्मविश्वास	292
जला	292
संकीर्ण	292
बत@@	292
स्ट्रीम	291
सेस	291
बदलता	291
निर्देशन	291
95	291
नं@@	291
ेक	291
खडे	291
दफा	291
परा	291
बड़@@	291
कड़ा	291
किस्मों	291
सानी	291
बड़	291
येंगे	291
खुराक	291
1980	291
स्वरुप	291
भरत	291
दोहरा@@	290
चला@@	290
जाँ@@	290
com	290
सहेजना	290
टोकन	290
POP	290
पहने	290
वर्ल्ड	290
दण्ड	290
वैधानिक	290
प्रयोगशालाओं	290
जावा	289
विफलता	289
विलंब	289
62	289
आग@@	289
परिष्कृत	289
à¥@@	289
सरा@@	289
चार्ज	289
ष्टि@@	289
निकलती	289
पर्वतों	289
निश्चिन्त	289
रुसवा	289
हावी	289
अवशेष	289
लड़कों	289
योगी	289
पुरम	289
शिष्टमंडल	289
चलें	288
ec@@	288
it@@	288
माम@@	288
काल्पनिक	288
फैलाने	288
पुर@@	288
रच@@	288
रुख	288
मुर्दा	288
समझकर	288
छोड़ो	288
उड़@@	288
ख़ाक	288
बैठी	288
परमिट	288
जनगणना	288
ब्रह्म@@	288
आस्तियां	288
बेल	287
मिलान	287
In@@	287
ment	287
66	287
सुश्री	287
पाश्चात्य	287
आईटी@@	287
लहर	287
कती	287
हँ@@	287
अवरोध	287
अंकों	287
600	287
१४	287
तंगी	287
ठि@@	287
जवान	287
हथियारों	287
अमर@@	287
गड़@@	287
मानदंडों	287
बांग्ला	287
सामंजस्य	287
अनुमत	287
प्रतिष्ठान	287
करें@@	286
ho@@	286
फील्ड	286
तारीख़	286
लपे@@	286
54	286
कवि@@	286
रंगीन	286
मल्@@	286
action	286
फ्लो@@	286
99	286
06	286
मादक	286
मियों	286
अर्श	286
करुणा	286
ढलान	286
उपाध्यक्ष	286
बंग@@	286
्यु@@	285
टेशन	285
कर्सर	285
स्क्रॉल	285
ड्राइवर	285
लेंस	285
प्रायोगिक	285
5,@@	285
ेगें	285
सुविधा@@	285
औचित्य	285
गार्@@	285
कृमि	285
सघन	285
ठंडा	285
र्थी	285
बड़ाई	285
उठी	285
सहारे	285
बाँध	285
क़ब्रों	285
रूजू	285
निहायत	285
गुजर	285
विचारण	285
भै@@	285
1949	285
पृ@@	285
चों	285
पत्रिकाओं	285
परेश	285
सब्सिडी	285
स्वीकारें	284
भरण	284
असमर्थित	284
उर्@@	284
ग़लत	284
वर्गमूल	284
उपरांत	284
स्थापन	284
विकृत	284
व्यतीत	284
देनेवाले	284
बुद्धिमान	284
अंधेरे	284
क़ौमे	284
नाफ़रमानी	284
फरमाए	284
नागरिकता	284
सैकड़ों	284
गाथा	284
गनोम	283
सता@@	283
विजेट	283
निर्देशांक	283
टिया	283
संकेतों	283
कैबिनेट	283
बछड़े	283
डालकर	283
रिहा	283
दावों	283
समाजवाद	283
तालमेल	283
सूक्ष्म@@	283
पूंजीगत	283
डिजीटल	283
बिल्@@	282
अन्तर	282
्रे@@	282
झुकाव	282
लिए@@	282
ऑफिस	282
दीर्घ@@	282
द्य	282
मोटा	282
लाल@@	282
à¤¦@@	282
अफ्रीकी	282
शान्त	282
भारत@@	282
वह@@	282
पहचानते	282
प्रशंसनीय	282
समझदार	282
बन्दी	282
सौन्दर्य	282
झ	282
अपराधों	282
विमानक्षेत्र	282
किरण	282
तीर्थ@@	282
आत्@@	282
स्वायत्त	282
बक्सा	281
पार्श्व	281
चैट	281
पोर्@@	281
नन्@@	281
पां@@	281
लेगी	281
चिं@@	281
विया	281
चाप	281
हड़@@	281
लश्कर	281
निम्@@	281
ग्रीन	281
पियो	281
प्रस्थान	281
दुशमन	281
यहूद	281
वाक़िफ़कार	281
सज़ावार	281
सिंध	281
जिन्ना	281
लॉन्च	280
थोक	280
लगाये	280
प्त	280
पू	280
आशा@@	280
ईयों	280
प्रातःकाल	280
हड्डियों	280
स्वादिष्ट	280
देखती	280
वगैरह	280
खूबसूरत	280
महाराज	280
२००८	280
1951	280
ज्ञ@@	280
1974	280
विनियमित	280
सेवानिवृत्ति	280
असंख्य	280
नीयता	279
खिड़की	279
चुनेंः	279
ter	279
रीसेट	279
भूमि@@	279
एपी@@	279
प्रत्युत्तर	279
अंचल	279
मनाने	279
शताब्दियों	279
महादेवी	279
अभिकरण	279
मूत्र	279
लिखत	279
पत्तों	278
कचरे	278
09@@	278
ंगु@@	278
लाएं	278
सूत्र@@	278
बेहतरीन	278
डेविड	278
रोकता	278
पड़ोस	278
अंध@@	278
बक	278
गंध	278
तेज़ी	278
बुलाते	278
वशीभूत	278
वाजेए	278
तरी	278
रहेगें	278
पहाड़ियों	278
त्रिपुरा	278
वृद्ध	278
फोकस	277
विन्@@	277
रूपांतरित	277
बायाँ	277
क्रियाशील	277
निवेदित	277
अस्वीकृत	277
मस्@@	277
किं@@	277
अपरि@@	277
रौशनी	277
गार्ड	277
सिल@@	277
किल	277
भागने	277
यंत्र@@	277
दुरुपयोग	277
१०@@	277
पहुँचाने	277
उठने	277
लेगें	277
डूब	277
॥	277
बाला	277
इंसान	277
विहीन	277
रचित	277
नियोजक	277
1.4.@@	277
यॉँ	277
टेक्स्ट	276
टें@@	276
क्योकि	276
फीट	276
तार्किक	276
आईपी@@	276
न्तर	276
घाना	276
भव	276
आदि@@	276
निर्जीव	276
मूर्ख	276
खाकर	276
इबलीस	276
अनुकम्पा	276
बढ@@	276
घी	276
कार्यकर्ता	276
मूर्@@	276
पेशकश	276
धि	276
कृष्ण@@	276
पद्@@	276
प्रबन्धन	276
स्वर्गीय	276
ड़@@	276
el@@	275
नक्शे	275
वरी	275
००	275
पीना	275
78	275
द्रा@@	275
शर्@@	275
घू@@	275
गम्भीर	275
लड़ते	275
होश	275
विदा	275
अवस्थाओं	275
बदकारी	275
निभा@@	275
संप्रदाय	275
विवेकानंद	275
गौण	275
सैर	274
पत्र@@	274
लार्ड	274
आंक@@	274
कैं@@	274
टुक@@	274
निर्दोष	274
टाटा	274
कृत्यों	274
संक्रमित	274
अध्या@@	274
अतिमानसिक	274
श्च@@	273
org	273
स्टार्ट	273
बरा@@	273
साँ@@	273
बाघ	273
इराक	273
मक्खी	273
सिलसिले	273
धम@@	273
आभूषण	273
ईं	273
बद	273
सरों	273
लगीं	273
जुटाने	273
त्योहार	273
िका	273
क्रियान्वित	272
बेगम	272
क्रमण	272
टेलि@@	272
टियों	272
अट@@	272
बंदर	272
चक्र@@	272
इक्@@	272
67	272
कू	272
सर्किट	272
बदलती	272
अहसास	272
नाप	272
साह@@	272
दिल@@	272
साम्राज्यवाद	272
पीड़क	272
प्रद	272
सॉफ़्टवेयर	271
दहला	271
परिमाण	271
पैन	271
नियमावली	271
नीला	271
क्षु@@	271
68	271
विश्वव्यापी	271
होनेवाले	271
तर्क@@	271
खतरों	271
मूल्य@@	271
मारो	271
आभार	271
झुठलाए	271
मैदानों	271
विशिष्टता	271
ग़ज़ब	271
उदाहरणार्थ	271
शाली	271
उम्मीदवार	271
समझाया	271
अखबारों	271
रचना@@	271
विधानमंडल	271
कोशिकाएं	271
सहयोगियों	271
नाट्य	271
विनियमों	271
1971	271
क्षि@@	271
राग	271
इलेक्ट्रॉनिक्स	271
क्लो@@	270
पारम्परिक	270
समय@@	270
label	270
आईपी	270
लापन	270
पूछना	270
गोपनीय	270
सत्ता@@	270
डेल्टा	270
मला@@	270
मेट	270
बोलना	270
दर्शाती	270
यकृत	270
गुं@@	270
बढ़ोतरी	270
अज्ञान	270
भवनों	270
दरजे	270
उखाड़	270
भाषी	270
बीजों	270
1989	270
विहार	270
ध्य@@	270
कार्यकर्ताओं	270
श्य	269
भिन्नता	269
विंडोज़	269
ढ़ा@@	269
नीकरण	269
चौथी	269
नक्@@	269
मृत्यु@@	269
प्रभा@@	269
बाते	269
इयों	269
वारी	269
आकांक्षा	269
इन्साफ़	269
क्तियों	269
सेतु	269
न्यायमूर्ति	269
दिखाओ	268
दबाएँ	268
त्रों	268
नामकरण	268
परिप्रेक्ष्य	268
छुपा	268
चढ़ाई	268
डीपी	268
रोके	268
सम्मत	268
शब्द@@	268
फर्श	268
unit	268
भूगोल	268
तले	268
बूट	268
डिज़ाइन	268
फ़ी	268
ंतरण	268
वेश	268
पहुँचाया	268
इनाम	268
क़ाबिले	268
सद्@@	268
१८	268
वय@@	268
ग्रीवा	268
साहा	268
औषध	268
संस्थापन	267
हाशिया	267
ओवर@@	267
संप्रतीक	267
वाक्यांश	267
नकर्ता	267
बैच	267
कालिक	267
MAPI	267
कूद	267
छाती	267
à¤°	267
¸	267
घनत्व	267
जोरदार	267
पति@@	267
जानें	267
टीन	267
१३	267
मुशरिकों	267
मेवे	267
तारीफ	267
ताना	267
कविताएं	267
मानसून	267
बनारस	267
पोजीशन	267
श्लोकों	267
रियां	267
प्राप्य	267
बढावा	267
दशाओं	267
धारकों	267
एक्से@@	266
ढूंढ	266
छोड	266
गाना	266
लिय@@	266
परिधि	266
दादी	266
रिश्तों	266
गाह	266
गोल@@	266
कृतियां	266
प्रचलन	266
1976	266
निर्देशक	266
आनंद@@	266
J@@	265
लकीर	265
ग्री@@	265
चिर@@	265
दाल	265
स्टील	265
·	265
झं@@	265
शिक्षा@@	265
लम्बा	265
निर्धन	265
तुच्छ	265
भटका	265
शव	265
ग़ैब	265
वाही	265
भड़@@	265
आश्वस्त	265
मन्दिर	265
आविष्कार	265
निभा	265
te@@	264
मिटाया	264
मेजबान	264
प्रतिबंधित	264
फौ@@	264
कार्यभार	264
पारि@@	264
बेलारूस	264
क्षणों	264
ऑर्@@	264
71	264
रती	264
निम्न@@	264
तरंग	264
तत्वदर्शिता	264
नियति	264
अड्डा	264
यथासंभव	264
नगरपालिका	264
1972	264
महामारी	264
माध्य@@	264
र्थियों	264
राज्यक्षेत्र	264
मः	263
स्पेन	263
ic@@	263
टियाँ	263
बाधित	263
कुंजीपटल	263
लंबवत	263
पीएस	263
थु@@	263
रोकना	263
वित्@@	263
बढाने	263
सुलझाने	263
क्लास	263
गोपाल	263
दान@@	263
मिथ्या	263
राख	263
लौटे	263
पड़ोसियों	263
बियों	263
इल्ज़ाम	263
आम@@	263
झलक	263
अरविंद	263
संयम	263
जनित	263
सांविधिक	263
उदर	263
यांत्रिक	263
बर्निंग	262
कूट@@	262
गपशप	262
बिया	262
नवीकरण	262
डीसी	262
ज़न	262
कुर्@@	262
आल	262
निग@@	262
बानी	262
जला@@	262
तारामंडल	262
अधिकार@@	262
पंच	262
पूरब	262
ख़याल	262
मारता	262
जाऊँ	262
खं@@	262
धारा@@	262
शायर	262
कहानियां	262
गृह@@	262
इंस्टीट्यूट	262
प्राधिकारियों	262
ध्यक्ष	262
सहिष्णुता	262
औषधीय	262
मान्यताप्राप्त	262
विल	261
स्को@@	261
आन्तरिक	261
पूछ@@	261
जवा@@	261
छाया@@	261
विन@@	261
अह@@	261
छंद	261
जर@@	261
पीसी	261
उगा@@	261
शासकीय	261
निरे	261
अकारथ	261
क़द्र	261
उजागर	261
हास्य	261
माणिक	261
गिरि	261
पावन	261
सौहार्द	261
नरेश	261
सांसद	261
अधो@@	261
vi@@	260
नेस	260
यी@@	260
on@@	260
वत्	260
अस्थाई	260
ट्री@@	260
आस्@@	260
58	260
र्न	260
१२@@	260
कॉर्@@	260
आईएस@@	260
250	260
शिप	260
वट	260
गुणगान	260
बस्तियाँ	260
पहुँचती	260
ग्यारह	260
मीम	260
युसुफ़	260
कथा@@	260
नागर	260
पक्ष@@	260
सेटिंग्स	259
लोकल	259
प्रक्षेपण	259
हैंड@@	259
जीना	259
निम्नतर	259
र्म@@	259
ण्डी	259
गिरी	259
याई	259
वक्ता	259
ठान	259
दहकती	259
दुनियावी	259
ठे@@	259
1930	259
परिपक्व	259
महावीर	259
संतोषजनक	259
राजीव	259
बाण	259
सीमांत	258
जोड़ता	258
सेकंड	258
अनदेखा	258
वेशन	258
केन	258
पुट	258
नीले	258
म्बर	258
रिट	258
चौथाई	258
तम्@@	258
सहसा	258
गर्भ@@	258
आला	258
क्योंकर	258
वाने	258
संरचनात्मक	258
उर्वरकों	258
ज्म	258
.10@@	258
प्रदाह	258
लेटर	257
खोली	257
परे@@	257
ऑपरेटिंग	257
निरीक्षक	257
समाविष्ट	257
साइकिल	257
अनिवार्यतः	257
गुल@@	257
ट्	257
मज@@	257
फेरा	257
लड़ो	257
हवाओं	257
दाब	257
तोड़ने	257
साझे	257
महाविद्यालय	257
प्रस्ता@@	257
१९८@@	257
भूमिगत	257
बृह@@	257
धाराओं	257
नेके	257
उत्‍@@	257
‍त	257
ce	256
पास@@	256
फिल्@@	256
खे	256
दीवाना	256
कमरा	256
जिक	256
निकटवर्ती	256
भं@@	256
बार्@@	256
देनेवाली	256
वां@@	256
अंश@@	256
बज@@	256
फिरो	256
पराजित	256
साधक	256
मरना	256
मरतबा	256
चुनौतियां	256
.2015	256
हार्ड	255
चौड़ा	255
साइड	255
र्र@@	255
टार	255
क्ली@@	255
फ्र@@	255
जाल@@	255
लिंग@@	255
बहा@@	255
पन्@@	255
बुल@@	255
उभर	255
खारिज	255
वध	255
क़ा	255
जेहाद	255
जिन्नात	255
राष्ट्रीयता	255
एप्लिकेशन	255
उपराष्ट्रपति	255
अर्थशास्त्र	255
मिजोरम	255
मेहरअली	255
वाद@@	254
मनाही	254
कैलेंडर	254
नतम	254
केबल	254
91	254
तख्@@	254
ट्टी	254
बनें	254
ोगे	254
औरों	254
बाग़ात	254
गुनाहगारों	254
दियों	254
्र	254
आजीवन	254
वकालत	254
रोज़गार	254
रामकृष्ण	254
चंडीगढ़	254
कृत्य	254
निवेदिता	254
चिप@@	253
ts	253
डियम	253
पूछने	253
अंतर्निहित	253
टेक्@@	253
प्रजा@@	253
शियों	253
विकिपीडिया	253
चौपायों	253
जिन्होने	253
मिलेंगे	253
ऐब	253
तमन्ना	253
अज़ाबे	253
प्रतिपूर्ति	253
सम्बंध	253
अपरिहार्य	253
विनियामक	253
License	252
पाइ@@	252
इंटरफेस	252
ly	252
उपनाम	252
उपलब्ध@@	252
चौथा	252
सला@@	252
बदलकर	252
ज्या	252
टिकल	252
खने	252
प्रभाव@@	252
इल	252
ेय	252
दुष्@@	252
भागे	252
आखेरत	252
क़े	252
किरायेदार	252
स्कूली	252
दश@@	252
शिविर	252
विश्वयुद्ध	252
सम्बंधित	252
अदायगी	252
दीर्घकालीन	252
अल्पसंख्यक	252
भत्ते	252
दरी	251
फ्री@@	251
Q	251
con@@	251
et@@	251
भविष्यवाणी	251
vi	251
ंडे@@	251
द्विआधारी	251
आन्@@	251
मस@@	251
लॉजी	251
चाँदी	251
संकलित	251
उपास्य	251
आसमानी	251
नफरत	251
बीवियों	251
एँगें	251
रसोई	251
कॉफी	251
मांसपेशियों	251
वामपंथी	251
अमृतसर	251
स्वराज	251
द्य@@	251
मठ	251
पढ़ें	250
समानांतर	250
काला@@	250
प्रस्तु@@	250
अपा@@	250
शियन	250
¨	250
à¥à¤@@	250
मोर	250
प्रत्ये@@	250
नाजुक	250
माँ@@	250
ढे@@	250
लाई@@	250
.12@@	250
मग्न	250
क़ी@@	250
वाहि@@	250
न्न@@	250
पिताजी	250
जाग@@	250
ब्रह्मा	250
हनुमान	250
कटि@@	250
उपलब्@@	250
नृ@@	250
अकादमिक	250
विष	250
प्रार@@	249
ेगी	249
रेश@@	249
जोकि	249
कुर्सी	249
लां@@	249
बर्ग	249
क्षी	249
पाद@@	249
à¤à¤@@	249
05@@	249
मात	249
यूनिटों	249
क्का	249
कन्या	249
क्यु@@	249
चढ़कर	249
भेड़	249
इफ़तेरा	249
पहुंची	249
समाधि	249
व्यक़्ति	249
चौधरी	249
परवर्ती	249
बाधाओं	249
युग्@@	249
मेघालय	249
बांड	249
अलमस्त	249
ंगो	248
ठहराव	248
आवधिक	248
आलेख	248
वृत	248
पढ़@@	248
मेज	248
अनावश्यक	248
¨@@	248
à¤°à¥à¤@@	248
सक्रियता	248
अचल	248
दुरा@@	248
नाएं	248
गढ़@@	248
फ्यू@@	248
निकालता	248
यित	248
सूअर	248
घड़	248
सम्भावना	248
खाल	248
काबू	248
लायी	248
हिन्द	248
पैरा	248
ण्य	248
निरा@@	248
बनवाया	248
पत्रक	248
विवा@@	248
शिशुओं	247
प्रोफाइल	247
पैड	247
रियल	247
शित	247
निक्स	247
शीत@@	247
असमानता	247
प्रशा@@	247
बहुधा	247
गुर@@	247
बराबरी	247
115@@	247
फ़ायदा	247
मरे	247
तलब	247
लगेंगे	247
भोग	247
हड्डियाँ	247
अच्छ@@	247
जुदा	247
अमन	247
श्रा@@	247
गुहा	247
द्व	247
चिकित्सीय	247
शास्ति	247
बाल्@@	246
ताला	246
खुदाई	246
जोड़कर	246
¤@@	246
कोरिया	246
कड़ियाँ	246
ल्ले	246
टैंक	246
बिग@@	246
भुग@@	246
फेरकर	246
आतिथ्य	246
तुझपर	246
बहका	246
दुरुस्त	246
भोपाल	246
नानालाल	246
एनआर@@	246
फाइलों	245
टि	245
शैल	245
स्पेस	245
एचटीएमएल	245
करण@@	245
एंटी@@	245
उं@@	245
ंब@@	245
बुल	245
कमल	245
झे@@	245
ल्ली	245
मन्द	245
नार	245
मस	245
पालिसी	245
सिस्को	245
विभागीय	245
शैतानों	245
भयभीत	245
सुनेंगे	245
क़दर	245
मोहर	245
कसरत	245
संस्कृतियों	245
पद्य	245
कलाओं	245
दुर्ग	245
गर्भावस्था	245
अहं	245
दोहन	245
नरेन्द्र	245
पाठ्यक्रमों	245
हस्ता@@	244
पहुंचा@@	244
मित्र@@	244
एनकोडिंग	244
दूषित	244
ह्रास	244
सूचनाएं	244
चिन्हों	244
आभास	244
रोमन	244
बीन	244
कच्चा	244
मं	244
उठाएगा	244
पक्की	244
कतरा	244
मुस्@@	244
दुरूस्त	244
इंजीनियर	244
अनन्य	244
परमात्मा	244
रिसर्च	244
कार्यवाहियों	244
क्य	244
सर्व	244
जमीनी	244
नागालैंड	244
चय@@	243
बचा@@	243
ग्रि@@	243
दृश्यों	243
पशु@@	243
विधिवत	243
चिन्ता	243
स्थि	243
मोल	243
तथाकथित	243
ख़िलाफ	243
बढ़ाते	243
ऑंख	243
षा	243
सपनों	243
पेशे	243
न्यासी	243
भवभूति	243
काटें	242
अदृश्य	242
समि@@	242
डेड	242
जब@@	242
बुलाने	242
प्रामाणिक	242
श्रोता	242
जोड	242
ग्रेट	242
स्थानिक	242
स्वीडन	242
मान्@@	242
दाय@@	242
चाल@@	242
१६	242
यात	242
ज़बरदस्ती	242
सवेरे	242
अनाथ	242
चढ़ा	242
अक्ल	242
चाचा	242
रामलिंग	242
गौतम	242
स्य@@	242
बलि	242
1973	242
तात्या	242
डेयरी	242
क्रियात्मक	241
चुनना	241
तम@@	241
आनेवाली	241
संभालने	241
रविवार	241
शुभारंभ	241
जर्@@	241
घेरा	241
टता	241
रुपया	241
गज@@	241
à¤@@	241
7,@@	241
इल्@@	241
रि	241
africa	241
लाग@@	241
63	241
201@@	241
डराता	241
प्रचंड	241
अकारत	241
मलेरिया	241
प्रयोगों	241
मरी	241
१३@@	241
काव्य@@	241
स्थगन	241
मानद	241
ंमें	241
प्रस्तुतीकरण	240
डें	240
फैलाया	240
शीर्ष@@	240
थै@@	240
वारा	240
गति@@	240
04@@	240
नान	240
अब्@@	240
हंस	240
उकसा@@	240
स्त्रियाँ	240
घुस	240
जागरण	240
अनुकम्पाओं	240
10,000	240
सरोजिनी	240
मातृभूमि	240
ग़्@@	240
भावनात्मक	240
नवी@@	240
वाराणसी	240
प्रौद्योगिकीय	240
निषेध	240
संघों	240
प्राण@@	240
डैक	240
दीप	240
लें@@	239
विस्@@	239
ब्लॉ@@	239
बैकेंड	239
प्रतिस्थापित	239
ity	239
अनुकूलन	239
चढ़ाव	239
गयाः	239
ड़ें	239
फाय@@	239
स्टन	239
कोर्स	239
सीपी@@	239
अनिश्चित	239
अवतरण	239
अकसर	239
उच्चारण	239
पलटकर	239
मज़बूती	239
ंगें	239
कीड़े	239
आरोग्य	239
उँ@@	239
फ़ज़ल	239
शुएब	239
मांगी	239
दरअसल	239
जमानत	239
कालावधि	239
साहसिक	239
जाति@@	239
भट्ट	239
आपात	239
6,@@	238
लिखकर	238
मिटाकर	238
टूल	238
दायाँ	238
ग्रै@@	238
आयातक	238
विनि@@	238
1970	238
पर्या@@	238
जिन@@	238
आवंटित	238
केंद्र@@	238
एशन	238
समझें	238
88	238
लार	238
द्धा@@	238
बैठें	238
अपनाए	238
तौरैत	238
क़ूवत	238
हम्द	238
भ्रा@@	238
एड्स	238
खां	238
कराती	238
मनोवैज्ञानिक	238
रूपए	238
विनोद	238
कताओं	238
क्रेता	238
नियन	237
दर्शाने	237
पोस्ट@@	237
घुमाव	237
लेशन	237
सन्दर्भ	237
पुरातन	237
57	237
वेयर	237
तरी@@	237
णि	237
स्टिक	237
जेम्स	237
टूर	237
ज़िल्लत	237
भ्रमित	237
तरजीह	237
रेज़ा	237
संकोच	237
हस्तशिल्प	237
खाद्यान्न	237
यदुनाथ	237
हॆ	237
.2017	237
कुत्ते	236
घुमाएँ	236
SSL	236
प्रस्थिति	236
एगी	236
तित	236
आईएसओ	236
श्रृ@@	236
मिन	236
सुपर	236
छोड़@@	236
बचना	236
बख्@@	236
सेना@@	236
ड़ियां	236
एयर@@	236
अभियांत्रिकी	236
सिद्@@	236
यौ@@	236
तालीम	236
जोशी	236
देसाई	236
तकों	236
पुन@@	236
विद्यालयों	236
पाचन	236
रियायत	236
ज्ञानी	236
अत्यावश्यक	235
चौदह	235
बन्ध	235
se	235
संकुल	235
ni@@	235
ंगि@@	235
नार्@@	235
एमएस	235
च्छा@@	235
देह@@	235
हीं	235
वान@@	235
सामा@@	235
ग़म	235
तरों	235
घोड़ों	235
ंद्र	235
डऋ@@	235
अयोध्या	235
50,000	235
लूर	235
वेदना	235
लोकप्रियता	235
उग्र	235
.2012	235
बक्से	234
औ	234
bu@@	234
सिस्ट@@	234
निचली	234
एसी	234
title	234
कुंजीपट	234
बैक@@	234
डाउन	234
ध्व@@	234
डम	234
एक्सप्रेस	234
परदा	234
स्ट्रि@@	234
आलू	234
नीत	234
शुद्धता	234
मती	234
प्लै@@	234
सीएस@@	234
काने	234
चौड़ी	234
बनाम	234
सुधारक	234
वीर्य	234
मुमकिन	234
वक्ष	234
नोबेल	234
घा	234
अंडों	234
1962	234
1960	234
उत्तराखंड	234
छात्रवृत्ति	234
विशेषतः	234
अनुरक्षण	234
मूलक	234
उद्देश्@@	234
us@@	233
निश	233
कॉपीराइट	233
ईः	233
फ्री	233
शब्दकूट	233
सर्ग	233
ँगा	233
फिट	233
त्म@@	233
53	233
्री@@	233
कार्यक्षेत्र	233
सुनना	233
प्प@@	233
आरो@@	233
खरगोश	233
ारी@@	233
मछलियों	233
धं@@	233
पटा@@	233
फ़र@@	233
उभरते	233
पेशवा	233
विचलित	233
सुलैमान	233
ॊ@@	233
ग़ुलाम	233
अत्याधिक	233
त्ता@@	233
लगाव	233
1952	233
1985	233
जबरदस्त	233
दुकानों	233
ऑयल	233
प्रतिभागियों	233
इंटरनेशनल	233
पिक्@@	232
CO@@	232
ध्रुव	232
रवि	232
सिर@@	232
यात्मक	232
ईस	232
कठ@@	232
तैनात	232
वेज	232
मिंग	232
सतर्क	232
ँगी	232
जाऊँगा	232
सुसज्जित	232
गुल	232
तत्पर	232
षक	232
अभ@@	232
मौलाना	232
अध्यापन	232
श्लोक	232
विकृति	232
‘भारत	232
संबोधन	232
बजाएँ	231
चिपकाएँ	231
तुल्यकालन	231
रिय@@	231
वैधता	231
ऐं	231
यॉ	231
उड़ा@@	231
लियम	231
पिका	231
जिन्@@	231
शीत	231
कारस्तानियों	231
करवाना	231
वाड़	231
संभवतया	231
टेलीविजन	231
हुसैन	231
पत्रकारिता	231
उपलब्धियां	231
कुष्ठ	231
सिडबी	231
सबवर्सन	230
सहे@@	230
आईडी@@	230
सूच@@	230
बाइट	230
भ्रष्ट	230
दीर्घा	230
फैक्स	230
चेंज	230
हृ@@	230
सृजनात्मक	230
घूम	230
बैंड	230
ंत@@	230
जगा@@	230
प्रश्@@	230
उतर@@	230
हवाले	230
चूर्ण	230
यात्राओं	230
उठकर	230
लशकर	230
सती	230
कारखाने	230
प्रादेशिक	230
विधेयकों	230
जीवी	230
शल्यक्रिया	230
डिबग	229
बफर	229
पेटी	229
MIME	229
ंग्स	229
इक@@	229
शु	229
स्ट्रे@@	229
पीला	229
विषम	229
गज	229
रेखा@@	229
तिर@@	229
२००७	229
घनी	229
लीकरण	229
खर्चे	229
माँगते	229
क़ि@@	229
सहनशील	229
चेहरों	229
झगड़ने	229
पुरूषों	229
कमजोरी	229
रघु@@	229
सहकारिता	229
नवीकरणीय	229
राष्ट्रवादी	229
रियासतों	229
करोड़ों	229
स्वच्छ@@	229
चालित	229
कण्@@	229
पक्षकारों	229
प्रकोष्ठ	229
सत्या@@	228
र्ष@@	228
वेब@@	228
DVD	228
पैक	228
दोहरे	228
संप्रेषण	228
निका	228
पीएस@@	228
हरण	228
समावेशन	228
सीए@@	228
घट@@	228
डालेगा	228
शुरुआती	228
शरी@@	228
ट्रेन	228
दरवाजा	228
संदिग्ध	228
साँस	228
टती	228
१९७@@	228
करवा@@	228
मुखिया	228
बर्मा	228
दीवान	228
शिकायतें	228
शिश्न	228
भूतपूर्व	228
औषधियों	228
संयंत्रों	228
धमनी	228
मुं@@	228
अधिनिर्णय	228
दाएं	227
ढूंढने	227
शनल	227
टक@@	227
बहिर्@@	227
लाइनों	227
ISO	227
असंगत	227
स्पूल	227
इन्स	227
नेपाली	227
ध्द	227
लुप्त	227
सीमाएं	227
सुझा@@	227
योजित	227
त्रा	227
फे	227
ठु@@	227
पौंड	227
मारना	227
कर्मी	227
जनशक्ति	227
कमान	227
पैमान	227
Chrome	227
1977	227
पण@@	227
मांगों	227
स्थावर	227
जवाबदेही	227
बापू	227
चुकौती	227
त्‍@@	227
सास	226
ds	226
एक्सेस	226
on	226
आकारः	226
उद्गम	226
प्रवि@@	226
महीना	226
गाइड	226
प्राप्त@@	226
निकी	226
कोल	226
उभार	226
उज्@@	226
स्त्र@@	226
कणों	226
द्वितीयक	226
आतंक	226
ऊँटनी	226
ज़ाम	226
चरित	226
गुस्से	226
ईद	226
रखनी	226
किराये	226
मैथुन	226
इश्@@	226
साहिब	226
रखाव	226
समारोहों	226
नियमन	226
झारखंड	226
बजा	225
IS@@	225
योग्य@@	225
येगा	225
टकराव	225
ईरानी	225
नज@@	225
साई@@	225
03@@	225
दू	225
स्वे@@	225
केश@@	225
नमा@@	225
दु	225
शत्रुओं	225
क्यो	225
बैल	225
एफसी	225
अख@@	225
होली	225
कपड़ों	225
ढि@@	225
हाथियों	225
कीमती	225
त्यौहार	225
नवजात	225
मण	225
नागपुर	225
विकेट	225
सामरिक	225
विघटन	225
टु	225
तीत	225
महासभा	225
प्रभारित	225
डब्लू	225
प्रथाओं	225
्यू@@	224
rea@@	224
बिंब	224
पहचानने	224
डाई	224
कलम	224
डं@@	224
मैनुअल	224
8859	224
संवेदनशीलता	224
फ्रा@@	224
फ्रांसीसी	224
फिलीस्तीनी	224
शह@@	224
वाई@@	224
म्यांमार	224
मीम॰	224
ढील	224
गन्दगी	224
क़ु@@	224
मुद्दत	224
निकाह	224
मतों	224
ग़ु@@	224
फ़त	224
ख़ुशनूदी	224
अज़सरतापा	224
शख़्स	224
नरेंद्र	224
निर्यातक	224
भृंग	224
शेयरधारकों	224
भव@@	224
अन्त@@	224
उच्छेदन	224
अवधारित	224
पत्ता	223
एंटर	223
कच@@	223
घटाने	223
छवियाँ	223
पश्च@@	223
बनेगा	223
वधि	223
विंग	223
प्रतिरूप	223
जहाज़	223
डोर	223
भावा@@	223
कब्जे	223
लट@@	223
परिहास	223
पड़नेवाले	223
डूबो	223
छोड़ी	223
नाशुक्री	223
फरमा	223
लाद	223
जमाअत	223
य्या	223
प्रभारी	223
१४@@	223
तुलनात्मक	223
पंचायतों	223
कुछेक	223
नाट्य@@	223
लाभ@@	223
पोतन्ना	223
मोनो@@	222
एटी@@	222
मिलें	222
चरि@@	222
ST@@	222
क्रमा@@	222
तर्कसंगत	222
पाउंड	222
जन्य	222
परीक्षक	222
76	222
आश्रित	222
स्पर्@@	222
star	222
यंग	222
निकटता	222
सकोगे	222
स्तुति	222
बिलों	222
आज़ाद	222
ढा	222
क़ौल	222
सौंपे	222
श्व@@	222
रिपोर्टों	222
प्रवृत्तियों	222
चारे	222
गिरफ्तारी	222
पारसी	222
तऋ	222
मुंशी	222
मध्यस्थता	222
धाम	222
राशियों	222
बहुपक्षीय	222
सिन्@@	221
भारित	221
डें@@	221
HTTP	221
जोड़ते	221
स्लाइड	221
बाद@@	221
मों@@	221
दवा@@	221
परिसंपत्ति	221
पॉलि@@	221
वाया	221
120	221
ाई	221
चांदी	221
ढ़ी	221
निकलकर	221
समझौतों	221
महिमा	221
लगो	221
धौ@@	221
लत	221
बुत	221
खन	221
बहिष्कार	221
दूरदर्शन	221
रव	221
राममोहन	221
.2018	221
ent	220
मकबरा	220
डायल	220
पठनीय	220
sh@@	220
दर्शाते	220
गोपनीयता	220
ज़िला	220
दम@@	220
उपयोगकर्ताओं	220
आधार@@	220
यन@@	220
सम्पादित	220
एनसी@@	220
सु	220
२००६	220
afghanistan	220
प्रेम@@	220
मीन	220
गतिशीलता	220
आड़	220
विजयी	220
बैठो	220
औंधे	220
निहाल	220
बरसा@@	220
अंगूर	220
सुख@@	220
भक्ति@@	220
ज़ात	220
देसी	220
देखिये	220
भूषण	220
कमाने	220
बागान	220
युक़्त	220
गुणसूत्र	220
राष्ट्रमंडल	220
परिस्थितियां	220
संवेदी	220
पित्त	220
रंगः	219
मेक	219
tu@@	219
ब्ले@@	219
रोल	219
मापदंड	219
84	219
काबुल	219
शहीद	219
धनुष	219
चलचित्र	219
सुल@@	219
मापी	219
पोशाक	219
दिखने	219
इरा@@	219
गिरा@@	219
मणि	219
क़ैद	219
डाल@@	219
अमानतदार	219
उठना	219
य्य@@	219
जाएंगें	219
हारों	219
अड्डे	219
कीमतें	219
ड्यूटी	219
जड़ें	219
गुप्ता	219
फेफड़ों	219
नमूनों	219
क्ता	219
तिब्बत	219
साधारणतया	219
1942	219
शिष्यों	219
२००५	219
अध्यादेश	219
पोषित	219
दर्पण	219
अभूतपूर्व	219
नर्मदाशंकर	219
पृथक्	219
सराहनीय	219
जाम	218
j@@	218
लगाएँ	218
निरस्त	218
हिं@@	218
लम्बाई	218
सूचनाएँ	218
पाला	218
संकुचन	218
अमी@@	218
बिर@@	218
छड़ी	218
घर@@	218
समेट	218
मिसालें	218
तरस	218
प्रताप	218
महोदय	218
यौगिक	218
प्रोत्सा@@	218
भाषणों	218
रिएक्टर	218
ऋणी	218
कार्यनीतिक	218
कोल्हटकर	218
दुसरे	217
स्तर@@	217
बताती	217
सप्@@	217
निकालते	217
रोबोट	217
पडता	217
ियाँ	217
विवरणों	217
शत@@	217
पैरा@@	217
73	217
लाओं	217
टुकड़ों	217
चंद्रमा	217
नरी	217
स्वेच्छा	217
विश्वासघात	217
ज्ञानवान	217
सबने	217
मक्के	217
मुह@@	217
झुंड	217
जेब	217
कमी@@	217
आयु@@	217
प्रतिवाद	217
स्वार्थ	217
दाताओं	217
नियामक	217
हिन्दुस्तानी	217
स’	217
शः	216
णः	216
लक्ष्य@@	216
प्रती@@	216
टिक्स	216
ul@@	216
ड़ते	216
नियाई	216
श्रे@@	216
इशारा	216
एव@@	216
निकटतम	216
तरा	216
69	216
हवा@@	216
पि	216
फ़ै@@	216
बढ़ाता	216
तला@@	216
स्पि@@	216
गुज@@	216
लॉर्ड	216
करू@@	216
शिल्प@@	216
ख़राब	216
द्वेष	216
पृ	216
वज़न	216
बहाने	216
गीर	216
जूते	216
ख़ौफ़	216
फ़ारसी	216
हृदय@@	216
अतिरिक़्त	216
वण	216
रक्षित	216
ट्रिब्यूनल	216
पुराणों	216
1965	216
कड़े	216
यण	216
नदियां	216
चिन्तन	216
फलन	216
वहॉँ	216
समयः	215
अनजान	215
tra@@	215
असुरक्षित	215
मारि@@	215
जाइ@@	215
लंका	215
पड़ताल	215
लोन	215
संभाल	215
किस्में	215
ऊंगा	215
बुकिंग	215
१७	215
थर	215
सुनाता	215
लौटते	215
बिगड़	215
अकृतज्ञ	215
चखा	215
कांग्रेसी	215
कराधान	215
कृषकों	215
विद्यासागर	215
1963	215
राष्‍ट्रपति	215
बीते	214
file	214
म्प	214
फोर्@@	214
लिप@@	214
गणितीय	214
ताप@@	214
रस@@	214
कॉम	214
अष्ट@@	214
मक्@@	214
गारों	214
81	214
तुओं	214
सबक	214
स्म@@	214
इक़रार	214
सँ@@	214
यापन	214
रहूँगा	214
सुनाते	214
भागा	214
चेष्टा	214
अम्र	214
अमिताभ	214
भाजपा	214
विकासात्मक	214
नाश	214
त्यागपत्र	214
विषाणु	214
‍य@@	214
विकल्पः	213
मिन@@	213
ीकृत	213
क्ल@@	213
सरी	213
ट्रे	213
सादे	213
फार@@	213
छिद्र	213
पुर्@@	213
मार्टिन	213
अनुरुप	213
कारा	213
रियम	213
ग्रा	213
षि@@	213
उपद्रव	213
बूझे	213
साझीदारों	213
फेरे	213
अजनबी	213
सुनाया	213
डराए	213
बरसों	213
श्वास	213
मरीज	213
जोधपुर	213
संभोग	213
कीटनाशक	213
थीम	212
परो@@	212
ge	212
प्रलेखन	212
नाः	212
विधा@@	212
संख्याओं	212
ट्टा	212
तिन	212
अपर	212
अविश्वास	212
बहुदेववादियों	212
लक्ष@@	212
पौध	212
जम	212
खौलते	212
सते	212
थें	212
ख़ान	212
मुल्@@	212
कहावत	212
कंधे	212
सुप्रीम	212
बैठकें	212
निबंध	212
यन्त्र	212
1975	212
अवधारण	212
तंत्रिका@@	212
प्रान	212
विलेख	212
सीवीएस	211
pro@@	211
कुमारी	211
अनोखी	211
प्रोटो@@	211
मल्टी@@	211
लेक्@@	211
शुक्रवार	211
शनिवार	211
अवहेलना	211
दिलाता	211
लॉगइन	211
सिक्के	211
सवालों	211
प्रकाशमान	211
वर्धक	211
शाह@@	211
अनेकानेक	211
रीन	211
शियम	211
ख़री@@	211
सत्कार	211
ऊँट	211
दिलाना	211
बसा	211
चरा@@	211
रेशमी	211
आभारी	211
इजाजत	211
पैग़ाम	211
तलवार	211
ठों	211
पद्म	211
कम्युनिस्ट	211
पड	211
पार्टियों	211
कोशिका@@	211
सस्ती	211
वृहत	211
रचनाएं	211
ईसवी	211
आंदोलनों	211
मौसमी	211
रक	211
मुद्रास्फीति	211
कर्त्तव्य	211
चुनते	210
एस्@@	210
ter@@	210
वर्ग@@	210
पुष्ट	210
जुटा@@	210
छाँ@@	210
सके@@	210
संकुचित	210
इका@@	210
800	210
नामी	210
फ्ट	210
बेन	210
1/2	210
पाकिस्तानी	210
पहा@@	210
माली	210
à¤«@@	210
à¥à¤@@	210
जरी	210
गार@@	210
लाव	210
डरा@@	210
कृति@@	210
पो	210
दिग्@@	210
नसारा	210
अंधे	210
हाय	210
ंडे	210
ौर	210
रोक@@	210
मोह	210
फरमाता	210
ख़्@@	210
उठाये	210
उठती	210
निभाने	210
सडक	210
उदासीनता	210
प्रांतीय	210
कार्यपालक	210
नोटों	210
अमूर्त	210
राज्यसभा	210
रियासत	210
1994	210
चैक	210
पुष्पांजलि	210
उपवास	210
वीरता	210
राजनयिक	210
अन्तर@@	210
निश्च@@	210
ग्रीक	209
लेखकः	209
हाई@@	209
चिंग	209
कना@@	209
कस्टम	209
स्ट्रीट	209
पुनरीक्षण	209
²	209
चार्ल्स	209
मुल@@	209
चलाता	209
लिं@@	209
ऑटो	209
गायक	209
ण्ट	209
विलक्षण	209
कुर@@	209
आईसी	209
न्दा	209
माइक्रो	209
लड़े	209
ज़करिया	209
उन्ही	209
ष्टता	209
पहुँचना	209
फटा	209
लीं	209
उड़	209
आद@@	209
खंडन	209
विवेचन	209
उल्लास	209
एकाधिकार	209
सेवानिवृत्त	209
1984	209
अनुभवी	209
सर्वत्र	209
लयों	209
विमानन	209
उत्तेजना	209
नवाब	209
साइबर	209
व्या	209
.03@@	209
क्की	208
साइरिलिक	208
स्कोप	208
le	208
उल्लेखित	208
क्यू	208
प्रतिपादन	208
दूरभाष	208
व्याख्या@@	208
यूनि@@	208
à¥@@	208
रिटर्न	208
फ्ले@@	208
शिल्@@	208
मिया@@	208
हान	208
1.5	208
तत्व@@	208
तान@@	208
प्रतिस्पर्धी	208
भक्तों	208
अत@@	208
उत्तमकारों	208
बहके	208
पकड़कर	208
गिरवी	208
बहरहाल	208
जुर्माना	208
दैवी	208
1857	208
जलीय	208
सिका	208
न्मुख	208
विराट्	208
तत्समय	208
पीएओ	208
िए	207
परिवर्तनीय	207
प्रकटन	207
ढूँढ@@	207
सिमुलेशन	207
gu@@	207
बहि@@	207
ER@@	207
पूर्वानुमान	207
स्की	207
हस्त	207
ड्रि@@	207
भाषाएं	207
आरेख	207
पीठों	207
किसके	207
सदाबहार	207
आक्षेप	207
युवकों	207
नदियाँ	207
बुढ़ापे	207
थकान	207
ठहर	207
याददिहानी	207
नतीजे	207
अब्बा	207
प्रहार	207
चित्त	207
ब्यौरा	207
सेनापति	207
कच्ची	207
समाज@@	207
1981	207
मंचों	207
विद्	207
एकत्व	207
संगणित	207
केन्द्री	207
अल्फा	206
ut@@	206
ब्ला@@	206
लड@@	206
मर्यादा	206
फिनलैंड	206
प्रस@@	206
700	206
ओवर	206
पुरा	206
योजक	206
क़ो	206
शंका	206
गोबर	206
हज़रत	206
मोहब्बत	206
त्यों	206
लगना	206
हंसी	206
कामगार	206
पारिस्थितिकी	206
औपनिवेशिक	206
सींग	206
प्रजातियां	206
दीपक	206
प्रयत्नों	206
सोशल	206
ब्राह्मणों	206
अड़@@	206
दांतों	206
जनसाधारण	206
अस्त्र	206
गना	206
संकर	206
तत्त्वों	206
कॉर्पोरेट	206
कापी	205
शन्स	205
हटा@@	205
निकली	205
जटिलता	205
खेलते	205
रेडि@@	205
कल्पित	205
92	205
उग@@	205
मिं@@	205
नाएँ	205
मानें	205
यूनिवर्सिटी	205
भविष्य@@	205
कारियों	205
निस्पृह	205
किताबवालों	205
झुके	205
कंठ	205
फत	205
हुज़ूर	205
शहद	205
ारण	205
79	205
जवाहर	205
महासचिव	205
रक्तचाप	205
अपेक्षाओं	205
इजराइल	205
अन्न	205
चित्@@	205
सम्मेलनों	205
महोत्सव	205
2क	205
क्षेञ	205
अर्द्ध	204
DE@@	204
टाइल	204
si@@	204
फ़ॉ@@	204
पठित	204
पैकेट	204
ग्राफिक्स	204
सोम	204
आक@@	204
बेल@@	204
पिया	204
२४	204
र्य@@	204
विश्वसनीयता	204
क्रीड़ा	204
	204
शियल	204
मूर्ति@@	204
वें@@	204
एनएस@@	204
वास्त@@	204
राजा@@	204
44@@	204
लालच	204
गह@@	204
कुदरते	204
खरी	204
बक@@	204
दाई	204
यार@@	204
पूंछ	204
इमारतों	204
शीघ्रता	204
अनेकों	204
पाषाण	204
प्रतिकर	204
खानों	204
प्रशस्त	204
मौद्रिक	204
अनुपलब्ध	203
वर्जित	203
प्रतिबिंबित	203
निस	203
तारी@@	203
सुस्पष्ट	203
®@@	203
अणु	203
द्वि	203
एटीएम	203
नाग	203
दना	203
माननेवाले	203
मुझपर	203
पवित्रता	203
याचना	203
जना@@	203
उगाई	203
बकरियों	203
दलित	203
सिला	203
त्मा	203
पत्रकार	203
1908	203
मूर्तियां	203
संतुष्टि	203
पत्तियां	203
२६	203
पहुंचना	203
परंतुक	203
स्नायु	203
संभाग	203
GNU	202
खोजना	202
दृष्टिगोचर	202
औजारपट्टी	202
लिश	202
हस्तांतरित	202
मियाद	202
बर्ताव	202
लेपन	202
à¤@@	202
फ़ो@@	202
प्रतिमान	202
सर्वा@@	202
इसमाईल	202
फाड़	202
सूक्ष्मदर्शी	202
ऊँ@@	202
तुझसे	202
आवेग	202
पर्दे	202
तुम्ही	202
कैदी	202
ख़ाना	202
घोड़ा	202
मंत्रिपरिषद	202
साज	202
विषा@@	202
पर्ण	202
माइनस	202
पैमाना	201
मार्जिन	201
कोरियाई	201
लौटा@@	201
ट्रांस@@	201
8,@@	201
J	201
ताएँ	201
अंतःस्थापित	201
निवे@@	201
कार्यसूची	201
क्यो@@	201
मीठा	201
१९	201
दबा@@	201
संबधित	201
तनों	201
विक@@	201
धातु@@	201
नार@@	201
आज़@@	201
कथ@@	201
अनियमित	201
सुप्रसिद्ध	201
मोड़े	201
अन्ध@@	201
पक्के	201
निगाहें	201
गवाहों	201
आकृष्ट	201
दौड़ते	201
परले	201
बसा@@	201
यहॉ	201
विद	201
नौजवान	201
पुनर्निर्माण	201
मकसद	201
1945	201
स्वराज्य	201
अंतर्विष्ट	201
खाती	200
अन	200
चलाते	200
रियन	200
प्रतियां	200
प्लेयर	200
प्रतिस्थापन	200
पुर्तगाली	200
OR@@	200
पश्च	200
पूल	200
बजाने	200
कक्षों	200
ंडी@@	200
दुर्बल	200
चमकदार	200
दर्शी	200
लगाता	200
खासतौर	200
सीट	200
इरादे	200
अश्लील	200
यूनुस	200
अकेली	200
चमत्कारों	200
वांछनीय	200
सहने	200
मांग@@	200
ख़ालिस	200
फँ@@	200
बेचैन	200
मदर	200
ओबामा	200
शैव	200
वीणा	200
प्रतिभाशाली	200
त्सव	200
परिजनों	200
सावधि	200
मोक	200
साम्प्रदायिक	200
निजाम	200
बीएस@@	199
ज्य@@	199
ऋणात्मक	199
चयनक	199
बद्धता	199
अभिलेखागार	199
ब्रै@@	199
हुई@@	199
उल्टे	199
शिरा	199
निम्नानुसार	199
खुर@@	199
शनों	199
ल्ड@@	199
विल@@	199
93	199
बारा@@	199
दाद	199
एसिड	199
कड़	199
णियों	199
अहंकार	199
दोगे	199
बहाना	199
खरे	199
ग़ा@@	199
जौ@@	199
मुहा@@	199
गाते	199
कदमों	199
आरोपों	199
नर्सिंग	199
निभाता	199
अर्थों	199
मोक्ष	199
ऐं@@	199
जलि	199
फसलें	199
निधियां	199
औसतन	199
ंने	199
qu@@	198
बनाएगा	198
टरिंग	198
बू	198
स्पै@@	198
कव@@	198
वेल्@@	198
अत्य@@	198
à¥à¤°@@	198
à¤¾à¤°@@	198
चिड़िया	198
07@@	198
मनी@@	198
मरा@@	198
माफी	198
बोल@@	198
कैरियर	198
छानबीन	198
61	198
अन्धे	198
विनम्रता	198
सीना	198
धिकारी	198
खाए	198
पाबन्द	198
रहनेवाली	198
दाओं	198
अनवरत	198
उदास	198
मुझको	198
हिमा@@	198
पेशी@@	198
मंद@@	198
भेड़ों	198
ज्वार	198
सर्वांगीण	198
पंखों	198
सम्प्रदाय	198
स्त्रियां	198
अथक	198
विश्वासों	198
वस्था@@	198
बेजबरुवा	198
कंट्रोल	197
da@@	197
st@@	197
सारा@@	197
माई@@	197
option	197
उल्टा	197
स्थानापन्न	197
परी@@	197
निको@@	197
MB	197
्रो@@	197
मरू@@	197
à¥	197
98	197
परम्परागत	197
किर@@	197
युगल	197
मोड़ा	197
ग़लती	197
बुराइयाँ	197
काटकर	197
बकरी	197
शुऐब	197
पुत्रों	197
तोहमत	197
नेका	197
आरज़ू	197
ख़ैरात	197
घुटने	197
वरदान	197
राहुल	197
गुवाहाटी	197
क्षतिग्रस्त	197
उन्नीसवीं	197
पदोन्नति	197
प्रक्रमण	197
राष्ट्री@@	197
General	196
sc@@	196
me	196
ex@@	196
टूटी	196
यः	196
Windows	196
नॉन	196
लास	196
दिव@@	196
समयावधि	196
खजाने	196
स्ने@@	196
ंगर	196
बोनस	196
निर्मल	196
नाइट्रोजन	196
आगम	196
जें	196
उल्टी	196
उतरे	196
निर्धनता	196
मानोगे	196
फूँका	196
दिख	196
रंज	196
पच्चीस	196
परित्याग	196
कफ	196
नन्द	196
कायदा	196
देवेन्द्रनाथ	196
बैंककारी	196
अवसाद	196
आंत्र	196
ओडिशा	196
सिक्ख	196
उत्पा	196
असीमित	195
not	195
Ma@@	195
थ्र@@	195
धीमा	195
खींचने	195
आयताकार	195
सीआर@@	195
निषे@@	195
ढू@@	195
विषय@@	195
१००	195
सेंट्रल	195
.01@@	195
पाँ@@	195
पारी	195
अनौपचारिक	195
मुहताज	195
उठ@@	195
सोचकर	195
ग़ाफिल	195
नापसन्द	195
खौलता	195
याकूब	195
डुबो	195
झग@@	195
फज़ीलत	195
सूद	195
ज़िना	195
मंज़िले	195
कहेगें	195
1978	195
विशि@@	195
शक़्ति	195
विमानों	195
न्द्रनाथ	195
1938	195
मंडलों	195
सामान्यत	195
दाह	195
ईश्वरीय	195
दीक्षा	195
दीव	195
सब्जी	195
कोविड	195
अविभक्त	195
ताश	194
डू	194
फिलहाल	194
स्टेज	194
89	194
EN@@	194
कार्या@@	194
रिवाज	194
अल्पकालिक	194
ढु@@	194
भूरे	194
संब@@	194
à¤®à¥à¤	194
आरसी	194
87	194
भट@@	194
पूर्@@	194
वाष्@@	194
usa	194
ठी@@	194
जार@@	194
नबियों	194
ऊँगा	194
कुर्ता	194
तकिया	194
वरन	194
बेज़ार	194
मख़लूक़ात	194
जलन	194
परमेश्वर	194
समामेलन	194
भग@@	194
कमियों	194
सर्वोपरि	194
गोदाम	194
शिवाजी	194
प्रायद्वीप	194
मालिकों	194
देयता	194
कार्यनीति	194
be	193
वेस्ट	193
so@@	193
ढे	193
सहेजी	193
ज़ू@@	193
साइटों	193
बिल्ली	193
धक्का	193
पढ@@	193
नाय@@	193
06@@	193
चतुर्@@	193
वानी	193
थलग	193
हेम@@	193
जहाजों	193
प्राइ@@	193
उपेक्षित	193
वज@@	193
विश्@@	193
मुर्दे	193
पुकारने	193
जानो	193
पैदाइश	193
मँ@@	193
उनमे	193
रोजे	193
उड़ने	193
थोडा	193
शिमला	193
अमे@@	193
सूरदास	193
भद्र	193
दयाल	193
कार्यो	193
दुर्भाग्यवश	193
जिम्मे@@	193
‍या@@	193
खेला	192
कोष्ठ	192
कॉलम	192
एलि@@	192
गाडू	192
र्ण	192
एकाधिक	192
ग्र	192
छठी	192
२२	192
घटना@@	192
वृत्ताकार	192
श्रवण	192
à¥@@	192
पलटना	192
स्पष्टता	192
अंतरा@@	192
क्ले@@	192
नलिका	192
बेर	192
जोन	192
कोष्ठक	192
ण्डा	192
5000	192
तह@@	192
आमने	192
झुठलानेवालों	192
पुंज	192
आलम	192
साहि@@	192
शुमार	192
तुक	192
करेंगी	192
कियां	192
म्भ	192
राजपूत	192
फर्नीचर	192
रिवाजों	192
गायन	192
वानिकी	192
वाहिनी	192
अक्षमता	192
कम्प	192
कोर्@@	191
जेट	191
सम्पादन	191
आयतन	191
बांटा	191
क्रैश	191
प्रतिबन्ध	191
ंप	191
ब्रेक	191
एंपेथी	191
पुस्त@@	191
सोचो	191
नासा	191
ग्लो@@	191
न्यूयॉर्क	191
à¤¯@@	191
खेद	191
बहुआयामी	191
प्रक्रिया@@	191
दोहराया	191
सूर्य@@	191
नित्य	191
अपनाते	191
ख़ून	191
उदारता	191
षड्यंत्र	191
माँगा	191
उसमे	191
लिपिक	191
फ़र्@@	191
आजिज़	191
नर्स	191
पिंड	191
अन्यत्र	191
वाद्यों	191
मनु@@	191
काशी	191
संकेतन	191
व्यवहार्य	191
डियां	191
अध्यापकों	191
वायुसेना	191
अनुदेशों	191
सव@@	191
परिणत	191
बहनों	191
निचला	190
st	190
Public	190
डिबगर	190
क्रमबद्ध	190
भेद@@	190
per@@	190
वरीयताएँ	190
ine	190
रर	190
96	190
मुर्गी	190
फायर	190
कले@@	190
टॉम	190
कद@@	190
माई	190
ष्य	190
मंत्र@@	190
सूर@@	190
जलने	190
कसम	190
हिजरत	190
अज़ीज़	190
नके	190
केले	190
फरमा@@	190
खुश@@	190
सर्दी	190
साझेदार	190
सिगरेट	190
कली	190
हथकरघा	190
गोविंद	190
व्याव@@	190
सूती	190
शाखाएं	190
कार्यप्रणाली	190
डेढ़	190
पहलें	190
188@@	190
प्ररूप	190
रजिस्ट्रीकृत	190
व्यं@@	189
हिब्रू	189
एँः	189
हालिया	189
सिक्@@	189
काटे	189
तुल्यकालित	189
अवस्थिति	189
परदे	189
मेशन	189
संसाधित	189
प्रोसेसर	189
ड़ियाँ	189
भाप	189
सुने	189
म्यू@@	189
म्मा	189
gov	189
निष्ठ	189
अभ्या@@	189
यूरेनियम	189
हिम	189
प्रदूषित	189
ऊष्मा	189
ॆ	189
काय	189
ख्वा@@	189
कप्तान	189
पत्ती	189
अलंकृत	189
उभरा	189
निरूपण	189
लौकिक	189
एफ़	188
मेन्ट	188
वॉल्यूम	188
फ़रवरी	188
मेल@@	188
रेटिंग	188
जड़ों	188
ग्राम@@	188
प्रस्तावना	188
रेंस	188
लोगो@@	188
चाहने	188
मणि@@	188
नास	188
संज्ञा	188
गुर्@@	188
२०@@	188
उत्तराधिकार	188
भूले	188
सफ़र	188
सिलसिला	188
मूठ	188
बूढ़ा	188
ष्टा	188
अग्नि@@	188
बैठता	188
हाजिर	188
सितारों	188
खर	188
व्यापी	188
1939	188
श्रद्धा@@	188
दिनी	188
जिज्ञासा	188
भीषण	188
विश्वभर	188
मत्@@	188
ग्रन्थि	188
परिचर्चा	188
अंतरफलक	187
ted	187
मिलाया	187
काटना	187
सेज	187
कुँ@@	187
उलटी	187
चेतन	187
oo@@	187
मीटिंग	187
ओएस	187
फैक्टरी	187
कंप@@	187
नक्शा	187
सरे	187
आइटम	187
नोट्स	187
ंत्र@@	187
ंतर@@	187
दस्त@@	187
व्र@@	187
नक्षत्र	187
समुद्र@@	187
सला	187
हाइड्रोजन	187
क्रोमियम	187
ढ़ा	187
टाला	187
देखेगा	187
सोते	187
तद@@	187
तौल	187
बाली	187
सिखा	187
यीं	187
क़्त	187
इर्द	187
सस्ता	187
सिपाही	187
जन्मजात	187
उदयपुर	187
राजशाही	187
ललित	187
चित्रकला	187
शर्करा	187
अभियोजन	187
उधारकर्ता	187
सौदों	186
प्रिं@@	186
पहुँच@@	186
रपट	186
संग्रहीत	186
त्रुटियों	186
फॉर्मेट	186
घटाकर	186
à¤¹à¥	186
ड्रे@@	186
मेजर	186
कोल@@	186
94	186
चक@@	186
अली@@	186
लियो@@	186
97	186
बूढ़ी	186
ताकीद	186
विनम्र	186
मुलाक़ात	186
उतरते	186
मने	186
महज़	186
लौहे	186
ख्वाब	186
याल	186
कभार	186
बहने	186
सैद्धांतिक	186
गांठ	186
वृद्धावस्था	186
णन	186
उत्पादकों	186
यहा	186
शांतिनिकेतन	186
प्रवृति	186
आयोजना	186
अहं@@	186
उभरती	186
तत्संबंधी	186
रेख	186
सुशासन	186
प्राणिक	186
शेयर्स	186
.02@@	186
सेल्@@	185
सक्रि@@	185
Pa@@	185
अंड@@	185
ंड्स	185
सामग्रियों	185
हंस@@	185
स्कीमा	185
प्रां@@	185
आउटलुक	185
कों@@	185
णात्मक	185
प्रोसेसिंग	185
शंकु	185
ऑक्सीजन	185
पढ़ता	185
ंबर	185
प्राइवेट	185
.05@@	185
पहुँचाए	185
तुली	185
झुकी	185
लाज़िम	185
बर्बाद	185
शती	185
आशीर्वाद	185
LINK	185
1935	185
पुण्य	185
प्रकरण	185
शेखर	185
वधू	185
प्रतिपादित	185
दुः@@	185
करोड	185
पैलेस	185
मस्तिष्@@	185
मातृ@@	185
करणों	185
वृंदावन	185
कुटुंब	185
अवा@@	185
अवक्षयण	185
जोज़े	185
तव्य	184
tions	184
यांत्रिकी	184
हवां	184
डेलिगेट	184
ीक	184
जलाने	184
रिश्ता	184
शिकारी	184
सितारे	184
उतरने	184
à¤¶@@	184
कलि@@	184
पतला	184
चालें	184
थन	184
थू@@	184
नज़@@	184
अँधेरों	184
बचो	184
मारकर	184
अकाल	184
बुलाता	184
चाही	184
निरर्थक	184
सौं@@	184
फ़रमा@@	184
मुख्@@	184
बालू	184
विकिपीडियाः@@	184
साम्यवादी	184
दीपावली	184
छठे	184
प्रणालियां	184
राजेन्द्र	184
कटक	184
उम्मीदवारों	184
आयुर्विज्ञान	184
वसा@@	184
सिद्ध@@	184
लेखे	184
पुरस्कारों	184
दर्शा@@	183
आपरेशन	183
पेन	183
त्ति	183
छुपी	183
घटाना	183
पूछेगा	183
आया@@	183
ूल	183
ओं@@	183
गोलाकार	183
नाइट	183
पीएम@@	183
ंति@@	183
तलाक़	183
मरते	183
मोहित	183
थैली	183
यश@@	183
महानता	183
क्रूर	183
मंज़ूर	183
कट्टर	183
२३	183
मिता	183
रवैया	183
आठवीं	183
उद्भव	183
अलंकरण	183
गंज	183
गठबंधन	183
लॉ	183
संश्लेषण	183
देशभक्ति	183
महारानी	183
गद्दी	183
सैयद	183
अर्थव्यवस्थाओं	183
छिद्र@@	183
सिक्का	183
इक्विटी	183
पंजी	182
ga@@	182
कर्स	182
पुनरा@@	182
प्रोग्रा@@	182
po@@	182
ब्रु@@	182
खिला@@	182
टिकाऊ	182
प्या@@	182
@@	182
à¤à¥	182
रियर	182
विकि@@	182
बली	182
कवच	182
श्वेत@@	182
अका@@	182
पहुँचता	182
भाल	182
संचय	182
माँगने	182
च्छ	182
प्रमाणों	182
पश्चात्वर्ती	182
चकित	182
ज़रिये	182
गोश्त	182
जाएगें	182
समन्दर	182
ड़िया	182
तुलसी	182
राजकुमारी	182
गुरुदेव	182
प्रण@@	182
कार्यकारिणी	182
नमी	182
एकाएक	182
यालय	182
घटी	182
परिचालित	182
केश	182
निभाते	182
वसाय	182
ev@@	181
मालि@@	181
सपाट	181
परिवर्@@	181
फ्रै@@	181
हण	181
खरी@@	181
मति	181
अवयवों	181
दुहरा@@	181
मालदीव	181
पला@@	181
खें	181
ताल@@	181
नट@@	181
पीसी@@	181
वाशिंगटन	181
द्रो@@	181
कल्प@@	181
ॆ@@	181
साध@@	181
ईधन	181
उड़ाते	181
मलामत	181
वंशज	181
अज़@@	181
अतिक्रमण	181
इन्साफ	181
मसल	181
तरक्की	181
स्वतन्त्रता	181
बेरोजगारी	181
प्रांगण	181
कीर्तन	181
मनोहर	181
पूंजी@@	181
बंगलौर	181
1931	181
1964	181
मंत्रि@@	181
क्तता	181
डिक्री	181
कुटुम्ब	181
कठिनाइयां	181
क्रमादेश	181
औष@@	181
डीटी@@	180
फाइलें	180
स्टार्टअप	180
फ़ाइलनाम	180
अधिष्ठापित	180
करूं	180
नहीं@@	180
स्ड	180
संके@@	180
item	180
0.0@@	180
संख्याः	180
श्रेणी@@	180
बाईं	180
ंडो@@	180
कालि@@	180
आपमें	180
बाव@@	180
अनदेखी	180
सातवीं	180
मिर्च	180
दबाने	180
जहा@@	180
शीशे	180
मेन्@@	180
आदिम	180
काएँ	180
86	180
माउंट	180
मेहमान	180
हरी@@	180
सुई	180
इंडि@@	180
शासी	180
दिवा@@	180
वक़्त	180
कम्पनियों	180
अनुप@@	180
खरीदी	180
छुआ	180
कपट	180
फ़रिश्ता	180
जातीं	180
बन्धन	180
वायुमंडल	180
चश्में	180
जहॉन	180
दूं	180
मसख़रापन	180
अठारह	180
खरीदा	180
जंतु	180
परिलक्षित	180
राशन	180
जीनों	180
आलोचक	180
मानसिकता	180
निवेशों	180
प्रमुखों	180
सूट	179
ss@@	179
स्थानः	179
बीबीसी	179
बेमेल	179
तस्वीरें	179
वर्त@@	179
मिली@@	179
दिन@@	179
फ़ोल्डरों	179
मातृ	179
पोल	179
अपहरण	179
कुत्ता	179
बेचा	179
1955	179
पहि@@	179
मौजूदगी	179
वीय	179
जमने	179
नारा	179
बिल@@	179
दूरदर्शी	179
अय@@	179
उत्प्रेरक	179
33@@	179
कपटाचारी	179
फिरता	179
सस्ते	179
बिछा@@	179
नीम	179
इम्तिहान	179
लल@@	179
ॅा@@	179
कहलाती	179
आतंकवादियों	179
निरु@@	179
पुरो@@	179
जज	179
सदा@@	179
राष्ट्रवाद	179
तन्त्र	179
उदारीकरण	179
पेयजल	179
लाभान्वित	179
Sta@@	178
बायें	178
ig@@	178
AR@@	178
अग्र	178
पुनर्नामकरण	178
निकलें	178
क्ता@@	178
संगठनात्मक	178
स्थाप@@	178
डिजि@@	178
दाहिनी	178
à¤²	178
कन्नड़	178
उभार@@	178
धुंध@@	178
सहा@@	178
संचयन	178
लोहा	178
द्रा	178
आक्रामक	178
पाउडर	178
बर्ट	178
उदाहरणों	178
दराज	178
अवमानना	178
प्रभावकारी	178
अशुभ	178
समुद्रों	178
फरीक़	178
फर्ज	178
मग़फिरत	178
मुन्तज़िर	178
रूसवा	178
मुब्तिला	178
पड़े@@	178
तकब्बुर	178
न्यूयार्क	178
खयाल	178
चट्टानों	178
हर्ष@@	178
विकलांगता	178
टीके	178
पट्टा	178
5,000	178
स्वंय	178
उद्यमशीलता	178
प्रतिभावान	178
चेन	178
चतुर्थ	178
रहन	178
रूपान्तर	178
तावादी	178
कठोरता	178
सम्पदा	178
उपगत	178
यहॉँ	178
गुरबख्श	178
खाण्डेकर	178
जेड	177
रीढ़	177
थाई	177
su@@	177
फ्लैग्स	177
SH@@	177
धुरी	177
प्राप्तकर्ताओं	177
णित	177
गैर@@	177
क्षण@@	177
अनगिनत	177
थ्@@	177
जियों	177
सीई@@	177
वोट	177
चैनलों	177
संभाव्यता	177
जमाव	177
असहाय	177
डाँ@@	177
अच@@	177
इत्मेनान	177
गुस्सा	177
नामए	177
योद्धा	177
प्रवर्तक	177
समन्वयन	177
मकबरे	177
संरचनाओं	177
1920	177
जनमत	177
त्रिक	177
दसवीं	177
कांड	177
उत्खनन	177
अधिवक्ता	177
मुक्@@	177
भित्ति	177
एचपीसीएल	177
बहियों	177
आकडा	177
AT@@	176
गुलाबी	176
th	176
टोन	176
CategoryName	176
प्रविष्टियों	176
प्ति	176
उलझन	176
कलन	176
निशाना	176
ग्रो@@	176
माइकल	176
स्वतन्त्र	176
परीक्षित	176
मुद्र@@	176
बहुदेववादी	176
रने	176
मुट्ठी	176
मजा	176
बिखरे	176
ूर	176
धागे	176
नाराज	176
नायडू	176
मुलायम	176
व्यंग्य	176
गियों	176
मयी	176
विश्वा@@	176
कवक	176
केंद्रशासित	176
प्रोद्भूत	176
अंशों	175
विभाजक	175
दिखती	175
रीडर	175
अस्थिर	175
संशोधनों	175
अस्@@	175
लेस	175
आरोहण	175
स्वयं@@	175
संगमरमर	175
à¤à¤¾	175
à¤@@	175
à¥@@	175
मूर	175
बुर्@@	175
इंडोनेशिया	175
ऊँ	175
रणनीतिक	175
क्षितिज	175
पाट	175
चमकता	175
स्पी@@	175
नाभिकीय	175
तिया	175
लाम॰	175
बेहिसाब	175
मेहराब	175
जानेवाला	175
कमाते	175
सर्जन	175
मनाते	175
बनायीं	175
पकाने	175
गुम्बद	175
ह्र@@	175
मन्त्र	175
1921	175
ञ	175
प्रयाग	175
00,000	175
अनुष्ठान	175
इंजीनियरों	175
पशुधन	175
परिसंघ	175
मिति	175
ड़	175
नैगम	175
मिटा@@	174
विधियां	174
ns@@	174
भण्डार	174
शॉ@@	174
ऑप्टिकल	174
The	174
ऑब्जेक्ट	174
गेटवे	174
ग्राफी	174
दिखाएगा	174
आरा@@	174
प्रिय@@	174
दबे	174
पहे@@	174
बटण	174
सम्मिश्रण	174
बताये	174
क्षर	174
à¤¨	174
à¤@@	174
संस्थापना	174
गोला	174
ठहरा@@	174
बोलता	174
घना	174
तितली	174
उत्तीर्ण	174
४०	174
रूपा@@	174
फेंका	174
बूझकर	174
ग़ायब	174
नसीब	174
नीच	174
भाग्यशाली	174
ख़ी	174
उपनिवेश	174
प्रशंसक	174
मजाक	174
हिंसक	174
सुविधाएँ	174
कारखानों	174
इण्डिया	174
देहरादून	174
चुनिंदा	174
185@@	174
कथानक	174
पीठासीन	174
आंत	174
राधा	174
विद्@@	174
जहॉँ	174
अभिदाय	174
‘‘भारत	174
विशेषताएँ	173
ब्राउज़	173
va@@	173
स्ले@@	173
माइक्रोसॉफ्ट	173
घं@@	173
च्छा	173
सजावटी	173
à¥à¤	173
जॉर्डन	173
साइंस	173
बहाव	173
कांच	173
तस@@	173
ंजी	173
शास्त्र@@	173
नकली	173
निश@@	173
जमी@@	173
द्वारों	173
अच्छाई	173
आलीशान	173
नती	173
उत्साहित	173
भत	173
कृष्णा	173
द्दीन	173
स्थापत्य	173
यंत्रों	173
फैलने	173
वर्गीय	173
सूरी	173
वहनीय	173
नर्मदा	173
पक्षकार	173
छेदन	173
मीयादी	173
नवान्वेषकों	173
पाएं	172
शेल	172
mp@@	172
जुटा	172
विंडोज	172
format	172
इड	172
उपयोक्तानाम	172
अरा@@	172
अशुद्ध	172
प्त@@	172
पंक्तिबद्ध	172
विवर@@	172
पड@@	172
हसन	172
टिप्पणियों	172
शिक	172
पढ़ा@@	172
िया	172
प्तता	172
बारीक	172
बरा	172
कृपा@@	172
ाओं	172
ह्य	172
परलोक	172
बहा	172
टिड्@@	172
मुक़ाबला	172
अतिथियों	172
लात	172
मुताबिक़	172
फतेह	172
मियां	172
खुलासा	172
करेंगें	172
स्ना@@	172
गुर्दे	172
हिंदुस्तानी	172
२१	172
गर्भगृह	172
हरिश्चन्द्र	172
0,000	172
ंद्र@@	172
अत्याधुनिक	172
सार्वभौम	172
मुनाफा	172
सचेतन	172
व्यवस्थाओं	172
असंतोष	172
चिंताओं	172
ट्रेडिंग	172
रेड्डी	172
वृक्क	172
कम्प्यू@@	171
सहेजे	171
फ़ाइलः	171
प्रकारः	171
संरेखण	171
फॉन्ट	171
अनुकूलित	171
पायें	171
शे	171
फोटो@@	171
यादृच्छिक	171
जीभ	171
बीता	171
साव@@	171
ताज	171
कोणीय	171
लैन	171
सन्त	171
जिं@@	171
वोल्@@	171
मीनार	171
उदार@@	171
पड़ो	171
नपी	171
लानी	171
ख़्या@@	171
क़ाबिल	171
बदतर	171
ऎ@@	171
चश्मा	171
स्टेशनों	171
दाँत	171
आत्मा@@	171
मातृभाषा	171
असहमति	171
स्थायित्व	171
जरा@@	171
घुड़@@	171
1969	171
निवारक	171
चैत्य	171
गंधर्व	171
तनी	170
चिह्नों	170
बेतरतीब	170
UTF	170
नेवि@@	170
आयेगा	170
संचारित	170
धनात्मक	170
राइट	170
यूनाइटेड	170
डीडी@@	170
हाँ@@	170
ठंडे	170
तस्@@	170
प्राथमिकताओं	170
खर@@	170
खोर	170
रक@@	170
रहनेवाला	170
नातेदार	170
लूँ	170
सख़्त	170
मज़ाक	170
सूझ	170
विलास	170
ताने	170
विभक्त	170
परिणति	170
बहुतेरी	170
जुनून	170
दीदी	170
युवती	170
जोखिमों	170
चार्टर	170
अभिनव	170
क्षक	170
साधु	170
पृथ@@	170
कोनों	170
बंधी	170
पर्वतमाला	170
रूख	170
देशभर	170
vii	170
बायोगैस	170
लाइसे@@	169
सपोर्ट	169
क्रिप्@@	169
सिम्@@	169
बनायें	169
बढा@@	169
डब्@@	169
जबरदस्ती	169
अवरो@@	169
एंड@@	169
पड़ेंगे	169
सिक्कों	169
टेल	169
टीपी	169
शांति@@	169
italyprovince	169
स्टेडियम	169
शुद्धि	169
ईर्ष्या	169
सन्तुष्ट	169
बढ़ोत्तरी	169
जमें	169
चारि@@	169
मक्कारी	169
दिला	169
वारों	169
रास्तों	169
भटके	169
है”	169
ट्ठा	169
ंए	169
अलिफ़	169
ज़र्रा	169
लूंगा	169
पहुंचाया	169
करुँ	169
ख़ुश@@	169
नफा	169
सुल्तान	169
मला	169
कब्र	169
डायरी	169
भरती	169
सुखी	169
संगमर्मर	169
गेंदबाज	169
उर्जा	169
वायसराय	169
स्तूप	169
मोर्चा	169
फिलीस्तीन	169
मकानों	169
पठार	169
नाशक	169
तंबाकू	169
ङ्ग	169
ढूंढ@@	168
RO@@	168
फ्रेंच	168
अलगाव	168
ऑफसेट	168
फाइनल	168
land	168
प्रत्याशित	168
काउंटर	168
व्यवस्थापक	168
पेन्@@	168
पहेली	168
पालक	168
फैक्@@	168
यिक	168
इस्ते@@	168
मिनि@@	168
टोपी	168
दिशा@@	168
ककर	168
रॉन	168
एओ	168
एसए@@	168
दीवारें	168
समांतर	168
पाली	168
थिक	168
गैसों	168
स्ती	168
कोरोना	168
अर्द्ध@@	168
रोजी	168
झगड़	168
पड़ेगे	168
बरसा	168
सेनाएँ	168
हुज़ूरी	168
रुकावट	168
मुबारक	168
घोल	168
दराज़	168
सल्ल	168
जागृत	168
निश्@@	168
सड़कें	168
मुहाफ़ज़ाह	168
उपभो@@	168
गाँधीजी	168
अस्पतालों	168
एकांत	168
सिद्धान्तों	168
ड़न	168
खनिजों	168
नकारी	168
ह्रदय	168
आनन्द@@	168
1967	168
प्रांतों	168
मानकीकरण	168
सुव्यवस्थित	168
भाड़ा	168
प्राप्‍त	168
हटाएं	167
रोज@@	167
मूक	167
पल्@@	167
चने	167
प्रांप्ट	167
महज	167
ma	167
परिधीय	167
लेज	167
श्याम	167
हैरान	167
क्रिस	167
विभा@@	167
लोर	167
आक्सीजन	167
फोर्ड	167
हारे	167
हेनरी	167
प्रक्रम	167
.08@@	167
फन	167
82	167
निगाहों	167
बेटियों	167
पहनते	167
पिला	167
न्यायसंगत	167
वाए	167
इन्तेज़ार	167
उगाने	167
सूत	167
ब्रह्मांड	167
वैश्वीकरण	167
१९४@@	167
शारदा	167
महे@@	167
प्रक्रियाएं	167
आवश्@@	167
बै	167
परिषदों	167
सरकार@@	167
संधान	167
कीटनाशकों	167
बालिका	167
शल्@@	167
आईएफसीआई	167
लपेट	166
पंक्तियाँ	166
रक्@@	166
फ़ॉर्म	166
अद्यतनीकृत	166
विषयः	166
बर्न	166
शिंग	166
एरिया	166
डेवलपर	166
क्रियाएं	166
पूर्णांक	166
al	166
\	166
डस	166
चमड़े	166
मस्ती	166
लॅ@@	166
घन@@	166
à¤µ@@	166
सजावट	166
तैय@@	166
वर्धित	166
घूमते	166
किया@@	166
ध्रुवीय	166
गुलाब	166
सू	166
ख्या	166
म्भ@@	166
उचक	166
छिपाए	166
हत्या@@	166
हवाएँ	166
ठंडी	166
ेंगी	166
आफताब	166
हड़	166
घटिया	166
जिंदा	166
1966	166
उदात्त	166
लाला	166
1983	166
शाब्दिक	166
निपटारा	166
ंचना	166
णुओं	166
कॉरपोरेट	166
आसियान	166
तुलन	166
अनुषंगी	166
दिशानिर्देशों	166
महत्तर	166
न्‍@@	166
डियन	165
चिन्हित	165
साथ@@	165
पहचा@@	165
यर्स	165
इंग	165
ंगः	165
डाक@@	165
उद्देश्य@@	165
टकी	165
विय@@	165
योंके	165
नार्थ	165
पूछेंगे	165
मुक्त@@	165
à¤@@	165
à¤¾à¤à¤	165
दफ़ा	165
रास	165
जुडे	165
प्रबंधकों	165
घबराहट	165
आईएस	165
रिन	165
रियाँ	165
सीढ़ी	165
गड़बड़ी	165
बिजनेस	165
उतरा	165
अँधेरे	165
जीवन्त	165
उज्ज्वल	165
हटाकर	165
बेचैनी	165
बिछौना	165
रूक	165
बाधक	165
बचाकर	165
जिलाता	165
गुज़रते	165
जती	165
निन्दा	165
बन्धक	165
ष्टा@@	165
वृति	165
रूसवाई	165
काज	165
बरतर	165
जानशीन	165
यकायक	165
आहिस्ता	165
कुफ्फ़ारे	165
आवेदनपत्र	165
विमानक्षेत्रों	165
धब्बे	165
अपरा@@	165
द्रविड़	165
बुश	165
सिन्धु	165
साहेब	165
संयोजित	165
वास्तु@@	165
कुलपति	165
महानतम	165
खिलफ	165
पूर्वजों	165
कहलाते	165
1919	165
कश्मीरी	165
हिस्सेदारी	165
अवरुद्ध	165
संवितरण	165
1क	165
खेले	164
बची	164
बहुल	164
मैनेजर	164
me@@	164
बचें	164
आड़ा	164
सरणी	164
01@@	164
जुड़@@	164
खिलाड़ियों	164
कंप्यूटिंग	164
अनोखा	164
स्ती@@	164
जानबूझकर	164
रेंज	164
प्रयोग@@	164
चाहिएं	164
चौं@@	164
सवाँ	164
जाली	164
वाल्@@	164
त्तम	164
फार	164
अश्व@@	164
प्रतिबिंब	164
पीआर@@	164
त्म	164
चढ़ने	164
हामान	164
विलम्ब	164
चिंघाड़	164
यादगार	164
अंधेरा	164
फरा@@	164
पल्ले	164
मुराद	164
मोहताज	164
तबलीग़े	164
गुनेहगार	164
मुनाफेक़ीन	164
बैठना	164
जनी	164
मशहूर	164
1954	164
शौचालय	164
स्मरणीय	164
पडेगा	164
मंडी	164
तिका	164
उपमहाद्वीप	164
असमिया	164
श्रोताओं	164
टेक्नोलॉजी	164
अल्पावधि	164
परिसंपत्तियों	164
राष्‍ट्रीय	164
Res@@	163
कान@@	163
दर्शाई	163
मोड्यूल	163
SMTP	163
सेन्@@	163
as	163
रिपोर्टिंग	163
स्की@@	163
ंगी@@	163
mail	163
ज्या@@	163
प्राक्सी	163
ऑटो@@	163
मौसमः	163
पुनर्प्राप्त	163
कारखाना	163
जां@@	163
10.@@	163
वना	163
ब्राजील	163
कुन्@@	163
निष्क्रियता	163
डीपी@@	163
ताव@@	163
ताई	163
बुला@@	163
लालसा	163
चौड़े	163
1928	163
गायों	163
पहाड़ो	163
आच्छादित	163
मुड़कर	163
सुगमता	163
डालेंगे	163
रचा	163
नीचा	163
यत्न	163
छी	163
अमानत	163
दफ्तर	163
क़त	163
पती	163
बैग	163
१९६@@	163
जादा	163
1958	163
भगव@@	163
1929	163
मद्देनजर	163
महीन	163
हरिजन	163
साहसी	163
लव@@	163
इलेक्ट्रानिक	163
सौंपी	163
संचलन	163
परिवीक्षाधीनों	163
type	162
लिस्ट	162
जेनेरिक	162
ja@@	162
एँ@@	162
आलेखी	162
tive	162
Mac@@	162
सर्च	162
पादन	162
समस्या@@	162
वीकार्ड	162
New	162
ंज@@	162
संबंध@@	162
उतारने	162
पुनरू@@	162
वाक़ई	162
आईएफ@@	162
घंटी	162
नैसर्गिक	162
योजन	162
ग्रहों	162
अनुसारः	162
खजाना	162
स्र@@	162
मुद्रा@@	162
निषिद्ध	162
काए	162
पुकार@@	162
अकड़	162
बुलाओ	162
होनेवाला	162
सेवकों	162
ृ	162
जाग्रत	162
तिल	162
घिरे	162
मानती	162
कुर	162
महत्वाकांक्षी	162
अध्ययनों	162
क्षाएं	162
मोर्चे	162
वल्@@	162
बंधे	162
सोलह	162
उग्रवाद	162
वाल्मीकि	162
खडा	162
भीम	162
रजत	162
बनर्जी	162
कावेरी	162
ज़@@	162
सीडीडीओ	162
कुलाध्यक्ष	162
मिलाने	161
रजिस्ट्रार	161
fi@@	161
कने@@	161
देशा@@	161
वर्त	161
विलुप्त	161
केला	161
गिने	161
वाक्@@	161
मही@@	161
काटा	161
पीटर	161
तुल@@	161
3/@@	161
हँसते	161
वंश@@	161
कारिता	161
उच@@	161
पार्श्व@@	161
गाया	161
दिलाओ	161
ख़ातिर	161
शेख़ी	161
बेहूदा	161
ताबेए	161
बदन	161
ऊं	161
लूट	161
पहनने	161
आर्डर	161
ग्रन्थों	161
ताकतों	161
तप@@	161
कीमियागर	161
पल्लव	161
कपूर	161
हरि	161
आवेदनों	161
निवृत्ति	161
श्रीनगर	161
चोल	161
वादक	161
विवेकपूर्ण	161
पहुंचते	161
गार्डन	161
मतदाताओं	161
तलाशी	161
खांसी	161
सद्भाव	161
कार्यात्मक	161
गुणवत्तापूर्ण	161
आनन्दराम	161
बाक्स	160
टीयर	160
जांच@@	160
help	160
मास्क	160
लनी	160
्स	160
प्यू@@	160
सैं@@	160
युग्म	160
gt	160
तीव्र@@	160
भाजक	160
गरी	160
µ@@	160
घूमने	160
वर्चुअल	160
नम@@	160
इला@@	160
व्यवस्था@@	160
सजाया	160
अप्@@	160
काग@@	160
तला	160
शब्दा@@	160
गृ@@	160
बुझ@@	160
सुथरी	160
पलटते	160
आधिपत्य	160
परिधान	160
झगड़ालू	160
घुटनों	160
परिक्रमा	160
प्रवीण	160
जड़@@	160
खड़@@	160
सियाह	160
मज़हब	160
मैनें	160
पहुंचता	160
नौकर	160
मिर्@@	160
सूख	160
समान@@	160
गांव@@	160
सभ्य	160
हफ्तों	160
क्षीण	160
कल्पना@@	160
जंतुओं	160
ग्य	160
सतीश	160
व्यवसायिक	160
फाइबर	160
माध्यमों	160
सचिन	160
छिड़काव	160
आवश्यकताएं	160
समेकन	160
मसलों	160
निर्यातकों	160
तड़@@	160
विलयन	160
ढांचागत	160
अभिलाभों	160
म्‍@@	160
व्यू	159
IC@@	159
रूपता	159
कुकी	159
q	159
निर्मा@@	159
स्टिंग	159
दर्श@@	159
Permissions	159
माएँ	159
बंधु	159
क्रॉस	159
मान्य@@	159
à¤à¤@@	159
मेंटेनर	159
à¤à¥à¤@@	159
मार्शल	159
सदिश	159
अमेरिकन	159
परिणाम@@	159
नजदीकी	159
झी@@	159
अवशिष्ट	159
महा	159
सुझाई	159
तकनी@@	159
ढाका	159
साम्@@	159
जार्ज	159
निए	159
सांख्यिकीय	159
मार्केट	159
अय्यूब	159
सचेतकर्ता	159
एकाग्र	159
ख़ि@@	159
तौक़	159
चुक	159
उम्@@	159
फरेब	159
आमादा	159
फली	159
शर्म	159
ठंड	159
चाहूंगी	159
भट्@@	159
८०	159
गंगा@@	159
गुदा	159
अमूल्य	159
निपटा@@	159
अंधकार	159
19वीं	159
ऋग्वेद	159
अंबेडकर	159
कोऋ	159
मथुरा	159
स्वार्थ@@	159
आलोचकों	159
उत्साह@@	159
पुं@@	159
प्लांट	159
21वीं	159
चेन्नम्मा	159
प्रलेख	158
यां@@	158
ंडा@@	158
इट	158
एक्सप्रेशन	158
सिकु@@	158
no@@	158
Co@@	158
use	158
लूप	158
फिल	158
पॉप	158
2022	158
प्रत्यय	158
समयबद्ध	158
CMS	158
टेन	158
डकोटा	158
केक	158
पद्ध@@	158
तम्	158
सूची@@	158
खण्ड@@	158
प्ति@@	158
सुरंग	158
रम@@	158
सरा	158
पंप	158
होल्@@	158
सेशन	158
à¤¿à¤¤	158
झाँ@@	158
ुक	158
व्यंजन	158
संघटक	158
जीवनकाल	158
जिया@@	158
युक्त@@	158
सर्प	158
बहुतायत	158
मानेंगे	158
शौक़	158
ल्य	158
धिया	158
ऐश	158
फैलाव	158
शौक	158
कविताएँ	158
पेशाब	158
हिस्@@	158
कारीगरों	158
अनुपम	158
लगन	158
मीरा	158
श्वरी	158
ाराम	158
भारतवर्ष	158
पत्ति	158
बोर्डों	158
प्रतीकात्मक	158
समाजों	158
चर्चाओं	158
दोषों	158
नीड़	158
किफायती	158
अभिदाताओं	158
व्‍य@@	158
डि	157
gra@@	157
वाक	157
se@@	157
125	157
नेट@@	157
व्यवधान	157
पांच@@	157
प्रॉ@@	157
सस	157
तीक्ष्ण	157
सुझावों	157
प्ल@@	157
कुंजियाँ	157
च्छेदन	157
टैक्स	157
बॉल	157
लीज	157
भाष@@	157
पहुँचा@@	157
संगीत@@	157
महिमावान	157
लानेवाले	157
हुज्जत	157
उपकार	157
प्रता@@	157
आओगे	157
छिप	157
रोते	157
हारा	157
ग़ाफ़िल	157
ढाँक	157
बख्शिश	157
एगें	157
अफसर	157
बेहतरी	157
अस्त@@	157
आखिरकार	157
रबड़	157
वायुयान	157
गलियों	157
मौर्य	157
ज्योति@@	157
द्वार@@	157
निष्कर्षों	157
विशेषतया	157
चटर्जी	157
कार्यशाला	157
शय@@	157
मॉरिशस	157
नोक	157
अथ@@	157
तत्परता	157
अद्वैत	157
अन्‍य	157
\\s	156
डिब्बा	156
परिवर्त@@	156
पूर्वज	156
मौज़ूद	156
मेलबॉक्स	156
निरसन	156
प्रबंध@@	156
ढ़े	156
सूत्रों	156
इन्द्र@@	156
२००४	156
पारिभाषित	156
युनि@@	156
लिपि@@	156
वाचक	156
मशी@@	156
शोध@@	156
जादुई	156
एकरूपता	156
जम@@	156
ठहर@@	156
झे	156
किसकी	156
पुकारकर	156
गिड़गिड़ा@@	156
फेरी	156
रिश्तेदार	156
कगार	156
बसर	156
पहना@@	156
फ़ु@@	156
धर@@	156
दरार	156
माँग@@	156
प्रतिष्ठा@@	156
प्यास	156
प्रका@@	156
ंदी	156
संर@@	156
दरख्तों	156
चौक	156
मुक़@@	156
देहा@@	156
सात@@	156
किसे	156
त्रासदी	156
पन्द्रह	156
पौष्टिक	156
२०००	156
उपनिषदों	156
३१	156
मोतीलाल	156
सर्जरी	156
पराजय	156
सिखों	156
हथि@@	156
निब@@	156
२८	156
गुफाओं	156
संगति	156
सूत्रकृमि	156
उपबंधित	156
राजनयिकों	156
ष्‍@@	156
फोल्@@	155
menu	155
फार्मेट	155
नुस्@@	155
लंब@@	155
nia	155
मेटा	155
end@@	155
IP	155
विस्थापित	155
पलायन	155
कु	155
जर्नल	155
ब्लॉग	155
रवि@@	155
पार्ट	155
काष्ठ	155
बिन्दुओं	155
कल्प	155
ट्रॉ@@	155
£@@	155
इम@@	155
डेल	155
मण्ड@@	155
सीपीयू	155
रिटी	155
सर्स	155
विद्यु@@	155
2.5	155
अंगूरों	155
दृढ़तापूर्वक	155
तमाशा	155
हक़दार	155
जवानी	155
चख	155
मज़@@	155
खौ@@	155
बर्दाश्त	155
यतीम	155
ढक	155
सीखते	155
दूतावास	155
छल	155
धो	155
ष्	155
निभानी	155
सावरकर	155
दुर्योधन	155
मनोनीत	155
1922	155
सामयिक	155
शक्तियाँ	155
ंत्र	155
स्पद	155
अलं@@	155
वन्यजीव	155
आक्साइड	155
संहार	155
मापने	155
ख्य	155
हवेली	155
विधाओं	155
कौर	155
ंभ	155
दौरों	155
पादपों	155
लाभार्थियों	155
डीटीओ	155
प्रियव्रत	155
pla@@	154
इक्का	154
कमिट	154
मिटाएं	154
उभारें	154
Re@@	154
सम्पादक	154
bo@@	154
छुपे	154
एकिगा	154
सुझाया	154
कराची	154
चौबीस	154
समाशोधन	154
ऑक्@@	154
5/@@	154
रहे@@	154
पेंट	154
¦@@	154
क्रिस्टल	154
बहुभुज	154
कता@@	154
डिजा@@	154
कल्स	154
१९३@@	154
टाई@@	154
सीय	154
iii@@	154
तरीक़ा	154
भागी	154
हलका	154
ज्ञाता	154
आँखे	154
अपनाकर	154
ठिकाने	154
रखिए	154
हरम	154
झिड़@@	154
सूझ@@	154
हुक्@@	154
साना	154
सुर्@@	154
ारियों	154
नगरी	154
अदालतों	154
गड@@	154
उभरे	154
ओड़िया	154
तपस्या	154
आरोपी	154
उपल@@	154
अधिकांशतः	154
ढाँचा	154
क्षकों	154
कांफ्रेंस	154
कांत	154
संवर्@@	154
चुकाने	154
प्रबुद्ध	154
समाचारपत्र	154
सरो@@	154
रोध	154
अभिकर्ता	154
ग्रामोद्योग	154
le@@	153
हीरा	153
an	153
lu@@	153
GNOME	153
दस्ती	153
फरे@@	153
बाइंडिंग	153
अधिक@@	153
फास्ट	153
जिब्राल्टर	153
आज@@	153
६०	153
२७	153
डने	153
1934	153
ठ्@@	153
दीप्ति	153
योज@@	153
फिलि@@	153
चि	153
पूर्णिमा	153
स्कू@@	153
लब्@@	153
घड़ियों	153
करुणामय	153
बरों	153
प्रत्यक्षतः	153
घड़कर	153
उन्माद	153
भरकर	153
बहुसंख्यक	153
फ्त	153
उलफ़त	153
झल@@	153
बिता@@	153
गठ@@	153
चिकित्सकीय	153
श्रुति	153
जड़ी	153
जयदेव	153
शिका	153
समझदारी	153
भरतपुर	153
महारा@@	153
चिकित्सकों	153
पन्न	153
हवाला	153
विनो@@	153
ओजोन	153
मेहता	153
कल्याणकारी	153
समृ@@	153
कारोबारी	153
प्रचाल@@	153
मज्जा	153
एनएल	153
निवि@@	153
आरटीआई	153
नर्इ	153
दर्जन	152
भरेंः	152
OS	152
at	152
इमेज	152
पीडित	152
म्ब	152
जीवा@@	152
दने	152
एफ़@@	152
रिचर्ड	152
Description	152
म्बर@@	152
जिकल	152
झोंके	152
अश@@	152
बला@@	152
गड्@@	152
राल	152
२९	152
विक्रेताओं	152
भूरा	152
टोक	152
बचते	152
कंजूसी	152
पड़कर	152
इनसाफ़	152
हितैषी	152
उद्घोषणा	152
खिलाने	152
मसलन	152
भाईयों	152
पहुंचती	152
इन्त@@	152
मसले	152
तमा@@	152
गुलामी	152
आसन	152
इमारतें	152
अक्षय	152
तत्पश्चात	152
वार्ड	152
1937	152
ंति	152
तालिबान	152
बारीकी	152
निरोधक	152
स्वामि@@	152
देशीय	152
उत्तरोत्तर	152
शिथिल	152
उपजाऊ	152
खिलाफत	152
द्धि@@	152
कक्षाओं	152
लद्दाख	152
पारेषण	152
मेरु@@	152
हारान	152
कम्बन्	152
पहुंच@@	151
खींचना	151
sy@@	151
फें@@	151
पताः	151
छापा	151
व्यू@@	151
id@@	151
डियाँ	151
im@@	151
सॉकेट	151
सहनशीलता	151
प्रोटोकाल	151
संगठ@@	151
पन्नों	151
सोमवार	151
सूचना@@	151
विरा@@	151
सेब	151
सादी	151
कनेक्@@	151
बोतल	151
ब्लैक	151
लियो	151
तारी	151
क्षेप	151
गाई	151
चिकनी	151
सिया@@	151
ट्राइ@@	151
लिनी	151
ज्य	151
विज@@	151
ठे	151
ख़ो@@	151
तब@@	151
ठाक	151
करनेवालो	151
तौरात	151
चौपाए	151
खुलकर	151
जत्था	151
खाएँगे	151
सत्तर	151
राह@@	151
फैलाए	151
बुर्ज	151
नर्म	151
जाग	151
बचाए	151
अनजाने	151
काते	151
ज़माने	151
तवाना	151
बादशाहत	151
सोचे	151
ताबीर	151
तख्त	151
हना	151
मांगने	151
पुजारी	151
होतीं	151
तम्बाकू	151
प्रौ@@	151
परी	151
महत्ता	151
द्योतक	151
सर्वसाधारण	151
डालती	151
खासी	151
पुरातत्व	151
खलीफा	151
मिथक	151
मधुमक्खी	151
जीवाणुओं	151
ध्रु@@	151
युक्तियुक्त	151
अंकुश	151
मूल्या@@	151
तेलंगाना	151
स्कंध	151
.04@@	151
बुकमार्क	150
ब्स	150
चिट्ठी	150
स्ट्री@@	150
रैम	150
दाहिना	150
खींचा	150
असफ़ल	150
परिवर्धन	150
निर्गत	150
31@@	150
मैक@@	150
चट@@	150
फ़िल्@@	150
संपीडित	150
जूद	150
विलीन	150
पालतू	150
यूएस	150
इंग्लिश	150
हाथ@@	150
@@	150
¯	150
ईसी	150
ज़्म	150
ph@@	150
उछ@@	150
लैस	150
वसू@@	150
ूस	150
सुधार@@	150
भटकते	150
छिपाओ	150
घड़ते	150
बरकतवाला	150
क्यक्ति	150
पढ़ाने	150
माँगो	150
अस्सी	150
ँग	150
चीख़	150
कटु	150
गद्@@	150
मर्ज़	150
यश	150
जज़ाए	150
दलीलें	150
ज़रुरी	150
पुतली	150
खड़	150
चढ़ा@@	150
फिल्में	150
रहस्यमय	150
क्रमश	150
बढती	150
वादिता	150
बिताने	150
अॅा@@	150
उत्सुकता	150
दांडिक	150
वल्ल@@	150
लक्ष्मी@@	150
कष्ट@@	150
मूर्त	150
1932	150
तुर@@	150
मुख्यतया	150
इस्तीफा	150
सहदेव	150
संचालक	150
युगों	150
सामं@@	150
गुणा@@	150
धना	150
हलचल	150
संभाला	150
परिसरों	150
नालंदा	150
245@@	150
परिसंपत्तियां	150
कार्यबल	150
मनोमय	150
स्‍था@@	150
स्या@@	149
पंजा	149
क़िस्मः	149
अतं@@	149
नीज	149
फ्लै@@	149
बेरी	149
de	149
um	149
समरूप	149
ko	149
सिंक	149
स्तो@@	149
भेजकर	149
कृत@@	149
सोम@@	149
men@@	149
tar	149
पक्षीय	149
क्सि@@	149
अंडा	149
®	149
नियंत्र@@	149
मरी@@	149
इंद्र@@	149
बेतार	149
सिटी@@	149
रते	149
पोलि@@	149
हाल@@	149
नीली	149
स्याही	149
ृत	149
तली	149
संसारवालों	149
जमाए	149
इतरा@@	149
चिरस्थायी	149
अलिफ़॰	149
आगवाले	149
पुकारेगा	149
चटियल	149
अंजाम	149
नाश@@	149
खल@@	149
अहद	149
फ़रमाबरदार	149
लतीफ	149
ज़ीनत	149
नुत्फे	149
लगायी	149
सब्जियां	149
लगान	149
स्वा	149
वैचारिक	149
वकीलों	149
1953	149
चम्@@	149
नर्सरी	149
तरंगों	149
कंप्यूटरों	149
वेद@@	149
परीक्षाओं	149
आपदाओं	149
धान@@	149
अभिनंदन	149
ब्रांड	149
वैवाहिक	149
1940	149
दमा	149
269@@	149
रिफाइनरी	149
वित्ती@@	149
उन्‍होंने	149
बढ़त	148
बांटने	148
लाग	148
सिले@@	148
लेंः	148
तंत्र@@	148
net	148
lan@@	148
फार्@@	148
विस्थापन	148
अंटार्कटिका	148
फ़ॉर्मेट	148
नीला@@	148
बिंदुओं	148
नल@@	148
एलबम	148
एह@@	148
दरा@@	148
दस्तावे@@	148
तांत्रिक	148
विर@@	148
ग्रीष्म	148
कैल्@@	148
आएं	148
बाला@@	148
गवा@@	148
ऑल	148
वेट	148
पैं@@	148
गिरते	148
ढ़ना	148
दुख@@	148
दुविधा	148
प्रभात	148
नुबूवत	148
डराना	148
पुश्त	148
पायेंगे	148
मुख़ालेफ़त	148
ढ़ों	148
सिखाने	148
पैतृक	148
लिप्त	148
उबुन्टू	148
प्राय@@	148
शालाओं	148
वस्त्रों	148
एनालॉग	148
उदासीन	148
आदतों	148
व्यवसायों	148
प्रमुखता	148
आर्द्रता	148
काव्यात्मक	148
अवधारणाओं	148
अभिया@@	148
तराई	148
लवण	148
कृतिक	148
लेखांकन	148
अपीलीय	148
आत्मनिर्भरता	148
िता	148
गवर्नेंस	148
पुनर्वित्त	148
अनुज्ञेय	148
वर्माजी	148
bl@@	147
स्वीकार@@	147
प्ले	147
स्थितिः	147
बदलावों	147
वाक्	147
युक्ति@@	147
कैप्@@	147
निर्माण@@	147
दह@@	147
करेंसी	147
बत्ती	147
स्वचलित	147
वेल्स	147
र्च	147
अंग्रे@@	147
फिक	147
मिश्र@@	147
भिन्@@	147
श्वे@@	147
राक्षस	147
मुशरिक	147
नातेदारों	147
विच्छेद	147
ख़ज़ाने	147
अन्दाज़ा	147
भोगी	147
बदचलन	147
तोड़कर	147
दयालु	147
सकर	147
सरकशों	147
माथे	147
गुमराहों	147
इम्तेहान	147
इन्तज़ार	147
ताब	147
ग़	147
वारि@@	147
मेघ	147
चीफ	147
गर्भपात	147
सजग	147
मुनि	147
गुफाएं	147
बढने	147
चिकित्सा@@	147
सेक्स	147
विचाराधीन	147
दीक्षित	147
अभिलिखित	147
ह्रा@@	147
जमींदार	147
कॉलेजों	147
नायिका	147
नवो@@	147
कुर्की	147
डिबेंचर	147
प्रीतनगर	147
मानि@@	146
तेरह	146
Free	146
ढीला	146
III	146
क्या@@	146
क्रिसमस	146
उत्तरः	146
°	146
वृत्@@	146
चारो	146
फेडरेशन	146
चित्रा@@	146
बढ़ाई	146
नाथन	146
प्रयोक्ताओं	146
य्@@	146
उत@@	146
र्	146
हुमा@@	146
सौम्य	146
अव्यवस्था	146
QShortcut	146
दूरवर्ती	146
धड़	146
तारीफ़	146
सिले	146
करु@@	146
वाजिब	146
बहू	146
भीम@@	146
कट्टरपंथी	146
ंकि	146
उद्योग@@	146
प्रज्ञा	146
यूरोपियन	146
सम्बंधी	146
ईश्वर@@	146
उत्तराखण्ड	146
तावाद	146
न्वे@@	146
न्यायोचित	146
निगमों	146
आत्मकथा	146
नीरस	146
दुर्गा@@	146
विद्यापीठ	146
दृश्@@	146
सम्मिलन	146
वय	146
रुग्ण	146
संवर्धित	146
विद्युतीकरण	146
सरण	146
सेक्टरों	146
संख्यांक	146
नवलराम	146
च्‍@@	146
खण्डन	145
प्रकार्य	145
नेटवर्किंग	145
पर्स	145
प्रयो@@	145
छां@@	145
34@@	145
दिलाई	145
पूछता	145
अरू@@	145
अनुवादक	145
नु	145
कॅ@@	145
बिं@@	145
सकतीं	145
टित	145
सुलझा@@	145
नाद	145
जिम	145
स्त्री@@	145
सूर्योदय	145
37@@	145
जाहिल	145
कमा	145
शत्रुता	145
मुनाफ़िक़	145
धैर्यवान	145
ज्र	145
वला	145
मीठे	145
घबरा@@	145
चादर	145
बेच@@	145
तटस्थ	145
गुजरना	145
शाहजहाँ	145
मुयमंत्री	145
सरोवर	145
मुखर	145
वाड़ा	145
जीविका	145
गन्ने	145
देशन	145
ऊर्@@	145
बाध्यता	145
शुक्राणु	145
पोलियो	145
नाटककार	145
लव	145
कॉर्पोरेशन	145
पङ@@	145
शिक्षार्थियों	145
आईआईटी	145
बीमाकृत	145
दां@@	144
शब्दकोष	144
संदेशः	144
सीपी	144
तरित	144
ें@@	144
थम	144
गोपित	144
गामा	144
गुणक	144
अबतक	144
जोड़ेगा	144
रिका	144
इंडियाना	144
मास्को	144
विल्@@	144
मांगा	144
ब्रू@@	144
दशा@@	144
बियन	144
कName	144
नियर	144
षण@@	144
करि@@	144
कारि@@	144
फुट@@	144
डीएल	144
आल्@@	144
क्वि@@	144
फिन	144
उड़ते	144
बारी@@	144
12.@@	144
स्ट्रा@@	144
थोरियम	144
समतुल्य	144
दंड@@	144
आईआर	144
दीर्घा@@	144
सर्वव्यापी	144
गृहों	144
विराजमान	144
गुन	144
गारे	144
तुझ	144
साँप	144
भूखे	144
कुंड	144
उड़ाया	144
बाइस	144
सरोकार	144
वालिद	144
फिक्र	144
दुम	144
उठाई	144
दखल	144
डीएनए	144
दीर्घावधि	144
अधिनियमों	144
शंकराचार्य	144
इस्लामवादी	144
क्षणिक	144
वचनबद्ध	144
मैदानी	144
रसायनों	144
णिक	144
राशियां	144
आरम्भिक	144
खर्चों	144
भगवती	144
तदर्थ	144
पंचायती	144
हितलाभ	144
ble	143
कार्लो	143
एडी@@	143
ऑप्@@	143
चेतावनीः	143
दोहराएँ	143
बट@@	143
कोइ	143
नोटः	143
तस्वीरों	143
डबल	143
सीए	143
पहचाने	143
दायें	143
चिली	143
केल	143
स्क@@	143
ª	143
à¤®à¤¾à¤@@	143
à¤	143
पिघ@@	143
तिब्बती	143
नियो	143
एनई@@	143
सज्जा	143
लेक	143
रग@@	143
सल्फर	143
आनेवाले	143
श्या@@	143
वह्य@@	143
रसास्वादन	143
मामलें	143
पुनर्जीवित	143
नशे	143
खियों	143
माँगी	143
तारि@@	143
स्र	143
रुह	143
सचाई	143
हिम@@	143
दुःखी	143
तैनाती	143
जुट	143
काण्ड	143
क़्यों	143
तलों	143
करोड़े	143
पेशियों	143
इंग़्लैंड	143
असहयोग	143
निरी@@	143
पुनरु@@	143
भावनाएं	143
कंप्यू@@	143
गांधीवादी	143
संबन्धी	143
रजिस्ट्रीकरण	143
प्रान्तीय	143
सभ्यतागत	143
अधिरोपित	143
मुफ़्त	142
हेडर	142
for@@	142
बीसी	142
Mo@@	142
एमएस@@	142
पायलट	142
अनुम@@	142
ळ	142
मोटर@@	142
शब्@@	142
डिब्बे	142
symbols	142
1927	142
भों	142
à¤¨à¤¹à¥à¤	142
सिंह@@	142
स्ते	142
शंस	142
एसआई	142
ब्रिज	142
गीली	142
परवलय	142
दास@@	142
खगोल@@	142
ज़ल	142
तेज@@	142
जत्थे	142
संतों	142
तोष	142
झूठ@@	142
सामरी	142
मवेशियों	142
उक@@	142
ग़रीब	142
लटका	142
धावा	142
तालिब	142
छे	142
गाड़ियों	142
पुलि@@	142
सज्जनो	142
अण्डे	142
अँग्रे@@	142
स्त्र	142
बृ@@	142
सत्	142
हिन्दु	142
आहत	142
चालन	142
भि	142
गम@@	142
दंडा@@	142
परांत	142
सावधानीपूर्वक	142
उपनिषद्	142
बिरूनी	142
एजेन्सी	142
कुंड@@	142
वाहिका	142
राजकोषीय	142
विनिश्चय	142
क’	142
कुलपतियों	142
अविलयित	142
र्ट@@	141
चलाएं	141
लगाएं	141
ting	141
ad@@	141
ce@@	141
\@@	141
दायरा	141
आगत	141
कास्ट	141
कीबोर्ड	141
प्रस्तुतिकरण	141
क्रास	141
सहभागियों	141
काक	141
क्रै@@	141
मेधावी	141
सर्वि@@	141
सेंटीमीटर	141
सुनाने	141
मॅ@@	141
स्कर	141
¶@@	141
à¤¾à¤à¤@@	141
अंदाज	141
एसएस@@	141
ia	141
ंगो@@	141
क्रू@@	141
धातुओं	141
मुला@@	141
जोड़ों	141
.09@@	141
उत्पीड़न	141
विशालता	141
तख़्@@	141
हु	141
डूबने	141
मुझमें	141
ख़ता	141
गधे	141
डरने	141
हथ@@	141
म्म@@	141
सफ़@@	141
देशो	141
ख़रीद	141
ईन	141
कश	141
बहते	141
बगीचे	141
मुर्गियों	141
हिरण	141
शास्त्रों	141
बिताया	141
द्रौपदी	141
जब्त	141
षऋ	141
नजरिया	141
यादव	141
लैटिन	141
गर्त	141
सतही	141
दहेज	141
दशरथ	141
धात्मक	141
प्रसिद्धि	141
पशुपालन	141
माध्य	141
प्रतिभूतियां	141
मकड़ी	140
स्का@@	140
प्लान	140
र्ज	140
ल्म	140
AN@@	140
शेष@@	140
मिटाए	140
pr@@	140
उलटा	140
q@@	140
el	140
अनुलग्नक	140
हां@@	140
धुंध	140
स्टी	140
क्रमों	140
180	140
विच	140
पोर	140
ग्राफिक	140
निल@@	140
अंदाजा	140
उथ@@	140
बैंगनी	140
फॉर्@@	140
संवर्ग	140
उत्पाद@@	140
स्पीकर	140
धोने	140
डेन	140
प्र	140
रिकार्@@	140
आर्ट	140
तुला	140
ील	140
क़ुरबानी	140
तुम@@	140
डराते	140
कारो	140
निष्ठावान	140
बद्@@	140
काकर	140
भव्यता	140
फ़ायदे	140
नह@@	140
नस्@@	140
विप@@	140
माले	140
दुश्मनों	140
तबके	140
जिनों	140
तादाद	140
देहाती	140
नामा@@	140
चतुर	140
भोर	140
कैन्टन	140
1860	140
कच्छ	140
नाथ@@	140
कपिल	140
रत्@@	140
ढोल	140
सेनानी	140
इन्द्र	140
शमन	140
क्षी@@	140
पार्वती	140
तव	140
२००३	140
माधव	140
अनुपूरक	140
धानों	140
अभिभूत	140
आवागमन	140
मुग्ध	140
1968	140
कल्चर	140
अभ्य@@	140
आसाम	140
उपस्कर	140
वाणिज्य@@	140
बायोमास	140
हाइपर@@	139
यूआरआई	139
नहला	139
डायरेक्टरी	139
Lo@@	139
टेक्स	139
सेकण्ड	139
ps	139
टेलिफोन	139
बुद्ध@@	139
एटलांटिक	139
अनूदित	139
फ़ोटो	139
लिप	139
खरा@@	139
लिटी	139
डेवलपमेंट	139
सिने@@	139
फ़रमा	139
महमूद	139
शिरा@@	139
मरु@@	139
इच्छा@@	139
पड़ाव	139
बिर	139
निर्बल	139
ठहराने	139
हलके	139
कराएगा	139
गुच्छे	139
क़लम	139
ज़ार	139
समझा@@	139
बेहोश	139
सिम	139
नाली	139
कत्@@	139
मिलों	139
मृग	139
अधी@@	139
जौ	139
वर्षा@@	139
काशी@@	139
सर्वो@@	139
जहर	139
मसालों	139
सज्जित	139
मानवाधिकार	139
श्रम@@	139
स्वदेश	139
रूपान्तरित	139
हृद@@	139
बैंकर	139
भृ@@	139
दृढ़@@	139
कालिदास	139
प्रयोजनार्थ	139
स्क्वाड्रन	139
अतिमानस	139
आनन्दमयी	139
आएंगे	138
छक्का	138
चुन@@	138
फ़ाइ@@	138
मेलिंग	138
अलि@@	138
आफिस	138
विश्ले@@	138
पहचानकर्ता	138
पिक	138
कॉम्@@	138
मॉड@@	138
status	138
माइम	138
संसूचक	138
21@@	138
क्री	138
लान	138
रियो	138
बाड़	138
ून	138
स्थिती	138
पडी	138
चिप	138
स्ट्रो@@	138
अनभिज्ञ	138
रेख@@	138
सिलि@@	138
कुओं	138
सिरों	138
.06@@	138
लिम	138
निस्सन्देह	138
रेगा	138
फैलाते	138
चढ़े	138
विजय@@	138
दिलाते	138
ड़ती	138
बाज़ारों	138
आज्ञा@@	138
उगाया	138
भाई@@	138
सीसा	138
जिद	138
आइन्दा	138
शरा@@	138
सोचती	138
पागलपन	138
वादों	138
दय@@	138
झीलों	138
ब्लेयर	138
ख्या@@	138
निर्बाध	138
वंशी	138
प्रधान@@	138
ठेकेदार	138
मुग़ल	138
अरबों	138
द्रष्टा	138
भ्रंश	138
इत्या@@	138
तथा@@	138
सूत्रपात	138
गुणसूत्रों	138
इतिहासकार	138
जुलकर	138
न्यायाधिकरण	138
मांसपेशी	138
प्रौद्योगिक	138
परिकलित	138
पीआईबी	138
देवियो	138
हिन्दुस्तानि@@	138
लेआउट	137
बांट	137
पन्ने	137
एडि@@	137
अनियंत्रित	137
मैट्रिक्स	137
वर्णमाला	137
मेर	137
मांगे	137
दृष्टांत	137
स्पर्श@@	137
सुपर@@	137
à¤¸à¥	137
à¤¨à¤¾	137
मलेशिया	137
रेडियो@@	137
टूटे	137
काइ@@	137
डीए	137
ह्यू@@	137
मोहक	137
यूनेस्को	137
रहेंगी	137
ल्क	137
अगु@@	137
विला@@	137
पतले	137
तानों	137
एकान्त	137
बन्दर	137
शान्ति@@	137
थोपकर	137
लूँगा	137
डरना	137
ूँगा	137
कियाँ	137
धुत्@@	137
घबरा	137
संकल्प@@	137
रहीम	137
निरा	137
मिलाप	137
वतन	137
प्यारे	137
मिसल	137
साने	137
ठू@@	137
महानगर	137
सउदी	137
निबन्ध	137
अमृत	137
पतियों	137
नेहरु	137
वक्@@	137
सज्@@	137
हैल्थ	137
चित्रकारी	137
प्रासंगिकता	137
प्रेरणा@@	137
अहिंसक	137
मराठा	137
अम्लीय	137
अजमेर	137
कैल्शियम	137
देशभक्त	137
निरोध	137
इसरो	137
डेबिट	137
समामेलित	137
अनंतिम	137
शिकायतकर्ता	137
राजभोज	137
रेक्@@	136
ck	136
जावास्क्रिप्ट	136
चमकीलापन	136
हिट	136
अग्रसारित	136
स्पा@@	136
ip	136
एपि@@	136
बिक	136
खोजा	136
CA	136
प्रकाशक	136
छोड़ते	136
आनलाइन	136
स्कै@@	136
अंकगणितीय	136
कर्षण	136
पहिया	136
ंकों	136
सीबी@@	136
रबर	136
यूटी@@	136
संवेद@@	136
सीआई@@	136
टीज	136
मैग्@@	136
11.@@	136
पिय@@	136
बिगा@@	136
तंत्रों	136
विरू@@	136
मोर्@@	136
शिरो@@	136
अजी@@	136
धनु@@	136
आवक	136
दाय	136
जोत	136
अंकन	136
ख़िलाफ़	136
बूझते	136
मुहताजों	136
पकड़@@	136
छिपाकर	136
ल्लाह	136
उन्हों@@	136
वचनों	136
बहरों	136
चलेंगे	136
बाँधे	136
खारी	136
मेंह	136
नफ्स	136
नफे	136
तदार	136
आयीं	136
बड़ों	136
साढ़े	136
भाईचारे	136
भयावह	136
गुटों	136
कंधों	136
ग्रीष्मकालीन	136
शेयरधारक	136
मनोविज्ञान	136
जुलूस	136
हते	136
उद्धार	136
तात्@@	136
अंग्रेज़	136
शूल	136
स्वर@@	136
अनू@@	136
लंब	136
प्रकाशनों	136
नौवहन	136
पनी	136
गणमान्य	136
अकादेमी	136
नवान्वेषणों	136
ser@@	135
ss	135
आलोकित	135
प्ली@@	135
मापक	135
समूह@@	135
सूचि	135
gen@@	135
पंक्ति@@	135
आयामी	135
अविश्वसनीय	135
नेल	135
निर्ग@@	135
स्थान@@	135
Ba@@	135
बलपूर्वक	135
सेमी	135
पसीना	135
धारियों	135
टाना	135
इसरा@@	135
ढी	135
नामि@@	135
¡@@	135
थॉमस	135
प्री	135
विरोधाभास	135
विना@@	135
अभिवादन	135
आयो@@	135
मग@@	135
भूत@@	135
पीली	135
समा	135
टाले	135
पांड@@	135
कूड़ा	135
रुसवाई	135
उतरी	135
सुननेवाला	135
संय@@	135
बाग़ो	135
कपटाचारियों	135
जानेवालों	135
अभीष्ट	135
गरदन	135
बाड़ी	135
भुजा	135
सबमें	135
वज्र@@	135
सिपाहियों	135
हुईहै	135
कारसाज़	135
तव@@	135
मग़फेरत	135
मुबादा	135
खासा	135
फला	135
हम्@@	135
ट्ठ@@	135
आत्महत्या	135
चांद	135
सुवि@@	135
शासनकाल	135
बॉम्बे	135
विश@@	135
प्रदूषक	135
द्वीपसमूह	135
राणा	135
महादेव	135
उत्कीर्@@	135
जमाराशि	135
नाड़ी	135
स्तु@@	135
दुर@@	135
वैभव	135
कुपोषण	135
पक्षपात	135
पूर@@	135
परामर्शदाता	135
मध्यकालीन	135
अंगु@@	135
बंजर	135
उच्चा@@	135
औरंगज़ेब	135
फ़रीद	135
सियारामशरण	135
श्वा@@	134
ब्लाक	134
स्वतः@@	134
मिक्स	134
us	134
न्तर@@	134
खता	134
बाना	134
ग्रे	134
लिहाज	134
रचनाएँ	134
मरा	134
9,@@	134
शक्ल	134
केन्@@	134
पुष्प@@	134
japan	134
उस्@@	134
प्राची@@	134
कामनाओं	134
जन्नतवाले	134
किसका	134
समझाना	134
रखों	134
सूली	134
लिखाई	134
ग़फलत	134
झाड़	134
बाख़बर	134
चीख	134
अजब	134
दुनयावी	134
बुख्ल	134
सरताबी	134
नबूवत	134
अन्देशा	134
बाने	134
नेअमतें	134
उजरत	134
दरा	134
हिटलर	134
पाठशाला	134
श्वर@@	134
साबुन	134
विमोचन	134
ंकने	134
1914	134
अल्पकालीन	134
स्मारकों	134
वेदी	134
ऋषियों	134
छोडकर	134
श्लेष्@@	134
प्रखर	134
टांगों	134
विजयनगर	134
रवीन्द्र	134
न्दन	134
पग	134
सिफारिशें	134
बैठा@@	134
गिरि@@	134
दुर्बलता	134
रुझान	134
साहित्य@@	134
शस्त्रों	134
मेघ@@	134
संन्यासी	134
द्वा@@	134
प्रणा@@	134
छावनी	134
अनुकरणीय	134
एजुकेशन	134
लक्षद्वीप	134
पेशेवरों	134
पुर्न@@	134
अधिशेष	134
वृक्@@	134
अधिगम	134
लसीका	134
विभिन्‍न	134
अभिभावक	133
जमावट	133
सिग्नल	133
Na@@	133
ef@@	133
API	133
अनुशंसित	133
ग्स	133
स्निपेट	133
होस्ट@@	133
सुपुर्द	133
याः	133
बढ़ाएँ	133
संबंधन	133
id	133
इंटर	133
tr@@	133
आयें	133
वेबसाइटों	133
याल@@	133
बिस्@@	133
धीमे	133
वर्तित	133
0,@@	133
चाबी	133
डीजल	133
नने	133
न्ड@@	133
अक्षर@@	133
अद@@	133
स्लोवेनिया	133
क्वालिटी	133
पश्@@	133
यूरो@@	133
मैग@@	133
फॉर@@	133
कार्ल	133
ईल	133
कॉन	133
थीटा	133
चाई	133
बेक	133
पेरि@@	133
सुने@@	133
स्वर्ण@@	133
जंग@@	133
कहाः	133
छल@@	133
उठाता	133
ख़ू@@	133
अन्धा	133
गँ@@	133
जमी	133
फटी	133
पकी	133
रकर	133
जिन्हे	133
होशियार	133
चढ़@@	133
माओं	133
बाहमी	133
इन्जील	133
फ़रमाएगा	133
हलाक़	133
छाई	133
तख्तों	133
च्च@@	133
तामील	133
पहना	133
अफ़्रीका	133
शतक	133
खगोल	133
ताकतवर	133
विवे@@	133
ढाई	133
किरा@@	133
गन्ध	133
पुथल	133
शुक्ल	133
गांधी@@	133
मुकदमों	133
पालिका	133
जायेंगी	133
यार्ड	133
चित्	133
यनों	133
मुखा@@	133
ङ्ग@@	133
छात्र@@	133
कथाएं	133
किस्त	133
ममता	133
घों	133
बल्लेबाजी	133
बुद्धिमत्ता	133
प्यूपा	133
एचआईवी	133
मतभेदों	133
पारिस्थितिक	133
ग्यारहवीं	133
सार्व@@	133
नगण्य	133
117	133
अभियानों	133
‍यों	133
मिलनी	132
wa@@	132
वत्@@	132
ल्प	132
दस्ता@@	132
बेसिक	132
जाँचने	132
ंकर	132
XML	132
ज्यामिति	132
बाध्यकारी	132
व्यवहारिक	132
बहुमुखी	132
बायीं	132
पेस्ट	132
ll	132
TI@@	132
लिफाफा	132
शुक्र@@	132
उद्ध@@	132
खेलना	132
तूफ़ान	132
खडी	132
हास	132
देस	132
लदान	132
लास@@	132
टोली	132
à¤ªà¤°	132
मारी@@	132
निलंबित	132
कोशि@@	132
जल्@@	132
वसी@@	132
हब	132
वाच@@	132
सार्@@	132
पीस	132
रेस	132
मेष	132
नशीलता	132
फेंकने	132
फ़िरऔनियों	132
पैग़म्बरी	132
युवावस्था	132
अमुक	132
जादूगरों	132
धुन	132
लाएँगें	132
हारुन	132
जिन्दगी	132
नाकाम	132
ya@@	132
खातिर	132
ण्य@@	132
बीसवीं	132
बरकरार	132
निष्कासन	132
गवर्नमेंट	132
अपूर्व	132
मदर@@	132
७०	132
लिपियों	132
सेबी	132
डे़	132
ड्रग	132
सिस्ट	132
ट्ट@@	132
प्रतिस्पर्द्धा	132
समाचारपत्रों	132
गुणांक	132
पुनर्जागरण	132
नैदानिक	132
प्रदाताओं	132
अल्पसंख्यकों	132
योंको	132
णो@@	132
उपदान	132
टनभार	132
इंडिया’	132
दीपू	132
लॉन्@@	131
खाँचा	131
Software	131
चें	131
पेड	131
डिट	131
बज	131
सोचें	131
गुजरते	131
उंड	131
फोर्स	131
Yahoo	131
फाल	131
अंकीय	131
KB	131
अलौकिक	131
à¤²à¤¿à¤	131
¡	131
गोवि@@	131
डियो@@	131
क़िस्@@	131
à¤¸à¤à¤¦à¥à¤¶	131
ट्रिक	131
शैलियों	131
श्ले@@	131
ड्डी	131
न्दी	131
ब्रश	131
पु	131
कारपोरेट	131
तावान	131
गुज़ार	131
मोड़ते	131
नरक	131
मिथ्या@@	131
गर्दनों	131
मटियामेट	131
उठेंगे	131
रहूँ	131
करतूत	131
मायूस	131
कब्रों	131
ैल	131
कटे	131
थोडे	131
बनेंगे	131
हस्पताल	131
उत्साही	131
उपनिवेशवाद	131
संघर्ष@@	131
घे	131
इंस्टॉल	131
सोची	131
धीश	131
सिन्हा	131
खर्चा	131
बौद्@@	131
स्थितियां	131
याचि@@	131
शासन@@	131
सम्रा@@	131
निर्वाचक	131
प्लेटफार्म	131
भ्रामक	131
सर्जनात्मक	131
मिजाज	131
इंजेक्शन	131
कलकत्ते	131
निःस्वार्थ	131
ऋणदाता	131
चात्रिक	131
चन्दु	131
अविलयन	131
अध्‍य@@	131
करने@@	130
वुड	130
स्वत	130
फ्लैट	130
न्यून	130
लंगर	130
अनाम	130
खींचें	130
फुल	130
भ्@@	130
काः	130
उन्न@@	130
स्यू@@	130
जंक	130
बाँट	130
पारा@@	130
वर्णा@@	130
नारंगी	130
आपरे@@	130
पर्याय	130
एके@@	130
83	130
सीरिया	130
पश्चि@@	130
प्रया@@	130
संरक्षा	130
म्या@@	130
अयस्क	130
कागज़	130
ख्य@@	130
फ़िल्टरName	130
.07@@	130
मस्जिदों	130
उम@@	130
पहाडियों	130
पुकारता	130
्रा	130
अज्ञानता	130
वृत्तान्त	130
मचा@@	130
बदार	130
प्रार्थ@@	130
निद्रा	130
शयातीन	130
ढी@@	130
दरवाज़ा	130
सड़	130
नीची	130
छिड़@@	130
बहादुरी	130
सांसदों	130
वार्मिंग	130
आश्र@@	130
निवा@@	130
दुर	130
वस्तुतया	130
1500	130
स्ति	130
नुभूति	130
क्षरण	130
गिक	130
कीटा@@	130
बंदियों	130
विधान@@	130
तटों	130
कार्रवाइयों	130
पूति@@	130
संभाव्य	130
इन्टरनेट	129
पट्टिका	129
एक्सएमएल	129
रेटर	129
आँकड़े	129
tor	129
बग@@	129
ver@@	129
pp@@	129
ic	129
मिस	129
पता@@	129
सहाय@@	129
आफ@@	129
टेगा	129
मेगा@@	129
विलो@@	129
स्तंभ@@	129
:00	129
संवे@@	129
ऑस्ट्रेलियाई	129
रोप	129
क्रोएशिया	129
आड़े	129
स्टोन	129
बेकिस्तान	129
बक्@@	129
ऑफ़िस	129
डीएफ	129
लर@@	129
उड़न	129
कुम्@@	129
प्रतीकों	129
झाड़ी	129
ंभ@@	129
asia	129
हल्@@	129
टार्@@	129
बलि@@	129
किस्@@	129
मिलि@@	129
पच@@	129
मापा	129
ग़ल@@	129
प्रतिनिधि@@	129
निकलो	129
माँस	129
उतारते	129
पहुँचाता	129
कारागार	129
पीता	129
पहर	129
अन्यायपूर्ण	129
सितम	129
लाह	129
ग़ार	129
सादगी	129
वेशभूषा	129
सीख@@	129
श्	129
विशालतम	129
उमीद	129
२००९	129
पांडिचेरी	129
कैंप	129
तथ	129
1,000	129
तंतु	129
शौर्य	129
टनी	129
गग@@	129
सभागार	129
इच्छाशक्ति	129
केयर	129
एजेंसियां	129
छपा	129
गोविन्द	129
प्रतिभा@@	129
सरसों	129
रचे	129
नाशी	129
भाषाई	129
विच@@	129
हरिभाऊ	129
प्रीत	129
परिणामी	129
आवासी	129
प्रक्रमक	129
बनार्इ	129
पथः	128
सोर्@@	128
Di@@	128
छाँटें	128
घुसाएँ	128
तरू	128
cu@@	128
पढने	128
ंचा	128
चुनकर	128
युक्तियों	128
Con@@	128
जुड़ाव	128
दृश्यता	128
कुवैत	128
कार्यदिवस	128
समयक्षेत्र	128
कीजिये	128
असम@@	128
संगीतकार	128
निपुण	128
घटती	128
आड@@	128
आवे@@	128
डना	128
झि@@	128
अद्@@	128
सॅ@@	128
प्रतिकृति	128
परिवर्तनशील	128
à¤®	128
त्रि	128
एसएम@@	128
नरे@@	128
न्यु@@	128
पम्प	128
ओर@@	128
तट@@	128
डेंट	128
किरणों	128
कशे@@	128
मकर	128
यरी	128
तरफा	128
बदी	128
हज़ारों	128
उपमा	128
क़ीमत	128
घड़ा	128
दहा@@	128
विकट	128
कंगन	128
अवशेषों	128
बेव@@	128
पॉव	128
ल्लम	128
राज़	128
असबाब	128
शिर@@	128
खरीदे	128
द्यो@@	128
उभरने	128
धारावाहिक	128
न्ती	128
मुल्कों	128
कार्बनिक	128
विवेक@@	128
टं@@	128
कारो@@	128
अस्पृश्यता	128
1944	128
दायि@@	128
गोदावरी	128
गोलमेज	128
अफसरों	128
ऊर्ध्व@@	128
लालटेन	128
कार्यकरण	128
आकाशवाणी	128
मूत्राशय	128
उपन्यासकार	128
कृ	128
विदों	128
अवर	128
दृष्टिगत	128
म’	128
हटायें	127
एल्बम	127
va	127
मेन@@	127
संस@@	127
संवर्द्धन	127
फ़ील्ड	127
ES@@	127
iCalImp	127
शिकागो	127
प्राक्@@	127
नक़@@	127
चलाये	127
मध्या@@	127
समन्व@@	127
खरीद@@	127
साल्@@	127
à¤²à¥à¤@@	127
पटी	127
झोंका	127
जम्@@	127
लेन@@	127
आक्@@	127
कन्नड	127
हालाकि	127
मूसलाधार	127
विक्टोरिया	127
च्छेद	127
फंस	127
कपा@@	127
ों@@	127
थाम	127
छाँव	127
उड़ाई	127
दृष्टियों	127
दुर्दशा	127
आसीन	127
ज़रू@@	127
आवेश	127
ारित	127
फ़ौरन	127
चारपाए	127
झट	127
श्त	127
पका	127
लापरवाही	127
बच्च@@	127
फांसी	127
नऋ	127
सप्लाई	127
बारहवीं	127
उपदेशों	127
धर्मा@@	127
मुआवजा	127
अन्न@@	127
असंतुलन	127
जानकार	127
वेदा@@	127
ऋण@@	127
1905	127
त्सा@@	127
कुमार@@	127
नाभि	127
स्वास्थ्य@@	127
प्रचारित	127
वंशा@@	127
जूनियर	127
सविनय	127
अग्रभाग	127
भुवनेश्वर	127
सूफी	127
स्पष्टतः	127
नजरिए	127
अभिरक्षा	127
key	126
min@@	126
कटा	126
दृश्यमान	126
version	126
मिलाएँ	126
गिंग	126
दिखानी	126
तां@@	126
मृदु	126
जें@@	126
RA@@	126
बर्लिन	126
कोर@@	126
तोड़ना	126
जुडा	126
ज़र@@	126
लेप	126
ऑर्डर	126
क्रॉ@@	126
ज्वाला	126
हित@@	126
हिन्@@	126
नागा@@	126
आनु@@	126
राज्@@	126
ट्रेनिंग	126
प्रशासकों	126
एसटी@@	126
जेन्@@	126
रेज	126
छाल	126
गुना@@	126
मुठभेड़	126
फिरती	126
ग़फ़लत	126
ज़िम्मा	126
भड़क	126
दाढ़ी	126
जीर्ण	126
बरसाता	126
अस्तर	126
रज@@	126
हक़ीक़त	126
रिहाई	126
खट@@	126
गाए	126
उन्हें@@	126
चलिए	126
ेंगें	126
ताड़	126
पेशा	126
यिका	126
उथल	126
भावात्मक	126
युद्धों	126
ब्रह्माण्ड	126
अलवा	126
पुरु@@	126
चरित्रों	126
ध्वस्त	126
यात्राएं	126
चय	126
कागजात	126
भाष्य	126
वाड़ी	126
नौकरियों	126
हरिद्वार	126
ढाँचे	126
दीवाली	126
षणों	126
प्रतिक्रियाओं	126
1982	126
पंथी	126
मसाला	126
आत्मसात	126
1936	126
मातृत्व	126
दलीय	126
गर्भधारण	126
नजर@@	126
त्पादक	126
करारों	126
सुकर	126
बृहत	126
लाभार्थी	126
हितधारकों	126
ईश्वरचन्द्र	126
अट्ठा	125
du@@	125
रिलीज	125
प्ट	125
लोडिंग	125
स्थिति@@	125
02i	125
लिखता	125
बजाया	125
विज़ेट	125
ज़ेशन	125
PO@@	125
लांच	125
खिसका@@	125
गया@@	125
भूलना	125
विश्वस्त	125
EL@@	125
कंटेनर	125
अपराह्न	125
तश्तरी	125
बीप	125
निर्धारक	125
जीवाश्म	125
टैक्@@	125
व्हाइट	125
दरजा	125
टोकरी	125
इसी@@	125
ईएस	125
आयामों	125
कोज्या	125
जुल@@	125
मसा@@	125
रेजि@@	125
क्र	125
छपी	125
ंगटन	125
ंदा@@	125
एपी	125
बड़ा@@	125
तुं@@	125
खिलाते	125
बछड़ा	125
ध्यानपूर्वक	125
नापाक	125
वृत्तांत	125
पछता@@	125
नरमी	125
न्यायपूर्ण	125
उगाए	125
सहजता	125
पर्ची	125
पीप	125
तुल	125
कहेंगें	125
जोल	125
आपातकाल	125
साधु@@	125
भास	125
जामा	125
यूरिया	125
सम्भवतः	125
कलश	125
बढे@@	125
समूची	125
स्वाधीन	125
पांचवें	125
इंसुलिन	125
मेश्वर	125
च्छद	125
घटनाक्रम	125
त्वा@@	125
विचारक	125
अदम्य	125
बेचे	125
लयन	125
मज्@@	125
अरुण	125
कर्मकार	125
अन्तरण	125
राजनीतिज्ञ	125
म्र	125
ग्वालियर	125
मूंगफली	125
समसामयिक	125
खक	125
प्रकारों	124
टेम्पलेट	124
Foundation	124
कंसोल	124
मेंट्स	124
आइकन	124
ch	124
SI@@	124
स्प्रे@@	124
ver	124
अन्तर्निहित	124
प्रच@@	124
एससी	124
EX@@	124
सकी@@	124
मिमी	124
सेवर	124
रिसोर्स	124
रची	124
यॉं	124
नॉर्@@	124
दक्षिण@@	124
क्षो@@	124
इंद्र	124
टेढ़ा	124
अफगान	124
प्प	124
सना@@	124
धूम@@	124
मोन	124
नयन	124
3000	124
विरोधियों	124
बूर	124
ओट	124
क़ानून	124
आरोपित	124
पथराव	124
असम्भव	124
तक़@@	124
हक़ीकत	124
भागते	124
प्रलय	124
इसलाह	124
जिन्दा	124
आज़ादी	124
मुरा@@	124
जह@@	124
लंग@@	124
प्यारी	124
ंकना	124
भर्त्सना	124
चरों	124
मिशनरी	124
थान	124
मेहरा@@	124
साहित्यकार	124
१९०@@	124
कदा	124
कुलीन	124
चतु@@	124
आराधना	124
खना	124
1959	124
तित@@	124
चालुक्य	124
अवार्ड	124
शंकर@@	124
अप्रति@@	124
पुरोहित	124
समष्टि	124
ण्डि@@	124
प्रतिष्ठानों	124
अर्हक	124
डीडीओ	124
जायगी	124
देशीराज्यों	124
‍न	124
हाइलाइट	123
सोल	123
button	123
nu@@	123
तिक्की	123
ब्रेकपाइंट	123
टन@@	123
ईकाई	123
मल्टी	123
संयोजक	123
डक	123
हुआ@@	123
एना@@	123
मेरि@@	123
कंपोजर	123
कोष्ठ@@	123
संख्यात्मक	123
रेक	123
सिव	123
मनोबल	123
खेल@@	123
भावुक	123
परिवर्तक	123
शंख	123
object	123
UN@@	123
बीतने	123
ओस	123
मट@@	123
प्टर	123
बताएगा	123
पीए	123
मैरी	123
साउथ	123
दुनिया@@	123
डीलर	123
पीपी@@	123
त्ति@@	123
सीएल	123
फेंकना	123
कनिष्ठ	123
क्लस्टर	123
सुनाए	123
पुकारे	123
कष्टों	123
चीज़ो	123
पिलाने	123
पहुँचेगी	123
छोड़ता	123
आत्माओं	123
कतरा@@	123
सियत	123
कतई	123
हिर	123
बरपा	123
वस@@	123
ज़रिया	123
फरी@@	123
सरी@@	123
बचाना	123
दवाई	123
त्ती	123
ya	123
अन्तरात्मा	123
शाप	123
दलाल	123
हानि@@	123
गंदगी	123
रक़्त	123
२००१	123
एकमुश्त	123
आदिवासियों	123
क्राइ@@	123
भीष्म	123
अडिग	123
बंधु@@	123
मूर्तिकला	123
ज्ञों	123
शिलालेख	123
गंगाधर	123
भावना@@	123
उन्मुक्त	123
माद	123
इलैक्@@	123
फोरम	123
आवश्य	123
अंगीकार	123
मानंद	123
वसान	123
इलेक्ट्रा@@	123
उग्र@@	123
ट’	123
‘‘मुझे	123
उपलब्‍ध	123
शीर्षकः	122
राउंड	122
साईट	122
Sp@@	122
पायथन	122
त्वरण	122
मॉनीटर	122
सेप्@@	122
ग्रु@@	122
इनलाइन	122
der@@	122
केर@@	122
विन्या@@	122
भेज@@	122
प्रवा@@	122
िये	122
इंजिन	122
तिया@@	122
à¤¸à¥à¤¤@@	122
à¤à¥à¤·@@	122
होल	122
युग@@	122
नायर	122
मैं@@	122
चुम्बकीय	122
सभ्यताओं	122
न्ना	122
सूर्यास्त	122
रिक्तियों	122
ऑक्साइड	122
मेह	122
दण्ड@@	122
तंग@@	122
इमरान	122
चमत्@@	122
अभिवचन	122
भय@@	122
धँसा	122
पिलाया	122
कम्बख्त	122
कज़ी	122
श्ती	122
ख़ै@@	122
तज़किरा	122
इन्ते@@	122
रिश्तेदारों	122
करतीं	122
१९५@@	122
मुस्कान	122
विविधतापूर्ण	122
मरीजों	122
निष@@	122
कवरेज	122
ईस्वी	122
स्पर्धा	122
खोने	122
राइड	122
संकल@@	122
मोंटे	122
बीमारियां	122
धमनियों	122
तिलहन	122
कानू@@	122
भाड़े	122
ईयां	122
संकट@@	122
मिज़ाज	122
कुएं	122
प्रेमियों	122
हिन्दुस्ता@@	122
प्रोग्रामन	122
सीटों	122
पूर्वगामी	122
करार@@	122
धरातल	122
गौरवपूर्ण	122
अंड	122
द्यु@@	122
कन्द	122
असंगठित	122
139	122
प्रच्छन्न	122
प्रयोज@@	122
बंधपत्र	122
सार्क	122
टाउन	121
रोमा@@	121
द्धि	121
ms	121
यूजर	121
अधिष्ठापन	121
स्कैनिंग	121
चें@@	121
चतुर्भुज	121
मोटाई	121
ढूंढ़ने	121
UID	121
माण@@	121
ऑब्@@	121
डिस्प्ले	121
एआर	121
ci@@	121
सफ़ेद	121
आनुपातिक	121
भालू	121
सितारा	121
नग@@	121
इथियोपिया	121
फेंक@@	121
विखंडन	121
सिरा	121
सन्धि	121
शुभ@@	121
प्रतिबिम्ब	121
१०००	121
माया@@	121
विपत्ति	121
दिखाती	121
अनंत@@	121
पैकेजिंग	121
ब्री@@	121
घटकर	121
वाट	121
दिखते	121
लाइफ	121
दिखलाओ	121
पहुँचाते	121
वृतान्त	121
इतराते	121
चहरों	121
देखों	121
निगल	121
अप्रसन्न	121
रजी	121
उपरान्त	121
बकवास	121
संगसार	121
मरुस्थल	121
बागों	121
सज्जन	121
फॅ@@	121
दस्त	121
किस्सा	121
बीना	121
बहार	121
बारगी	121
बत्@@	121
ऑंधी	121
जीर	121
लिखीं	121
नब्बे	121
अंतर्दृष्टि	121
ढका	121
वाह@@	121
भैंस	121
“मैं	121
मद्@@	121
कोलंबिया	121
गर्मियों	121
तात्मक	121
उमर	121
स्वयंसेवक	121
टंकण	121
1924	121
निन	121
महाजन	121
नितांत	121
कैलाश	121
स्वर्ग@@	121
संयोजी	121
तीकरण	121
रायपुर	121
शाल	121
मध्यप्रदेश	121
फेफड़े	121
प्रतियोगी	121
वेदन	121
मीकरण	121
संवेदन	121
कार्यशालाओं	121
रक्तस्राव	121
डिम्ब@@	121
निष्पा@@	121
स्लॉट	120
बांटना	120
व्यवसायी	120
ण्डर	120
र्ड@@	120
उपसर्ग	120
अन्यों	120
सुधारना	120
Web@@	120
संतृप्ति	120
फीचर	120
टाइम@@	120
खंडित	120
डर्स	120
इशारे	120
व्यवसाय@@	120
मैक्सिको	120
कात	120
मसौदे	120
निम्नतम	120
360	120
विजन	120
अजगर	120
फोटोग्राफ	120
आरेखित	120
डेनमार्क	120
क्षोभ	120
फेस	120
पैराग्राफ	120
साइमन	120
चुनता	120
सामीप्य	120
ग्रं@@	120
मोर@@	120
मुद्राओं	120
सक्षमता	120
अवै@@	120
प्रधानता	120
वाष्प	120
स्त्रा@@	120
इच्छानुसार	120
भागो	120
इयाँ	120
वैश्@@	120
राजसी	120
जाद	120
प्रोफे@@	120
रिव्यू	120
पहुँचते	120
कौम	120
जुटे	120
निकलेगा	120
चतुर्दिक	120
नेकियाँ	120
नवयुवक	120
वनस्प@@	120
जीवधारी	120
प्रशंसित	120
झूठलाया	120
ईमानवाली	120
मंज़िल	120
आभूषणों	120
दौड़े	120
एहदो	120
माँगों	120
लग़ो	120
नाशुक्रे	120
तदबी@@	120
साज़ो	120
फरज़न्द	120
कारगुज़ारियों	120
खै@@	120
ारत	120
बदनाम	120
आगा	120
बचता	120
ख़़ुद	120
हरों	120
रिपोर्@@	120
कीड़ों	120
दुर्व्यवहार	120
ओलंपिक	120
अधीक्षक	120
पहुंचाना	120
तरण	120
पराग	120
कारीगर	120
कस्बों	120
बोध@@	120
दंगे	120
स्पो@@	120
मताधिकार	120
फार्मा@@	120
कम्युनि@@	120
फर्मों	120
बाबासाहब	120
ढुलाई	120
ब्रह्@@	120
ग्लूकोज	120
सेनानियों	120
11वीं	120
वित्त@@	120
पर्य@@	120
फुटकर	120
मॉँ	120
viii	120
सम्‍@@	120
पट्ट	119
लचीला	119
mi@@	119
शहर@@	119
पैथी	119
भरोसे	119
mbox	119
पन्ना	119
प्रिंस	119
रें@@	119
मंगल@@	119
हॅ@@	119
वसंत	119
à¤¸à¥à¤@@	119
मैथि@@	119
एमएल	119
स्टीन	119
वर्ट	119
प्याज	119
फ़्रे@@	119
दाग	119
वक्र@@	119
मुद्@@	119
कोना	119
अणुओं	119
डिवीजन	119
नीज़	119
रामा@@	119
गूँ@@	119
ठहराओ	119
पकड़ो	119
विरक्त	119
टेढ़	119
मुनाफ़ि@@	119
सामर्थ्यवान	119
आदरणीय	119
बेहोशी	119
जगा	119
लौ	119
मुतावज्जे	119
दीने	119
एगे	119
बरदाश्त	119
बुर्दबार	119
दूना	119
ऐन	119
मुख़@@	119
भाले	119
बाँध@@	119
बख़्शिस	119
लहरों	119
किस्से	119
खिल@@	119
ग्य@@	119
हिचकि@@	119
दंडित	119
विनती	119
अभ्यस्त	119
डिपो	119
अराजकता	119
वल्लभ	119
श्रेणीःभारत	119
उत्तेजक	119
निर्वा@@	119
दक्ष@@	119
टेज	119
कांग्रे@@	119
गंग@@	119
आवर्ती	119
संहि@@	119
पालि@@	119
भंडारों	119
खुफिया	119
पंत	119
नामंजूर	119
पचा@@	119
कट्टर@@	119
जैव@@	119
आध्यात्मिकता	119
कतर	119
पुरस्कृत	119
त्रता	119
क्लबों	119
श्रु@@	119
शुक्रा@@	119
सुन्दरी	119
विकारों	119
जमींदारों	119
निर्ण@@	119
समाधानों	119
प्रान्तों	119
नाट@@	119
लोका@@	119
संवृद्धि	119
भूजल	119
घायलों	119
योंकी	119
अंतरराष्ट्री	119
त्रुटि@@	118
कैन@@	118
ot	118
App@@	118
थ्रे@@	118
पासवर्डः	118
ort	118
हाय@@	118
लिएः	118
अपठित	118
दीर्घवृत्त	118
dx	118
डः	118
END	118
बारंबार	118
गुआ	118
बारें	118
क्रमित	118
डरों	118
तर्कों	118
MA@@	118
अब@@	118
सिखा@@	118
कांगो	118
à¤¿à¤¯@@	118
एमपी@@	118
खींच@@	118
न्वित	118
एमसी@@	118
भरते	118
नाल@@	118
भौति@@	118
अनुपयुक्त	118
स्तन@@	118
समवर्ती	118
न्या	118
मुझी	118
समाई	118
लगाओ	118
असावधान	118
चखाएँगे	118
नेमतों	118
बालकों	118
हा॰	118
कटी	118
मौज	118
वसवसा	118
हुक्मे	118
मुन्किर	118
मुनाफिक़	118
नेकोकार	118
नाशुक्रा	118
क़ारुन	118
गिलास	118
ऊं@@	118
विवाहित	118
टाइगर	118
रूपक	118
पल्ल@@	118
झी	118
बड़ै	118
जनहित	118
साम्यवाद	118
व्यथित	118
पद्धतियां	118
1925	118
वयस्कों	118
अस्थिरता	118
टांग	118
गन्ना	118
फायदों	118
संजो@@	118
अती@@	118
रोजमर्रा	118
शस	118
लके	118
सोलर	118
प्रवर्तित	118
निरपेक्षता	118
मशीनें	118
राशि@@	118
रियायती	118
कविराज	118
व्रण	118
अभिनिर्धारित	118
Ac@@	117
pi@@	117
एंः	117
राष्ट्रीयकरण	117
विश्लेषक	117
पुस्तकचिह्न	117
कीकरण	117
फ़ाइल@@	117
A1	117
असमर्थः	117
जिस@@	117
सक्र@@	117
छापने	117
विलोपन	117
दबाया	117
ूं	117
द्रुत	117
कार्यक्षमता	117
गुणन	117
घुमा@@	117
शियाई	117
शरद	117
बाउ@@	117
डीएस	117
धूसर	117
किन@@	117
न्दु	117
संतु@@	117
कतर@@	117
थो	117
सामी	117
सेंसर	117
हैName	117
नहा@@	117
कील	117
इंग@@	117
ताजी	117
कार्यस्थान	117
सिल्@@	117
कोच	117
इलेक्ट्रो@@	117
परास्त	117
रेशे	117
देंगी	117
जब्@@	117
अधर्म	117
मुसीबतों	117
क़ब्र	117
याफ्ता	117
आख़िरकार	117
बाब	117
दुल	117
पायों	117
हता	117
जूँ	117
रोने	117
रोमांचक	117
पहन	117
जात्रा	117
20,000	117
चावला	117
शल	117
अकाउंट	117
विनाशकारी	117
आकां@@	117
सोनिया	117
जऋ	117
लख	117
न्ति	117
विवेकानन्द	117
सौहार्दपूर्ण	117
सैन	117
न्यूज	117
दन्त	117
बीकानेर	117
रफ्तार	117
जटिलताओं	117
जुडी	117
बेरोजगार	117
1941	117
यथार्थ@@	117
रमेश	117
बढा	117
पक्षधर	117
बंधनों	117
लेखाकार	117
तेग	117
तटवर्ती	117
बाध्य@@	117
गर्मजोशी	117
खुजली	117
इष्टतम	117
संपत्तियों	117
ईआईए	117
एलपीजी	117
‘मुझे	117
रूपांतर	116
रेखांकन	116
पत्राचार	116
फुल@@	116
ation	116
उत्सर्जित	116
ट्रेस	116
स्पीड	116
ue	116
ंडो	116
थीः	116
एड	116
विले	116
गाली	116
सेल्स	116
बहुविध	116
न्त्र	116
चित्रकार	116
रियाई	116
स्तानी	116
घसी@@	116
ीत	116
मछलियां	116
रेन	116
रोज़@@	116
à¥à¤@@	116
à¤¿	116
¸@@	116
सीमाएँ	116
समस्याएँ	116
एसएम	116
प्लि@@	116
160	116
कारे	116
puertorico	116
उतार@@	116
मेट्रो	116
निबटने	116
पहुँचाएगा	116
कराकर	116
पकर	116
जिन्न	116
नहस	116
ग़ो@@	116
सुगंध	116
आरामदायक	116
वलित	116
नसी@@	116
तद्बीर	116
परती	116
ब्याह	116
टांगें	116
आदी	116
लामा	116
वारंट	116
झटके	116
अंडा@@	116
मातृवंश	116
शि	116
तिल@@	116
मिस्टर	116
कमिश्नर	116
अधिष्ठान	116
देहांत	116
ब्रॉडबैंड	116
पक्षाघात	116
मान्यताओं	116
सि	116
मच्छर	116
संकलक	116
गृहीत	116
गोस्वामी	116
सिक्खों	116
पूना	116
स्पं@@	116
ट्रान्@@	116
धियाँ	116
अनुवर्ती	116
मांस@@	116
अनुसंधानकर्ताओं	116
एकाग्रता	116
प्रवे@@	116
मृतकों	116
स्वाव@@	116
गिकी	116
आवर्त	116
प्रसूति	116
सीआई	116
संविदा@@	116
एकमेव	116
सहयोगात्मक	116
है–	116
परन्तुक	116
150वीं	116
हाट	115
मैक्रो	115
कियाः	115
फ़ोल्डरः	115
लाईन	115
कोडिंग	115
text	115
ताला@@	115
कनेक्टेड	115
चिह्@@	115
पुनर्प्राप्ति	115
एसएसएल	115
नासा@@	115
ंतों	115
व्यों	115
जरुर	115
चाहि@@	115
रहनी	115
निर्वासन	115
खरीदना	115
भिक्षु	115
आर्य@@	115
नॉर्थ	115
क्टि@@	115
¤	115
स्विट्जरलैंड	115
एला	115
आइसलैंड	115
नॉर्वे	115
आकाश@@	115
सफा@@	115
फ्रि@@	115
माय@@	115
काली@@	115
दादा@@	115
फैशन	115
वेन	115
द्या@@	115
बन्धु	115
तते	115
डटे	115
शिक्षाप्रद	115
गिरता	115
वासना	115
हटना	115
विलाप	115
जि	115
डुबा	115
कुचल	115
सरि@@	115
झड़	115
ज़िया	115
जानबूझ	115
अहाते	115
शियाँ	115
कैदियों	115
टह@@	115
छुट्टियों	115
दाँतों	115
प्रक्षे@@	115
अभिशाप	115
असुविधा	115
दुर्भाग्यपूर्ण	115
आदर्शवाद	115
न्मुखी	115
तालाबों	115
आर्थर	115
चेन्@@	115
दकर	115
वृहद	115
निवृत्ती	115
श्रो@@	115
जगाने	115
प्रदूषकों	115
नशीली	115
जूरी	115
घण्टे	115
शाहजहां	115
गुट@@	115
तप	115
तंत्रि@@	115
बिरादरी	115
कदर	115
चरित्र@@	115
धियां	115
विभिन्न@@	115
बैरिस्टर	115
विध	115
उपायुक्त	115
संघटन	115
सुचारू	115
भूतकाल	115
संक्रियाओं	115
वेतनमान	115
मलाशय	115
मेगावॉट	115
कटा@@	114
मिलाएं	114
पैच	114
कुंजी@@	114
UR@@	114
by	114
प्लेलिस्ट	114
लौटाया	114
रीज़	114
यकरण	114
एनि@@	114
Cogl	114
उपयो@@	114
यमान	114
आपातकालीन	114
लेक्स	114
एलागरिथम	114
इर@@	114
केगा	114
रेलगाड़ी	114
कत@@	114
चॉ@@	114
सागरीय	114
छपे	114
झंडा	114
एमपी	114
वेश@@	114
कैलेण्डर	114
ऑपरे@@	114
à¥à¤	114
च्छे@@	114
अवशोषण	114
चक्रवात	114
रेल@@	114
रुप@@	114
पिच	114
कार्बो@@	114
हिर@@	114
88@@	114
मस्जिदे	114
क़ों	114
ॊं	114
कुएँ	114
सिंचित	114
वस	114
वाते	114
झेल	114
उसी@@	114
धड़कन	114
तकरीबन	114
सेहत	114
चूहे	114
कीचड़	114
पहु@@	114
पांडुलिपियों	114
कमांडर	114
सियासी	114
साम्राज़्यवाद	114
बाधाएं	114
बुजुर्ग	114
क्षता	114
वेदान्त	114
स्वामियों	114
हमलों	114
आगंतुकों	114
प्वाइंट	114
राज्यों@@	114
काजी	114
परख	114
चित्रा	114
तत्पश्चात्	114
ग्राह्य	114
विपक्षी	114
इयां	114
पोतों	114
आरएस	114
प्रणाम	114
मदुरै	114
तृप्त	114
गनी	114
अने@@	114
गोखले	114
ध्र@@	114
ज्योतिष	114
क्षेत्राधिकार	114
इनो@@	114
ब्यौरे	114
कुदरती	114
मित्रो	114
बंगलादेश	114
तालि@@	113
स्टल	113
खराबी	113
सभ@@	113
टूल्स	113
जेंः	113
अयोग्य	113
डच	113
युक्@@	113
सेक@@	113
ेंः	113
पाश	113
सबकुछ	113
एम्बे@@	113
बूल	113
कहिए	113
भूलें	113
एक्शन	113
मिन्@@	113
लट	113
निये	113
यड	113
थका	113
गणक	113
बाय@@	113
लक्@@	113
र्व	113
भुज	113
ारे@@	113
आईसीसी	113
ª@@	113
हेल्@@	113
मंगो@@	113
मिठाई	113
लावा	113
उबा@@	113
विस्फोटक	113
हों@@	113
मॉनिटर	113
ट्रांसफर	113
क्लेम	113
क्टरी	113
पीय	113
ट्टा@@	113
अरि@@	113
राक	113
सियम	113
पीट	113
पावती	113
छुट्@@	113
आशाओं	113
ईसाइयों	113
जताते	113
बुढ़ापा	113
लेटे	113
भड़का	113
दही	113
ग्रही	113
फूँ@@	113
उगाते	113
भागना	113
स्तक	113
पढ़ाया	113
उत्कृ@@	113
जग	113
ड़ाई	113
शता	113
कसा@@	113
निजात	113
हकी@@	113
क़िस्सा	113
आह	113
ग़ै@@	113
ईए	113
फ़ौ@@	113
महंगा	113
मामा	113
सोया	113
नवीनीकरण	113
अध्यात्म	113
स्वयंसेवी	113
कराएं	113
लाज	113
1979	113
वनस्पतियों	113
पीपल	113
यथार्थवादी	113
अरविन्द	113
ग्रीनहाउस	113
वैन	113
दीप्त	113
सोमनाथ	113
ारिका	113
हकीकत	113
रहस्य@@	113
व्यापकता	113
स्खलन	113
सालाना	113
कार्टून	113
भरसक	113
थित	113
लोको@@	113
दर्रा	113
आत्मिक	113
कलंक	113
प्रवण	113
अन्तरा@@	113
ड्	113
विवादास्पद	113
हार्मोन	113
धंधा	113
मैनेजमेंट	113
चिर	113
बेग	113
मूत्र@@	113
तादात्म्य	113
परिव्यय	113
ऑटोमोबाइल	113
कॉयर	113
टीकाकरण	113
तुर्क़@@	113
श्रोणि	113
पुडुचेरी	113
संस्‍थान	113
जाएँ@@	112
सोर्स	112
make	112
एचपी	112
रीः	112
PS	112
विश्लेषित	112
बड्डी	112
लिपटे	112
थ्रेड	112
कीपर	112
टेंट	112
उदाहरणः	112
संपर्@@	112
एसएच@@	112
lin@@	112
अधूरा	112
ED	112
समू@@	112
घटते	112
लैब	112
टिप्पणियाँ	112
पाउ@@	112
sta@@	112
स्का	112
बहाली	112
गरि@@	112
एमसी	112
à¤¿@@	112
¬@@	112
प्रतिबिम्बित	112
त्रिज्या	112
ऑपरेटर	112
प्लेट@@	112
केमि@@	112
कट्@@	112
स्त्रोतों	112
ज्यामितीय	112
brazil	112
सद	112
ग्या@@	112
परशियन	112
टिल	112
बनानी	112
क्षुद्र	112
अनी@@	112
चैं@@	112
डकर	112
1200	112
भेजेगा	112
वारिसों	112
यह@@	112
रहस्यों	112
लगेगी	112
सौभाग्यशाली	112
बदर	112
नफ़सियानी	112
चिल्ला	112
ज़िंदगी	112
खोरी	112
लिफ्ट	112
रसी@@	112
विराट	112
लडाई	112
बढोतरी	112
कारिक	112
दूरगामी	112
हानिकर	112
लड़ा@@	112
राष्ट@@	112
ऐल्@@	112
स्य्@@	112
काव@@	112
छन्द	112
प्रतिनि@@	112
रोष	112
प्राकृत	112
दंगों	112
सेवायें	112
मोहन@@	112
लक्ष्@@	112
महानिदेशालय	112
परिचायक	112
दुष्ट	112
सश@@	112
शिक्षाओं	112
अध्@@	112
जवानों	112
जिज्ञासु	112
तिकी	112
पत्तनों	112
वफादारी	112
बाह्य@@	112
कन्वेंशन	112
इलेक्@@	112
अप्पर	112
स्फु@@	112
समनु@@	112
इन्द्रिय	112
रुपे	112
सोर्सिंग	112
चलनिधि	112
squared	112
एफडीआई	112
ड़े	112
बढ़ा@@	112
गुणधर्म	111
रॉयल	111
अंगू@@	111
गेम	111
जैक	111
Me@@	111
ve	111
समर्थ@@	111
स्वाग@@	111
TLS	111
DI@@	111
No@@	111
Au@@	111
क्टे@@	111
आइस@@	111
गहरा@@	111
mu@@	111
गैलरी	111
टॉपिक	111
सामान्@@	111
शीर्षों	111
ट्रक	111
iva@@	111
त्रिकोण	111
सील	111
हनी	111
खण्डों	111
क्वार्@@	111
परिशिष्ट	111
आरटी@@	111
अधूरी	111
विरोधा@@	111
ब्रॉ@@	111
आर्कि@@	111
वेस्ट@@	111
उत्त@@	111
मेलों	111
तोड़ा	111
चमड़ा	111
194@@	111
मितव्य@@	111
हठ	111
हटने	111
बाग़@@	111
सनद	111
गिर्@@	111
झुकाए	111
श्रेष्ठ@@	111
प्राणों	111
प्रभा	111
ख्याली	111
हठ@@	111
कटो@@	111
ताओ	111
हियों	111
फान	111
फुर्@@	111
छूने	111
गंदे	111
आंसू	111
दानव	111
कौं@@	111
इस्लामिक	111
अतिशय	111
ओलम्पिक	111
किरायेदारों	111
साम्रा@@	111
टिप्पणियां	111
न्ति@@	111
किरायेदारी	111
विधाता	111
भजन	111
उष्णकटिबंधीय	111
हिंदु	111
यानों	111
तराज	111
खर्ची@@	111
सुविचारित	111
वीजा	111
योगों	111
चूना	111
पत्रकारों	111
राजभवन	111
उत्सवों	111
गवर्@@	111
मनोरम	111
\भाष्	111
सम्बोधित	111
कविता@@	111
तकी	111
इंडो	111
रोजाना	111
वचनबद्धता	111
विवादित	111
130	111
तुल्य	111
गतिरोध	111
स्फीति	111
ऊंचाइयों	111
वण@@	111
पुरू@@	111
सैट	111
प्रतिभाओं	111
वीक्षण	111
लसीका@@	111
विप्रेषण	111
समामेलक	111
3क	111
ओड़िसा	111
भारत’	111
बरूआ	111
परात्पर	111
Com@@	110
वर्णनः	110
अपर@@	110
पैके@@	110
RE@@	110
दोगुना	110
cre@@	110
कुकीज़	110
उपभोक्ता@@	110
CSV	110
गुआ@@	110
फिया	110
पुनर्स्थापित	110
खोया	110
क्षम	110
डबल्यू@@	110
निर्या@@	110
ठहरना	110
चौख@@	110
गाम्बिया	110
à¤¡à¤¿à¤@@	110
à¤¾à¤	110
à¤µà¤¿à¤@@	110
à¤¾à¤¨@@	110
ज़ो	110
लेबनान	110
आयरलैंड	110
कमाल	110
महो@@	110
नें@@	110
सले@@	110
2/@@	110
विकास@@	110
सैंड@@	110
सज@@	110
जाम@@	110
विरल	110
गुच्छ@@	110
खगोलीय	110
हत्@@	110
प्रशिक्षु	110
ष्य@@	110
परतों	110
0.5	110
अनुप्रस्थ	110
कड़क	110
बेखबर	110
अश्लीलता	110
निकालो	110
धर्मपरायणता	110
क़री@@	110
गर्दिश	110
दाँव	110
दीवाने	110
झुकने	110
ूँ	110
स्तब्ध	110
आयते	110
पहुँचाना	110
रूढ़	110
प्याले	110
घाटियों	110
बिछ@@	110
बरती	110
ज़िद	110
दस्ता	110
तमा	110
आफ़ताब	110
ख़ाने	110
टकना	110
कयामत	110
यरों	110
बच्ची	110
विज़न	110
चाकू	110
जताई	110
बढिया	110
नशा	110
सियां	110
रैंकिंग	110
कंड@@	110
सोशलिस्ट	110
निष्पक्षता	110
संबंधियों	110
संजय	110
परिकलन	110
उद्देशिका	110
देशबन्धु	110
शोधित	110
बोधि@@	110
द्धा	110
नंदी	110
गोपुर	110
भारती@@	110
चुनौतीपूर्ण	110
शलभ	110
नींबू	110
बरामदे	110
विपुल	110
उच्छ@@	110
1926	110
रति	110
प्रकटीकरण	110
विका	110
तरु	110
प्राप्तियों	110
ग्रसनी	110
स्पष्टीकरण–इस	110
ड़ी	110
पंक्तियां	109
शतरंज	109
टरी@@	109
खिसका	109
आर्गु@@	109
फाइलिंग	109
उलटें	109
नेशन	109
टेम्@@	109
ख़ाका	109
मजेदार	109
ँक	109
उपशीर्षक	109
अभिमुख@@	109
डेवल@@	109
sp@@	109
घटनाएँ	109
ब्राउज़िंग	109
जियन	109
vis@@	109
एकसाथ	109
लिफा@@	109
आधारों	109
ंगता	109
कुल्@@	109
दिक	109
आयेंगे	109
अटलांटिक	109
क्षिक	109
लाफ	109
पनीर	109
इतालवी	109
जोसेफ	109
ईं@@	109
à¤	109
२००	109
बांसुरी	109
द्रव्यमान	109
यथोचित	109
हाइड्रो@@	109
झों@@	109
एनी@@	109
colombia	109
म्यु@@	109
इंड@@	109
आवश्यकतानुसार	109
घराने	109
नुकी@@	109
350	109
110	109
परीक्षा@@	109
प्रयोगकर्ता	109
फ़ितना	109
उपासक	109
अधर्मी	109
सँभा@@	109
दारो	109
फ़ितने	109
डूब@@	109
फ़सल	109
माफ़ी	109
नफ़रत	109
सातों	109
लुभा@@	109
छिन्न	109
सुगंधित	109
सबील	109
बरताव	109
प्रज्@@	109
अर्ज	109
तस्दीक़	109
गड़बड़	109
सिफारिशी	109
रामन	109
अभिनेत्री	109
थोडी	109
बीर	109
दंत@@	109
थिएटर	109
आत्मसमर्पण	109
प्रव@@	109
हिणी	109
बहुलता	109
खामोश	109
1917	109
लड़कियां	109
मेरठ	109
इंगलैंड	109
मदिरा	109
कस्बे	109
चेरी	109
साधारणतः	109
मिर्गी	109
बसंत	109
लेनिन	109
रज्जु	109
पहुंचकर	109
फौजी	109
छात्रावास	109
शार@@	109
राकेश	109
चोंच	109
परिशोधन	109
लगाम	109
परिपाटी	109
नक्काशी	109
क्षयरोग	109
साम्राज्यवादी	109
मनोवृत्ति	109
पगड़ी	109
ब्राह्म	109
सर्टिफिकेट	109
व्यप@@	109
क्षुब्ध	109
मल्ल@@	109
अंतर्देशीय	109
आसफ	109
कमोडिटी	109
निबंधनों	109
विस्ता@@	109
कख	109
ग्नोम	108
should	108
जूम	108
रिसाव	108
कोः	108
पुनर@@	108
you	108
मूवी	108
डिजायन	108
1:@@	108
app@@	108
एटलस	108
कैलि@@	108
ट्रैकर	108
लाइव	108
खोलता	108
gi@@	108
IP@@	108
दर्शित	108
टूटा	108
सबर्ग	108
इंडिया@@	108
आर्कटिक	108
समर@@	108
PGP	108
स्पैम	108
कम्पो@@	108
परीक्षणों	108
परंपरा@@	108
शनः	108
एला@@	108
सेल्सियस	108
बृहदा@@	108
भिन्न@@	108
भेड़िया	108
बिठा@@	108
फाई	108
टीसी	108
बूँद	108
ट्रा	108
रजा@@	108
ज्ड	108
केडी@@	108
अमेरि@@	108
वर्क@@	108
गुच्छ	108
घूमता	108
टेक्नो@@	108
ीदार	108
केवी@@	108
ोल्@@	108
वाटर	108
china	108
न्दा@@	108
सुथरा	108
वृत्तियों	108
कार्यान्व@@	108
निकल@@	108
पथभ्र@@	108
कूच	108
ड्ड	108
देवियों	108
बन्धों	108
भटकने	108
निकृष्ट	108
इन्ति@@	108
जुदाई	108
लिबास	108
च्च	108
बूझ@@	108
तमन्@@	108
अछू@@	108
हड@@	108
लड़ना	108
किम	108
इए	108
पकने	108
बूंद	108
कंठ@@	108
पुनर्विचार	108
विद्रोही	108
वास्तु	108
स्वायत्तता	108
ISBN	108
विवेका@@	108
ख्यान	108
व्दारा	108
तीखी	108
अय्यर	108
नासिक	108
त्वपूर्ण	108
अड्डों	108
श्रृंगार	108
भन	108
मदन	108
ज्यो@@	108
भया@@	108
बंदरगाहों	108
मुकर्जी	108
शशि	108
निपटा	108
डिप्लोमा	108
डु	108
रक्ता@@	108
अरावली	108
बोली@@	108
गूढ़	108
परेड	108
अस्वस्थ	108
जूझ@@	108
गड्ढे	108
नरसिंहराव	108
साम्य	108
गाथा@@	108
मानवाधिकारों	108
लचीलापन	108
कल्या@@	108
याचियों	108
‘द	108
est	107
ब्राउजर	107
वाल@@	107
क्लू@@	107
काउन्@@	107
ढूंढेंः	107
संगी@@	107
विलग	107
256	107
ET@@	107
लॉगआउट	107
बेजोड़	107
माला@@	107
इनकमिंग	107
IN	107
शुरू@@	107
tro@@	107
नेविगेशन	107
चौदह@@	107
ंतिक	107
ंश@@	107
सूचन	107
घ्@@	107
पिया@@	107
फ्रेमवर्क	107
प्रदर्@@	107
वरे	107
स्पष्ट@@	107
°@@	107
रविशंकर	107
कज़ा@@	107
किर्गि@@	107
टान	107
बोन	107
बद्ध@@	107
स्मिथ	107
फ्रां@@	107
फायर@@	107
लार@@	107
मैक्स	107
्यू	107
रोना	107
जुआ	107
दला@@	107
अके@@	107
पेश@@	107
लार्@@	107
अस्त	107
थियो@@	107
ंतरित	107
विस	107
नट	107
मुक़ा@@	107
सायंकाल	107
खालें	107
मूर्खता	107
अधिकता	107
खजूरों	107
रस्सियाँ	107
प्रतिकार	107
लौं@@	107
बचकर	107
छत@@	107
डगम@@	107
खबरें	107
पहुचा@@	107
मुड़	107
दली@@	107
क़राबतदारों	107
अमूल	107
ख्वाहिशों	107
समें	107
जत	107
हैरत	107
पेट्रोल	107
कछुए	107
मीठी	107
मर्जी	107
ग्रामीणों	107
सातवें	107
सर्वशक्तिमान	107
पीढी	107
टीमों	107
निष्फल	107
निर्गुण	107
लीज़	107
भित्ति@@	107
जैसलमेर	107
होंने	107
अवधी	107
आविष्@@	107
असेंबली	107
Benefit	107
रमण	107
दूरदर्शिता	107
ंजन	107
प्रवर्@@	107
न्तरण	107
तांबे	107
शिला	107
३३	107
राजमहल	107
समाजिक	107
मनुष्य@@	107
नर्तक	107
अट्@@	107
बलात्कार	107
अग्@@	107
गतिविधियाँ	107
खोपड़ी	107
विशाखा@@	107
आपेक्षिकता	107
विम्बलडन	107
टरीकृत	107
आहरित	107
धारिता	107
आरएफपी	107
है;	107
स्‍व@@	107
डीआई	106
अंतराफलक	106
स्कॉ@@	106
गाढ़ा	106
बाल्टिक	106
mm	106
डिफ	106
search	106
प्लगइन@@	106
वीसीडी	106
कंट्रास्ट	106
Ca@@	106
olution	106
ढूँढ	106
आगंतुक	106
कौन@@	106
पिं@@	106
अलेक्@@	106
बनेगी	106
डिया@@	106
श्रीवास्तव	106
रॉक	106
ताली	106
\\\\	106
ग्न	106
गुणित	106
नही@@	106
सन्निहित	106
हेर	106
रेती@@	106
जिला@@	106
एसई@@	106
लैं@@	106
ज्वालामुखी	106
उज़@@	106
५००	106
आयरन	106
बचानेवाला	106
अड़े	106
बिठा	106
निश्चिन्तता	106
मंज़िलें	106
हाकिम	106
पकड़ता	106
शता@@	106
कानाफूसी	106
नंगे	106
नरसिंघा	106
हस्ती	106
बसी	106
टटो@@	106
जहान	106
मवेशी	106
जुर्म	106
लिहाज़	106
सरगोशी	106
ज़माना	106
खिल	106
फ़र्क	106
गिरती	106
जाऊंगा	106
विदेशियों	106
खरो@@	106
परम@@	106
ग्रंथियों	106
१९९९	106
सूअरों	106
दार्जिलिंग	106
कान्त	106
नगर@@	106
बीजगणित	106
क्रांतिकारियों	106
्या	106
न्व@@	106
माध@@	106
वास्तुशिल्प	106
अदा@@	106
मु	106
जागृति	106
श्रय	106
पूर	106
देशक	106
सिंड्रोम	106
बंधित	106
दोषपूर्ण	106
औषधियां	106
1907	106
मैट्रिक	106
नगरीय	106
डाकघर	106
लेखाओं	106
पुस्तकालयों	106
शिवनाथ	106
अनन्@@	106
प्रदर्श	106
केन्द्रक	106
भरकम	105
दुक्का	105
with	105
पुनःप्राप्त	105
उंगलियों	105
पतों	105
इन्टर@@	105
Folder	105
उदा	105
टॉप	105
खींचकर	105
चलायी	105
बहरीन	105
काश्@@	105
ड्रॉप	105
छवि@@	105
स्क्रिप्@@	105
दुर्घटनाओं	105
ure	105
प्रश्न@@	105
बजा@@	105
हॉं	105
गने	105
संशय	105
à¥à¤@@	105
à¤¡@@	105
सत्रों	105
कृमि@@	105
कंटक	105
सकना	105
सोच@@	105
कोले@@	105
बरफ	105
वृष्टि	105
la	105
सुन्@@	105
विव@@	105
पार्टि@@	105
एग्री@@	105
शिष्ट	105
छोड़ेगा	105
कठिना@@	105
गलतियों	105
मपुर	105
दिवसों	105
01/@@	105
बियाँ	105
लील	105
अमानतों	105
पिछलों	105
बोधन	105
उपास्यों	105
ंचे	105
नस्लें	105
विचूर्ण	105
संमार्ग	105
तहस	105
दौड़ता	105
उकता@@	105
अन्दाज़े	105
मुहिम	105
भाग्य@@	105
निकलेंगे	105
बिखर	105
चिंग@@	105
फक़त	105
गुन्जाइश	105
पूछगछ	105
शुक्रिया	105
पुत@@	105
अज़ीयत	105
ज़रर	105
मुअय्यन	105
ख्यानत	105
चुनान्चे	105
यायद	105
कबीले	105
हिफाज़त	105
सरज़मीन	105
उम्मतों	105
गाड़	105
क़ुदरते	105
आश@@	105
मोम	105
मुकरोगे	105
केसरी	105
हिच@@	105
होड़	105
हुयी	105
पीड़ा@@	105
रिपोर्टें	105
धाराएं	105
उपयुक़्त	105
समागम	105
अलंकार	105
कमे@@	105
पूर्वाग्रह	105
कीर्ति	105
आंग्ल	105
शास्त्रियों	105
aa	105
क्रियाविधि	105
स्थाना@@	105
प्रस्तर	105
प्टेरा	105
द्घ	105
संप्रभुता	105
प्राचीनतम	105
चालान	105
धना@@	105
मिकता	105
मशीनी	105
दायित्व@@	105
बोलचाल	105
1882	105
कंकाल	105
जिम्मेदारियों	105
धिकरण	105
परम्पराओं	105
परीक्षकों	105
स्कं@@	105
निर्वाचनों	105
वेदांत	105
भूति	105
राधानाथ	105
बट्टा	105
ब्यौ@@	105
विश्वस्तरीय	105
ऋणकर्ता	105
प्राप्तियां	105
परितारि@@	105
तेजा	105
प्रस्‍तुत	105
जिप्@@	104
MA	104
डिबगिंग	104
line	104
जियाई	104
सेः	104
नती@@	104
सलाह@@	104
इको	104
अनधिकृत	104
भूमिकाओं	104
अनुरो@@	104
बताएं	104
यूआईडी	104
गल्@@	104
पेन@@	104
जबरन	104
IT@@	104
सदस्य@@	104
क्रियाएँ	104
गिना	104
बियाई	104
पाउण्ड	104
सऊदी	104
बल्स	104
बेनिन	104
à¤¨à¥à¤@@	104
मॉरीशस	104
तुर्क	104
वलय	104
TO@@	104
भ्रम@@	104
गौरवान्वित	104
किस्मत	104
कनेक्टिविटी	104
रन्@@	104
लाँ@@	104
एसएस	104
सीएन@@	104
३२	104
900	104
प्रतियों	104
शय्या	104
अनाथों	104
रसू@@	104
बढ़ो	104
हताश	104
कार्यसाधक	104
जन्नतों	104
मानवों	104
करूणा	104
ग़ैर	104
साद	104
धुएँ	104
लोभ	104
सूँ@@	104
साया	104
जन्नती	104
हुरमत	104
अक्लमन्दों	104
बरगुज़ीदा	104
वाक़िया	104
मुन्तख़िब	104
दावत	104
झगड़ों	104
माएल	104
बढ़के	104
दफ@@	104
परदाज़ियाँ	104
ख़ुदाई	104
हम्दो	104
फिरों	104
दात	104
दांव	104
नकी	104
फ़्रा@@	104
चाहूँगा	104
दृष्ट@@	104
गुड़	104
खिताब	104
गुच्छा	104
संतानों	104
षे@@	104
तानाशाही	104
॰@@	104
अनूठा	104
अधिकारिक	104
भूविज्ञान	104
लुढ़@@	104
९९	104
जुर्माने	104
लोजी	104
अभियुक्तों	104
ंगना	104
शत्रु@@	104
निपटाने	104
स्टों	104
पंर@@	104
करनेके	104
माताओं	104
धारणाओं	104
बेसिन	104
सोपान	104
निश्चल	104
स्वातंत्र्य	104
योग्यताओं	104
कद	104
रेस्तरां	104
घण्@@	104
अनूठी	104
भण्डारण	104
पूरित	104
चेन्नै	104
ल्टी	104
समूचा	104
बन्ध@@	104
हवें	104
जूल@@	104
बैंगलोर	104
प्रबंधकीय	104
अभिज्ञान	104
प्रत्यार्थी	104
prh2@@	104
टिप्पणीः	103
Query	103
त्वरक	103
बहिष्कृत	103
रिकार्डिंग	103
fil@@	103
संपाद@@	103
ऊर्ध्वाधर	103
दोहराना	103
विरूपित	103
AIM	103
एवम्	103
अनुकू@@	103
पांचवीं	103
प्रशस्ति	103
गुप्त@@	103
अवरूद्ध	103
लीस	103
फ़ीड	103
पादक	103
लापता	103
इण्@@	103
लात@@	103
उलझ@@	103
1906	103
किंगडम	103
आकृतियों	103
००@@	103
प्रयोगात्मक	103
आणविक	103
आकर्@@	103
इज़@@	103
थाइ@@	103
मॉन्@@	103
करुणा@@	103
मनमाने	103
आंधी	103
सृजन@@	103
10,@@	103
एडवर्ड	103
लम्ब	103
लेंगी	103
नुक@@	103
एनए@@	103
आँ	103
OM	103
डेस्क	103
निराधार	103
सदक़ा	103
मोर्चों	103
खते	103
दूसरो	103
पुकारेंगे	103
हाली	103
चारियों	103
त्रस्त	103
हँस	103
हॆं	103
प्रचुरता	103
तराज़ू	103
बलवान	103
तानी	103
नहरों	103
ताम्मुल	103
मॉगों	103
मुहय्या	103
नेकों	103
बख्त	103
सिफ@@	103
ढकेल	103
याओं	103
पार्थिव	103
सकूं	103
असन्@@	103
रचनाकार	103
वाग्@@	103
शुरुवात	103
अग्रे@@	103
सुन्नी	103
☻☻☻☻	103
उनऋ	103
र्ति	103
मंत्री@@	103
आशं@@	103
कुंज	103
कांगड़ा	103
क्रान्ति	103
त्तियों	103
रवैये	103
पुल@@	103
द्वन्@@	103
कुल्लू	103
1912	103
पूर्वो@@	103
उछाल	103
विभ@@	103
“आप	103
निम्नव@@	103
मकों	103
ष्ट्र@@	103
सावित्री	103
थर्मल	103
वृद्ध@@	103
भाषाविज्ञान	103
एमसीएक्स	103
पुच्छ	102
time	102
ब्राउ@@	102
टिप	102
दिका	102
Ar@@	102
पुनरावर्ती	102
lib@@	102
ंजी@@	102
नेटवर्@@	102
message	102
कारियाँ	102
खेलकूद	102
स्केप	102
पसं@@	102
ग्राह@@	102
फोलो	102
इनर	102
जेक्@@	102
उंगली	102
ब्रह्मा@@	102
खोज@@	102
क्रेन	102
बल्ब	102
मेनिया	102
ढेरों	102
बंदूक	102
छिपाने	102
कोवि@@	102
थॉ@@	102
कोलेस्ट्रॉल	102
नानी	102
टीज़	102
अपरिवर्तनीय	102
हारि@@	102
एनजी@@	102
प्रशिक्षक	102
पत्नि	102
फेर@@	102
सिलाई	102
क़िबले	102
इज्@@	102
लंघन	102
र्था@@	102
आर्द्र	102
गायें	102
शकुन	102
पिघला	102
डूबा	102
उड़ाने	102
दुआएँ	102
प्रयासरत	102
नफ़ा	102
बेजान	102
ज़िबाह	102
न्दों	102
मुजरिम	102
दौड़ने	102
तालु@@	102
ज़िले	102
लाहट	102
पैसों	102
ज़्यादातर	102
वैद्य	102
सांत्वना	102
वर्दी	102
अशांति	102
उत्तरार्ध	102
उग्रवादी	102
सौदा@@	102
स्फो@@	102
घों@@	102
क़्ति	102
घटने	102
चूल्@@	102
जन्मे	102
टैरिफ	102
मौलवी	102
वटी	102
मेजबानी	102
अव्यवस्थित	102
वेश्या@@	102
मधु	102
महाद्वीपीय	102
जीवनशैली	102
पालि	102
अनिश्चितता	102
पाण्डु@@	102
शिवा@@	102
आपूर्तिकर्ता	102
डीन	102
दुर्गम	102
निधि@@	102
सखा	102
अस्वीकृति	102
दिष्ट	102
छूत	102
परिपाटियों	102
चर्या	102
जागरुकता	102
मोतियाबिंद	102
116	102
बुल्ले	102
लेखी	102
प्रतिनियुक्ति	102
अतिशेष	102
जमाओं	102
–शंकाओं	102
इक	101
ck@@	101
बारा	101
जेन@@	101
विजे@@	101
GTK	101
Ja@@	101
gs	101
म्बो	101
स्लाइस	101
ल्यूशन	101
अपारदर्शी	101
page	101
अपरिभाषित	101
ट्रेट	101
जैबर	101
फेसबुक	101
UT@@	101
IBM	101
ASCII	101
block	101
हस्ताक्षरकर्ता	101
पायेगा	101
जीवनसाथी	101
इंटरफ़ेस	101
अंगुली	101
मले@@	101
1923	101
गाल	101
टैम्प्लेट	101
रॉ	101
संग्रह@@	101
à¤¨à¤¾à¤®	101
बेल्जियम	101
अमीरात	101
आइसो@@	101
परस्@@	101
यूनिक्स	101
चिकर	101
वाम@@	101
व्यवहार@@	101
उड़ती	101
प्रपात	101
सुलझा	101
इस्ला@@	101
काया@@	101
मंड	101
प्राक्कलन	101
ठुकरा	101
धनवान	101
चाइ@@	101
तिरस्कृत	101
ग़नीमत	101
चर्म	101
डालेगी	101
दाबाद	101
क्रुद्ध	101
निर्णित	101
बहता	101
तकिए	101
खड़खड़ा@@	101
उम्मीदें	101
बका	101
पहुंचाते	101
अक़ल	101
क़त@@	101
दियां	101
शौकीन	101
गोरे	101
आंखे	101
बंधा	101
एजेन्ट	101
तंबू	101
कमला	101
धुएं	101
विभि@@	101
पाण्डवों	101
सुल्@@	101
मता@@	101
कार्यविधि	101
महाप्रभु	101
मज	101
केशव	101
पिताओं	101
नजरिये	101
डऋई	101
संकटों	101
यौवन	101
पटियाला	101
कुटीर	101
हिमालयी	101
आदर्शवादी	101
गुजरने	101
बनीं	101
मक़्@@	101
जहाँ@@	101
मुगलों	101
हाऊ@@	101
अबुल	101
चरितार्थ	101
बढ़ेगा	101
जुकाम	101
दुरूपयोग	101
यपूर्ण	101
बढे	101
टिकटों	101
2,000	101
मंजिला	101
जोखा	101
नय@@	101
पञ्@@	101
स्नायु@@	101
वृद्धि@@	101
प्राधिकृति	101
कार्यान्@@	101
पत्रादि	101
मालती	101
पंजीयक	101
प्रतिदाय	101
’के	101
बीजन	101
ऑफ़	101
डेक	100
if	100
दस्तावेज़ों	100
वेल@@	100
En@@	100
बचाओ	100
हटाए	100
लिनक्स	100
ER	100
विटी	100
fic@@	100
रंजन	100
क्लाएंट	100
उदाहरण@@	100
ir@@	100
लायें	100
पलटें	100
सकेंगी	100
वेस्टर्न	100
LE	100
थि	100
स्काइप	100
पों@@	100
धागा	100
ग्री	100
रेखाओं	100
बजाते	100
मनोरंजक	100
बांध@@	100
त्रु@@	100
व्ही@@	100
बेल्@@	100
युगा@@	100
सम्बन्@@	100
à¥à¤à¥à¤@@	100
बोलिविया	100
उड़िया	100
सेक्शन	100
लोनी	100
डीजी@@	100
बस@@	100
प्रदर्शनों	100
बरसातweather	100
विचलन	100
ra	100
विशेषण	100
पहचानना	100
प्रतिशोध	100
एसि@@	100
किस@@	100
असंगति	100
चिट्@@	100
दत्तक	100
उतारता	100
अंतरंग	100
खाएँ	100
कोताही	100
तमाशे	100
सुहाना	100
सम्म@@	100
बसने	100
फिरना	100
खारा	100
फ़ीफ़	100
रोशन	100
पहुँचेगा	100
ताबेदार	100
तसल्ली	100
ज़ोरों	100
रफ्ता	100
इलाही	100
लका	100
सर्दियों	100
टाने	100
सर्वोत्कृष्ट	100
विशद	100
उभरी	100
कश्@@	100
वर्गो	100
सुस्थापित	100
दनी	100
1933	100
प्रावस्था	100
वंत	100
नवर@@	100
रूकावट	100
१९८०	100
विषाक्त	100
कार्टू@@	100
अमृत@@	100
अविवे@@	100
बाग@@	100
विक्रम	100
मनु	100
सदाचार	100
पद्म@@	100
इंतजाम	100
आदितल	100
नियोक्ताओं	100
क्ष्@@	100
मनन	100
दहन	100
लूम	100
दीवारी	100
अधिनियमित	100
गेज	100
मृग@@	100
अध्यक्षों	100
रामपुर	100
सम्मति	100
मनों	100
कीर्ण	100
नर्मद	100
आनुषंगिक	100
फिलस्तीन	100
ढूं@@	100
लेनदार	100
ऑंकडा	100
व्यतिक्रमी	100
परिसम्@@	100
अबुर्द	100
मुजरा	100
इन्दुलेखा	100
नेमें	100
संस्‍@@	100
मान्	99
स्टाइल	99
sion	99
आटो@@	99
डॉक	99
नोट@@	99
ka@@	99
आख़िरी	99
पेंटिंग	99
पाइपलाइन	99
पहचान@@	99
संदेशवाहक	99
अवरोधित	99
https	99
IS	99
प्रदाय	99
PKCS	99
ूप	99
रूपित	99
पहचानता	99
अंक@@	99
एक्सपो@@	99
नां@@	99
बीटा	99
¶à¤¨	99
à¤à¥	99
एल्गोरिदम	99
रिज	99
इलेक्ट्रिक	99
फेल	99
कृतियाँ	99
फोर्ट	99
जिल्@@	99
लिम्@@	99
डार	99
कैलिफोर्निया	99
लीडर	99
मोल्@@	99
याद@@	99
तेदार	99
स्वै@@	99
पल्स	99
महिमा@@	99
लेनेवाला	99
धैर्य@@	99
दुबली	99
चखना	99
ठहरो	99
भूकम्प	99
डूबे	99
खुशहाल	99
जता@@	99
उतरता	99
चुप्पी	99
रखनेवाली	99
नाता	99
नहाने	99
हानी	99
लब	99
बुझ	99
रेशा	99
वक़्@@	99
क्षति@@	99
टेरेसा	99
भ्य	99
चुस्त	99
राजेंद्र	99
मच	99
प्रको@@	99
वासों	99
मुज्हो	99
नाममात्र	99
संबध	99
बर्र	99
समर्थकों	99
पूर्णत	99
त्रियों	99
सेठ	99
मनमोहन	99
शेक्सपियर	99
विधायक	99
भद्रा	99
छत्@@	99
अपूरणीय	99
डकै@@	99
मत्कुण	99
दवाएं	99
बसु	99
गर्भाधान	99
कागजी	99
परिरक्षण	99
वाइसराय	99
मसाले	99
यदा	99
वेज़	99
संगण@@	99
कैकेयी	99
दवाइयों	99
स्वयंसेवकों	99
सिद्व	99
शीतल	99
फूड	99
ज्ञेय	99
सुनियोजित	99
उभय@@	99
अटूट	99
कँ@@	99
टीय	99
विभिन्नता	99
भग	99
उत्तरः@@	99
गम्य	99
कृमियों	99
शिक्षाविदों	99
निरस्त्रीकरण	99
बैंकनोटों	99
अपारदर्शिता	98
सर्वाधिकार	98
एनीमेशन	98
मोन्@@	98
कर्नल	98
Dev@@	98
up	98
ट्रिगर	98
रजिस्ट्री	98
लेवल	98
MiB	98
Image	98
इमेज़	98
दबाये	98
पश्चा@@	98
बिलिटी	98
बजायी	98
अस्वीकार्य	98
ru@@	98
एवी@@	98
1600	98
पच्ची@@	98
RS@@	98
करणः	98
एंग्@@	98
बटो@@	98
दर्शनीय	98
न्यूजीलैंड	98
स्पेनी	98
ब्लू	98
मेक्सिको	98
ऊर्जा@@	98
शुद्ध@@	98
गोला@@	98
हदा	98
एससी@@	98
धड़@@	98
लय@@	98
प्रोत	98
जवाबदेह	98
300@@	98
वरि@@	98
अंदा@@	98
ईंटों	98
एसपी	98
वर्जन	98
60@@	98
नकार	98
प्रियता	98
दलीलों	98
तुम्हार	98
सन्ध्या	98
बुढ़िया	98
बाहु@@	98
प्रवृत	98
जँ@@	98
क्के	98
आनी	98
कारमय	98
सहा	98
अहम@@	98
आयेगी	98
ॅ	98
दुआएं	98
वहॉ	98
पैगम्बर	98
पहुंचाता	98
फकीर	98
उतरना	98
गारी	98
सीटें	98
नाच	98
पटरी	98
चक्रवर्ती	98
रोगाणु	98
आह्@@	98
दंडनीय	98
कबूल	98
सिकंदर	98
श्रृंख@@	98
यजुर्वेद	98
☺	98
विधानमंडलों	98
शहरीकरण	98
रेजीमेंट	98
शक्कर	98
पर्यवे@@	98
लंबन	98
डऋए	98
९०	98
शम्@@	98
अनधिक	98
सांप्रदायिकता	98
अग्रदूत	98
नारे	98
पंथियों	98
हिफाजत	98
१९९६	98
विश्वनाथ	98
९८	98
बंग्ला	98
गारं@@	98
एयरलाइंस	98
योद्धाओं	98
मुमताज	98
भोज@@	98
अभिन@@	98
कांस्य	98
नौवीं	98
1911	98
ष्ठा	98
मेघनाद	98
रेशों	98
प्रतिस्पर्धात्मक	98
जेलों	98
गम्यता	98
सेवी	98
बीमाकर्ता	98
असमान	98
विमान@@	98
जुताई	98
कुसु@@	98
अंकुर	98
चरणबद्ध	98
स्नातकों	98
वसायिक	98
टेली	98
पीएफआरडीए	98
टोप	97
fo@@	97
ell	97
इंस्टा@@	97
फ्ला@@	97
File	97
क्वेरी	97
फैलाएँ	97
सियन	97
MD5	97
दीकरण	97
संग्राहक	97
जियो@@	97
ढूँढ़	97
सोल@@	97
लीफ	97
मजा@@	97
डल@@	97
गेटर	97
पाँच@@	97
डमी	97
यूरो	97
टिना	97
क्सर	97
क्ट@@	97
आईए@@	97
अक्षांश	97
पॉली@@	97
ड्राइ@@	97
रॉबर्ट	97
कंपन	97
क्वैरी	97
EMAIL	97
नName	97
क्रिस्ट@@	97
फ़र	97
पटल@@	97
१९९८	97
वास@@	97
इज@@	97
बेला	97
डर्@@	97
छलांग	97
नय	97
सली@@	97
कैलोरी	97
2500	97
पस@@	97
थोप	97
तिरस्कार	97
बुझा	97
कृतघ्न	97
सिखाई	97
अन्या@@	97
उताव@@	97
उज़	97
कंग@@	97
गन्दी	97
किधर	97
वाह्य	97
मदीना	97
ष्टतम	97
ख़े@@	97
दहशत	97
टाया	97
जकड़	97
बिताते	97
बखूबी	97
अक़@@	97
इब्राहिम	97
तजा@@	97
क़तई	97
तून	97
चश्मों	97
सलीम	97
कब्@@	97
आर्मी	97
पराकाष्ठा	97
योजनाबद्ध	97
बुनाई	97
दपूर्ण	97
सुंदरी	97
स्रा@@	97
शर्ते	97
रणों	97
दीमक	97
नपुर	97
यूट्यूब	97
डि़@@	97
७५	97
नलि@@	97
1918	97
माथा	97
अवस्थाएं	97
गेहूँ	97
जहाजरानी	97
विनायक	97
अतिसार	97
1943	97
अंदरूनी	97
सोलहवीं	97
अवसर@@	97
श्रीराम	97
न्नत	97
िकता	97
अधिरचना	97
नायकों	97
विचारार्थ	97
अवशोषित	97
पाध्याय	97
निर्वचन	97
क्षत	97
प्रशासित	97
पसीने	97
एमटी@@	97
जलो@@	97
वल्लभभाई	97
व्याख्यायित	97
लेह	97
केसर	97
फिलीपींस	97
पुनरुत्थान	97
मुकु@@	97
नेसे	97
रागी	97
दिव्या@@	97
आशु@@	97
विष्ट	97
शंकाओं	97
पीवी	97
प्रियतम	97
नाभिक	97
प्रसंस्कृत	97
ता’	97
फकीरमोहन	97
माउन्टबेटन	97
शिफ्ट	96
ठहरें	96
स्पाइ@@	96
Type	96
इटा@@	96
लीक	96
मेनियाई	96
हस्तचालित	96
दबाएं	96
पैरामीटर्स	96
शब्दः	96
किक	96
ed@@	96
ंव	96
war@@	96
क्षम@@	96
स्लाइ@@	96
संक्षि@@	96
लगो@@	96
मुस्कुरा@@	96
Su@@	96
पलटा	96
बॉडी	96
पंचा@@	96
लॉग@@	96
आईकैलेंडर	96
बुध	96
आवृति	96
अंध	96
ers	96
अभिलेख@@	96
संक्रम@@	96
पूर्णा@@	96
खिंच@@	96
णकर्ता	96
मेटा@@	96
à¥à¤°@@	96
ट्टे	96
क्षेपण	96
फ़्ट	96
गाः	96
प्रथ@@	96
गोचर	96
ल्फ	96
चमड़ी	96
ana	96
रवा@@	96
अल्पा@@	96
सीढ़ियों	96
विश्वास@@	96
ैव	96
कोन्@@	96
शिशु@@	96
अमो@@	96
बिल्डिंग	96
्री	96
ेए	96
हक़@@	96
महिने	96
कमज़ोरी	96
समो@@	96
काँप	96
घड़े	96
अंगारा	96
जूर	96
अज्ञान@@	96
क़ू@@	96
जमकर	96
चढ़ते	96
तितर	96
गौरवशाली	96
थके	96
म्बे	96
तबद@@	96
साय	96
मर्ज़ी	96
फरिश्ता	96
नमें	96
शौहर	96
खदे@@	96
ताजे	96
पूँ@@	96
शहीदों	96
मस्त	96
वोह	96
निस्ट	96
जायदाद	96
अभिलाषा	96
जते	96
द्रु@@	96
पाचक	96
प्रक्षिप्त	96
दुकानें	96
ऋद्द@@	96
hO	96
स्वर्णिम	96
निभाती	96
मलिक	96
टिकी	96
वैक्सीन	96
मेव	96
आक्रोश	96
gui	96
दरबारी	96
उड्डयन	96
प्रशि@@	96
रिक्ति	96
बैक्टीरिया	96
1910	96
त्या	96
मनोदशा	96
पाठी	96
कर्ष	96
निपट	96
निःसंदेह	96
धारणाएं	96
अंसारी	96
वेशी	96
विद्वान्	96
थियेटर	96
भूवैज्ञानिक	96
प्रदर्शनियों	96
वाइसरॉय	96
न्द्रिय	96
वमन	96
आयुर्वेदिक	96
पर्ण@@	96
अवयस्क	96
रोकड़	96
ॉँ	96
एनईजीपी	96
;	96
ण्डे@@	95
एली@@	95
भंडार@@	95
are	95
कमि@@	95
स्क्रीनशॉट	95
175	95
user	95
संपुष्टि	95
फ़ायर@@	95
छठा	95
ग्यार@@	95
csv	95
पांचवां	95
कैम्ब्रिज	95
ज्यू@@	95
मिड@@	95
एलार्म	95
AL@@	95
दृश्य@@	95
लौटें	95
निराशाजनक	95
सेक	95
जिए	95
à¤à¥à¤°@@	95
फुहार	95
यूएन@@	95
एरि@@	95
स्ट्रै@@	95
कोशिशों	95
कैट@@	95
ठहराता	95
फ्रास्ट्रक्चर	95
लप@@	95
प्लेटिनम	95
सले	95
कम्यूनि@@	95
हैरी	95
सीएस	95
भद्@@	95
तापीय	95
बात@@	95
वारा@@	95
एसटी	95
सर्वे@@	95
दूरबीन	95
100@@	95
झरने	95
मजे	95
नमस्कार	95
टप@@	95
चक्की	95
बीओ@@	95
KCharselect	95
unicode	95
शिष्ट@@	95
कम्यू@@	95
75@@	95
नरों	95
परायण	95
मेंढक	95
पश्चाताप	95
दीख	95
कॊ	95
सूरतें	95
बरामद	95
बलशाली	95
प्रभ@@	95
दरबारियों	95
पके	95
उठो	95
फटे	95
बितर	95
मसन@@	95
सूई	95
परदा@@	95
झूट	95
सलामत	95
खोना	95
असलियत	95
सित@@	95
गुड	95
दुस्@@	95
इये	95
ढालने	95
पाठ्य@@	95
आठवें	95
बहिन	95
सव	95
राजनेता	95
ट्यूमर	95
चयापचय	95
शाकाहारी	95
पट्टा@@	95
कुशा@@	95
२६@@	95
गोरखपुर	95
पऋ	95
प्रतिबंधों	95
छंदों	95
होटलों	95
कनी	95
टिड	95
रचयिता	95
निर्विवाद	95
प्रमोद	95
कॉमर्स	95
परिस्थि@@	95
औद्योगिकीकरण	95
तक्षशिला	95
ब्यो@@	95
अभिभावकों	95
असंतुष्ट	95
अपनायी	95
मेय	95
क्य@@	95
उपरि@@	95
अनुशासित	95
गाँवों	95
मारु@@	95
औपचारि@@	95
आबद्ध	95
जुटाना	95
सेमिनार	95
सशक्तिकरण	95
विदाई	95
ारना	95
देनों	95
रिएक्टरों	95
मानदण्ड	95
सीवन	95
बान्ड	95
कोडा@@	95
खेलें	94
हेल@@	94
शाखा@@	94
ारंभ	94
सेव	94
गानों	94
DA@@	94
रैखिक	94
cal	94
स्टाइ@@	94
सटीकता	94
नहींः	94
आकार@@	94
रूपण	94
बांग्@@	94
बजाना	94
माडल	94
निष्कासित	94
घोंसला	94
मूल्यह्रास	94
गैलन	94
ंं	94
à¤«à¤¼à¤¾à¤à¤²	94
à¤¸à¥à¤@@	94
à¤¸à¥à¤@@	94
à¤à¤°@@	94
à¤§@@	94
सीजी@@	94
ऊष्@@	94
पर्दा@@	94
इकाईयों	94
जुलता	94
बिया@@	94
नेको@@	94
स्ते@@	94
स्प	94
धनों	94
प्रै@@	94
नाई@@	94
निं@@	94
अया@@	94
मिल्@@	94
मैंग@@	94
द्री	94
अवे@@	94
संस्मरण	94
याम	94
13.@@	94
छुड़ा@@	94
पडे@@	94
फिरा	94
चाना	94
बुर@@	94
ढाया	94
उमड़	94
विमुख	94
ज़िन्@@	94
गिरे	94
सबा	94
प्रसन्न@@	94
प्य	94
बिछाया	94
ज़ियों	94
तिजारत	94
फर्ज़	94
हज़@@	94
दर्द@@	94
अदावत	94
इश	94
दुश्@@	94
खुशखबरी	94
वज़ह	94
शुदा	94
बुझा@@	94
झोपड़ी	94
बेची	94
अंतरात्मा	94
देशित	94
उज़्@@	94
प्राकार	94
अंतत	94
रत्ना@@	94
नियन्त्रित	94
नलिकाओं	94
सर्विसिज़	94
स्वतंत्र@@	94
वऋ	94
करियर	94
कारण@@	94
फतेहपुर	94
सीकरी	94
गुप्तचर	94
घोषणापत्र	94
पुनरी@@	94
तेल@@	94
आधुनिकता	94
गेंदबाजी	94
एलोरा	94
गणपति	94
अभिनेताओं	94
पितृ@@	94
चिता	94
सर्वसम्मति	94
उष्@@	94
मजूमदार	94
हतोत्साहित	94
सुध@@	94
निरंतरता	94
उपसभापति	94
पेंशन@@	94
1900	94
विषम@@	94
तोप@@	94
प्रवक्ता	94
बाबर	94
सम्यक	94
फैलता	94
नना	94
सीमावर्ती	94
अपेक्षाएं	94
खरीफ	94
12वीं	94
काबिल	94
पदेन	94
गुणात्मक	94
अनुराग	94
20वीं	94
पृथक्करण	94
बेंग@@	94
जिगर	94
झीलें	94
श्रृंखलाओं	94
हेमचन्द्र	94
जिका	94
उदीयमान	94
जोड़ती	94
अन्वे@@	94
हर्निया	94
स्विचन	94
बॉँ@@	94
विनिर्माता	94
4क	94
भोलू	94
क्षेञों	94
सीटी	93
सत्र@@	93
स्क्र@@	93
कमांडः	93
ser	93
विवरणः	93
स्कल	93
स्तरः	93
isofs	93
1.2	93
कैमरे	93
der	93
शेल्फ	93
खरीदारी	93
ks	93
amp	93
MSN	93
इसवां	93
फ्ल@@	93
भरता	93
प्रतिद्वंद्वी	93
चीर	93
इनि@@	93
धुंधला	93
रेन्@@	93
ग्रेनाइट	93
	93
¦	93
वाइड	93
बीजा@@	93
कम्प्यूटिंग	93
खुलता	93
वर्णनात्मक	93
दिखाकर	93
बेने@@	93
वृत्त@@	93
लैपटॉप	93
क्चर	93
व्यो@@	93
पें	93
सोडियम	93
आयोडीन	93
सफे@@	93
भाड़	93
खिया	93
ेन	93
एनआई@@	93
लतम	93
संबद्धता	93
बाट	93
बीएस	93
पारा	93
दश	93
750	93
स्तु	93
णो	93
ज़त	93
झगड़@@	93
आज़र	93
डोल	93
ज़ैतून	93
सुअर	93
मौक़ा	93
नौकाओं	93
उतारे	93
सुरा@@	93
उज्जवल	93
सम्मान@@	93
दसवें	93
कमरों	93
पाबंदी	93
ष्ठा@@	93
मुक़द्दस	93
बहुतेरों	93
नज़रों	93
जज्@@	93
झेलने	93
मरदूद	93
अा	93
ज़मी@@	93
टकरा	93
पै	93
जड़े	93
टीले	93
फोड़	93
फिसर	93
घुल	93
पुनरुद्धार	93
पहुंचाई	93
चतुष्कोण	93
फारस	93
आर्यों	93
भगवद्गीता	93
हिंदुत्व	93
मर्यादित	93
बंटवारे	93
अंतर्रा@@	93
ड़र	93
प्रचारक	93
हुगली	93
टवेयर	93
दयनीय	93
शनर	93
आख्या@@	93
अलीगढ़	93
योगिकी	93
ओम	93
कमजोरियों	93
रचनात्मकता	93
डिपार्टमेंट	93
दत	93
जबड़े	93
वता	93
व्याख्यानों	93
१९९०	93
मनाए	93
औजारों	93
मूल्यन	93
माड@@	93
विश्वविद्@@	93
रुके	93
सूचियों	93
सनी	93
सफलताओं	93
ब्रह्मपुत्र	93
स्वी	93
सरला	93
पीड़कों	93
पीड़ितों	93
बालिकाओं	93
यं	93
जमाकर्ता	93
सुनवार्इ	93
प्रत्‍येक	93
व्‍या@@	93
पीकरण	92
plu@@	92
फाउ@@	92
number	92
चव्वा	92
छ्@@	92
sh	92
process	92
डॉट	92
अनुक्रमणिका	92
हाशि@@	92
SL	92
लिखाः	92
द्वारा@@	92
bb@@	92
zilla	92
बांधने	92
बिट्स	92
न्ध	92
ON@@	92
दिना@@	92
डाकपेटी	92
व्यस्त@@	92
बढ़ाए	92
गोस	92
बुं@@	92
तिथि@@	92
स्विस	92
प्रग@@	92
ंटी	92
प्ता@@	92
व्स	92
माउन्ट	92
@@	92
§	92
स्टीफन	92
मंगोलिया	92
खोखला	92
इंट@@	92
हेरा@@	92
परिवार@@	92
ण्डी@@	92
अफ्रीका@@	92
चां@@	92
गुनी	92
हनु@@	92
स्टेम	92
मिने@@	92
स्पर्शी	92
EA@@	92
यूरे@@	92
निवृत्त	92
चिपका	92
चढा@@	92
प्रतिक्षा	92
सोद्देश्य	92
़ा@@	92
गूँगे	92
शर्म@@	92
निकट@@	92
मद्यपान	92
प्रशं@@	92
जनसमूह	92
पिलाते	92
दामन	92
खजू@@	92
हिमायती	92
झोक	92
गुज़रा	92
फेरने	92
खिले	92
नहरे	92
भागकर	92
भूसा	92
लुत्फ	92
खान@@	92
लुत्फ़	92
कबी@@	92
ख़ी@@	92
हॅसी	92
तफ@@	92
बुज़ुर्ग	92
तवक्@@	92
तरकीब	92
मुसा@@	92
म्बी	92
सानों	92
करवाई	92
बच्@@	92
मित्रा	92
बेचना	92
कोठरी	92
गंदी	92
ोर	92
तृष्णा	92
शोक@@	92
अधिका@@	92
भागीरथी	92
ढ़ता	92
नापुर	92
सौंदर्य@@	92
नरसिंह	92
जहांगीर	92
कुट	92
दुष्प्रभाव	92
ण्डे	92
खानपान	92
मिसाइल	92
नगा@@	92
ॄ@@	92
जनवादी	92
हार्वर्ड	92
प्रवासियों	92
एकजुटता	92
छत्रपति	92
उष्ण	92
कानी	92
परिवर्ती	92
पुर्तगालियों	92
बलुआ	92
भेड़ें	92
अत्@@	92
दुकानदार	92
णकारी	92
प्रतिरोधी	92
धिकारियों	92
कारना	92
अशक्त	92
1800	92
फहरा@@	92
पण्य	92
बागानों	92
पर्यवेक्षक	92
ल्यु@@	92
पर्यंत	92
पांडि@@	92
ँव	92
पीर	92
सत्यता	92
मक्खियां	92
निपटना	92
पार्श्@@	92
उक्ति	92
पथरी	92
महाप्रबंधक	92
वैश्व	92
हरिमोहिनी	92
संख्‍या	92
नरेन्‍द्र	92
उट	91
रेग@@	91
मेलबाक्स	91
rec@@	91
फो	91
जिटरी	91
at@@	91
For@@	91
आखरी	91
PA@@	91
बर्नर	91
चेकसम	91
वेबकैम	91
eb@@	91
तुल्यकालिक	91
window	91
बेनाम	91
log@@	91
उदा@@	91
विध@@	91
माप@@	91
फ़ोल्डर्स	91
ON	91
जानकारी@@	91
पताका	91
आयोजक	91
दिखाये	91
त्रित	91
ढ़ंग	91
येन	91
निपुणता	91
गाडी	91
कोला@@	91
पलटने	91
रबै@@	91
गूंज	91
ओपन@@	91
�\	91
सिग@@	91
करेंName	91
कास	91
जुलते	91
कोश@@	91
घम	91
नलों	91
लॉस	91
वाले@@	91
राजन@@	91
लीदार	91
कपाल	91
कारपोरेशन	91
सहज@@	91
आदतें	91
जाई	91
विज्ञा@@	91
इको@@	91
स्पष्टा	91
अकृतज्ञता	91
कृपाशील	91
कहनी	91
टोगे	91
पहुँचकर	91
बदल@@	91
झाना	91
ग़ल्ला	91
छिपने	91
हक@@	91
उड़ाए	91
दरियाओं	91
गिरकर	91
विघ्न	91
माद@@	91
बुलाना	91
रातें	91
परिणामतः	91
गोरी	91
झुठ@@	91
मस्जिदें	91
भौं@@	91
नात	91
दोज़@@	91
तल्@@	91
चुकने	91
बदबख्त	91
सब्ज़	91
बेहयाई	91
मग़रि@@	91
दीस	91
जलाल	91
भेदों	91
वारे	91
गोलियों	91
रवी@@	91
आंगन	91
कमिन्टर्न	91
दारियों	91
विष्णु@@	91
झिझक	91
त्थान	91
वफादार	91
मुक़्त	91
द्विवेदी	91
मिका	91
महलों	91
प्पन	91
कर्मचालय	91
मानन्द	91
ध्र	91
वात@@	91
मुक	91
गुम@@	91
इनमे	91
हास्यास्पद	91
कंत	91
करन	91
तापन	91
अच्यु@@	91
उदासी	91
आहार@@	91
शिथि@@	91
मंडपों	91
प्रतिरक्षण	91
बेंच	91
रूढि@@	91
ऐश्वर्@@	91
पांडु@@	91
उदघाटन	91
निरंकुश	91
थ्य	91
ब्लड	91
बासी	91
पर्यावर@@	91
काउं@@	91
हल्दी	91
रुग्णता	91
नूतन	91
षकों	91
1913	91
मार्केटिंग	91
कठपुतली	91
विसर्जन	91
नाना@@	91
सुधारवादी	91
124	91
विद्वता	91
संचयी	91
ख्यात	91
वर्णों	91
धिकृत	91
अनुगमन	91
हनन	91
उपादान	91
अस्थिभंग	91
संव्यवहारों	91
क्तिक	91
मि0	91
मंञ@@	91
बाङ्ला	91
खख	91
अन्वेषक	90
विचरण	90
par@@	90
int	90
बढ़ें	90
पुस्तचिह्न	90
मात्रा@@	90
फाइड	90
TP	90
CS@@	90
संचरित	90
रंगा	90
LA@@	90
La@@	90
दिखेगा	90
बर्ड	90
दोषः	90
आठ@@	90
टिया@@	90
मुलाका@@	90
समाप्@@	90
सारि@@	90
अदन	90
उत्तरा@@	90
छापे	90
sub@@	90
पाम	90
धीरज	90
अस्वी@@	90
ar	90
प्रकार@@	90
चींटी	90
ht@@	90
त्री@@	90
इंडो@@	90
ग्रो	90
चर्स	90
tri@@	90
प्रदर्श@@	90
शिय@@	90
इंतज़ार	90
बाइट्स	90
स्वीप	90
माल्@@	90
जु	90
सफल@@	90
वरे@@	90
अवांछित	90
बिस	90
लेट्स	90
pi	90
झटका	90
ख़ाली	90
जुलती	90
इच्छित	90
दर्शा	90
सूं@@	90
झंडे	90
सान्@@	90
अमा@@	90
बायो	90
न्यो@@	90
टिका@@	90
सोन	90
कैम्@@	90
अरो@@	90
ारस	90
दुर्भाग्यशाली	90
डेरा	90
कार्यस्थल	90
45@@	90
54@@	90
सिखाता	90
नमाज़ों	90
क़ब्ज़े	90
पलटेंगे	90
गन्दे	90
मर्यादाहीन	90
कहूँ	90
ख़ताओं	90
सूझता	90
क़ाफ़ि@@	90
मक़ाम	90
फ़रिश्@@	90
तौलो	90
देखनेवाला	90
हाना	90
उठाती	90
प्रदीप	90
ओझल	90
उठानी	90
सामर्थ्यों	90
पूर्णरूपेण	90
मुरादें	90
मुआवज़ा	90
बुर्जु@@	90
ग़मग़ीन	90
इन्सा@@	90
मुनाफिक़ीन	90
बीवियाँ	90
शिकस्त	90
जंगे	90
ग़रज	90
तमि@@	90
परवरदि@@	90
शहवत	90
मुक़र्रिब	90
मसलहत	90
इत्मिनान	90
ख्वाहॉ	90
मुवाफिक़	90
मख़लूकात	90
शरीकों	90
नीयत	90
जिन्होनें	90
रदार	90
ंदर	90
मेज़	90
पिंजरे	90
जननी	90
खेतिहर	90
मौसी	90
गंदा	90
पुनर्विलोकन	90
मुनाफे	90
बादामी	90
जनो@@	90
सुगठित	90
स्वरों	90
सुरे@@	90
सिद्धार्थ	90
आलोक	90
स्थानिय	90
स्पष्टतया	90
एंगी	90
आँक@@	90
वासुदेव	90
रजिस्ट्रेशन	90
लहरी	90
डऋ	90
प्रक्षेत्र	90
अपीलों	90
डाक्टरों	90
न्याया@@	90
संप्रदायों	90
४८	90
च्युत	90
भौतिक@@	90
संघर्षों	90
यथेष्ट	90
त्रिवे@@	90
धीकरण	90
दिक्@@	90
मेरु	90
बांधा	90
कार्यकुशलता	90
शूद्र	90
वाणि@@	90
धोना	90
नैनो	90
पंडि@@	90
उत्ते@@	90
परिणा@@	90
मिज़ोरम	90
आटा	90
संकल्@@	90
भावपूर्ण	90
बादाम	90
ष्ण@@	90
प्रत्यावर्तन	90
चंच@@	90
ऍन	90
देनदार	90
फ़@@	90
स्थार@@	90
नेमका	90
एमओईएफ	90
गांवो@@	90
विस्तार@@	89
that	89
खदान	89
लैया	89
पर्ल	89
CVS	89
अंजु@@	89
Ex@@	89
ry	89
शैलीः	89
मॉड्यू@@	89
DN	89
Ctrl	89
नार्वे	89
चाहिएः	89
एलएस	89
St@@	89
wi@@	89
जाँच@@	89
परः	89
चैन@@	89
Empathy	89
अंतहीन	89
होगाः	89
असफल@@	89
जंगम	89
धृत	89
अभिलेखित	89
डार्विन	89
पढ	89
टली	89
खोजों	89
sec@@	89
झप@@	89
लोमड़ी	89
फिरसे	89
वाचन	89
लडकी	89
फ़ोकस	89
काउ@@	89
अंडर@@	89
à¤¨à¥	89
à¤ªà¤¾à¤@@	89
पोर्ट@@	89
एमटी	89
पाइंट	89
अल्जीरिया	89
तंजानिया	89
त्रिभुज	89
समेंट	89
पसन्दीदा	89
वर्स	89
नेटिक	89
पार्टी@@	89
रत@@	89
घूमती	89
प्रसंगों	89
पैकिंग	89
उर	89
हथेली	89
तूफानी	89
क्टो@@	89
थर्@@	89
ैं	89
000@@	89
स्को	89
मीट्रिक	89
बूटी	89
टेदार	89
किताबवाले	89
गुणग्राहक	89
नौबत	89
अनुकूलता	89
खरीदार	89
सुस्ती	89
बनाएँगे	89
थोपा	89
छतों	89
स्थों	89
इख़तेयार	89
र्ज़	89
बेतु@@	89
यहया	89
रूकूउ	89
रिज़क़	89
ख़ुदाए	89
अलैकुम	89
बेख़ौफ	89
कुफ्फारों	89
वीरान	89
किरदार	89
ख़़ु@@	89
ढकी	89
जताया	89
सहना	89
जहरी@@	89
कपट@@	89
ताकी	89
डॉक्टरों	89
चौकी	89
चांदनी	89
टिस्ट	89
जऋ@@	89
बॉलीवुड	89
सनों	89
प्रासाद	89
हजरत	89
आलोचनात्मक	89
पग@@	89
पार्लिया@@	89
1916	89
स्थानान्तरण	89
ड़ै	89
सुस्त	89
शिखरों	89
उस्ताद	89
सुंदर@@	89
संकु@@	89
25,000	89
लरों	89
कोशिकीय	89
यशो@@	89
तोषजनक	89
लेश्वर	89
३४	89
आवृत	89
अभिषेक	89
साइं@@	89
आक्रमणों	89
फाल्@@	89
सेफ	89
उपनिवेशों	89
तमिलना@@	89
क्रूरता	89
ैया	89
अनिल	89
गाती	89
अंतराष्ट्रीय	89
रात्रि@@	89
बिता	89
सिद्धा@@	89
स्तू@@	89
रूढ़िवादी	89
सेन्ट	89
अशिक्षित	89
टक्कर	89
स्कीमों	89
कपडे	89
आर्थ@@	89
कहूंगा	89
स्थली	89
आनुवंशिकता	89
हाइड्रोकार्बन	89
निर्णयन	89
पांडुलिपि	89
हुं@@	89
परि	89
अंशतः	89
क्षत्रिय	89
त्मिक	89
जरूरतें	89
विचारणीय	89
पुष्पों	89
अस्पृश्यों	89
व्यवस्थाएं	89
सचिवों	89
संकीर्णता	89
पोर्टफोलियो	89
वधिक	89
केन्‍द्र	89
यॉ@@	88
बीयर	88
नेपो@@	88
हेड	88
जेस	88
बाई@@	88
अप्रयुक्त	88
1f	88
आरंभ@@	88
भर्@@	88
IM	88
बजानी	88
संदर्भों	88
199@@	88
सवां	88
AS@@	88
RSA	88
पहले@@	88
सौंपना	88
बताएँ	88
जावक	88
एनक्रिप्शन	88
ढूंढ़	88
सचे@@	88
निष्कर्षण	88
lz@@	88
अग्रगामी	88
आँसू	88
कजा@@	88
मुल	88
मते	88
पलटे	88
रूपया	88
सीएम@@	88
क्रु@@	88
à¤®à¥à¤@@	88
à¥	88
à¤¾à¤°à¥à¤@@	88
फ़ू@@	88
डीआर	88
तनु@@	88
प्लाज्मा	88
कलाकृति	88
बहुवचन	88
गुस्ता@@	88
अपो@@	88
मली	88
घर्षण	88
फ्रें@@	88
यालय@@	88
शैल@@	88
ख़े	88
आभा	88
स्पेक्ट्रम	88
गरी@@	88
व्युत्क्रम	88
समया@@	88
बूदार	88
उलझे	88
ंडन	88
पोस्टर	88
चुको	88
रहिए	88
क़ब्@@	88
स्वेच्छापूर्वक	88
केंगे	88
क़ौ@@	88
बन्धु@@	88
छेड़	88
फूला	88
अकारण	88
बेपरवाह	88
पेटों	88
खोई	88
स्रो@@	88
डराया	88
पस्त	88
बन्दो	88
दबी	88
विषै@@	88
जाड़े	88
गाँ@@	88
क्क़त	88
बदमा@@	88
चारपायों	88
रफीक़	88
गुनेहगारों	88
शॉ	88
ंकते	88
करतब	88
सुनायी	88
अभिमान	88
लगाती	88
खत	88
ढोने	88
वरा@@	88
जर्सी	88
दिवंगत	88
कदा@@	88
हालंकि	88
जुन	88
ओक	88
पितृवंश	88
ओडि@@	88
चौहान	88
विनिवेश	88
हैरानी	88
चलित	88
राजन	88
रेगिस्तानी	88
एयरो@@	88
सुदर्शन	88
भैंसों	88
डाइऑक्साइड	88
भक्षी	88
ओमान	88
ओड़ि@@	88
सफोर्ड	88
वेंचर	88
न्यूज़	88
वाहिकाओं	88
तेंडुलकर	88
भगो@@	88
कालिज	88
व्यतिक्रम	88
चुनौ@@	88
देवा@@	88
सांग	88
आस्थगित	88
मीय	88
अभियंता	88
नम्@@	88
परामर्श@@	88
उल्ला@@	88
विधिवत्	88
सूफ़ी	88
प्रविधि	88
आलिंगन	88
अंर्त@@	88
खार	88
विश्लेषणात्मक	88
स्थिरीकरण	88
जिह्वा	88
ठेका	88
पृष्ठांकन	88
प्रशुल्क	88
निराश्रितों	88
अर्थात्ः	88
िफर	88
सत्याग्रह@@	88
दिल्‍ली	88
आईबीएम	87
रियो@@	87
टूलबार	87
Dis@@	87
पोर्टः	87
सीरियल	87
इनबाक्स	87
शॉट	87
सुसंगतता	87
ee@@	87
क्लिप	87
फ़ॉन्ट्स	87
घटाएँ	87
अनुत्@@	87
cation	87
Cal@@	87
मेजबा@@	87
सिफर	87
जारीकर्ता	87
प्रारू@@	87
जारी@@	87
समादेश	87
पंद्र@@	87
कीरिंग	87
पीजी	87
नजरअंदाज	87
लेयर	87
रोस	87
ठहराना	87
यरिंग	87
स्तू	87
प्शन	87
देन@@	87
आईआई@@	87
वाकर	87
ओरि@@	87
à¤°à¤à¤	87
यमन	87
आका@@	87
मेयर	87
प्रमेय	87
मैथ@@	87
बहुतों	87
शीघ्र@@	87
जालस्थल	87
ल्यू	87
गों@@	87
ecuador	87
इग्@@	87
नान@@	87
उपग्रहों	87
फंसे	87
परिक	87
घोषणा@@	87
इंत@@	87
गीः	87
PRODUCT	87
रैंक	87
कैसेट	87
नमाज	87
उतारकर	87
विश्वासघाती	87
जकड़े	87
अन्दाज़	87
बरतने	87
सुयोग्य	87
याजूज	87
माजूज	87
आऊँ	87
अपव्यय	87
तड़के	87
टेढ़ी	87
दस्तूर	87
बाँधा	87
क़ुर@@	87
प्रहरी	87
खज़ा@@	87
प्रताप@@	87
बिरंगे	87
उन्नीस	87
सरित	87
अनपढ़	87
नसरानी	87
जानदार	87
इस्माईल	87
ग़ी@@	87
फिरने	87
हाजत	87
रूर	87
मोजि@@	87
सरासर	87
सूम	87
नफ़@@	87
जिरह	87
मिटटी	87
कादिर	87
टैक्सी	87
स्मृतियों	87
घृणित	87
बारूद	87
स्वास्थ	87
संबं@@	87
आश्@@	87
गुजरता	87
किशोरों	87
पवि@@	87
दालों	87
Giver	87
प्रेसिडेंसी	87
दासता	87
महासागरों	87
विधायकों	87
मल्ल	87
वासि@@	87
साहचर्य	87
क्षीय	87
शिल्पी	87
वेतन@@	87
परंपराएं	87
विषाद	87
कोंडा	87
अंधविश्वास	87
ब्राह्म@@	87
दुगुना	87
गोत्र	87
लाजिमी	87
ीयों	87
शऋ	87
कृषि@@	87
महाद्वीपों	87
पेचीदा	87
समाचारों	87
शेयर@@	87
परामर्शी	87
क्षाओं	87
झाड़ियों	87
आश्चर्यचकित	87
एंजाइम	87
गणतन्त्र	87
लैक्@@	87
अब्दु@@	87
हॉकी	87
धारणा@@	87
कम्	87
प्रजातंत्र	87
संकल्पों	87
सायं	87
अवसंरचनात्मक	87
वेत्ता	87
धृ@@	87
उनहोंने	87
सङ्@@	87
शल्य@@	87
राजे@@	87
ंता	87
रामानु@@	87
[...]
